{"<s>":0,"<pad>":1,"</s>":2,"<unk>":3,"<mask>":4,"!":5,"\"":6,"#":7,"$":8,"%":9,"&":10,"'":11,"(":12,")":13,"*":14,"+":15,",":16,"-":17,".":18,"/":19,"0":20,"1":21,"2":22,"3":23,"4":24,"5":25,"6":26,"7":27,"8":28,"9":29,":":30,";":31,"<":32,"=":33,">":34,"?":35,"@":36,"A":37,"B":38,"C":39,"D":40,"E":41,"F":42,"G":43,"H":44,"I":45,"J":46,"K":47,"L":48,"M":49,"N":50,"O":51,"P":52,"Q":53,"R":54,"S":55,"T":56,"U":57,"V":58,"W":59,"X":60,"Y":61,"Z":62,"[":63,"\\":64,"]":65,"^":66,"_":67,"`":68,"a":69,"b":70,"c":71,"d":72,"e":73,"f":74,"g":75,"h":76,"i":77,"j":78,"k":79,"l":80,"m":81,"n":82,"o":83,"p":84,"q":85,"r":86,"s":87,"t":88,"u":89,"v":90,"w":91,"x":92,"y":93,"z":94,"{":95,"|":96,"}":97,"~":98,"¡":99,"¢":100,"£":101,"¤":102,"¥":103,"¦":104,"§":105,"¨":106,"©":107,"ª":108,"«":109,"¬":110,"®":111,"¯":112,"°":113,"±":114,"²":115,"³":116,"´":117,"µ":118,"¶":119,"·":120,"¸":121,"¹":122,"º":123,"»":124,"¼":125,"½":126,"¾":127,"¿":128,"À":129,"Á":130,"Â":131,"Ã":132,"Ä":133,"Å":134,"Æ":135,"Ç":136,"È":137,"É":138,"Ê":139,"Ë":140,"Ì":141,"Í":142,"Î":143,"Ï":144,"Ð":145,"Ñ":146,"Ò":147,"Ó":148,"Ô":149,"Õ":150,"Ö":151,"×":152,"Ø":153,"Ù":154,"Ú":155,"Û":156,"Ü":157,"Ý":158,"Þ":159,"ß":160,"à":161,"á":162,"â":163,"ã":164,"ä":165,"å":166,"æ":167,"ç":168,"è":169,"é":170,"ê":171,"ë":172,"ì":173,"í":174,"î":175,"ï":176,"ð":177,"ñ":178,"ò":179,"ó":180,"ô":181,"õ":182,"ö":183,"÷":184,"ø":185,"ù":186,"ú":187,"û":188,"ü":189,"ý":190,"þ":191,"ÿ":192,"Ā":193,"ā":194,"Ă":195,"ă":196,"Ą":197,"ą":198,"Ć":199,"ć":200,"Ĉ":201,"ĉ":202,"Ċ":203,"ċ":204,"Č":205,"č":206,"Ď":207,"ď":208,"Đ":209,"đ":210,"Ē":211,"ē":212,"Ĕ":213,"ĕ":214,"Ė":215,"ė":216,"Ę":217,"ę":218,"Ě":219,"ě":220,"Ĝ":221,"ĝ":222,"Ğ":223,"ğ":224,"Ġ":225,"ġ":226,"Ģ":227,"ģ":228,"Ĥ":229,"ĥ":230,"Ħ":231,"ħ":232,"Ĩ":233,"ĩ":234,"Ī":235,"ī":236,"Ĭ":237,"ĭ":238,"Į":239,"į":240,"İ":241,"ı":242,"Ĳ":243,"ĳ":244,"Ĵ":245,"ĵ":246,"Ķ":247,"ķ":248,"ĸ":249,"Ĺ":250,"ĺ":251,"Ļ":252,"ļ":253,"Ľ":254,"ľ":255,"Ŀ":256,"ŀ":257,"Ł":258,"ł":259,"Ń":260,"Ð½":261,"Ð½Ð":262,"ĤÐ":263,"ÑĤÐ":264,"ÑĢ":265,"Ñģ":266,"ÑĢÐ":267,"Ð²":268,"Ð´":269,"Ð»":270,"Ðº":271,"Ð¿":272,"Ð²Ð":273,"Ð¼":274,"Ð½Ð°":275,"ÐºÐ":276,"Ð´Ð":277,"Ð»Ð":278,"ĠÑģ":279,"Ð·":280,"ĠÐ¿":281,"Ð¼Ð":282,"Ñı":283,"Ñĥ":284,"Ð½Ð¸":285,"ÑĤÐ°":286,"ÑĬ":287,"ÑĤÐ¾":288,"ĠÐ½Ð°":289,"ÑĤÐµ":290,"ÑĢÐ°":291,"Ð±":292,"Ð³":293,"Ñĩ":294,"Ð·Ð":295,"Ð²Ð°":296,"Ð½Ð¾":297,"ĠÐ´Ð":298,"ĠÑģÐ":299,"ÑĢÐµ":300,"ÐºÐ°":301,"ÐºÐ¾":302,"ÑĩÐ":303,"ĠÐ¿Ð":304,"Ð·Ð°":305,"Ð½Ðµ":306,"ÑĢÐ¸":307,"Ð³Ð":308,"ĠÑ":309,"ĠÐ²":310,"¾Ñ":311,"Ð»Ð¸":312,"Ð±Ð":313,"ÑĤÐ¸":314,"ĠÐ·Ð°":315,"ĠÐ¿Ð¾":316,"ĨÐ":317,"ÑģÐ":318,"Ð¶":319,"Ð¿Ð":320,"ÑĢÐ¾":321,"Ð»Ðµ":322,"ĠÐ´Ð°":323,"ÑĨÐ":324,"Ð¼Ðµ":325,"¾ÑĤ":326,"Ð¼Ð°":327,"ĠÑģÐµ":328,"ĠÐ":329,"ĠÐ¸":330,"ĠÐ¾":331,"ĠÐµ":332,"īÐ":333,"Ð²Ð¸":334,"Ð²Ðµ":335,"ÑĩÐµ":336,"Ð¹":337,"Ð»Ð°":338,"ÑĪ":339,"ĠÐºÐ¾":340,"ÐºÐ¸":341,"Ð²Ð¾":342,"ÑĨÐ¸":343,"Ð³Ð¾":344,"Ð´Ð¸":345,"ĠÐ¾ÑĤ":346,"²Ð":347,"Ð¶Ð":348,"ĠÐ½Ðµ":349,"ÑģÑ":350,"Ñħ":351,"ÑģÑĤ":352,"Ð¼Ð¸":353,"ÑīÐ":354,"Ð¼Ð¾":355,"Ð´Ð°":356,"Ð´Ðµ":357,"Ð»Ð¾":358,"ĠÐºÐ°":359,"ÑĤÐ²Ð":360,"ĠÐ¿ÑĢÐµ":361,"ĠÐ°":362,"ĠÐ±Ð":363,"ĦÐ":364,"ÑĪÐ":365,"ĠÐ´Ð¾":366,"Ð³Ð°":367,"ĠÐ¡":368,"ĠÐº":369,"ĿÐ":370,"ĠÐ¸Ð·":371,"ĠÐŁ":372,"ĠÑĢÐ°":373,"ÑģÐ¸":374,"ĠÐ´":375,"ĠÑģÑĬ":376,"ĠÑĤ":377,"ļÐ":378,"ĺÐ":379,"ĠÑĥ":380,"ÑģÑĤÐ²Ð":381,"Ð½Ð¸Ð":382,"Ð·Ð¸":383,"Ð¿Ð¾":384,"..":385,"Ð½Ð¸Ñı":386,"ľÐ":387,"ĠÑģÐ¸":388,"ĠÑģÐ°":389,"ĠÑĤÐ¾":390,"ĠÐ¿ÑĢÐ¾":391,"Ð½Ð¸Ðµ":392,"Ġ\"":393,"Ð¶Ðµ":394,"Ð½Ð¸ÑĤÐµ":395,"ĠÐ³Ð¾":396,"ÑĩÐ°":397,"¢Ð":398,"ÑģÐºÐ¸":399,"ĠÐĴ":400,"ÑĩÐ¸":401,"Ġ1":402,"ĠÐ¼":403,"ÑģÑĤÐ°":404,"ĠÐ±":405,"ÑħÐ":406,"ÑģÐµ":407,"ĠÐ³":408,"ĠÐĿÐ":409,"ĠÑĩÐµ":410,"ÑĢÑĥ":411,"Ð½Ð°ÑĤÐ°":412,"³Ð":413,"ÑģÑĤÐ¸":414,"ĠÐ¿ÑĢÐ¸":415,"ĠÐ¼Ð¾":416,"ÑĬÑĢÐ":417,"ĠÐĳ":418,"ĠÐ´Ðµ":419,"Ġ2":420,"ÑıÑ":421,"Ð³Ð¸":422,"ÑıÑĤ":423,"°ÑĤÐ°":424,"ĠÐĶ":425,"ÑĪÐµ":426,"Ð´Ð¾":427,"Ð¿Ð°":428,"īÐµ":429,"ºÐ":430,"¸ÑĤÐµ":431,"ĠÑĢÐ°Ð·":432,"ĠÑĤÐµ":433,"ÑĬÑ":434,"ÑģÐºÐ°":435,"łÐ":436,"ÑĬÑĢ":437,"Ð½Ñı":438,"ÑģÑĤÐ¾":439,"Ð½Ñ":440,"ĠÐĲ":441,"ĠÑĢÐµ":442,"ĠÐ½Ð¾":443,"ĠÐļÐ":444,"Ð»Ñĥ":445,"ĠÐ²Ð¾":446,"ĠÐľÐ":447,"ÑĬÑĤ":448,"ĠÐŁÐ":449,"ĠÐ¼Ðµ":450,"ĠÐ¢Ð":451,"Ð±Ð¾":452,"Ð²Ð°Ñ":453,"ĠÐ¼Ð°":454,"Ð±Ð¸":455,"ĠÐºÐ¾Ð":456,"Ð»Ñı":457,"ĠÑħ":458,"ĺÐ°":459,"Ð¿Ð¸":460,"ĠÐĺ":461,"Ð¿Ðµ":462,"Ġ-":463,"ÑĨÐ¸Ñı":464,"ĠÐ¾Ð±":465,"ĠÐ¼Ð¸":466,"ĠÑīÐµ":467,"ĠÐŀ":468,"´Ð":469,"ĠÐ¡Ð":470,"ĠÐ²Ð¸":471,"ÑĨÐ¸Ð":472,"Ð²Ð°Ð½Ðµ":473,"Ð»ÐµÐ´":474,"ĠÐ¿Ð°":475,"ĠÐ²ÑĬ":476,"ĠÑĤÐ°":477,"ĠÑĦÐ":478,"ĠÐĶÐ":479,"âĢ":480,"Ð±Ðµ":481,"ĠÐ±Ðµ":482,"ĠâĢ":483,"Ñİ":484,"ÑĤÐµÐ»":485,"¶Ð":486,"ĹÐ":487,"ÑģÐ¾":488,"ÑīÐ¾":489,"ÑĢÑĬ":490,"ĠâĢĵ":491,"Ð½Ð¾ÑģÑĤ":492,"ÑģÐ°":493,"ÑħÐ°":494,"ÑĬÐ»Ð":495,"¼Ð":496,"µÑĤÐ¾":497,"ÑģÑĤÐ²Ð¾":498,"ĠÐĴÐ":499,"ĠÐ¿ÑĢÐµÐ´":500,"ĠÐĳÐ":501,"Ð¶Ð¸":502,"ÑĦÐ":503,"³Ð°":504,"ĠÐ±Ð¸":505,"ĠÐ¸Ð¼Ð°":506,"ÑĢÑı":507,"ÑĺÐ°":508,"ĠÐ¾ÑĤÐ":509,"Ð²Ð°ÑĤ":510,"°Ñ":511,"00":512,"Ġ(":513,"ĠÐºÐ°ÑĤÐ¾":514,"ÐºÑĥ":515,"Ð½ÑĤ":516,"ĲÐ":517,"ĠÐ»Ð¸":518,"ĠÑħÐ":519,"ĠÐ½Ð¸":520,"ķÐ":521,"Ð·Ð½Ð°":522,"ĠÑģÑ":523,"µÐ½":524,"Ð¼ÐµÐ½":525,"ĠÑģÑĤ":526,"Ð±Ð°":527,"ĠÑģÐ¾":528,"ĠÐĹÐ":529,"±Ð":530,"ĠÐ½Ñı":531,"ĵÐ":532,"ĠÐºÐ¾Ð¸":533,"Ð³ÑĢÐ°":534,"ÑĢÐ¼Ð":535,"ĠÐ¿ÑĢÐ°":536,"ĠÑĤÐ¾Ð²Ð°":537,"°Ð»":538,"°ÑĤ":539,"ĠÐłÐ":540,"...":541,"ĠÐ²Ðµ":542,"ĽÐ":543,"¸Ð":544,"ĨÐµ":545,"ÑĢÐµÐ´":546,"Ð¶Ð´Ð°":547,"ĠÑģÑĤÐ°":548,"ĠÐ¾Ð´":549,"ÑĢÐ¸Ð":550,"Ð½Ð¾ÑĤÐ¾":551,"ÑīÐ¸":552,"Ð¿ÑĢÐ°":553,"01":554,"ÑĨÐ°":555,"ŀÐ":556,"ĠÐºÐ°Ðº":557,"ÑĥÐ²Ð°":558,"ÑīÐ°":559,"ÑĢÐ¸Ñı":560,"ÑĢÐ°Ñ":561,"ĠÐºÑĬ":562,"ĠÐ³Ð¾Ð´Ð¸":563,"ĠÑĪ":564,"ĠÐ¼Ð¾Ð¶Ðµ":565,"ĤÑĥ":566,"·Ð":567,"ÑĬÐ»":568,"ĠÐ¿Ð¾Ð´":569,"ĠÐºÐ¾Ð¸ÑĤÐ¾":570,"ĠÐķ":571,"ĠÐĹÐ°":572,"ĠÐŁÐ¾":573,"Ð»ÐºÐ¾":574,"ĠÐĿÐ°":575,"Ð»Ñİ":576,"Ð·Ð¾":577,"Ð½Ð´Ð":578,"Ð´Ñĥ":579,"Ñĺ":580,"ĠÐ¸Ð»Ð¸":581,"ĠÐ¢Ð¾":582,"ÑģÑĤÐµ":583,"ĠÐ¼Ñĥ":584,"ÑħÐ¾":585,"ÑģÐ½Ð¾":586,"ÐºÑ":587,"ÑīÐµ":588,"ĠÐµÐ´":589,"ÑĬÐ»Ð³Ð°":590,"ÑģÐºÐ¾":591,"ÐºÐ°ÑĤÐ°":592,"ÑĩÐºÐ¸":593,"ÐºÑĤÐ¸":594,"ĠÐ¼Ð½Ð¾":595,"ÑĪÐ¸":596,"Ġ3":597,"¡Ð":598,"Ð»ÐµÐ½":599,"ºÐ°":600,"ÑĢÐ¸ÑĤÐµ":601,"ĠÐ¾Ñ":602,"Ð·Ðµ":603,"Ð¶Ð°":604,"ĠÑĩ":605,"ĠÐĵÐ":606,"ĠÐ´ÑĢÑĥ":607,"ÑıÑĤÐ°":608,"ĠÐļÐ¾":609,"Ð½Ð¸ÐµÑĤÐ¾":610,"¶Ð°":611,"»Ð":612,"ĠÑĩÐ°":613,"ĠÑģÐ»ÐµÐ´":614,"ÑĢÐ°Ð½":615,"ĠÑģÐ°Ð¼Ð¾":616,"ĠÐļÐ°":617,"ĠÑĨÐµ":618,"ĠÐ¿Ðµ":619,"ÑģÑĤÐ²Ð°":620,"ÑĨÐµ":621,"ÑĢÐ¾Ñ":622,"ĠÐ»Ðµ":623,"ĠÐºÐ¾Ð¹":624,"ĠÐ±ÑĬ":625,"ÐºÑĤ":626,"Ð¿ÑĢÐµ":627,"ĠÐ²ÑĬÐ·":628,"ÑĢÐµÐ¼Ðµ":629,"ĠÐľÐ°":630,"³Ð¾":631,"\",":632,"ĠÑħÐ¾":633,"Ð½Ð¸ÑĨÐ¸":634,"Ð³Ñĥ":635,"ĠÐ½Ð°Ð¹":636,"ĠÐ¼Ð½Ð¾Ð³Ð¾":637,"ÑĩÐ½Ð¾":638,"Ð²Ñı":639,"ÑĬÑĢÐ²Ð":640,"ĠÑı":641,"ÑĤÑĥ":642,"ĠÐºÑĬÐ¼":643,"¾Ð½":644,"Ð»Ð¸ÑĤÐµ":645,"ĴÐ":646,"ĠÐ·":647,"ĠÐ¸Ð½":648,"Ð´Ð¸Ð½":649,"ÑģÑĤÐ²Ðµ":650,"ĠÐ²Ð°":651,"ĠÐ±Ð°":652,"ĠÐ¢":653,"ĠÐ³Ð¸":654,"ĠÑģÑĤÑĢÐ°":655,"ĠÐ³ÑĢÐ°":656,"¾Ð½Ð°":657,"ĠÑĦÐ¸":658,"Ð½ÑģÐºÐ¸":659,"ĠÐ¥":660,"ĠÐ²ÑģÐ¸":661,"ÑĢÐ°ÑĤÐ°":662,"ĠÐºÐ¾Ð¹ÑĤÐ¾":663,"Ð²Ð°ÑĤÐ°":664,"ĠÐ±Ð¾":665,"¸Ñı":666,"ĶÐ":667,"Ð´ÐµÐ½":668,"ĠÐļ":669,"ÑĢÑ":670,"¾Ð±":671,"ÑģÐºÐ°ÑĤÐ°":672,"ĠÑĤÐ¸":673,"Ð½Ð¸Ðº":674,"Ð²ÐµÐ½":675,"ĠÐĿÐµ":676,"ĠÑģÐ»Ñĥ":677,"ĠÑĤÑı":678,"ĠÑģÐ¿Ð¾":679,"ÑģÑĬ":680,"ĠÐ¶Ð¸":681,"Ð±Ð²Ð°":682,"ĠÐĽÐ":683,"ÑĢÐ¼Ð°":684,"ÑĢÐ°ÑĤ":685,"ĠÐ²ÑĢÐµÐ¼Ðµ":686,"ÑĢÐ²Ð":687,"ÐºÐµ":688,"ĠÐ½ÑıÐ¼Ð°":689,"ĠÐ´Ð¸":690,"Ð½ÐµÑĤÐ¾":691,"ĠÐ¿ÑĢÐµÐ·":692,"Ð½Ñĥ":693,"ĠÐ±ÐµÐ·":694,"ÑĤÐ¸ÑĤÐµ":695,"ŁÐ":696,"ÑĩÐ½Ð¸":697,"Ġ4":698,"ÑĢÑĤ":699,"ÑĢÑıÐ±Ð²Ð°":700,"ÑĤÐ²":701,"ĠÐ·Ð½Ð°":702,"Ð»Ð½Ð¾":703,"ĠÐºÑĥ":704,"ÑģÑĤÐ²Ð¾ÑĤÐ¾":705,"ĠÐºÐ¾ÐµÑĤÐ¾":706,"ĠÐ¸Ð¼":707,"Ð¿ÑĢÐ¾":708,"Ġ201":709,"ĠÑĥÑģ":710,"ĠÐ¿Ð»Ð°":711,"Ð»Ð½Ð¸":712,"¸Ð·":713,"ĠÐ¤":714,"Ġ5":715,"Ñī":716,"ĠÑĢÐ°Ð±Ð¾":717,"ÑĨÐ¸Ð¸":718,"ĠÐºÑĢÐ°":719,"ľÐµ":720,"ļÐµ":721,"ÐºÑĤÐ¾":722,"Ð²Ð°Ð½ÐµÑĤÐ¾":723,"Ð²Ð¸ÑĤÐµ":724,"Ð¿Ñĥ":725,"ÑĩÐ¾":726,"er":727,"ÑĢÑĤÐ¸":728,"ĠÐµÐ´Ð¸Ð½":729,"Ð´Ð¾Ð±":730,"ÑĬÑĢÐ¶Ð°":731,"Ð»Ð¸Ð":732,"§Ð":733,"ÑģÐ»ÐµÐ´":734,"ĠÑģÑĢÐµ":735,"ĠÐºÐ¾Ð¼":736,"ĠÑĤÑĢÑıÐ±Ð²Ð°":737,"ĠÑĪÐ":738,"Ð¸Ð·":739,"ÑıÑĤÐ¾":740,"\".":741,"ĠÐ½ÐµÐ³Ð¾":742,"ĠÑģÐ²Ð¾":743,"ĠÐ½ÑıÐºÐ¾":744,"ĠÐ¿Ð¾Ð²Ðµ":745,"ĠÑĤÐ°ÐºÐ°":746,"Ð¾Ð±":747,"Ð°ÑĤ":748,"ÑĨÐ¸ÑıÑĤÐ°":749,"ĠÐ£":750,"ĠÐ±ÑĬÐ´Ðµ":751,"Ð²ÑĢÐ¾":752,"ÐºÑĬ":753,"ĠÐºÐ¾ÑıÑĤÐ¾":754,"ÑĨ":755,"ĠÑģÐ²Ðµ":756,"ÑĩÐ½Ð°":757,"Ð²ÐµÑĤÐµ":758,"Ð¿ÑĬÐ»":759,"Ð½Ð¸ÑıÑ":760,"Ð½Ð¸ÑıÑĤ":761,"Ð²Ð½Ð¾":762,"Ð»Ð°Ð³Ð°":763,"ĠÑģÑĬÑģ":764,"ÑĬÐº":765,"ÐºÐ»Ñİ":766,"ÑĪÐ°":767,"ĠÑģÐ¼Ðµ":768,"¸Ðµ":769,"in":770,"ĠÑĢÐ¾":771,"ÑģÑĤÑĢÐ°":772,"ÑīÐ¾ÑĤÐ¾":773,"ĠÐ¿ÑĢÐ¾Ñ":774,"Ð´Ð°Ñ":775,"ÑĦÐ¸":776,"ĠÐ¿Ð¸":777,"Ð´Ð°ÑĤ":778,"ºÐ¸":779,"ĠÑĤÑĥ":780,"ĠÐ³Ð¾Ð´Ð¸Ð½Ð°":781,"ĠÐĳÑĬÐ»Ð³Ð°":782,"ÑģÑı":783,"ĠÐ²ÑģÐµ":784,"Ð»Ð°ÑĤÐ°":785,"¦Ð":786,"Ġ0":787,"ĠÐ´Ñĥ":788,"ĠÐ¾ÑīÐµ":789,"ÑĢÑģÐºÐ¸":790,"Ð¼ÐµÐ½ÑĤÐ°":791,"ºÐ¾":792,"Ð½Ð´":793,"ĠS":794,"µÑ":795,"ĠÑĨ":796,"ĠÐ²ÑģÐ¸ÑĩÐºÐ¸":797,"ÐºÐ²Ð°":798,"ĠÐ¥Ð":799,"ĠÐ¿ÑĢÐµÐ´Ð¸":800,"ĠÐ¾ÑģÑĤÐ°":801,"ĠÐĿÐ¾":802,"ĠÐ³Ð¾Ð´Ð¸Ð½Ð¸":803,"ĠÐĳÐ¾":804,"Ð¼Ð°ÑĤÐ°":805,"ĠÐłÐ°":806,"Ð´Ð½Ð¾":807,"Ð²ÑĤÐ¾":808,"Ð±ÑĢÐ°":809,"ĠÑĤÐ¾Ð·Ð¸":810,"Ġ19":811,"ÑĩÐµÐ½":812,"Ð´Ð¸ÑĤÐµ":813,"°Ð½":814,"Ð²ÑĬÑĢ":815,"ĠÐ¶Ðµ":816,"ĠÐ±ÐµÑĪÐµ":817,"ĠÐµÐ´Ð½Ð°":818,"ÑĢÐ³Ð°":819,"ĠÐ¿ÑĬÑĢÐ²Ð":820,"Ð³Ðµ":821,"ÑĢÐµÐ½":822,"ĠÐ¸Ð½ÑĤÐµ":823,"ĠÑĦÐ¾":824,"an":825,"°Ð»Ð¸":826,"Ð·Ð²Ð°":827,"ÑĺÐ":828,"ÑĤÐ²Ð¾":829,"ĠÑģÑĤÐ¾":830,"ÑĢÐ½Ð°":831,"Ð¸ÑĤÐµ":832,"on":833,"Ð³Ð°ÑĤÐ¾":834,"ÑĩÐµÑģÐºÐ¸":835,"Ð½Ð¸ÑıÑĤÐ°":836,"ÐĿÐ":837,"Ð½Ð¾Ð²":838,"Ð´ÑĢÐ°":839,"ÐºÑģ":840,"ĠÐ½Ð°Ð¿ÑĢÐ°":841,"ĠÐ¿ÑĢÐ°Ð²Ð¸":842,"Ð½Ðº":843,"ĠÐºÐ¾Ð½":844,"ĠÑĦ":845,"ÑĤÐ°ÑĤÐ°":846,"Ð»Ð¾Ð¶Ðµ":847,"ÐºÐ¸ÑĤÐµ":848,"ĠÐ´ÑĢÑĥÐ³Ð¸":849,"Ð²Ð½Ð¸":850,"ĠÐ°ÐºÐ¾":851,"Ð»Ð·":852,"ĠÐ³Ð»Ð°":853,"Ġ6":854,"Ð»Ð½Ð°":855,"ĠÐĵ":856,"ÑĢÐ°Ð·":857,"ÑĨÐ¸ÑĤÐµ":858,"ÑĢÐ°Ð½Ðµ":859,"Ð½Ð³":860,"Ð±Ð»Ð¸":861,"ÑĦÐµ":862,"Ð»Ð¾ÑĤÐ¾":863,"ĠÐ²ÑĬÐ²":864,"Ð½ÑĦÐ":865,"ÑĥÐ»":866,"ĠÐĳÑĬÐ»Ð³Ð°ÑĢÐ¸Ñı":867,"ĠÐ¤Ð":868,"Ð´Ð½Ð°":869,"ĠÑĺÐ°":870,"ar":871,"Ð½ÐµÑģ":872,"ĮÐ":873,"ĠÐĶÐ¾":874,"ÑĤÐµÐ½":875,"ĠÐľÐ¸":876,"Ð´ÑĬÐ»Ð":877,"201":878,"ĠÐ²ÐµÑĩÐµ":879,"ĠÐ·Ð°Ð¿Ð¾":880,"Ð¶Ð´Ñĥ":881,"ĠÑľÐµ":882,"ÑĩÐ¾Ð²Ðµ":883,"ĠÐ¢Ð¾Ð²Ð°":884,"ÑģÐ½Ð°":885,"en":886,"ĠÐŁÑĢÐµ":887,"ÑĢÐ´Ð":888,"ÑĢÐ°Ð´Ð¸":889,"ĠÐ¿Ð¾Ð²ÐµÑĩÐµ":890,"ĠÐ¢Ð°":891,"ĠÐ²Ð":892,"ĠÑĤÐ°Ð·Ð¸":893,"Ġ,":894,"±Ð¾":895,"ĠÑĪÑĤÐ¾":896,"ÑĦ":897,"ĠÐ¿Ð¾Ð»Ð¸":898,"Ð»Ð¸Ñı":899,"ĠÐ»":900,"....":901,"ĠÑģÐ¿Ðµ":902,"ĠÑĩÑĥ":903,"ĠÐĴÐ°":904,"Ð»ÐµÐ¼Ð¸":905,"ĠÐ´ÐµÐºÐ°":906,"ĠÐ½Ð°Ð´":907,"ĳÐ":908,"Ð³Ð½Ð°":909,"ÑĨÐ°ÑĤÐ°":910,"ĠÐ±ÑĬÐ»Ð³Ð°":911,"ĠÐ´Ð¾Ð±":912,"Ð½Ð¾ÑģÑĤÑĤÐ°":913,"ÐºÑĢÐ°":914,"Ð²ÑıÑĤ":915,"ĠÑĤÑĢÐµ":916,"ĠÐ§Ð":917,"ĠÐ¢Ðµ":918,"ĠC":919,"or":920,"ĠÐ¿Ñĥ":921,"ĠA":922,"µÑĤ":923,"ĠÑģÑĬÐ¼":924,"ĠÑģÑĥ":925,"Ġ20":926,"ĠÐ¡Ðµ":927,"ÑģÑĤÐ¾Ñı":928,"ĮÐ¾":929,"ĠÐ²ÑĬÑĢ":930,"ÑĢÑĤÐ°":931,"ĠÑĩÐ¾Ð²Ðµ":932,"ÑĤÐµÐ»Ð½Ð¾":933,"20":934,"ÑĢÐ½Ð¾":935,"ĠÑĤÐ¾Ð¹":936,"ĠÐºÐ°ÐºÑĤÐ¾":937,"ĠÐĴÐ¸":938,"Ð¾ÑĤ":939,"ÐµÑĤÐ¾":940,"ÑĬÐ½":941,"ĠÐĺÐ·":942,"ÑĢÐ½Ð¸":943,"ĠÐ¸ÑģÐºÐ°":944,"µÐ¼":945,"ĠÑĤÑıÑħ":946,"Ð¡":947,"ÑĩÐ²Ð°":948,"¾ÑĦÐ":949,"Ð³Ð°Ñ":950,"»Ð¸":951,"ĠÐľÐ¾":952,"ĠM":953,"Ġ10":954,"ĠÐ¿ÑĬÑĤ":955,"Ð²ÑĬÑĢÐ":956,"Ð³Ð°ÑĤ":957,"ĠÐłÐµ":958,"ĠÑĢÐ°Ð·Ð»Ð¸":959,"ĠÐĶÐ°":960,"ĠÐ¾ÐºÐ¾":961,"ĠÑģÑĤÐµ":962,"Ð¼Ð¾Ñ":963,"ĠÐ¿Ð¾Ð»Ñĥ":964,"Ð·Ð¸ÑĢÐ°":965,"Ġ...":966,"Ġ7":967,"ÑīÐ°ÑĤÐ°":968,"Ð»Ð¾Ð³Ð¸":969,"ĠÐ¿ÑĢÐµÐ´ÑģÑĤÐ°":970,"ĠÑĤÐµÐ·Ð¸":971,"Ð¿Ð¾Ð»Ð·":972,"ĠB":973,"ÑĢÐ³Ð":974,"Ð°Ð»":975,"ÑĩÐºÐ¾":976,"Ð¹ÑĤÐµ":977,"ÑģÐ»Ðµ":978,"ĠP":979,"Ð²Ð½Ð°":980,"ĠÑĦÐ°":981,"ĠÐ¼ÐµÐ¶Ð´Ñĥ":982,"ÑĢÐ¸Ð¾":983,"ĠÐŁÑĢÐ¾":984,"ĠÐľ":985,"Ð³Ð»Ðµ":986,"Ð¼ÐµÑ":987,"ĠÐ¦Ð":988,"µÐ¼Ð°":989,"es":990,"Ð¶Ð½Ð¾":991,"Ð¿ÑĢÐ¸":992,"±Ð°":993,"ĠÐ·Ðµ":994,"ĠÐ±Ñı":995,"Ð·Ð´Ð°":996,"at":997,"al":998,"Ð´Ð½Ð¸":999,"ĠÐºÐ¾Ð³Ð°ÑĤÐ¾":1000,"ĠÐ°Ð²ÑĤÐ¾":1001,"ÑĤÐ¸ÑĢÐ°":1002,"ĠÐºÐ°ÐºÐ²Ð¾":1003,"Ð½Ð´Ð¸":1004,"ÑĨÐ¸ÑĺÐ°":1005,"Ð²Ð°ÑļÐµ":1006,"Ġ8":1007,"ÑĢÐ¾Ð²":1008,"ĠÑĨÐ":1009,"ĠÐ¾ÑĢÐ³Ð°":1010,"ĠÐĴÐµ":1011,"ÑģÐ¿Ð¾":1012,"Ð¹ÑģÐºÐ¸":1013,"ĠÐ¿ÑĢÐ¾Ð¸Ð·":1014,"ÐĲ":1015,"ĠÐŁÐ°":1016,"Ð¼ÐµÑĤ":1017,"µÐ²":1018,"Ð¿Ð»Ð°":1019,"ĠÑĩÐ°ÑģÑĤ":1020,"¶Ð¸":1021,"ÐŁÐ":1022,"Ð¼ÐµÑĢÐ¸":1023,"ĠÐµÐ´Ð½Ð¾":1024,"ÐļÐ":1025,"ĠÑģÑĢÐµÐ´":1026,"ĠÐ¾ÑĤÐ½Ð¾":1027,"ĠÑĩÐ¸":1028,"ĠÑħÐ°":1029,"ĠÐ´ÐµÐ¹":1030,"Ð²Ð¾Ð´":1031,"ĠÐ´Ð¾ÑģÑĤÐ°":1032,"ÑģÑĥ":1033,"ĠÐ¾ÑģÐ½Ð¾":1034,"ĠÐ´ÑĬÑĢÐ¶Ð°":1035,"¾ÑĢÐ¼Ð°":1036,"ÑģÑĤÐ¸ÑĤÐµ":1037,"ĠÐł":1038,"ÑģÑĤÑĬ":1039,"Ð¼ÐµÑĢ":1040,"ĠÐ¨":1041,"ÑīÐ¸ÑĤÐµ":1042,"ĠÐ½Ð¾Ð²Ð¸":1043,"ĠN":1044,"ĠÐ·Ð°ÑīÐ¾ÑĤÐ¾":1045,"Ð»Ð¾Ð²":1046,").":1047,"·Ð°":1048,"ÑģÐ½Ð¸":1049,"ĠÐŁÑĢÐ¸":1050,"Ð´Ð°ÑĤÐ°":1051,"),":1052,"Ð³Ð»Ð°":1053,"Ð²ÐµÑ":1054,"Ð½ÑĤÐ¸":1055,"ĠÐĲÐºÐ¾":1056,"ĠÐ¾ÑĤÐº":1057,"Ð²Ð»Ðµ":1058,"ĠÐ¸Ð½ÑĦÐ":1059,"ÑģÐ»Ð°":1060,"Ð²Ð¾ÑĢ":1061,"ÐºÐ°Ð·Ð°":1062,"ĠÐ³Ð°":1063,"Ġ|":1064,"ÐĶÐ":1065,"ÑĩÐºÐ°":1066,"ĠÑĢÑĬ":1067,"Ð²Ð¾ÑĢÐ¸":1068,"ÐºÑģÐ¸":1069,"µÑĢ":1070,"Ð¼Ñĥ":1071,"Ġ9":1072,"ÑıÐ²Ð°":1073,"ÑĤÐºÐ°":1074,"ĠÐ¸Ð·Ð¿Ð¾Ð»Ð·":1075,"ĠÐ½Ð°ÑĩÐ¸":1076,"ÑģÑĤÑĢÐ¾":1077,"ĠÐ¡ÑĬ":1078,"ĪÐ":1079,"Ð¼ÐµÐ½ÑĤ":1080,"Ð²ÑĢÐ¸":1081,"ĠÐ¾Ð¿Ð¸":1082,"ÑģÐµÐ½":1083,"ĠÐ»Ð²":1084,"ĠI":1085,"Ð»Ð¾Ð²Ð¸":1086,"ĠÐ¾ÑĢÐ³Ð°Ð½Ð¸":1087,"µÐ»":1088,"ĠT":1089,"!!":1090,"Ð½Ð¸Ð¾ÑĤ":1091,"ĠÑħÐ¾ÑĢÐ°":1092,"ĠÐ¾Ð±Ðµ":1093,"Ð»ÑıÐ²Ð°":1094,"ĠÐ¼Ñı":1095,"ĠÑģÐ»ÑĥÑĩÐ°":1096,"Ð»Ð°Ð³Ð¾":1097,"Ġ200":1098,"Ð²ÐµÑĤ":1099,"Ð½Ð´Ð°":1100,"Ð±Ð¸ÑĢÐ°":1101,"Ġ/":1102,"it":1103,"Ð½Ð¸Ð¼Ð°":1104,"ÑĨÐ¸Ð¾Ð½Ð°":1105,"ĠÐ¿ÑĢÐ¾Ð±":1106,"ÑĤÐ²Ð°":1107,"ÑħÐ¼Ðµ":1108,"ÑģÐ¸Ñı":1109,"¾ÑĤÑĢÐµ":1110,"Ð¢Ð":1111,"ÐºÑĢÐ¸":1112,"Ð¼Ð¸ÑĤÐµ":1113,"ĠÐ¿Ð¾ÑģÐ»ÐµÐ´":1114,"ĠÐŀÑ":1115,"st":1116,"ĠÐ¡Ð°":1117,"ĠÐŀÑĤ":1118,"ĠÐ¸Ð³ÑĢÐ°":1119,"Ð¡Ð":1120,"ÐŁ":1121,"ÑħÐ¾Ð´":1122,"ĠÑħÐ¸":1123,"ÐºÐ¾Ð½Ð¾":1124,"ÑħÑĥ":1125,"ĠÑĤÐµÑħ":1126,"ĠÐĵÐµ":1127,"ÑģÐ¸Ð":1128,"Ð²Ð¾ÑĤ":1129,"ĠÑĤÑĢÐ¸":1130,"Ð½Ð¸ÑĨÐ¸ÑĤÐµ":1131,"ĠÐĳÐµ":1132,"ĠÐ¾Ð±Ð¸":1133,"ĠÑģÑĤÐ¸":1134,"ÑīÑĥ":1135,"Ð»Ð¸Ð·Ð°":1136,"ĠÐ²ÑĬÐ·Ð¼Ð¾":1137,"Ġ15":1138,"¶Ðµ":1139,"ĠÐºÐ°ÐºÐ¾":1140,"±Ð¸":1141,"ÑĢÐ°Ð½Ð¸":1142,"ĠÐĿÐ¸":1143,"ÑģÐºÐ¾ÑĤÐ¾":1144,"ĠÐ½Ð°Ñģ":1145,"ÑĢÐ¼Ð¸":1146,"ĠÐķÐ":1147,"ĠÐľÐµ":1148,"ĠÐķÐ²ÑĢÐ¾":1149,"¾ÑĨÐ":1150,"Ð½ÐµÐ½":1151,"ĠÑĦÑĥ":1152,"Ð²ÐµÐ´Ðµ":1153,"ĠÐ´Ð²Ð°":1154,"ĠÑģÐ¼":1155,"ĠÐ³Ðµ":1156,"ÑĢÐ°Ð±Ð¾":1157,"ĠÑģÑĬÑīÐ¾":1158,"ĠÐ¡Ð¸":1159,"ĠÐ¼ÑıÑģÑĤÐ¾":1160,"Ð´Ð¼Ð¸":1161,"ĠÐºÐ¸":1162,"Ð±Ð¾ÑĤ":1163,"Ð´Ð°Ð²Ð°":1164,"Ð¿ÑĢÐµÐ´Ðµ":1165,"ÐµÐ¼":1166,"ĠÐłÑĥ":1167,"ĠÐ¿Ð¾Ð»Ð¸ÑĤÐ¸":1168,"ĠÑģÐµÐ³Ð°":1169,"ĸÐ":1170,"ĠÐĶÐµ":1171,"ÐľÐ":1172,"Ð¹ÐºÐ¸":1173,"ÑĺÐ°ÑĤÐ°":1174,"»Ð°":1175,"ĠÐ´ÐµÐ½":1176,"ĠÑģÐ¸ÑģÑĤÐµ":1177,"ĠD":1178,"ĠÐ¾ÑĤÐ³Ð¾":1179,"Ð¶Ð¸ÑĤÐµ":1180,"ÑģÐ¸ÑĤÐµ":1181,"¿Ð":1182,"ĠÐ¾Ð±Ñı":1183,"ĠÐ¼ÐµÑģÐµ":1184,"ÑĤÐ¸Ð²":1185,"Ð²Ð¾ÑĤÐ¾":1186,"ÐºÑĢÐµ":1187,"Ð½Ð¸ÐºÐ°":1188,"Ð½ÐµÐ½Ð¸Ðµ":1189,"Ð²ÐºÐ°":1190,"ĠG":1191,"Ð½ÐºÐ°":1192,"ÑĦÐ¾":1193,"·Ð¸":1194,"ĠÐ½ÐµÑīÐ¾":1195,"©Ð":1196,"ĠÑĥÐ¿ÑĢÐ°":1197,"Ð½Ð¾Ð²Ðµ":1198,"ĠÑĥÑĩÐ°":1199,"ÑĢÐµÑģ":1200,"Ġ12":1201,"ÑĩÐ°Ð²Ð°":1202,"Ð´Ð¸Ð":1203,"ĠÐ·Ð°Ð":1204,"ÐºÑĥÐ²Ð°":1205,"ºÐ°ÑĤÐ°":1206,"Ð»Ð½Ð°ÑĤÐ°":1207,"ĠÐ²ÑĬÐ¿ÑĢÐ¾":1208,"bg":1209,"ĠÐĵÐ¾":1210,"¾Ñĺ":1211,"ĠÐ¿ÑĢÐ¾Ð":1212,"ĠÐ¸ÑģÑĤÐ¾":1213,"ĠÐ·Ð´ÑĢÐ°":1214,"ĠÐ²ÑģÐµÐºÐ¸":1215,"ÑĢÐ²Ð°":1216,"ĠÐ¾Ñģ":1217,"ĠÐ¼Ð¾Ð³Ð°ÑĤ":1218,"ÑĪÐ¸ÑĤÐµ":1219,"ÐłÐ":1220,"Ð¼Ð¸Ð½Ð°":1221,"ÐĳÐ":1222,"ĠÑĨÑı":1223,"ĠÐ¾Ð±Ð°":1224,"¾ÑĦÐ¸Ñı":1225,"Ð´ÑĬÑĢÐ¶Ð°":1226,"000":1227,"ÑĩÐµÐ½Ð¸Ðµ":1228,"Ð»Ð¾Ñ":1229,"ĠÐµÐ»Ðµ":1230,"om":1231,"ÐºÐµÐ´Ð¾":1232,"ic":1233,"ĠÐ½Ð°Ð¿ÑĢÐ°Ð²Ð¸":1234,"ĠÐĳÐ°":1235,"ĠÑĤÑĬ":1236,"ĠÐ¿ÑĢÐ¾Ð´ÑĬÐ»Ð":1237,"ĠÐ±Ñĥ":1238,"Ð´ÐµÐ»":1239,"ÐºÐ»ÑİÑĩÐ¸":1240,"ÑĪÐµÐ½Ð¸Ðµ":1241,"le":1242,"ÑĤÐ°Ñ":1243,"ĠÑĢÐ¸":1244,"ÑĨÐ¸Ð¾Ð½":1245,"ÐĴÐ":1246,"ĠÐ¿ÑĢÐ¾Ðµ":1247,"ÑĨÐ¸Ð°Ð»":1248,"ĠÐºÐ°Ð·Ð°":1249,"Ðĺ":1250,"ÑĢÐ´":1251,"ÐºÐ»Ð°":1252,"ĠÐµÐ²ÑĢÐ¾":1253,"ÑĤÐ¸Ð":1254,"Ð½ÑıÐ²Ð°":1255,"Ġ18":1256,"ÑĤÐµÐ»Ð¸":1257,"ĠÑģÑĬÐ·Ð´Ð°":1258,"ÑĤÐ²ÑĬÑĢÐ":1259,"ĠÐ´ÑĬÐ»Ð":1260,"ĠÑģÑĢÐµÑīÑĥ":1261,"ĠÐ±ÑĬÐ´Ð°ÑĤ":1262,"¾Ñħ":1263,"ĠÐ²Ð»Ð°":1264,"ĠÐ¶Ð¸Ð²Ð¾ÑĤ":1265,"ĠÐ²ÑĢÑĬ":1266,"ÑĢÐµÑĪ":1267,"ĠÐĶÐ¸":1268,"ĠÐĿ":1269,"ÑĤÐ°ÑĤ":1270,"ĠÐ¾ÐºÐ¾Ð»Ð¾":1271,"ĠÐ²ÑĬÑĢÑħÑĥ":1272,"ĠÐºÑĬÐ´Ðµ":1273,"ĠÐ¿ÑĢÐ¾ÑĨÐµ":1274,"ĠÐ»Ð°":1275,"Ð³Ð½Ðµ":1276,"ĠÑĤÐ¾Ð":1277,"ĠÐĴÐ¾":1278,"ĦÐµ":1279,"ĤÑĬ":1280,"ÑĤÑĬ":1281,"Ð½Ð²Ð":1282,"ÑĢÐ¸Ðµ":1283,"ĠÐ³ÑĢÑĥ":1284,"ÑĤÐ¾Ð²Ð°":1285,"Ġ11":1286,"ĠR":1287,"am":1288,"ĠÑĢÑĥ":1289,"Ð»ÑĬ":1290,"ĠÐ½Ð°ÑĩÐ¸Ð½":1291,"ĠÐ²ÑģÑı":1292,"ĠÐ¡Ð»ÐµÐ´":1293,"ĠÐ²ÑģÐ¸ÑĩÐºÐ¾":1294,"ĠÐ¿Ð¾ÐºÐ°":1295,"ĠÐ²Ð¸ÑģÐ¾":1296,"Ð¹Ð½Ð°":1297,"Ðŀ":1298,"ĠÐ¹":1299,"ĠÐ¿ÑĬ":1300,"ÑħÐ¸":1301,"ÑĤÐ¸Ñı":1302,"ĠÐ¸Ð½ÑĦÐ¾ÑĢÐ¼Ð°":1303,"ĠÑİ":1304,"ĠÑĢÐ°Ð±Ð¾ÑĤÐ°":1305,"ÑģÑĤÑĤÐ°":1306,"ĠÑĦÐ¸Ð½Ð°":1307,"ĠL":1308,"ĠÐ²ÑĤÐ¾":1309,"Ð»Ð½Ð¸ÑĤÐµ":1310,"Ġs":1311,"Ð±Ñĥ":1312,"Ð¿Ð»Ðµ":1313,"ĠÐ¡Ð¿Ð¾":1314,"ĠF":1315,"ÑĢÐ¸ÑģÑĤÐ¸":1316,"ĠE":1317,"ĠÐ¿ÑĢÐ¾Ð´Ñĥ":1318,"ro":1319,"ĠÐ¾Ð±Ð°ÑĩÐµ":1320,"el":1321,"ĠÑĤÐ¾Ð°":1322,"ÐºÐ¾Ð²":1323,"´Ðµ":1324,"ĦÐ¸":1325,"ĠÐºÐ»Ð°":1326,"ĠÑĢÐ°Ð±Ð¾ÑĤÐ¸":1327,"ĠÑĩÐ¾Ð²ÐµÐº":1328,"ĠÐ³Ð¾Ð»Ñı":1329,"ÑħÐ¾Ð´Ð¸":1330,"ÐµÐ½":1331,"ĠÐ¢Ð¾Ð¹":1332,"ĠÐ½ÑıÐºÐ¾Ð»ÐºÐ¾":1333,".,":1334,"ĠÐ¿Ð¾ÑģÑĤÐ°":1335,"ÐºÐ°ÑĤÐ¾":1336,"ĠÐłÐ°Ð·":1337,"ĠÑĢÐ°Ð·Ð²Ð¸":1338,"ĠÐ´Ð²Ðµ":1339,"ÑĩÐ°Ñ":1340,"Ð»ÐºÐ¾Ð²Ð°":1341,"Ð¼Ð²ÑĢÐ¸":1342,"Ġt":1343,"ÑĢÐ¾Ð´":1344,"ÑĢÐºÐ°":1345,"ÑĩÐ°ÑĤ":1346,"Ð½Ð¾Ð²Ð°":1347,"ĠÐ¼ÑĬ":1348,"ÑģÑĤÑĢÐ¸":1349,"Ð½Ð¸ÑĺÐ°":1350,"ĠÐºÐ¾Ð¼Ð¿Ð°":1351,"ĠÑĤÐµÐ»Ðµ":1352,"Ð²Ñĥ":1353,"Ð¿Ð¸ÑģÐ°":1354,"re":1355,"Ð¹Ð½":1356,"ÑĩÐ½Ð¸ÑĤÐµ":1357,"ĠÐ´Ð°Ð½":1358,"ĤÑĢÐ°":1359,"ÑĤÑĢÐ°":1360,"µÑģÑĤÐ¸":1361,"ĠÐ¡Ð¾ÑĦÐ¸Ñı":1362,"ĠÑģÑĤÑĢÐ°Ð½Ð°":1363,"Ð±Ð¸ÑĤÐµ":1364,"ÐºÑĤÐ¾ÑĢ":1365,"ĠÐŀÐ±":1366,"ĠÐºÑĢÐ¸":1367,"ĠÑĤÑĢÑĥ":1368,"Ð·ÑĥÐ»":1369,"·Ð¾":1370,"ĠÑĨÐ¸":1371,"ĠÐ½Ñĥ":1372,"ÑģÐºÐ¸ÑĤÐµ":1373,"ÐºÑĤÐ°":1374,"ĠÐ¼Ð¸Ð½Ð¸":1375,"ĠÐ¼Ð°Ð»":1376,"--":1377,"ĠÐĽ":1378,"__":1379,"ĠÐ¸Ð·Ð±Ð¾":1380,"ĠÐ»Ñİ":1381,"ĠÐ¼Ð°Ð¹":1382,"ĠÐ´Ð¾ÑĢÐ¸":1383,"ĠÐ¸Ð·Ð¿ÑĬÐ»":1384,"Ð²ÑĢÐµ":1385,"ĠÐ¿ÑĢÐ¸Ð":1386,"ĠÑīÐ":1387,"ÑĢÐµÐ·":1388,"°ÑĢÐ¸":1389,"ÑĪÐµÐ½":1390,"ĠH":1391,"Ð¼ÐµÐ½ÑĤÐ¸":1392,"ĠÐĹ":1393,"ÐºÑĤÑĥ":1394,"Ġ14":1395,"Ð´Ð¸ÑĪ":1396,"ĠÑĥÑĩÐµ":1397,"ĠÐ´Ð°Ð»Ð¸":1398,"ÑĢÐ¾ÑĤ":1399,"ÐºÐ²Ð¸":1400,"Ġ13":1401,"ĠÐ¿ÑĥÐ±Ð»Ð¸":1402,"ĠÐ¼Ð°Ð»ÐºÐ¾":1403,"ĠÐ¡ÑĤÐ°":1404,"¾Ð½Ð¸":1405,"Ð¿Ð¸ÑĤÐ°":1406,"Ð²Ð½Ð¸ÑĤÐµ":1407,"ĠÐ¾Ð¿ÑĢÐµÐ´Ðµ":1408,"Ð´Ð²Ð°":1409,"ĠÐ²Ð·Ð":1410,"Ð¼Ð°ÑĤÐ¸":1411,"ĠÑĥÑĩÐ¸":1412,"ÐºÐ¾Ð³Ð°":1413,"ĠÐ¸Ð¼Ðµ":1414,"ĠÑģÑĤÐ°Ð²Ð°":1415,"ĠÑħÐ¾ÑĢÐ°ÑĤÐ°":1416,"ÑĩÑĥ":1417,"ĠÐ±ÑıÑħÐ°":1418,"ĠÐ¿Ð¾Ð´Ð¾Ð±":1419,"ĠÐĴÑĬ":1420,"Ð½Ð°Ð»Ð¸":1421,"ÑģÑĤÐ²Ð¸Ðµ":1422,"Ġ16":1423,"ĠÐ°Ð·":1424,"ĠÑģÐ¿Ð°":1425,"ÑĢÐ°Ð½Ð°":1426,"¾ÑĨÐ¸Ð":1427,"ĠÐ¸Ð·Ð¿Ð¾Ð»Ð·Ð²Ð°":1428,"Ġp":1429,"ĠÑĢÐ°Ð±Ð¾ÑĤ":1430,"Ð´ÐµÐ":1431,"Ð¼Ð½Ð¾":1432,"ÑĮÐ¾":1433,"Ð½Ð°Ñ":1434,"ĠÐ±ÑĬÐ»Ð³Ð°ÑĢÑģÐºÐ¸":1435,"ĠÐĺÐ¼Ð°":1436,"ÑģÐµÐ´Ð°":1437,"ĠÐ¿Ð°Ðº":1438,"et":1439,"ĠÑĤÐ¾Ð»ÐºÐ¾Ð²Ð°":1440,"ĠÐŁÐµ":1441,"Ð³Ð°ÑĤÐ°":1442,"ĠÐ±Ð¸Ð»":1443,"Ð½Ð¸Ð¼":1444,"ÑĢÐºÐ¸":1445,"ĠÑĥÑģÐ¿Ðµ":1446,"ÑľÐ":1447,"Ð·Ð½Ð¸":1448,"ļÐµÑĤÐ¾":1449,"ÑĢÐ¸ÑıÑĤÐ°":1450,"ac":1451,"ĠÐ·Ð½Ð°Ð":1452,"ĠÑĨÐµÐ½ÑĤ":1453,"ĠÐ²Ð¸Ð´":1454,"ĲÐ¢Ð":1455,"19":1456,"Ð´ÐµÐ½Ð¸":1457,"Ġd":1458,"ÑĬÐ¼":1459,"ĠÐ¾Ð±ÑīÐ¸":1460,"Ġm":1461,"ĠÐ½Ð°Ñĺ":1462,"ĠÐºÑĢÑĬ":1463,"ĠÑĢÐµÐ·ÑĥÐ»":1464,"ĠÐ¼ÐµÐ½":1465,"10":1466,"ÑģÐ»Ñĥ":1467,"ÐºÐ¾Ð¹":1468,"Ð½Ð°ÑĤ":1469,"ÑĪÐ°ÑĤÐ°":1470,"ĠÐ¿Ð¾Ð":1471,"Ð»ÐµÐ´Ð°":1472,"ÑĤÐºÐ¸":1473,"ÑģÑĤÐ²":1474,"ĠÑģÐ¾Ð±":1475,"ĠÐ¸Ð¼Ð°Ñ":1476,"ĠÐ¸Ð¼Ð°ÑĤ":1477,"ÑıÐ²Ð¸":1478,"Ð¼ÐµÐ½Ð¸":1479,"ĤÐ½Ð¸":1480,"ÑĤÐ½Ð¸":1481,"ĠÐ¨Ð":1482,"ĠÑĢÐµÐ³Ð¸":1483,"ĠÐ©Ð":1484,"ĠÐ¼Ð¸Ñģ":1485,"ol":1486,"Ð»ÐµÐ¼":1487,"as":1488,"ĠÐ±ÑĢÐ¾":1489,"Ð¾Ð½":1490,"is":1491,"ÑĢÐµÐ´Ð¸":1492,"Ð¼Ð¾Ñī":1493,"ĠÐĽÐ¸":1494,"ĠÑģÑĬÐ¾Ð±":1495,"Ð·Ð¾Ð²Ð°":1496,"¾ÑĤÐ¾":1497,"ÑĤÐ¸Ðµ":1498,"ĠÐ±Ð»Ð¸":1499,"ĠÐ·Ð°Ðµ":1500,"ÑģÐº":1501,"ĠÐºÐ¾Ð»ÐºÐ¾":1502,"Ð½ÐµÑĤÐµ":1503,"Ð²Ð½Ð°ÑĤÐ°":1504,"ĠÐĸÐ":1505,"ĠÐ¿ÑĢÐ¾Ð³ÑĢÐ°":1506,"ĠÐ½Ð°Ñĥ":1507,"ÑģÐ¸Ð³Ñĥ":1508,"ÑĩÐ¸ÑĤÐµ":1509,"Ġ17":1510,"ÑĤÐ»Ð¸":1511,"ĠÐ¾ÑĤÐºÑĢÐ¸":1512,"ĠÐļÐ¸":1513,"Ð½ÑĤÐµ":1514,"Ð¼ÐµÐ½Ð½Ð¾":1515,"Ð¼ÐµÑĢÐ¸ÐºÐ°":1516,"ÑģÑĤÑĬÐ¿":1517,"ÑģÐ¾Ð±Ðµ":1518,"ĠÑģÐ²ÑĬÑĢÐ":1519,"he":1520,"Ġ30":1521,"Ð½Ð¾ÑģÑĤÐ¸":1522,"ĠÐ·Ð½Ð°Ðµ":1523,"ÑĢÐ°ÑĤÑĥ":1524,"ĠÐ¯":1525,"ĠÐ´Ð¾Ð¼Ð°":1526,"¼Ðµ":1527,"ĠÑģÐ»ÐµÐ´Ð²Ð°":1528,"ÑĢÐº":1529,"ÑģÑĤÑĬÑĢ":1530,"ĤÐ½Ð¾":1531,"ÑĤÐ½Ð¾":1532,"ĠÐ³ÑĢÐ°Ð´":1533,"ĠÐºÐ¾Ñĺ":1534,"ĠÐµÐºÑģ":1535,"Ð¢":1536,"ÑĤÐ¾ÑĢ":1537,"ÑĥÐ¼":1538,"ĠÐºÐ¾Ð»Ðµ":1539,"ÑĢÐ°Ðº":1540,"ĠÐ¼Ð¸Ð½Ð°":1541,"Ð¶Ð´Ð°Ð½Ðµ":1542,"ÐĹÐ":1543,"Ð³Ð°Ð²Ð°":1544,"Ð¼Ð¸Ñģ":1545,"ĠÐºÐ½Ð¸":1546,"ÐºÑĬÐ²":1547,"ÑĩÐµÑĤÐ°":1548,"ĠÑģÐ¸Ð³Ñĥ":1549,"ĠÐ¿ÑĢÐ¾ÑģÑĤÐ¾":1550,"ĠÐ¸Ð·Ð²Ðµ":1551,"ĠÐºÐ¾Ð½ÑĤ":1552,"ÑģÑĤÐ²ÐµÐ½Ð¾":1553,"ĠÐ¿ÑĢÐ¾Ð²Ðµ":1554,"ĠÑĤÐ°Ð¼":1555,"ÐºÐ°ÑĢ":1556,"ÑĢÐ³Ð¸":1557,"ĠÐ¼Ð»Ð°":1558,"ĠÐ½Ð°Ð":1559,"ĠV":1560,"ÑĥÐ²Ð°Ð°ÑĤ":1561,"ĠÐ¼ÐµÐ´Ð¸":1562,"ot":1563,"ĠÑĢÐ°Ð·Ð¿Ð¾":1564,"Ð³Ð»ÐµÐ´":1565,"ÐºÐ¾Ð½Ð¾Ð¼Ð¸":1566,"ĠÑĢÐ°Ð·Ð»Ð¸ÑĩÐ½Ð¸":1567,"il":1568,"Ð´Ð³Ð¾":1569,"Ð½Ð¾Ð²Ð¸":1570,"ĠÐ¢Ñĥ":1571,"ÑģÑĤÑĢÑĥ":1572,"ĠÑĤÑĥÐº":1573,"Ð¶Ð½Ð¾ÑģÑĤ":1574,"ĠÐ§Ðµ":1575,"ĠÑĦÐ¸Ð½Ð°Ð½":1576,"ĠÐ´Ð¸ÑĢÐµ":1577,"ĠÐĿÑı":1578,"ĠÐ¼Ð¸Ð»Ð¸Ð":1579,"ĠÐ¿Ð¾ÑĩÐ¸":1580,"ĠÐłÐ¾":1581,"ĠÐ¿ÑĢÐ¸ÑĩÐ¸":1582,"ĠÐľÐ°ÐºÐµÐ´Ð¾":1583,"ĠÐ½ÐµÑı":1584,"ĠÐ¿ÑĢÐµÐ´Ð»Ð°Ð³Ð°":1585,"ĠÐ¿Ð°Ð·Ð°":1586,"ĠÑĤÑĬÑĢÐ":1587,"ÑĨÐ¸Ð¸ÑĤÐµ":1588,"ĠÐ¿Ð¾ÑģÐ¾":1589,"ĠÐ¶Ð¸Ð²Ð¾":1590,"ĠÑĢÐµÐ":1591,"ĠÐ¾Ð±Ð»Ð°":1592,"Ð¼Ð¸ÑĢÐ°":1593,"Ð½Ð°Ð»":1594,"ĤÑĢÐ¸":1595,"ÑĤÑĢÐ¸":1596,"ĠÑĩÑĢÐµÐ·":1597,"Ð½ÑĤÐ°":1598,"ÐĴ":1599,"ĠÐºÑĬÐ´ÐµÑĤÐ¾":1600,"ĠÐ´Ð¾Ð±ÑĢÐµ":1601,"ĠW":1602,"Ġ:":1603,"Ġ.":1604,"¾ÑħÐ":1605,"Ð²Ð°Ð¼":1606,"ÑģÑĤÐ¸Ð½Ð°":1607,"ĠÐ½Ð°ÑĩÐ°":1608,"ĠÐ½ÐµÐ":1609,"Ð²Ð°Ð½":1610,"ÐºÐ¾Ñ":1611,"ĠÐ¿Ð¾Ð½Ðµ":1612,"ĠÐ±Ð»Ð°Ð³Ð¾":1613,"ĠÐ¿Ð°ÑĢÑĤÐ¸":1614,"ÐºÐ¾ÑĤ":1615,"ÑĩÐ°ÐºÐ²Ð°":1616,"ĠÑĤÑĢÐ°":1617,"ĠÐ¿Ð°ÑĢÐ¸":1618,"ĠÑģÐµÐ¼Ðµ":1619,"ĠÐ¿Ð¾ÑĤÑĢÐµ":1620,"ĠÑĦÐ¸Ð»":1621,"ÑĤÐµÑĢÐ¸Ð":1622,"ĠÐ´Ð²Ð¸":1623,"Ð»ÐºÑĥ":1624,"ĠÐ²ÑģÑıÐºÐ°":1625,"ĠÐĺÐ":1626,"ĠÐ½ÑıÐºÐ¾Ð":1627,"ÐĽÐ":1628,"ĲÐĿÐ":1629,"ĠÐļÐ°Ðº":1630,"ĠÐ¼Ð¾Ð¼ÐµÐ½ÑĤÐ°":1631,"ĠÐŁÑĢÐµÐ´":1632,"ĠÐ½Ð°Ð¼Ð°":1633,"ÑģÐ¾Ð²":1634,"ĠÐ¥Ð°":1635,"ĠÑĥÐ²Ðµ":1636,"Ð¼Ñı":1637,"ĠÐ¼Ð¸Ð½Ñĥ":1638,"ĠÐ¾Ð¿":1639,"Ð½ÐºÐ¾":1640,"ed":1641,"ĠÐ¡Ð¿Ð¾ÑĢÐµÐ´":1642,"ÑģÐ¿Ðµ":1643,"ĠÐºÐ°Ð·Ð²Ð°":1644,"±Ðµ":1645,"ĠÐ¡ÐĲÐ":1646,"ĠÑĤÑĬÑĢ":1647,"ĠÐ·Ð°ÑĢÐ°Ð´Ð¸":1648,"ĠÑĤÐ²ÑĬÑĢÐ":1649,"Ð¶Ð°ÑĤ":1650,"Ð²Ð¸ÑģÐ¸":1651,"ĠÐ¿ÑĢÐ°Ð²Ð¾":1652,"Ġn":1653,"ÑĩÐµÑĤÐ¾":1654,"ĠÑģÐ¾Ð±ÑģÑĤÐ²Ðµ":1655,"Ð½ÐºÐ¸":1656,"ķÐłÐ":1657,"ÑĩÐµÐ½Ð¸":1658,"Ð»ÐµÐ½Ð¸Ðµ":1659,"ĠÐĳÐ¸":1660,"Ð»Ð¾Ð¶Ð¸":1661,"ĠÐ¾Ð±ÑīÐµ":1662,"ĠÐ´Ð½Ð¸":1663,"ĠÐ´Ð¾Ð³Ð¾":1664,"ÑĢÐ¾ÑıÑĤ":1665,"ĠÐĳÑĥ":1666,"12":1667,"ÑĤÑĥÐ":1668,"ĠÑģÑĤÑĢÐ°Ð½Ð¸":1669,"ĠÐ¿Ð¾Ð·":1670,"ĠÑĨÐµÐ»":1671,"ĠÐµÐ»ÐµÐºÑĤ":1672,"ĠÐ³Ð¾Ð»ÐµÐ¼Ð¸":1673,"ĠÐ²Ð¾Ð´Ð°":1674,"ķÐĿÐ":1675,"ĠÐ±Ð¸Ð´Ðµ":1676,"ĠÐ»Ñĥ":1677,"Ð¶Ð½Ð¸":1678,"ÑĤÐºÐ¾":1679,"Ð½ÑĮÐ¾":1680,"ĠÐ³ÑĢ":1681,"Ð½ÑģÐºÐ°":1682,"ĠÐŁÑĢÐµÐ·":1683,"Ð¿ÐµÑĢÐ°":1684,"Ð²ÐµÑĢ":1685,"ĠÐ¿Ð¾ÑģÐµ":1686,"Ð²Ð¸Ñı":1687,"ĠÐ½Ð¸Ðµ":1688,"Ð»ÐµÑ":1689,"ĠÐºÐ¾Ð¼ÐµÐ½ÑĤÐ°":1690,"ĠNo":1691,"ĠÐ°ÐºÑĤÐ¸":1692,"Ġ25":1693,"Ð½Ð°Ð³Ð¸":1694,"ĠÑģÐ»Ð°":1695,"ĠÐ¿ÑĬÐº":1696,"ĠÐºÐ¾Ð½Ðº":1697,"Ð½ÑģÐºÐ°ÑĤÐ°":1698,"ÑĤÐ»Ð":1699,"Ð¼Ð¾Ð±Ð¸":1700,"Ð´Ð½Ðµ":1701,"ÑģÑĤÐ¸ÑĤÑĥ":1702,"ĠÐ½ÐµÐ¾Ð±":1703,"ĻÐ":1704,"ĠÑģÑĬÐ":1705,"ĠÑĩÐ°ÑģÐ°":1706,"ÑĤÐ¾Ñ":1707,"ĠÐ·Ð°Ð¿Ð°":1708,"ĠÐ¿ÐµÑĢÐ¸Ð¾":1709,"ÑĤÐ¾ÑĤ":1710,"ÑīÐ¸Ñı":1711,"ĠÐ½ÑıÐºÐ¾Ð¸":1712,"ĤÑĢÐ¾":1713,"ÑĤÑĢÐ¾":1714,"ĠÐºÑĥÐ»":1715,"ÐºÐ¾Ð½":1716,"Ð³ÐµÐ½":1717,"Ð»ÐµÑĤ":1718,"ĠÐ¸Ð·Ð¾":1719,"ÑĩÐ½Ð°ÑĤÐ°":1720,"ĠÑģÐ¿Ð¾ÑĢÐµÐ´":1721,"ÑĪÑĤÐµ":1722,"ĠÐ¼Ð»":1723,"Ð»ÐµÐ½Ð¾":1724,"Ð¶Ñĥ":1725,"ÑĩÐ¸ÑĤÐ°":1726,"ĠÑģÐµÐ±Ðµ":1727,"Ð³Ð»ÐµÐ¶Ð´Ð°":1728,"ĠÐ´Ð¾Ð¿ÑĬÐ»":1729,"µÐ½Ð¸":1730,"ÐºÑĨÐ¸Ñı":1731,"Ð»Ð¾Ð¶ÐµÐ½Ð¸Ðµ":1732,"ĠÐ²ÐºÐ»Ñİ":1733,"ÑĩÐµÐ²":1734,"ĠÐ´Ð½ÐµÑģ":1735,"Ð°ÑĢÐ¸":1736,"ĠÐ´ÐµÑĨÐ°":1737,"ÑĪÐ½Ð¾":1738,"ĠÐ±ÑĬÑĢÐ":1739,"ou":1740,"ra":1741,"ĠÐ»Ð¾":1742,"ĠÑģÐºÐ¾":1743,"Ð¼Ð¸Ð":1744,"ÐºÐ»ÑİÑĩÐ¸ÑĤÐµÐ»Ð½Ð¾":1745,"21":1746,"Ð¼Ð¾ÑĤ":1747,"Ð½ÑĨÐ¸":1748,"Ð½Ð³Ð":1749,"ĠÑģÐ¾ÑĨÐ¸Ð":1750,"ĠÑģÐ¿Ð¸":1751,"ĠÐ¢Ð°ÐºÐ°":1752,"Ð¶ÐµÐ½Ð¸Ðµ":1753,"ĠÐ¿Ð¾Ð´Ð°":1754,"ĠÐķÐ²ÑĢÐ¾Ð¿Ð°":1755,"ĠÐ¿ÑĬÑĤÐ¸":1756,"¸Ð°":1757,"ĠÐ¾Ð±ÑĢÐ°":1758,"ĠÐ½ÑıÐºÐ°":1759,"ĠÐ¾ÑģÐ¸Ð³Ñĥ":1760,"ÑĢÑĬÑĤ":1761,"ÑĤÐ¾Ð":1762,"ÑĤÐ¾Ð²":1763,"ĠÐ½ÑıÐºÐ¾Ð¹":1764,"ĠÐ²ÑĢÑĬÐ·":1765,"ĠÐ¶Ð¸Ð²Ðµ":1766,"ÑĤÐµÐ»Ð½Ð¸":1767,"Ð´ÐµÐ½ÑĤ":1768,"ĠÑħÑĥ":1769,"ºÐ¸ÑĤÐµ":1770,"ĺÐ¢Ð":1771,"ÑĦÐ°":1772,"ĠÐ¸Ð½ÑĦÐ¾ÑĢÐ¼Ð°ÑĨÐ¸Ñı":1773,"ÑĢÐ²":1774,"ĠÐ½Ð¸ÑīÐ¾":1775,"ĠÐ½ÐµÐºÐ¾":1776,"ĠÐ½ÐµÐ·Ð°":1777,"ÑĩÐµÑģÐºÐ°":1778,"ÑĢÐ¾Ð":1779,"Ðķ":1780,"Ð²ÑĬ":1781,".\"":1782,"ĤÑĢÑĥ":1783,"ÑĤÑĢÑĥ":1784,"ĠÐ´Ð¾ÐºÐ°ÑĤÐ¾":1785,"Ð½ÑĥÐ²Ð°":1786,"Ð²Ð¾Ñĺ":1787,"ÐĿÐ°":1788,"ĠÐ¿Ð¾Ð±Ðµ":1789,"ĠÑĩÑĥÐ²":1790,"ÑģÑĤÐ°Ð²":1791,"11":1792,"ÐºÐ¸Ð²Ð°":1793,"ÐºÑģÐ°":1794,"ĠÑģÐµÐ´Ð¼Ð¸":1795,"Ð»ÐµÐ½Ð¸":1796,"ĠÐ³Ð»ÐµÐ´Ð°":1797,"Ð¹Ð½Ð¾":1798,"ĠÐ¾ÑģÑĤÐ°Ð½Ð°":1799,"Ð¼Ð¿Ð¸":1800,"Ð¿ÐµÐ½":1801,"ch":1802,"ĠÐµÐ½Ðµ":1803,"Ð·ÐµÐ½":1804,"ĠÐ¿Ð¾ÑģÑĤÐ¸":1805,"ĠÐ½Ð°ÑĨÐ¸Ð¾Ð½Ð°":1806,"ĠÐ¡Ð¾":1807,"ĠÐµÑĦÐµ":1808,"Ð¿ÑĢÐµÐ´":1809,"ĠÐļÑĥ":1810,"Ðĳ":1811,"ĠÐ¿Ð¾ÑģÐ»Ðµ":1812,"ĠÑĦÐµ":1813,"ĠÐ´Ð°Ð²Ð°":1814,"ĠÐ¸ÐºÐ¾Ð½Ð¾Ð¼Ð¸":1815,"ĠÐ¸Ð·Ð²ÑĬÑĢ":1816,"ĠÑģÐ²ÐµÑĤÐ°":1817,"ĠÐ¦Ðµ":1818,"Ð¼Ð¿Ð°":1819,"ĠÐ·Ð°Ð¿Ð¾ÑĩÐ½Ð°":1820,"ĠÐ¿ÑĢÐ¾ÑĦÐµ":1821,"ĠÑģÐ¸ÑģÑĤÐµÐ¼Ð°":1822,"ĠÑĥÐ½Ð¸":1823,"ĠÐ¾ÑĦÐ¸":1824,"Ð´ÐµÐ»Ð¸":1825,"ĠÐ¥Ð¾":1826,"ĠÐ¾ÑĢÐ³Ð°Ð½Ð¸Ð·Ð°":1827,"ĠÐ®":1828,"ĠÑģÑĬÑīÐµ":1829,"30":1830,"ĠÐºÐ¾ÑĺÐ°":1831,"ĠO":1832,"ĠÐ¾ÑĨÐµ":1833,"ÐĶ":1834,"Ð´ÐµÐ½Ð°":1835,"ÑĤÐ¾ÑĢÐ¸":1836,"Ðļ":1837,"ĠÐ¿Ð¾Ñĩ":1838,"ĵÐ°":1839,"ÐŁÐ¾":1840,"ÑģÐ»Ð¾":1841,"ĠÐ¦":1842,"ĠÐ²Ð¸Ð¶Ð´Ð°":1843,"ĠÐ½ÐµÐ¾Ð±ÑħÐ¾Ð´Ð¸":1844,"ĠÐ¸Ð½Ð²Ð":1845,"ÑģÐ°ÑĤÐ°":1846,"ĠÐ¾ÑģÐ¾Ð±Ðµ":1847,"ÑĤÐ±Ð¾":1848,"ÑģÑĤÐµÐ½":1849,"ĠÐ·ÐµÐ¼":1850,"ĠÐ·Ð°ÑīÐ¸":1851,"Ð¿Ñı":1852,"Ð²ÐµÐ½Ð¸":1853,"ĠÐ·Ð°Ð´":1854,"ĠÐºÑĥÐ»ÑĤÑĥ":1855,"Ð´Ð¾Ð²Ðµ":1856,"ĠÐ±Ð¸Ð»Ð¾":1857,"Ġi":1858,"ÑĢÐ°Ð·Ð¸":1859,"ĠÐ¾Ð¿Ð°":1860,"Ġ100":1861,"ĠÐ¸Ð´Ðµ":1862,"ĠÑĤÐ¾ÑĩÐ½Ð¾":1863,"Ð³Ð¾Ð´Ð¸ÑĪ":1864,"Ð»Ð½Ð¸Ñı":1865,"Ð»ÑıÑĤ":1866,"Ð½Ð³Ð°":1867,"Ð½ÑģÐºÐ¸ÑĤÐµ":1868,"Ð¹Ð½Ð¸":1869,"ĠÐ²ÑĬÐ¿ÑĢÐ¾Ñģ":1870,"ĠÑģÑĬÐ¾":1871,"°ÑĢ":1872,"ĠÑģÑĤÐ°Ð½Ð°":1873,"ĠÑĤÑĢÐ°Ð½":1874,"ĠÑģÑĤÑĢÐ°Ð½Ð°ÑĤÐ°":1875,"ĠÑģÑĤÑĢÑĥ":1876,"Ð¿ÑĢÐµÐºÐ¸":1877,"ÑģÑĤÐ½Ð¸":1878,"ĠÑģÐ²Ð¾Ð¸ÑĤÐµ":1879,"ĤÑĬÑĢ":1880,"ÑĤÑĬÑĢ":1881,"ĠÐĿÐĲ":1882,"¡Ð¢Ð":1883,"ĠÐ¾ÑĤÐ½Ð¾Ð²Ð¾":1884,"ĠÐ¢Ñı":1885,"ĠÐ¿ÑĢÐ¾Ð±Ð»ÐµÐ¼Ð¸":1886,"ĠÐ²ÑĬÐ·ÑĢÐ°":1887,"ĠÑĪÐ°":1888,"ÑĢÐ»Ð°":1889,"Ð½Ð¸ÑĢÐ°":1890,"ĠÑĪÐµ":1891,"Ġ24":1892,"ÑģÐºÐ²Ð°":1893,"ĠÐĽÐ¾":1894,"ĠÑģÑĤÑĥ":1895,"ÑĨÐµÑĤÐ¾":1896,"ĠÐ´ÐµÑĤÐµ":1897,"ÑĢÑıÐ²Ð°":1898,"ŀÐĴÐ":1899,"ĠÐºÐ¾Ð³Ð°":1900,"ĠÐ°Ð²ÑĤÐ¾Ð¼Ð¾Ð±Ð¸":1901,"ĠÐ¿Ð¾Ð·Ð¸":1902,"ĠÐºÐ¾Ð½ÑĤÑĢÐ¾":1903,"ÑģÐºÐ¸Ñı":1904,"Ð½ÐµÑ":1905,"ĠÐ¾ÑĤÐºÐ°":1906,"ht":1907,"ÑĢÐºÐ¾":1908,"Ġ21":1909,"ÑģÐ²Ð°":1910,"ĠÐ²Ð½Ð¸Ð¼Ð°":1911,"50":1912,"Ġ[":1913,"Ð·Ð²Ð°ÑĤ":1914,"ÑľÐµ":1915,"ĠÐ¿Ð¾Ð´ÐºÑĢÐµ":1916,"Ð½Ð¾Ð»Ð¾Ð³Ð¸":1917,"ĠÐ±Ð¸Ð»Ð¸":1918,"ĠÐ´ÑĢÑĥÐ³Ð°":1919,"ĠÐ¸Ð·Ð¸":1920,"Ð²Ð»ÐµÐ½Ð¸Ðµ":1921,"ĠÑĤÑĬÐ¹":1922,"ĠÐľÐ¾Ð¶Ðµ":1923,"ĠÐ¿ÑĬÐ»":1924,"Ð·Ð²Ð¸":1925,"**":1926,"ĠÐ¸Ð½ÑĤÐµÑĢÐµ":1927,"Ġo":1928,"ļÐ°":1929,"ĠÐ´ÑĢÑĥÐ³":1930,"ĠÐ¸Ð·Ð´Ð°":1931,"Ġb":1932,"ÑĥÐ":1933,"ĠÑĤÐ°ÐºÐ¸Ð²Ð°":1934,"ĠÑĥÑģÐ»Ð¾Ð²Ð¸":1935,"ion":1936,"ĠÑħÑĢÐ°":1937,"ĠÐ½Ð°Ð¼Ðµ":1938,"ĠÐºÑĢÐ°Ñı":1939,"ĠÐ¸ÑģÑĤÐ¸":1940,"ĠÐºÐ°ÑĩÐµ":1941,"ĠÐ¿Ð¾Ñģ":1942,"ÑľÐ¸":1943,"Ð¿Ð»Ð¸":1944,"ĠÐ¾Ð²Ð°":1945,"ÐµÐ²":1946,"ĠÐĿÐ°Ð¹":1947,"Ð²Ð¸Ð´":1948,"Ð¶Ð½Ð°":1949,"Ð»ÐµÐ½Ð°":1950,"ĠÐ´Ð¾Ð±Ð°":1951,"µÐ½ÑĤÐ¸":1952,"Ð¼Ð½Ð¸":1953,"ÑĢÐµÐ½Ð¸":1954,"ĠÐ¸Ñģ":1955,"ĲÐłÐ":1956,"ĠÐ±Ð¸Ð·":1957,"Ð»ÐºÐ°":1958,"Ð²ÑıÐ²Ð°":1959,"ĠÐ¿Ð¾Ð»Ðµ":1960,"ĠÐ¿ÑĢÐ¸Ñı":1961,"¤Ð":1962,"ĠÑĥÑĩÐ¸Ð»Ð¸":1963,"ĠÐ·Ð°ÑīÐ¾":1964,"ĠÐ¼ÐµÑģÑĤÐ°":1965,"ĠÐ¶ÐµÐ»Ð°":1966,"ĠÑĥÑģÐ»Ñĥ":1967,"ĠÐ¾Ð³":1968,"ĠÐ¾ÑĤÐ¸":1969,"Ð¹Ð":1970,"Ð·Ð¸ÐºÐ°":1971,"ĠÐ¿ÑĢÐ¾Ð´Ð°":1972,"ÑĢÐ°Ð´":1973,"Ð½ÐµÑĤ":1974,"ĠÐ´Ð¾Ð±ÑĢÐ¾":1975,"ĠÐ¿Ð¾Ð»ÑĥÑĩÐ¸":1976,"Ð½ÐµÑģÐµ":1977,"ĠÐ¿Ð¾Ð·Ð½Ð°":1978,"ĠÐĿÐ¸ÐºÐ¾":1979,"Ð´Ð¾ÑģÑĤÐ°":1980,"ĤÐ½Ð°":1981,"ÑĤÐ½Ð°":1982,"Ð²Ð¸Ð":1983,"ÑĪÐ½Ð¸":1984,"Ġ22":1985,"Ð·Ð¸Ñı":1986,"ĠÐ²ÑĬÐ·Ð¼Ð¾Ð¶Ð½Ð¾":1987,"ÑĢÐµÐ½Ð¸Ðµ":1988,"Ð³Ð¾Ð»Ñı":1989,"ĠÐĵÐ°":1990,"ĠÐ·Ð°ÐµÐ´Ð½Ð¾":1991,"ia":1992,"Ð»Ð¾ÑĤ":1993,"ÑĪÐµÐ½Ð¸Ñı":1994,"Ð²Ð°Ð»Ð¸":1995,"ĠÐ¤Ð¸":1996,"Ġc":1997,"ĠÐĽÐµ":1998,"ĠÐ¾Ð±Ð¾":1999,"ĠÑĤÐ²Ð¾":2000,"ĠÐ¿ÑĢÐµÑ":2001,"Ð½Ð·Ð¸":2002,"ĠÑĦÑĥÐ½Ðº":2003,"........":2004,"Ð¥":2005,"Ð²Ð¾Ð´Ð¸":2006,"ĠÐ¾Ð±Ñĥ":2007,"Ð¿ÐµÐ¹ÑģÐºÐ¸":2008,"ĠÐ¿ÑĢÐµÑĤ":2009,"ĠÐ¡ÐĲÐ©":2010,"ww":2011,"ĠÐŁÐłÐ":2012,"ĠÐĻÐ":2013,"Ð¿Ð°ÑĤÐ°":2014,"Ġ000":2015,"Ð¶ÐµÐ½":2016,"ĠÐ³Ð¾Ð²Ð¾ÑĢÐ¸":2017,"Ð²Ð»ÑıÐ²Ð°":2018,"ĠÐ¿ÑĢÐ°ÐºÑĤÐ¸":2019,"id":2020,"Ð²Ð³":2021,"ÑĢÑģÐºÐ°ÑĤÐ°":2022,"ÑĢÑģÐºÐ°":2023,"ĠÐ¾ÑĤÐ´Ð":2024,"ÐĹÐ°":2025,"Ð´Ð¸Ð²":2026,"ĠÑĪÐ¸":2027,"ing":2028,"ĠÐ¶Ð¸Ð²Ð¾ÑĤÐ°":2029,"ĠÐ²Ð¸Ð½Ð°Ð³Ð¸":2030,"ÑĢÐ´Ð¸":2031,"ĺÐ¯":2032,"ĠÐŁÑĬÑĢÐ²Ð":2033,"ĠÐ½ÐµÐ¼Ð°":2034,"Ð³ÑĢÐ¸":2035,"ÑĤÐµÐ»ÑģÑĤÐ²Ð¾":2036,"ÑģÑĤÐ²Ð°ÑĤÐ°":2037,"ĠÐ´Ð¾ÐºÑĥ":2038,"Ð¼Ð½Ð°":2039,"ad":2040,"Ð¿Ð»Ð¾":2041,"ÑģÑĤÐµÑĢ":2042,"ov":2043,"¡ÐļÐ":2044,"ĠÐ¸Ð·Ð¿ÑĢÐ°":2045,"ĠÐ¿ÑĢÐ¾Ð¸Ð·Ð²Ð¾Ð´":2046,"ĠÐ¿Ð¾ÑĢÐ°Ð´Ð¸":2047,"ĠÐ¿ÑĢÐ¾ÑĤÐµ":2048,"Ð½ÐµÐ½Ð°":2049,"ÑĪÐºÐ¸":2050,"ĠÐ·Ð½Ð°ÑĩÐ¸":2051,"Ġ50":2052,"ĠÑģÐ²Ð¾Ð±Ð¾":2053,"±Ð°ÑĤÐ°":2054,"Ð·ÑĬÐ¼":2055,"ĠÑĢÐ°Ð·Ð±Ð¸ÑĢÐ°":2056,"ent":2057,"ĠÐ©Ðµ":2058,"ĠÐºÑĢÐ°Ð¹":2059,"oo":2060,"Ð²ÐµÐ´":2061,"ĠÐ½Ð°Ð»Ð¸":2062,"ÑģÐµÑ":2063,"ÑĺÐµ":2064,"µÐ¼Ðµ":2065,"ĠÐ¿ÑĢÐµÐ¿Ð¾":2066,"ĠÐ¿ÑĢÐ¸ÑģÑĬ":2067,"ÑĤÐ²ÐµÑĤ":2068,"ÑģÐµÐ³Ð°":2069,"ĠÐ¾ÑģÐ½Ð¾Ð²Ð°":2070,"ĠÐ´Ð°Ð´Ðµ":2071,"ĠÑĩÐµÑģÑĤÐ¾":2072,"ÑĦÐ¸ÐºÐ°":2073,"Ð»Ð¾Ð²Ð´Ð¸Ð²":2074,"ÑĤÐµÐ»Ð½Ð°":2075,"ĠÐ·Ð°Ð´ÑĬÐ»Ð":2076,"ÑĢÐ°ÑĤÐ¸":2077,"ĠÐ½Ð¸ÐºÐ°":2078,"ĠÑģÐ½Ð¸Ð¼":2079,"ĠÐ´ÑĬ":2080,"ĠÐ°Ðº":2081,"ĠÑģÑĬÐ²ÐµÑĤ":2082,"ĠÐ·Ð°Ð±ÑĢÐ°":2083,"ĠÐ¸Ð½Ð²ÐµÑģÑĤÐ¸":2084,"ĠÐ²Ñı":2085,"Ð²Ð°Ð¼Ðµ":2086,"Ð³Ð»ÐµÐ´Ð°":2087,"ĠÐ¾ÑĩÐ°ÐºÐ²Ð°":2088,"us":2089,"ÑĨÐ¸ÑĺÐ°ÑĤÐ°":2090,"ĠÐ´ÐµÑĨÐ°ÑĤÐ°":2091,"ĠÐ¡ÑĤÐ¾":2092,"Ð¼ÑĬ":2093,"¾ÑĦ":2094,"ÑĬÑĢÑ":2095,"ÑĢÐ¸ÑĤÐ°":2096,"ÑĬÑĢÑĤ":2097,"ÑĢÐ³":2098,"ĠÐºÐ»Ð¸":2099,"ĠÐ¢Ð¸":2100,"ÑĢÐ½Ð¾ÑģÑĤ":2101,"ĠÐ´ÑĢÑĥÐ³Ð¾":2102,"ĠÑģÐ²Ð¸":2103,"ĠÐ¿Ð¾Ð¼Ð¾Ñī":2104,"ĠÐ²ÑĢÐµÐ¼ÐµÑĤÐ¾":2105,"ÑģÐ½Ðµ":2106,"Ð³ÑĢÐ°Ð½Ð¸":2107,"ĠÐĴÑģÐ¸":2108,"ÑĤÐ°Ð¹":2109,"ĠÐ½ÐµÑīÐ°":2110,"ĠÑģÐ¸ÑĤÐµ":2111,"ÑģÑĤÑĢÐ¾Ð¹":2112,"ÐºÐ¾Ð²Ð°":2113,"ĠÐ³ÑĢÐ¸":2114,"Ð¼Ð±Ð¸":2115,"ĠÐ³ÑĢÐ°Ð¶Ð´Ð°":2116,"ĠÐ¼ÑĢÐµ":2117,"ĠÐľÐ½Ð¾":2118,"ĠÐ¼Ð¾Ð¶ÐµÑĤÐµ":2119,"ĠÐ±Ð¸Ð»Ð°":2120,"Ð¼Ð¸Ñı":2121,"Ð±Ð¾Ð²":2122,"ĠÐºÐ¾Ð»Ð¸":2123,"ĠÐ½Ð¸ÑĤÐ¾":2124,"Ð²ÐºÐ¸":2125,"ĠÐ¿Ð¾Ð·Ð²Ð¾":2126,"Ð¿ÑĤÐµ":2127,"ĠÐĲÐ·":2128,"ĠÐŀÑģ":2129,"Ð·Ð°ÑĤÐ°":2130,"iv":2131,"ĠK":2132,"ÑĪÐ¸Ñı":2133,"ĠÑģÐ»Ð¾":2134,"ĠÑĤÐ¾Ð³Ð°Ð²Ð°":2135,"ÑĤÐ¾Ð°":2136,"ĠÐ¾ÑĤÐ²Ð¾":2137,"ĠÐ¾ÑĤÐ±Ð¾":2138,"ĠÐĳÐ¾ÑĢÐ¸":2139,"ÑĨÐ¸Ð¾":2140,"ĠÐ¼Ð°ÑĤÐµÑĢÐ¸Ð":2141,"ĠÐ´Ð°Ð½Ð½Ð¸":2142,"ÑģÐµÑĤ":2143,"ĠÐºÐ°ÑĤÐµ":2144,"ĠÐ·Ð°Ð²ÑĬÑĢ":2145,"Ð·Ð¼Ð°":2146,"ĠÑģÑĬÐ±Ð¸":2147,"ÑĢÑıÑĤ":2148,"ÑīÐµÑĤÐ¾":2149,"ĠÐ¿Ð¾Ð´Ð³Ð¾":2150,"ĠÑĥÑģÑĤÐ°":2151,"ÑĢÐ¸ÑģÑĤÐ¾":2152,"ÑĥÑģÑĤ":2153,"ÑĢÐ°Ð»":2154,"ĠÐĵÐµÐ":2155,"ÑĪÑĤÐ¸":2156,"ĠÐľÐ°ÐºÐµÐ´Ð¾Ð½Ð¸ÑĺÐ°":2157,"ĠÑģÑĬÑģÑĤÐ¾Ñı":2158,"ĠÐ¿ÑĢÐ¾Ð´ÑĥÐºÑĤÐ¸":2159,"ĠÐ¿ÑĢÐ¾Ð±Ð»ÐµÐ¼":2160,"ĠÐ²ÑĬÑĤ":2161,"Ð½ÐµÐ²":2162,"ĠÐĵÐµÐ¾":2163,"ĠÑģÐ²Ð¾Ñı":2164,"ĠÐ¿ÑĢÐ¾Ð´ÑĬÐ»Ð¶Ð°":2165,"ÑĤÐµÐ»Ð¸ÑĤÐµ":2166,"Ġ23":2167,"ĠÐ¼Ð¸Ð½ÑĥÑĤÐ¸":2168,"ĠÐ¸Ð·Ð³ÑĢÐ°":2169,"ÑĩÐºÐ°ÑĤÐ°":2170,"ĠÑģÐ²ÑĬÑĢÐ·Ð°":2171,"ÑģÐµÐ´Ð°ÑĤÐµÐ»":2172,"ĠÐ¾ÑģÐ¾Ð±ÐµÐ½Ð¾":2173,"ĠÑģÐµÐ·Ð¾":2174,"ĠÐ¿Ð¾ÑģÐ»ÐµÐ´Ð½Ð¸ÑĤÐµ":2175,"ÑļÐµ":2176,"ÑĢÐ¸Ð¸":2177,"ĠÐºÐ»Ñĥ":2178,"200":2179,"ĠÐ°Ð¼ÐµÑĢÐ¸ÐºÐ°":2180,"Ð¿Ð¾ÑĤÑĢÐµ":2181,"ĠÐŁÐµÑĤ":2182,"Ð±Ð°ÑĤÐ°":2183,"ĠÐ¾ÑģÑĬ":2184,"Ð¶Ð¾":2185,"ĠÐ´ÐµÐ¹ÑģÑĤÐ²Ð":2186,"µÑĤÐ¸":2187,"Ð½ÑģÐºÐ¸Ñı":2188,"Ð¿ÐºÐ°":2189,"ĠÐĽÐ°":2190,"ÑģÑĤÐ¾Ð":2191,"ĠÐĴÐµÐ»Ð¸":2192,"ÑĢÐ°ÐºÑĤÐµ":2193,"Ð½Ð¾Ñ":2194,"ĠÑģÐºÐ°":2195,"Ð¶Ð´Ðµ":2196,"Ð½Ð¾ÑĤ":2197,"ĠÐĶÐ¸Ð¼Ð¸":2198,"ÑģÑĤÐ²ÐµÐ½Ð¸":2199,"ĠÑĤÑĬÑĢÐ³Ð¾":2200,"ĠÐ·Ð°ÑıÐ²Ð¸":2201,"Ð»Ð¸ÑĢÐ°":2202,"??":2203,"ÑģÐ¸Ð¾Ð½Ð°":2204,"ÑĪÐºÐ°":2205,"ÑıÐ²Ð°Ð½Ðµ":2206,"ĵÑĥ":2207,"Ð²ÐµÑĤÐ¾":2208,"µÐ½ÑĤÐ°":2209,"ĠÐ½Ð°Ð¸":2210,"Ð±ÐµÑĢÐµ":2211,"ÑĨÐ¸Ð°Ð»Ð¸":2212,"ĠÑģÐµÐ¼ÐµÐ¹":2213,"ĠÑģÑĤÐ°Ð½Ðµ":2214,"ĠÐ¿ÑĢÐµÐ´Ð¸Ð·Ð²Ð¸":2215,"Ð²Ð¾Ð»":2216,"ĠÑģÐ¿ÐµÑĨÐ¸Ð°Ð»":2217,"Ð¶Ð°ÑĤÐ°":2218,"ĠÑĥÐ²ÐµÐ»Ð¸":2219,"Ð´Ð¼Ð¸Ð½Ð¸":2220,"ĠÐ¿ÐµÑĢ":2221,"ĠÑģÐ¾ÑĨÐ¸Ð°Ð»":2222,"ÑĢÐµÐ½Ð°":2223,"Ġk":2224,"ĠÐ½Ð¾Ð²":2225,"ÐļÐ°":2226,"ĠÐ¿Ð¾Ð¼Ð¾":2227,"ĠÐºÐ¾Ð½ÑĨÐµ":2228,"ĠÐ¿ÑĬÑĢÐ²Ð¸":2229,"ĠÐ¾Ð±ÑĢÐ°Ð·Ð¾Ð²Ð°":2230,"ĠÐ¼ÐµÑģÐµÑĨÐ°":2231,"ĠÐ°Ð»":2232,"ÑĢÐ²Ðµ":2233,"ĠÑĤÑĢÑĬ":2234,"ÐĵÐ":2235,"ÑĢÐ¾ÑıÑĤÐ½Ð¾":2236,"ĠÐ¿ÑĢÐµÐ·Ð¸":2237,"ĠÐļÐ¾Ð³Ð°ÑĤÐ¾":2238,"ag":2239,"Ð»ÐµÐ·Ðµ":2240,"ĠÐ´ÐµÐ¼Ð¾":2241,"Ð³Ð¾Ð»ÐµÐ¼Ð¸":2242,"Ð»Ð¸Ðµ":2243,"ĠÑģÑĢÐ°":2244,"Ð¼Ð¿":2245,"Ð±ÐµÐ½":2246,"ĠÐ½Ð°ÑĩÐ°Ð»Ð¾ÑĤÐ¾":2247,"ĠÐ¼Ð½Ð¾Ð³Ñĥ":2248,"gt":2249,"Ð»Ð¾ÑĪÐ":2250,"Ð»ÐºÐ¾ÑĤÐ¾":2251,"Ġ2019":2252,"ÑĩÐµÐ»Ð¸":2253,"Ð¿ÑĢÐ¸Ð¼ÐµÑĢ":2254,"ĠÑģÐ¿":2255,"ĠÑĥÐ±Ð¸":2256,"ĠÑĩÐµÑĤÐ¸":2257,"ÑĢÐ¼Ð°ÑĤÐ°":2258,"ĠÑģÑĬÐ´":2259,"ĠÐ½ÐµÐ¾":2260,"ĠÐ²ÑĬÐ·Ð¼Ð¾Ð¶Ð½Ð¾ÑģÑĤ":2261,"ĠÐµÐºÐ¸":2262,"¾ÑĪ":2263,"ĠÐŁÐ¸":2264,"ĠÐ»ÐµÐ²Ð°":2265,"ĠÐ°Ð´":2266,"ÐļÐ¾":2267,"ĠÑĤÐµÑħÐ½Ð¾Ð»Ð¾Ð³Ð¸":2268,"ĠÐĴÑģÐµ":2269,"ĠÐ¿ÑĢÐ¾ÑĤÐ¸Ð²":2270,"ĠÑĢÑĬÐºÐ¾":2271,"Ð´Ð¼Ð¸Ð½Ð¸ÑģÑĤÑĢÐ°":2272,"Ð¶Ð±Ð°":2273,"ĠÐ½Ð¾Ð²Ð¾":2274,"ĠÑģÐºÐ¾ÑĢÐ¾":2275,"Ð¿ÐµÑĢ":2276,"Ð»Ð¾Ð³":2277,"ĠÐ´ÑĢÑĥÐ³Ð¸ÑĤÐµ":2278,"Ġe":2279,"ÑĢÐ¸ÑĺÐ°":2280,"ĠÐĿÑıÐ¼Ð°":2281,"ĠÐ¾Ð¿ÐµÑĢÐ°":2282,"ÑĤÑĥÐ°":2283,"ĠÐ¿Ð¾Ð²":2284,"ĠÑĤÑĢÐµÐ±Ð°":2285,"Ð²ÑĬÐ½":2286,"¶Ð¸ÑĤÐµ":2287,"ĠÐ½Ð°Ð¼Ð¸ÑĢÐ°":2288,"ĠÐºÐ¾Ð¼Ñĥ":2289,"ÑģÐµÐ¼":2290,"05":2291,"ĠÑģÐ¿ÑĢÐ°":2292,"ĠÐłÑĥÑģÐ¸Ñı":2293,"ĠÑıÑģÐ½Ð¾":2294,"ÐºÐ°Ð·Ð²Ð°":2295,"ĠÐ·Ð°Ð³Ñĥ":2296,"ĠÑģÐ²ÑıÑĤ":2297,"ĠÐ·Ð°Ð¿Ð¾Ñĩ":2298,"ĠÑģÐ»ÑĥÑĩÐ°Ð¹":2299,"ÑģÑĤÐ²ÐµÐ½":2300,"ĠÐ°ÑĢ":2301,"ĠÐ¿Ð¾Ð²Ð¸":2302,"Ð·Ð½Ð¾":2303,"ĠÐºÐ¾Ð¼Ð¸":2304,"ĠÐłÐ¸":2305,"ÑĤÐºÐ°ÑĤÐ°":2306,"Ð²Ð°ÑļÐµÑĤÐ¾":2307,"ĠÑĤÐµÐº":2308,"ŀÐłÐ":2309,"ÐºÑĬÐ´Ðµ":2310,"ĠU":2311,"ĠÐ¡Ð°Ð¼Ð¾":2312,"ĠÑģÐ²ÐµÑĤÐ¾":2313,"ĠÑģÑĬÐ¾ÑĤÐ²ÐµÑĤ":2314,"Ð³ÑĢÐµ":2315,"ĠÑģÐ°Ð¹":2316,"and":2317,"µÑĤÐµ":2318,"ĠÐ·Ð°ÑĤÐ²Ð¾":2319,"18":2320,"07":2321,"Ð½Ð¸Ð¸":2322,"Ð½ÐµÐ½Ð¸Ñı":2323,"ĠÐ¿ÑĢÐ¾Ð¼ÐµÐ½Ð¸":2324,"ÑĩÐ½Ð¾ÑģÑĤ":2325,"ĠÐļÐ°ÑĤÐ¾":2326,"Ð¼ÐµÐ½ÑĤÐ¸ÑĢÐ°":2327,"ÐºÐ»Ð¾":2328,"ĠÐ»Ð¸ÑĨÐµ":2329,"ĠÑīÐ°":2330,"03":2331,"Ð¼Ð°Ð³Ð°":2332,"Ð½Ð°ÑģÑı":2333,"Ð²ÐµÑĤÐ°":2334,"Ð¿ÑĬÐ»Ð½Ð¾":2335,"Ð´ÑĬ":2336,"ÑĤÐµÐ½Ð¸":2337,"ÑģÑĤÐ½Ð¾":2338,"Ð½Ð´Ðµ":2339,"Ð²ÑģÐºÐ¸":2340,"ĠÐºÑĢÐµ":2341,"ĠÐ¿ÑĢÐ¸ÐµÐ¼Ð°":2342,"ĠÐ¿ÑĢÐ¾ÑĤÐ¸":2343,"ÐºÐ¾Ð":2344,"ÑĤÐ¸Ð½":2345,"ÑĢÐ¶Ð°":2346,"ĠÐ³ÑĢÑĥÐ¿Ð°":2347,"ÑĤÐ¾ÑĤÐ¾":2348,"Ð·Ð¸Ðº":2349,"ĠÑĢÐµÑĪÐµÐ½Ð¸Ðµ":2350,"ĠÐķÐ¡":2351,"ĠÐ½Ð°ÑĢÐµ":2352,"ÑģÑĤÐ²ÑĥÐ²Ð°":2353,"ĠÐ¿ÑĢÐµÐ´Ð°":2354,"ĠÐ³Ñĥ":2355,"Ð½ÐµÐ½Ð¸":2356,"06":2357,"ÑģÑĤÐ¸Ð":2358,"Ð´ÐµÐ¾":2359,"ÑĤÐ¸ÐµÑĤÐ¾":2360,"ÑĩÐ½Ð¸Ñı":2361,"ÑģÑĤÐ°Ð½":2362,"Ð¶Ð°Ð²Ð°":2363,"ÑģÑıÑĤ":2364,"un":2365,"ĠÐĲÐ»Ðµ":2366,"ĠÐ¿ÑĢÐµÐ´Ð¿Ð¾":2367,"Ð´ÐµÐ¹":2368,"ĠÐ²ÐµÐ»Ð¸":2369,"ÑģÑĤÑĢÐ°Ð½":2370,"ĠÐ½ÐµÐ¿Ð¾":2371,"ĠÐ¿Ð¾ÑĩÑĤÐ¸":2372,"ĠÑģÑĬÐ´ÑĬÑĢÐ¶Ð°":2373,"¾ÑĦÐ¸":2374,"ĤÑĢÐµ":2375,"ÑĤÑĢÐµ":2376,"ĠÐĻÐ¾":2377,"ÑĪÐµÑĤÐ¾":2378,"ĠÑĢÐ°Ð¼":2379,"ĠÐ¾ÑĤÐ´Ðµ":2380,"ÑĢÐ°Ð½Ð¾":2381,"ĠÐ¿Ð»Ð¾":2382,"ÑĢÑĬÑīÐ°":2383,"°Ñĺ":2384,"Ð±Ð½Ð¾":2385,"ĠÐµÐ»ÐµÐºÑĤÑĢÐ¾":2386,"ĠÑģÐµÑĢÐ¸Ð¾":2387,"Ð¼ÐµÐ½Ð°":2388,"ĠÐ´Ð²ÐµÑĤÐµ":2389,"ÑĪÑĤÐ¾":2390,"ĠÐŁÑĥ":2391,"ĠÐºÐ°Ð½Ð´Ð¸":2392,"ĠÐ¿ÑĢÐ¸Ð·Ð½Ð°":2393,"Ð»Ð°Ð½":2394,"ĠÐ¼Ð¾Ð¼ÐµÐ½ÑĤ":2395,"ĠÐ½ÑĥÐ¶Ð´Ð°":2396,"ÑĢÐ½Ð°ÑĤÐ°":2397,"02":2398,"ĠÐ²Ð°Ñģ":2399,"ÑĢÑģ":2400,"____":2401,"ÑģÑĤÐ²ÐµÐ½Ð°":2402,"ĠÑģÑĬÐ²":2403,"Ð½Ð¾Ñģ":2404,"ĠÑģÐ¼ÑıÑĤÐ°":2405,"ĠÐ´ÑĢÐµ":2406,"ĠÐ¾ÑĤÐ¿":2407,"ÑĢÐ´Ð°":2408,"ĠÐ¾Ð±Ð²Ð¸":2409,"ĠÐľÐ½Ð¾Ð³Ð¾":2410,"ĠÐ¼ÐµÑģÐµÑĨ":2411,"Ð»ÑĬÐ½":2412,"ĠÐ¿Ð¸ÑĪÐµ":2413,"ķÐ¢Ð":2414,"ĠÐ¿ÑĢÐµÐ´ÑģÑĤÐ°Ð²Ð¸":2415,"ĠÐ·Ð¾":2416,"ĠÐ¾ÑĤÐ³Ð¾Ð²Ð¾ÑĢ":2417,"ĠÐ±Ð»Ð¸Ð·Ð¾":2418,"ĠÐ¸Ð·ÐºÑĥ":2419,"ĠÐ·Ð°Ð¿Ð»Ð°":2420,"Ð»Ð½Ð¾ÑĤÐ¾":2421,"04":2422,"ĠÐ´Ð¸Ñģ":2423,"ĠÐºÐ°Ð¶Ðµ":2424,"ĺÐĿÐ":2425,"ĠÐ´ÐµÑ":2426,"09":2427,"ĠÐ´ÐµÑĤ":2428,"ĠÐ½Ð°ÑģÐµ":2429,"ĠÐºÐ¾Ð½ÐºÑĥ":2430,"ĠâĢ¢":2431,"ĠÐ¿Ð¾Ð´ÑħÐ¾Ð´":2432,"Ġv":2433,"ÑĢÐ¼Ð°Ð»":2434,"ĠÐ£Ð":2435,"----":2436,"ĠÐ¸Ð½ÑģÑĤÐ¸ÑĤÑĥ":2437,"ĠÑĨÐµÐ½Ð°":2438,"Ð¼Ð°Ð½":2439,"ĠÐ¿Ð¾ÑĤÑĢÐµÐ±Ð¸ÑĤÐµ":2440,"Ð½Ð¸ÑĨÐ°":2441,"ĠÐ´Ð¾Ð±Ð¸":2442,"ÑģÑĤÐ¸Ðµ":2443,"Ð´Ñı":2444,"ĠÐ¿ÐµÑ":2445,"ĠÐ¿ÐµÑĤ":2446,"ĠÐ±Ñİ":2447,"ÑĢÐ±Ð°":2448,"ÑĢÐ¸ÑĤÐ¾":2449,"ul":2450,"ÑĢÐ¾Ðº":2451,"Ð²ÐµÐ½Ð°":2452,"ĠÐºÐ¾Ð¼ÐµÐ½ÑĤÐ°ÑĢ":2453,"ÑĢÑĤÐ¾":2454,"Ð¿Ð°ÑĢÑĤÐ°":2455,"ĠÐ¼Ð¾Ð´Ðµ":2456,"Ð²Ð¸ÑģÐ¸Ð¼Ð¾":2457,"ĠÐ½Ð°ÑĪÐ¸ÑĤÐµ":2458,"ĠÐ²ÑĢÑĬÐ·ÐºÐ°":2459,"ĠÐŀÑĤÐ":2460,"ÑĨÐ¸Ð°":2461,"ĠÐĳÐ»Ð°Ð³Ð¾":2462,"ĠÐ²Ð¸Ð´Ð¸":2463,"ĠÐ²Ð¾Ð´Ð¸":2464,"ĠÐ½Ð°Ð³ÑĢÐ°":2465,"ĠÐ±Ð¸Ð·Ð½ÐµÑģ":2466,"ĠÐŁÑĢÐ°":2467,"ĠÑģÐ»Ðµ":2468,"ĠÑĦÑĥÑĤÐ±Ð¾":2469,"ĠÐ¼Ð»Ð½":2470,"Ġ199":2471,"ĠÐĶÑĢÑĥ":2472,"ĠÑĢÐµÐ°Ð»":2473,"ÑĢÐ¾Ð²Ð°":2474,"ĠÑģÐ¸ÑĤÑĥÐ°":2475,"08":2476,"ÑĢÐ½Ð¸ÑĤÐµ":2477,"ÑģÑĤÐ¾Ð¸":2478,"Ġ2018":2479,"ĠÑģÐ³ÑĢÐ°":2480,"ĠÐ°Ð¼Ð°":2481,"ĠÐŁÐ»Ð¾Ð²Ð´Ð¸Ð²":2482,"ĠÑģÑĢÐµÐ´ÑģÑĤÐ²Ð°":2483,"Ð´Ð¾Ð²Ð°":2484,"ĠÑģÑĤÑĢÐ¾":2485,"ĠÐ§":2486,"ĠÑĥÑģÐ»ÑĥÐ³Ð¸":2487,"Ð£":2488,"Ð²Ð¼Ðµ":2489,"ÑĤÐ¼Ð":2490,"Ð¿Ð¸ÑĤÐµ":2491,"ĠÐĶÐ¾Ð±":2492,"¿Ð°":2493,"ĠÐ¿ÑĢÐ¾ÑĦÐµÑģÐ¸Ð¾Ð½Ð°":2494,"ĠÐ¿Ð¾Ð»Ð·":2495,"ĠÐ¼Ð¸Ð½Ð¸ÑģÑĤÑĬÑĢ":2496,"ĠÐºÐ°ÑĤÐµÐ³Ð¾":2497,"ĠÐ¿Ð¾ÑĤ":2498,"ĠÐ³Ð¾Ð»ÑıÐ¼Ð°":2499,"im":2500,"ĠÐ¸Ð·Ð³Ð»ÐµÐ¶Ð´Ð°":2501,"Ð´ÐµÐ»Ñı":2502,"ĠÐ´Ð²Ð¾":2503,"Ð´Ð¸Ð¾":2504,"ĠÐ¿Ð¾Ð»Ð¾Ð²Ð¸":2505,"ĠÐ´Ð¾ÑģÑĤÐ°ÑĤÑĬ":2506,"15":2507,"ĠÐºÐ¾ÑĢÐ¸":2508,"ĠÐ»ÑĬ":2509,"ĠÐ»Ð¸ÑĨÐ°":2510,"Ð¼Ð°Ð»ÐºÐ¾":2511,"ÑĢÐºÐ":2512,"ĠÐ½Ð¾Ð²Ð°":2513,"ĠÐĵÐµÑĢÐ¼Ð°":2514,"ÑĪÐ½Ð°":2515,"ĠÐ·Ð°Ð¿Ð¾ÑĩÐ²Ð°":2516,"ÑĢÐ¾ÑĤÐ¾":2517,"ÑĤÐ¾Ñĩ":2518,"ÐºÐ°ÑĢÐ°":2519,"ĠÑĢÐµÑĪÐ¸":2520,"ĠÐ´Ð¾Ð»Ð°":2521,"Ð¶Ð´Ð°Ñ":2522,"Ð¶Ð´Ð°ÑĤ":2523,"ĠÐºÐ¾Ð¼Ð¿Ð»Ðµ":2524,"ĠÐ¿ÑĢÑĬ":2525,"ĠÐ²ÑĬÐ½":2526,"ĠÐ½Ð°Ð±":2527,"ĠÑĢÐµÐ¶Ð¸":2528,"ig":2529,"ĠÐ°Ð´Ð¼Ð¸Ð½Ð¸ÑģÑĤÑĢÐ°":2530,"ÑģÐ¾ÑĤ":2531,"¶Ð°ÑĤ":2532,"ĠÐ¢Ð¾Ð·Ð¸":2533,"ĺÐ¾ÑĤ":2534,"Ġ&":2535,"ÑħÐ²ÑĬÑĢÐ":2536,"Ð²Ð¾Ð±Ð¾":2537,"Ð»Ð±Ð°":2538,"ÑģÐ¸Ð»":2539,"Ð²Ð¾Ñ":2540,"ĠÐ¿ÑĢÐ¸ÑĤÐµ":2541,"ĠÐ´Ð½Ðµ":2542,"ĠÐ¡ÐµÐ³Ð°":2543,"Ð¶ÐºÐ°":2544,"ĲÐĴÐ":2545,"ir":2546,"ĠÐ·Ð°ÐºÐ¾":2547,"ĠÑģÐ¿ÐµÑĨÐ¸Ð°Ð»Ð¸":2548,"ĠÐŀÑģÐ²ÐµÐ½":2549,"ĠÐ¿ÐµÑĢÐ¸Ð¾Ð´":2550,"ĠÐ¼ÑĥÐ·Ð¸ÐºÐ°":2551,"ÑĩÐµÑĤÐµ":2552,"ĠÐ·Ð°Ð±Ð¾":2553,"Ð½ÑĦ":2554,"ĠÐľÐ¸Ð½Ð¸":2555,"Ð·Ð¼Ð¾":2556,"ÑģÑĬÑ":2557,"Ð½Ð´Ð¾":2558,"ÑĢÐ±Ð¸":2559,"ĠÐ²Ð¸ÑģÐ¾ÐºÐ¾":2560,"ĠÐ¸Ð½ÑĤÐµÑĢÐµÑģ":2561,"Ð»Ð¸Ð½Ð°":2562,"Ð´Ð¶Ð":2563,"Ġ2020":2564,"ĠÐ¿ÑĢÐ¾ÐµÐºÑĤÐ¸":2565,"Ġ26":2566,"Ð¿Ð¸Ñģ":2567,"ĠÐĴÐ»Ð°":2568,"Ð´Ð¸Ð½Ð°":2569,"ĠÐ½Ð°Ð¸ÑģÑĤÐ¸Ð½Ð°":2570,"ĠÑĢÐ°Ð±Ð¾ÑĤÐ°ÑĤÐ°":2571,"ĠÐ¾Ð·Ð½Ð°":2572,"ĠÐ¸Ð¼ÐµÑĤÐ¾":2573,"ÑĢÐºÐ°ÑĤÐ°":2574,"Ð»ÑĬÑĤ":2575,"ĠÐ¸Ð·ÑģÐ»ÐµÐ´":2576,"Ġ27":2577,"ÐºÐ¸Ñı":2578,"ÐºÐ½Ð¾Ð²Ðµ":2579,"ĠÐ¾ÑģÐ²ÐµÐ½":2580,"//":2581,"ÑĬÑĢÐ°":2582,"!!!":2583,"ĠÐ±Ð»Ð°Ð³Ð¾Ð´Ð°":2584,"Ð¹Ð´Ðµ":2585,"ĠÐ¿ÑĢÐ¾ÐµÐºÑĤ":2586,"Ð¶Ð´Ð°Ð½ÐµÑĤÐ¾":2587,"ĠÑĤÐµÐ»ÐµÐ²Ð¸":2588,"ÑĩÐµÑģÑĤÐ²Ð¾":2589,"Ġ28":2590,"Ð¾Ð½Ð°":2591,"ĠÐ¿ÑĢÐ°Ð²ÑıÑĤ":2592,"ĠÐ¥ÑĢÐ¸ÑģÑĤÐ¾":2593,"ÑīÐ°ÑĤ":2594,"ĠÑĢÐµÐ·ÑĥÐ»ÑĤÐ°":2595,"ĠÑĢÐµÐ·ÑĥÐ»ÑĤÐ°ÑĤ":2596,"ĠÐ·Ð°Ð´Ð°":2597,"ĠÐ´Ð¸Ð°":2598,"Ð¿ÑĤÐµÐ¼Ð²ÑĢÐ¸":2599,"ĠÐ¿Ð°ÑĢÐ»Ð°":2600,"ÑĥÐ²Ð°ÑļÐµ":2601,"ĠÑĢÐµÐ°":2602,"Ð¿ÐµÐ¹":2603,"ÑģÐ¸ÑĢÐ°":2604,"ĠÐ¾Ð³ÑĢÐ¾":2605,"ĲÐĽÐ":2606,"ĠÐ±Ð»Ð¾":2607,"ĠÑĩÐµÑĤÐ¸ÑĢÐ¸":2608,"ut":2609,"ĠÐ·Ð°ÑīÐ¸ÑĤÐ°":2610,"ĠÐ¿Ð»Ð¾Ñ":2611,"Ð´Ð¾Ð±ÑĢÐµ":2612,"ĠÐ½Ð°ÑĢÐ¾":2613,"ĠÐ´ÑĥÑĪÐ¸":2614,"ĠÐ¾Ð³ÑĢÐ°Ð½Ð¸":2615,"ĠÐ·Ð°Ð±Ðµ":2616,"īÐ½Ð¾ÑģÑĤ":2617,"¸Ð¾":2618,"Ġf":2619,"ĠJ":2620,"ĠÑĨÑıÐ»Ð°ÑĤÐ°":2621,"ĠÐ¡ÐºÐ¾":2622,"Ð»ÐµÐ²":2623,"¸Ð½":2624,"ĠÑĥÐ»Ð¸":2625,"ur":2626,"ĠÐ´Ð¾Ð¿ÑĬÐ»Ð½Ð¸ÑĤÐµ":2627,"Ð²Ð¸Ðµ":2628,"Ð´Ð¾ÑĤ":2629,"ĠÐ¿Ð°ÑĢÑĤ":2630,"Ð³Ð°Ð·Ð¸":2631,"Ð¼Ð¿Ðµ":2632,"¾ÑħÐ°":2633,"ĠÐ½Ð¸Ð²Ð¾":2634,"Ð¿ÑĥÐ±Ð»Ð¸":2635,"ÑģÑĤÐ²Ð°ÑĤ":2636,"ĠÐ±ÑĬÑĢÐ·Ð¾":2637,"Ð¼Ð¸ÑĢ":2638,"ĠÑģÐ»ÑĥÑĩÐ¸":2639,"ĠÐĪÐ":2640,"ĠÐ²Ð¸Ð":2641,"ÑĢÐ°ÑļÐµ":2642,"ĠÐ°Ð½ÑĤÐ¸":2643,"ĠÐ¸Ð¼Ð°ÑĪÐµ":2644,"ÑģÐ¸ÑıÑĤÐ°":2645,"ÑĢÐ¸Ð°":2646,"Ð»Ð¸ÑģÑĤÐ¸":2647,"Ð¼ÑıÐ½Ð°":2648,"Ð±Ð½Ð¸":2649,"ÐĿÐµ":2650,"ĠÐ½Ð°ÑĢÑĥ":2651,"Ð½ÐµÑĢÐ°":2652,"ÑĬÑĢÐº":2653,"ĠÐ¾ÑĤÐ½Ð¾ÑĪÐµÐ½Ð¸Ðµ":2654,"ĠÐ¿ÑĢÐµÐ´Ð¾ÑģÑĤÐ°":2655,"ĠÐµÐºÑģÐ¿Ðµ":2656,"ĠÑĥÐ´Ð°":2657,"ĠÐºÐ²Ð°":2658,"Ġ2017":2659,"ÑĪÐ°ÑĤ":2660,"ÐºÑĢÐ¾":2661,"ĠÑĥÐ¿Ð¾ÑĤÑĢÐµ":2662,"Ð²Ð°Ñī":2663,"ĠÐ½Ð¸ÐºÐ¾Ð³Ð°":2664,"ec":2665,"ĠÐ¾Ð±Ð¸ÑĩÐ°":2666,"Ð²ÑĢ":2667,"Ð½ÐµÑĢ":2668,"ÑĢÐ°Ñĺ":2669,"ĠÐ¿Ð¾Ð²ÐµÑľÐµ":2670,"ĠÐ¶Ð¸Ð²ÐµÐ":2671,"ĠÐ´ÑĬÑĢÐ²Ð":2672,"ĠÐ³ÑĢÐ°Ð´Ð°":2673,"ĠÐ´ÑĬÐ»Ð³Ð¾":2674,"Ġ!":2675,"ĠÑģÑĬÐ³Ð»Ð°":2676,"ew":2677,"Ð¿ÑĥÑģÐºÐ°":2678,"ĠÐºÐ°ÐºÐ²Ð¸":2679,"Ð²Ð°ÑĤÐµ":2680,"ÑĬÐ¶":2681,"tp":2682,"ÐºÐ»Ñĥ":2683,"ĠÐ¸Ð·Ð¸ÑģÐºÐ²Ð°":2684,"ĠÑģÑĨÐµ":2685,"¸Ð¸":2686,"16":2687,"ĠÐµÑģÑĤÐµ":2688,"ÑĥÑģ":2689,"ĠÐ¸Ð¼Ð°Ð¼Ðµ":2690,"ĠÑħÐ°ÑĢÐ°ÐºÑĤÐµ":2691,"ÑĩÐµÑĢÐ°":2692,"os":2693,"ak":2694,"Ð³Ð»Ð¾":2695,"ĠÐµÑĦÐµÐºÑĤÐ¸":2696,"ĠÐºÐ»Ð¸Ð":2697,"ĠÐļÐ°ÐºÐ²Ð¾":2698,"ĠÐ¿Ð¾ÐºÑĢÐ¸":2699,"ÑģÑĬÑīÐ½Ð¾ÑģÑĤ":2700,"ĠÐ±ÑĢÐ°":2701,"ÑĩÐ²Ð°Ð½Ðµ":2702,"ĠÐĽÑĥ":2703,"ĠÑĩÐ°ÑģÑĤÐ¸":2704,"Ð»ÑıÐ·Ð°":2705,"Ð½Ð¾Ð²Ð¾":2706,"ĠÐ¼Ð¾Ð³Ð°":2707,"em":2708,"ĠÑĢÐ°Ð·Ð²Ð¸ÑĤÐ¸Ðµ":2709,"Ð§Ð":2710,"Ð²Ð°ÑĢÐ¸":2711,"Ġ+":2712,"com":2713,"ĠÐĺÐ²Ð°":2714,"ĠÑĢÐµÐ´":2715,"ĠÐ´Ð¸Ð·Ð°":2716,"ÑĩÐµÑģÐºÐ°ÑĤÐ°":2717,"ÑĪÐ²Ð°":2718,"Ð¶Ð±Ð¸":2719,"ĠÐ¿ÑĢÐ¸ÑĢÐ¾":2720,"ÑīÐ°Ð½Ðµ":2721,"ÑĩÐµÐ½Ð°":2722,"µÐ»Ð¸":2723,"ĠÐĶÑĥ":2724,"ĠÑĩÐ»":2725,"ÐºÐ°Ñ":2726,"ĠÐ¸Ð·ÐºÐ»ÑİÑĩÐ¸ÑĤÐµÐ»Ð½Ð¾":2727,"ĠÐ»ÐµÑģÐ½Ð¾":2728,"ĠÐºÐ¼":2729,"ĠÑģÐ¸Ð»Ð°":2730,"ĠÑģÐ¿ÑĢÑı":2731,"ĠÐ¿ÑĢÐ²Ð":2732,"ÑĢÐ°ÑĤÑĥÑĢÐ°":2733,"ĠÑģÑĤÐ¾Ð¹":2734,"ĠÐµÐ´ÐµÐ½":2735,"ĠÐ²Ð¸Ð´Ñı":2736,"av":2737,"ÑģÐºÐ¸Ð¾ÑĤ":2738,"ĠÑĪÐ¾":2739,"ÑĢÐ½ÐµÑĤ":2740,"Ð³Ð½Ð°Ñ":2741,"Ð³Ð½Ð°ÑĤ":2742,"ĠÑĢÐ°ÑģÑĤÐµ":2743,"um":2744,"ŀÐ¢Ð":2745,"ĠÐ¶ÐµÐ½Ð°":2746,"ĠÑĢÐµÐ°Ð»Ð¸":2747,"http":2748,"ĠÐ³Ð°ÑĢÐ°Ð½":2749,"://":2750,"ĠÐ¿Ð¾ÑĢÑĬ":2751,"ÑĢÐ¸Ð½":2752,"ĠÐ¿Ð¾ÐºÐ°Ð·Ð°":2753,"Ð´ÐµÐ½ÑĤÐ¸":2754,"Ðľ":2755,"ÐºÐ°ÑĤ":2756,"ĠÑĦÐ¾ÑĢÐ¼Ð°":2757,"17":2758,"ĠÐ»Ð¸Ð¿":2759,"Ð¹Ð½Ð°ÑĤÐ°":2760,"ĠÐ²ÐºÑĥ":2761,"Ð´ÐµÑĤÐµ":2762,"ĠÐ·Ð½Ð°Ð¼":2763,"ĠÑĤÑĢÐ°Ð´Ð¸":2764,"Ð²Ð°Ñĺ":2765,"ÑĢÐ¼":2766,"ĠÑĢÐ°Ð·Ð³Ð¾":2767,"ĠÐ´Ð¾ÑģÑĤÐ¸":2768,"ÐºÐ²Ð¾":2769,"Ð´Ð±Ð°":2770,"ÑģÑĥÐ²Ð°":2771,"ĠÐ¿ÑĢÐ¾Ð¼Ðµ":2772,"Ð²Ð°Ð»":2773,"µÐ¹":2774,"ĠÐ½Ð°ÑģÐ¾":2775,"ĠÐ¿ÑĢÐ°Ð·":2776,"Ð½ÐµÐ½Ð¸ÐµÑĤÐ¾":2777,"ĠÐ¾ÑĤÐ»Ð¸":2778,"ĠÐ½Ð°Ð¿ÑĬÐ»Ð½Ð¾":2779,"Ð²Ð½Ð¾ÑĤÐ¾":2780,"ĠÑĨÐµÐ»Ð¸":2781,"ÑģÐ¿Ð°":2782,"ĠÐ¾Ð¿Ð¸Ñ":2783,"ĠÐ¾Ð¿Ð¸ÑĤ":2784,"ĠÐ¿ÑĢÐµÐ¼Ð¸Ð":2785,"ÑĩÐ½Ð¾ÑĤÐ¾":2786,"ĠÐļÑĢÐ°":2787,"Ð½Ð»Ð°":2788,"ĠIn":2789,"Ð¿Ð¾Ð·Ð¸":2790,"ĠÑģÐ¿Ð¾ÑĢÑĤ":2791,"ĠÐµÑĤÐ°":2792,"Ð¼Ð±":2793,"Ð»Ð¸ÑĩÐ°":2794,"Ð¢Ð¾":2795,"ķÐĽÐ":2796,"Ð²Ð¸ÑģÐ¾":2797,"Ð²ÐµÑĢÑģÐ¸ÑĤÐµ":2798,"ĠÐ¿ÑĬÑĢÐ²Ð¾":2799,"ÑĪÐ½Ð¸ÑĤÐµ":2800,"ĠÑģÑĢÐµÑīÐ°":2801,"ĠÐ¾Ð±ÑīÐ¾":2802,"ĠÑģÐ¸Ð³ÑĥÑĢÐ½Ð¾ÑģÑĤ":2803,"ÑħÐ²Ð°":2804,"ĠÐ·Ð°Ð±Ð°":2805,"ķÐĶÐ":2806,"ĠÑĤÐ°ÐºÑĬÐ²":2807,"Ġ40":2808,"Ð¶ÐµÐ½Ð¸ÐµÑĤÐ¾":2809,"ĠÐŀÐ±ÑīÐ¸":2810,"24":2811,"ÑĤÐ¸Ð²Ð½Ð¸":2812,"ĠÐ¼ÑĬÐ¶":2813,"ĠÐĴÐ°ÑĢÐ½Ð°":2814,"ķÐłÐĳ":2815,"ĠÐ¿ÑĢÐ¾Ð³ÑĢÐ°Ð¼Ð°":2816,"Ġ08":2817,"Ð¿ÐµÑĩÐ°":2818,"Ð¼Ð°Ñ":2819,"´Ð¸":2820,"ĠÐĽÑİ":2821,"Ð¿ÑĢÐ¸Ð»":2822,"ĠÐ¿ÑĢÐµÐ´Ð¿":2823,"µÐ½Ð°":2824,"ĠÐ²Ð¸Ðµ":2825,"ĠÐ¶Ð°":2826,"Ð»Ð¾Ð²Ð°":2827,"ĠÐ¼ÐµÐ´Ð¸ÑĨÐ¸":2828,"Ð²Ð½Ð¸Ñı":2829,"Ð²ÐµÑĤÐ¸":2830,"ÑĦÐ¾Ð½":2831,"ĠÐ¿ÑĥÐ±Ð»Ð¸ÐºÑĥÐ²Ð°":2832,"ÑĪÐ°Ð²Ð°":2833,"ĠÐµÐ½ÐµÑĢÐ³Ð":2834,"ĠÐ½Ð¾ÑģÐ¸":2835,"ĠÐ§Ð°":2836,"ÑĩÐµÑģÐºÐ¸ÑĤÐµ":2837,"ĠÐ»ÐµÐºÐ°ÑĢ":2838,"Ð¿ÑĢÐ°Ð²Ð¸":2839,"ÑĤÐµÐ»ÑģÑĤÐ²Ð¾ÑĤÐ¾":2840,"ĠÑģÑĬÐ±ÑĢÐ°":2841,"ĠÐ¿Ð»Ð°Ð½Ð¸":2842,"ÐºÑĨÐ¸Ð¸":2843,"ĠÐ¿ÑĢÐ¾ÐºÑĥ":2844,"ĠÐļÐ¾Ð½":2845,"ĠÐĺÐ½ÑĤÐµ":2846,"Ð²Ð¾Ð´Ð¸ÑĤÐµ":2847,"Ġg":2848,"ÑĩÐµÑģÐºÐ¾":2849,"ow":2850,"ĠÐĹÐĲ":2851,"Ð¤Ð":2852,"ĠÑģÐ²Ð¾ÑıÑĤÐ°":2853,"¸ÐµÑĤÐ¾":2854,"ĠÐ¼Ð°ÑĪÐ¸":2855,"ĠÐĳÐ¾ÑĢÐ¸ÑģÐ¾Ð²":2856,"ĠÐ½Ð°Ð¿ÑĢÐ¸Ð¼ÐµÑĢ":2857,"ĠÑĤÐ²ÑĬÑĢÐ´Ðµ":2858,"ik":2859,"ĠÐ´ÐµÑģÐµ":2860,"Ð½ÑıÐ²Ð°ÑĤ":2861,"ĠÐ¿ÑĢÐµÐ´ÑģÑĤÐ°Ð²Ñı":2862,"µÐ":2863,"ĠÐ¾Ð±ÑıÐ²Ð¸":2864,"ĠÑģÐ»ÑĥÐ¶Ð¸ÑĤÐµ":2865,"Ð»Ð¸ÑĺÐ°":2866,"25":2867,"ĠÑĦÐ¸Ð·Ð¸":2868,"ĠÑĤÐµÑħÐ½Ð¸":2869,"Ġ29":2870,"ay":2871,"Ð¼Ð¾ÑĨÐ":2872,"ĠÐ»Ð¸Ð´Ðµ":2873,"ĠÐ¾ÑĤÐ±Ðµ":2874,"ÑħÑĤÐµ":2875,"Ð¼Ð°ÑĤ":2876,"2019":2877,"ĠÑĦÐ¸Ð½Ð°Ð½ÑģÐ¾":2878,"ĠÑģÐ°ÐºÐ°":2879,"ĠÐ´ÐµÐ»":2880,"ÑīÐµÐ½Ð¸Ðµ":2881,"ĠÐ¶":2882,"Ð¿ÑĥÐ±Ð»Ð¸ÐºÐ°":2883,"ÐºÐ°Ð·":2884,"Ð»Ð¸Ð½":2885,"ÐŀÐ":2886,"ĠÐ±Ð¾Ð»Ð½Ð¸":2887,"ĠÐ¾Ð·Ð½Ð°ÑĩÐ°Ð²Ð°":2888,"ĠÐŁÐ¾Ð´":2889,"ĠÐ´Ð¾ÑģÑĤÐ°ÑĤÑĬÑĩÐ½Ð¾":2890,"ĠÑģÐ¼ÐµÑĤÐºÐ°":2891,"ÑĤÐ¸Ð½Ð°":2892,"ÑģÐºÐ¾ÑĢÐ¾":2893,"Ð·Ð¸ÑĤÐµ":2894,"ĠÐ»ÑİÐ±Ð¾Ð²":2895,"ĠÐ°ÐºÑĤ":2896,"Ð´Ð¶":2897,"ĠÐ¼Ð°Ð³Ð°Ð·Ð¸":2898,"ÑĪÐºÐ¾":2899,"ĠÐºÐ°ÑĢÑĤÐ¸":2900,"ÑıÐ½":2901,"ĠÐºÐµ":2902,"ĠÑĥÐ¿ÑĢÐ°Ð²Ð»ÐµÐ½Ð¸Ðµ":2903,"ĠÐµÐº":2904,"Ð²Ð°ÑĢÑı":2905,"ĠÐ½ÐµÐ¾Ð±ÑħÐ¾Ð´Ð¸Ð¼Ð¾":2906,"ĠÐ¾ÑĤÐ´Ð°":2907,"14":2908,"ÑĩÐºÐ¸ÑĤÐµ":2909,"ÑģÐ¾Ð²Ðµ":2910,"ĠÑģÐ°Ð¼Ð¸":2911,"ĠÐ¾ÑĩÐµ":2912,"ĠÐ¸Ð·Ð¼Ðµ":2913,"ĠÐºÐ¾Ð»ÐºÐ¾ÑĤÐ¾":2914,"Ð³Ð»Ð¸":2915,"13":2916,"ĠÐ¿Ð¾Ð³Ð»ÐµÐ´":2917,"ĺÐ¢Ðķ":2918,"ĠÑħÐ¸Ð»Ñı":2919,"od":2920,"ĠÐĵÐķÐłÐĳ":2921,"ĠÐĺÐ²Ð°Ð½":2922,"Ġ2016":2923,"ĠÐ¿ÑĢÐµÐ·Ð¸Ð´ÐµÐ½ÑĤ":2924,"ĠÑĤÐ¾Ñĺ":2925,"ap":2926,"Ð²ÐµÑĩÐµ":2927,"ÑĵÐ":2928,"ÑĤÐ¾Ð½":2929,"ĠÐ½Ð°ÑģÑĤÐ°":2930,"ĠÐ¿Ð¸ÑģÐ°":2931,"ÐºÑĤÐ¾Ð¼Ð²ÑĢÐ¸":2932,"ĠÐ¸Ð½Ð´Ð¸":2933,"ĠÐ´Ð¾Ð²Ðµ":2934,"Ð»ÐºÐ¸":2935,"Ð½ÑıÐ²Ð°Ð½Ðµ":2936,"ĠÐ»Ñı":2937,"ĠÐľÑĥ":2938,"))":2939,"ĠÐ¾Ð²Ð¾Ñĺ":2940,"ĠÑĩÐ»ÐµÐ½":2941,"ÑħÑĢÐ°":2942,"ÐºÐ¾Ð¸":2943,"ĠÐºÐ¾Ð¼ÐµÐ½ÑĤÐ¸ÑĢÐ°":2944,"ĠÑģÑĬÑĢ":2945,"ĠÐ´Ñı":2946,"ĲÐ¢ÐĲ":2947,"ĠÐ±Ð¸Ð²":2948,"ÑĪÐµÐ½Ð¸ÐµÑĤÐ¾":2949,"Ð±ÑĢÐ¸":2950,"ĠÐ¸Ð¼Ð°ÑĤÐµ":2951,"ÑĤÐ²Ð¸":2952,"ĠÐ½Ð°ÑģÑĤÐ¾Ñı":2953,"ĠÐ¼ÐµÑ":2954,"Ð½ÐºÐ°ÑĤÐ°":2955,"ĠX":2956,"ÑģÑĬÐº":2957,"Ð½ÐµÑĢÐ¸":2958,"ĠÐŁÑĢÐµÐ´Ð¸":2959,"Ð½ÐµÑĨ":2960,"ĠÐ²ÑĬÑĤÑĢÐµÑĪ":2961,"ĠÑģÐµÐ´Ð¼Ð¸ÑĨÐ°":2962,"ĠÑģÐµÐ¿ÑĤÐµÐ¼Ð²ÑĢÐ¸":2963,"ĠÑģÐµÐ»Ð¾":2964,"ĠÑĤÐµÑĢÐ¸ÑĤÐ¾":2965,"Ð½ÑĨ":2966,"ĠÐ¿ÑģÐ¸":2967,"ĠÐ´ÑĬÑĢÐ¶Ð°Ð²Ð°":2968,"ĠÐ¤Ð¾":2969,"Ð»ÐµÐ¼Ð°":2970,"ĠÐ³ÑĢÐµÑĪ":2971,"ĠÑĥÑģÐ»Ð¾Ð²Ð¸Ñı":2972,"Ð½Ð½Ð¾":2973,"Ð²Ð½Ð¾ÑģÑĤ":2974,"ÑĦÐ¸ÑĨÐ¸":2975,"Ð±Ð½Ð°":2976,"ĠÐ¿Ð¾Ð»ÑĥÑĩÐ°Ð²Ð°":2977,"ĠÐķÐ´Ð¸Ð½":2978,"ĠÐ½Ð°ÑĪÐ°ÑĤÐ°":2979,"ÐµÑĤÐµ":2980,"ĠÐĿÐ¸ÐºÐ¾Ð»Ð°":2981,"ÐľÐ°":2982,"ĠÐ¼Ð°ÑĢÑĤ":2983,"Ð´Ð¾Ð±Ð¸":2984,"ÑģÑĤÐ½Ð°":2985,"ĠÐ²Ð·ÐµÐ¼Ð°":2986,"ĠÐ±ÑĢÐ¾Ð¹":2987,"ÑĢÐ²Ð¸":2988,"ÑĩÐ°Ð²Ð°ÑĤ":2989,"Ð´Ð½Ð¸ÑĤÐµ":2990,"ĠÐµÐ·Ð¸Ðº":2991,"ÑĢÐ¸Ð½Ð°":2992,"ĠÑĥÑģÐ¿Ñı":2993,"ĠÑģÑĬÐ¾Ð±ÑīÐ¸":2994,"ĠÐ´ÑĬÑĢÐ¶Ð°Ð²Ð°ÑĤÐ°":2995,"ÑģÑĥÐ»":2996,"Ð´ÑıÑĤ":2997,"ĠÑģÑĤÑĢÐµ":2998,"ĠÐ´Ð¾ÑģÑĤÑĬÐ¿":2999,"°Ð»ÐºÐ°":3000,"ĠÐ±Ð¸Ð":3001,"Ð»Ð½Ð¾ÑģÑĤ":3002,"Ð²ÐµÐ½Ð¾":3003,"Ð¿ÑĥÑģÐ½Ð°":3004,"Ġhttp":3005,"Ð´ÐµÐ½Ð¾":3006,"ĠÐ²ÐµÐº":3007,"ĠÐ»Ð¸ÑĩÐ½Ð¾":3008,"ÑģÑĤÐ½Ð¸ÑĤÐµ":3009,"ĠÑģÑĬÐ²ÑģÐµÐ¼":3010,"ĠÐ¸Ð·Ð±Ð¾ÑĢ":3011,"ĠÐ½Ð°ÑĢÐ¾Ð´":3012,"Ð´ÐµÐ½Ð¸Ðµ":3013,"ĠÑĥÐ´Ð¾":3014,"ĠÐ¼Ð¸ÑģÐ»Ð¸":3015,"ter":3016,"ĠÐ¿ÑĢÐµÐ´Ð¸Ð·Ð²Ð¸ÐºÐ°":3017,"Ð³Ð°Ð½":3018,"ĠÐ½ÐµÑĥ":3019,"µÐ¼Ð¸":3020,"ĠÑĥÑģÐµ":3021,"ĠÐ¾Ð±ÐµÐ·":3022,"ĠÐºÐ¾Ðµ":3023,"¡ÐŁ":3024,"ĠÐ²ÑĬÐ¿ÑĢÐµÐºÐ¸":3025,"ĠÑģÑĬÑģÑĤÐ¾ÑıÐ½Ð¸Ðµ":3026,"Ð²Ð¾Ð´Ð¸ÑĤÐµÐ»":3027,"Ð½ÑĦÐµ":3028,"ĠÐ²Ð»Ð¸Ð·Ð°":3029,"ĠÐ¿Ð¾Ð´Ð´":3030,"ÑĤÐµÐ»Ñı":3031,"Ð´ÑĢÐ¸":3032,"Ð½Ð°ÑĢÐ¾":3033,"ÑģÑĤÑĢÐ¾Ð":3034,"Ñľ":3035,"ĠÐ½Ð°Ð²":3036,"ĠÑĥÑĪÑĤÐµ":3037,"ÑĢÐ¿Ð":3038,"ĠÐºÑĢÐµÐ´Ð¸":3039,"ĠÐ¸Ð·Ð±":3040,"ŀÐĶÐ":3041,"ĠÐ·Ð°ÑĤÐ¾Ð²Ð°":3042,"ĠÑĤÑĢÑĥÐ´Ð½Ð¾":3043,"ÐºÑĬÑģÐ½Ð¾":3044,"eb":3045,"ĠÑĿ":3046,"Ð½Ð°ÑĩÐµ":3047,"Ð¼ÑĬÑĤ":3048,"ÑģÑĤÐ²Ð°Ð½Ðµ":3049,"ĠÐ²ÑĢÐ°ÑĤÐ°":3050,"Ġof":3051,"ĠÐ¿ÑĢÐ¾ÑĤÐ¸Ð²Ð¾":3052,"ĠÐĴÑģÐ¸ÑĩÐºÐ¸":3053,"ĠÐ¾ÑģÑĤÐ°Ð²Ð°":3054,"Ð¿Ð°Ð´Ð°":3055,"ĠÐ¢ÑĥÑĢ":3056,"ĠÐ¤ÑĢÐ°Ð½":3057,"ĠÐ¡ÑĤÐµ":3058,"ĠÐ¼Ð¾Ð´ÐµÐ»":3059,"ĠÐ·Ð²Ñĥ":3060,"ĠÐĿÐĲÐ":3061,"ĠÐ½ÐµÐ´Ð¾":3062,"Ð½Ð¸ÐºÑĬÑĤ":3063,"ŀÐĽÐ":3064,"ÑıÑī":3065,"ÑĢÑıÐ²Ð°Ð½Ðµ":3066,"ŀÐĿÐ":3067,"ĠÑģÐ»ÑĥÑĩÐ°Ð":3068,"ĠÐ¸Ð·Ð²ÑĬÐ½":3069,"ĠÐ¿Ð¾Ð¿Ñĥ":3070,"Ð´Ð¸Ñı":3071,"Ð»ÐµÐ½Ð¸ÐµÑĤÐ¾":3072,"ĠÐ¾ÑĢÐ³Ð°Ð½Ð¸Ð·Ð¸ÑĢÐ°":3073,"Ð¼Ð½Ñı":3074,"ĠSt":3075,"ĠÐ³Ð¾Ð»ÑıÐ¼":3076,"ĠÐ¿ÑĢÐ¾Ð´ÑĬÐ»Ð¶Ð°Ð²Ð°":3077,"ĠÐ²Ð¾ÐµÐ½":3078,"ÑģÑĤÐ¾Ð¹":3079,"ÐºÑĤÐ½Ð¾":3080,"ÑĤÐ¸Ð½Ð³":3081,"ÑĢÐ¾Ð½Ð°":3082,"ĠÐ¢Ð°Ð·Ð¸":3083,"ĠÑģÐ»ÑĥÑĩÐ°Ð¸":3084,"op":3085,"ĠÐ½Ð°Ð¼ÐµÑĢÐ¸":3086,"ĠÑĥÑģÑĤÑĢÐ¾Ð¹":3087,"ÑģÑĤÐµÐ·Ð°":3088,"ĠÐŀÑīÐµ":3089,"ĠÐ½Ð°Ð±Ð»Ñİ":3090,"ĠÐºÐ»Ðµ":3091,"ÑĢÐµÐ":3092,"ĠÐ¿Ð°Ñ":3093,"Ð²ÑıÐ²Ð°Ð½Ðµ":3094,"ĠÐ±Ð¾Ð»Ðµ":3095,"ĠÐ¼Ð¾ÑĢÐµ":3096,"Ð½ÑĥÐ°ÑĢÐ¸":3097,"ĠÐ¸Ð·Ð»Ð¸Ð·Ð°":3098,"ĠÐ´Ð¾ÐºÐ°Ð·Ð°":3099,"ÐµÐ»":3100,"łÐĲÐ":3101,"ĠÑģÐ¸Ð»Ð¸":3102,"ĠÑĤÑĢÐ°Ð½ÑģÐ¿Ð¾":3103,"ĠÐ»Ð¾ÑĪÐ":3104,"ĠÐ¿ÑĢÐ¾ÑĨÐµÑģ":3105,"ÑĩÐ²Ð°ÑĤ":3106,"ĠÐ´ÑĥÐ¼Ð¸":3107,"ĠÐ¶Ð¸Ð²ÐµÐµ":3108,"ĠÐ¾Ð²Ð°Ð":3109,"ĠÐ¾Ð²Ð°Ð°":3110,"ĠÐ»ÑİÐ±Ð¸":3111,"Ð³Ð¾ÑĢÐµ":3112,"ĠÑģÑĤÐ°Ð½Ð´Ð°":3113,"ĠÐ½Ð°Ð¿Ð¾":3114,"Ð´ÑĢÑĥ":3115,"ĠÐ´Ð¾Ð³Ð¾Ð²Ð¾ÑĢ":3116,"ĠÐ´ÑĢ":3117,"ĠÑĤÐ°ÐºÐ°Ð²Ð°":3118,"ĠÑģÐ²Ð¾Ñ":3119,"Ð¥Ð":3120,"ĠÑģÑĤÑĬ":3121,"ÑĥÐ°Ð»":3122,"ĠÐ¿ÑĬÑĢÐ²Ð°ÑĤÐ°":3123,"ĠÐ¿Ð°ÑĨÐ¸Ð":3124,"ĠÐ°Ð³ÐµÐ½":3125,"ĠÐ²ÑĬÐ·Ð´Ñĥ":3126,"ĠÐ²ÐºÐ»ÑİÑĩÐ²Ð°":3127,"ĠÑħÑĥÐ±Ð°":3128,"ĠÐĿÐ°ÑĨÐ¸Ð¾Ð½Ð°":3129,"ĠÐ¼ÐµÑĢÐºÐ¸":3130,"ĠÐ¼Ð¾Ð¶ÐµÐ¼":3131,"ĠÐ¿Ð¸Ñģ":3132,"ĠÐ¾ÑĤÐºÐ¾":3133,"ĠÐ¿Ð°ÑĢÐ°":3134,"ĠÐķÑĤÐ¾":3135,"ĠÐ¼ÐµÑĤÐ°":3136,"ĠÑģÐ²ÑĬÑĢÐ·Ð°Ð½Ð¸":3137,"ÑĩÐ¸Ð½Ð°":3138,"ÑģÐ¸Ð¸":3139,"ĠÐ¤Ð°":3140,"Ð´ÐµÐ¶":3141,"ĠÐ´Ð¸ÑĢÐµÐºÑĤÐ¾ÑĢ":3142,"ĠÑģÑĬÑīÐ¾ÑĤÐ¾":3143,"ĠÐĿÐ¸Ðµ":3144,"ĠÐ¸Ð·Ð±Ð¾ÑĢÐ¸":3145,"ĠÑĢÐ¾Ð´Ð¸ÑĤÐµ":3146,"ĠÐ´ÑĥÐ¼Ð°":3147,"ab":3148,"ÑĺÑľÐ¸":3149,"ÑĪÐ¾":3150,"ÑĤÐ¾Ðº":3151,"ÑĤÐµÐ»ÑģÑĤÐ²Ð°":3152,"ĠÑģÐ²ÐµÑĤÐ»Ð¸":3153,"Ð½Ð»Ð°Ð¹Ð½":3154,"ÑĢÐ¿":3155,"ĠÐĵÐµÑĢÐ¼Ð°Ð½Ð¸Ñı":3156,"ĠÐµÐ´Ð²Ð°":3157,"ĠÐ¸Ð¼Ð°Ð¼":3158,"ĠÐ´Ð°Ð»Ðµ":3159,"ĠÐ¶ÐµÐ½Ð¸":3160,"ÑĩÐµÐ½Ð¾":3161,"ĠÐ²Ð¾Ð´Ðµ":3162,"ĠÐ°Ð±":3163,"Ðĵ":3164,"ĠÐ¼Ð°ÐºÐµÐ´Ð¾":3165,"ĠÐ²ÑĬÐ·ÑģÑĤÐ°":3166,"ĠÐ´ÐµÐ¹Ð½Ð¾ÑģÑĤ":3167,"ĠÐ¡Ñĥ":3168,"ĠÐºÐ°ÐºÐ²Ð°":3169,"ĠÐ´ÑĢÐ¶Ð°":3170,"ÑĩÐµÐ½Ð¸ÐµÑĤÐ¾":3171,"Ð¿Ð°Ð´Ð½Ð°":3172,"ÑĢÐ°Ð·Ñĥ":3173,"ÐµÐ¼Ð²ÑĢÐ¸":3174,"ĠÑģÑĤÐ°ÑĤÐ¸":3175,"ÑģÑĤÐ¾Ð²Ðµ":3176,"ĠÐ½Ð¸ÐºÐ¾Ð¹":3177,"ĠÐ°Ð¿ÑĢÐ¸Ð»":3178,"ĠÐ¿ÑĢÐ¾Ð´ÑĬÐ»Ð¶Ð¸":3179,"ĠÐ¿Ð¾ÐºÐ°Ð·Ð²Ð°":3180,"ĠÐ¼ÐµÑĵÑĥ":3181,"Ġthe":3182,"ĠÐ²ÐµÐ´Ð½Ð°":3183,"ĠÐ¸ÑģÐºÐ°Ñ":3184,"ĠÐ¸ÑģÐºÐ°ÑĤ":3185,"ÑĪÐ½Ð°ÑĤÐ°":3186,"ĠÐ¿Ð¾ÑģÑĤÐ¾Ñı":3187,"Ð»Ð¾Ð¶ÐµÐ½Ð¸ÐµÑĤÐ¾":3188,"ĠÐ·Ð°Ð¼Ðµ":3189,"ĠÑĩÐ¾Ð²ÐµÐºÐ°":3190,"ĠÐ¸ÑģÑĤÐ¾ÑĢÐ¸Ñı":3191,"ĠÐ¿Ð»Ð°Ð½":3192,"ĠÑİÐ½Ð¸":3193,"ÑħÐ¸ÑĤÐµ":3194,"ĠÑĨÑıÐ»Ð¾":3195,"Ð½Ð°ÑĢÐ¾Ð´":3196,"ķÐĿ":3197,"Ð½ÑģÐºÐ¾":3198,"¸Ð¾ÑĤ":3199,"ĠÑĢÑĬÐºÐ°":3200,"ĠÐ¸Ð´Ð²Ð°":3201,"ĠÑģÐ¿ÑĢÐµ":3202,"ĠÑĢÐ°Ð¼ÐºÐ¸ÑĤÐµ":3203,"ĠÐ²ÑĬÐ¿ÑĢÐ¾ÑģÐ¸":3204,"ĠÐ¿Ð°ÑĢÑĤÐ½ÑĮÐ¾":3205,"ĠÐ¾ÑĦÐ¸ÑĨÐ¸Ð°Ð»":3206,"ÑĢÐ¾Ð¸":3207,"Ð´Ð¸Ð¸":3208,"ĠÐ¿ÑĢÐµÐ¼Ð¸Ð½Ð°":3209,"ĠÐ³Ð»Ñĥ":3210,"Ð¶ÐµÑĤÐµ":3211,"ĠÐ¿Ð°ÑĤ":3212,"Ð±ÑĢÐ¾":3213,"ĠÐ¸Ð·ÑĢÐ°Ð±Ð¾":3214,"og":3215,"ĠÐ½Ð¾ÑĢÐ¼Ð°Ð»":3216,"ĠÑĨÐµÐ½ÑĤÑĬÑĢ":3217,"Ð»ÑıÐ²Ð°ÑĤ":3218,"Ð¿ÐºÐ¸":3219,"ÐºÐµÐ¼Ð²ÑĢÐ¸":3220,"ĠÐ·Ð°ÐºÐ¾Ð½Ð¾":3221,"ĠÑĨÐµÐ»Ð¸Ñı":3222,"ĠÐ¿Ð¾Ñı":3223,"ĠÑĢÐ°Ð·Ð¿Ð¾Ð»Ð°Ð³Ð°":3224,"ĠÐ·Ð°Ð½Ð¸Ð¼Ð°":3225,"ĠÐ·Ð°ÐºÑĥ":3226,"ĠÐ¾Ð±Ð¸ÐºÐ½Ð¾Ð²Ðµ":3227,"ĠÐ¸Ð¼Ð¾":3228,"ĠÐ¸Ð¼ÐµÐ½Ð½Ð¾":3229,"ÑĩÐµÐ½Ð¸Ñı":3230,"Ð¹Ð½Ð¸ÑĤÐµ":3231,"ĠÐ¿ÑĢÐµÐ´Ð²Ð¸":3232,"ĠÐĵÐµÐ¾ÑĢÐ³Ð¸":3233,"ĠÐ´Ð¾Ð»Ð°ÑĢÐ°":3234,"oc":3235,"ĠÐµÐ²ÑĢÐ¾Ð¿ÐµÐ¹ÑģÐºÐ¸":3236,"ĠÐºÐ¾Ð¼Ð±Ð¸":3237,"ĠÑģÑĢÐµÐ´Ð°":3238,"Ġ60":3239,"ĠÑĩÐµÑĤÐ²":3240,"ÑĢÐ³Ð°Ñģ":3241,"µÐ½Ð¸Ðµ":3242,"ĠÐŁÐ»Ð°":3243,"ĠÑĦÐ¾ÑĤÐ¾":3244,"Ð»Ð¸Ð¾":3245,"ĠÑĥÐ½Ð¸Ð²ÐµÑĢÑģÐ¸ÑĤÐµ":3246,"ĠÑĢÑĬÑĨÐµ":3247,"Ð¶ÐµÐ½Ð¸Ñı":3248,"ĠÐ¾ÐºÑĤÐ¾Ð¼Ð²ÑĢÐ¸":3249,"ĠÐ²Ð½Ð¸Ð¼Ð°Ð½Ð¸Ðµ":3250,"µÐ´Ð¸":3251,"ĠÐ¸Ð½ÑģÑĤÑĢÑĥ":3252,"ÑĤÐ¸ÑĨÐ¸":3253,"ĠÐ¸ÑģÑĤÐ¾ÑĢÐ¸":3254,"ĠÐĲÐ»ÐµÐºÑģÐ°":3255,"ĠÑģÑĬÑİ":3256,"ÑĢÐ½Ð¸Ñı":3257,"ĠÐºÐ²":3258,"est":3259,"40":3260,"ĠÐ¼ÐµÑĤÐ¾":3261,"Ð»Ð¾Ð¶ÐµÐ½Ð¸Ñı":3262,"ÑģÑĦÐ":3263,"ĠÐ½ÐµÐ³Ð¾Ð²Ð°ÑĤÐ°":3264,"22":3265,"ĠÐ¾Ð±Ð»Ð°ÑģÑĤ":3266,"ĠÐĹÐ°ÑĤÐ¾Ð²Ð°":3267,"ĠÐ½Ð°Ð¿Ð¸":3268,"¸Ð»":3269,"ĠÐ·Ð°ÐºÐ¾Ð½":3270,"ĠÐ¿ÑĢÐ¸Ð½ÑĨÐ¸":3271,"Ð±ÑĬÑĢÐ":3272,"ĠÐ¶Ñĥ":3273,"Ð²Ð¸ÑıÑĤ":3274,"ĠÑģÐ¼ÑĬÑĢÑĤ":3275,"ĠÑģÑĤÑĢÐ¾Ð¸ÑĤÐµ":3276,"ĠÐµÐ´Ð¸":3277,"ort":3278,"ĠÑģÐ»ÑĬÐ½":3279,"ĠÐ±ÑĢÐµ":3280,"Ð³Ð°Ð½Ðµ":3281,"ĠÐºÐ¾ÑĢÐµ":3282,"Ġ2014":3283,"ÑĤÐ¸Ð²Ð°":3284,"Ð¹Ð»":3285,"ĠÑĦÐ¾ÑĢÐ¼Ð¸":3286,"Ġw":3287,"Ð¹ÐºÐ°":3288,"ĠÐ±Ð»Ð¸Ð·":3289,"ĠÐ¼Ð¸Ð»Ð¸Ð¾Ð½Ð°":3290,"ĠÐ¿ÑĢÐµÐ´Ð²Ð¸Ð´":3291,"ÑīÐ°Ð²Ð°":3292,"Ð½ÑĬÐ¶":3293,"Ð±ÑĢÐµ":3294,"ÐºÐ¾Ñĺ":3295,"ĠÐ¤Ðµ":3296,"ĠÑĢÐµÐºÐ»Ð°":3297,"ĠÐºÑĢÐ°ÑģÐ¸":3298,"ĠÐ¿ÑĬÑĢÐ²Ð¸Ñı":3299,"ĠÑĢÐ¾Ð»Ñı":3300,"ĠÑģÑĬÑģÑĤÐµÐ·Ð°":3301,"ĠÐ¿Ð°Ð¼ÐµÑĤ":3302,"ĠÐ¿ÑĢÐµÐ²ÑĬÑĢ":3303,"ĠÐºÐ°Ð¶Ð°":3304,"Ġ'":3305,"Ġ09":3306,"ĠÑĥÑĩÐ°ÑģÑĤ":3307,"2020":3308,"ĠÐ¿ÑĢÐµÐºÑĢÐ°":3309,"ÑıÐ»Ð¾":3310,"ĠÐ½ÐµÑīÐ°ÑĤÐ°":3311,"ĠÐ¾Ð±Ð»Ðµ":3312,"ĠÐºÐ¾Ð¼Ð¿Ð°Ð½Ð¸ÑıÑĤÐ°":3313,"ÐºÑĢÐ°ÑĤ":3314,"ĠÑĥÐ±Ðµ":3315,"ĠÐ¼Ð°ÐºÑģÐ¸":3316,"ÑģÐ½Ð¾ÑģÑĤ":3317,"ĠÐºÐ¾Ð¶Ð°ÑĤÐ°":3318,"ĠÐºÑĥÐ¿":3319,"ĠÐĹÐ½Ð°":3320,"Ð»ÑıÐ²Ð°Ð½Ðµ":3321,"ĠÐ¾ÑĤÐ³Ð¾Ð²Ð¾ÑĢÐ¸":3322,"ĠÐ¿Ð¾Ð¼Ðµ":3323,"ÑģÑĤÐ°ÑĤÐ°":3324,"art":3325,"ĠÐ¸Ð·Ð³Ð¾":3326,"Ġ2015":3327,"ĠÐºÐ»Ð°ÑģÐ¸":3328,"ĠÐ²Ð»Ð°ÑģÑĤ":3329,"ĠÐ¿Ð¾Ð»Ð¸ÑĤÐ¸ÐºÐ°":3330,"ĠÐ´ÑĬÑĢÐ":3331,"Ġ#":3332,"?!":3333,"ĠÐ½Ð°ÑĢÐ¸":3334,"ÑģÑĤÑĢÐµ":3335,"Ð´Ð¾Ð²Ð¸":3336,"ÑģÐ¾Ð±":3337,"ÑĺÐ°Ð²Ð¸":3338,"www":3339,"ĠÐ´Ð¾ÑģÐµÐ³Ð°":3340,"¸Ð»Ð¸":3341,"ĠÐłÐµÐ¹":3342,"ĠÑİÐ»Ð¸":3343,"Ð´ÑĢÐ¾":3344,"ĠÐ·Ð°Ð¼":3345,"ÑģÐºÑĥ":3346,"ÑĤÐµÐ»ÑıÑĤ":3347,"ÑģÐ»Ð°Ð²":3348,"ĠÐ·Ð²Ðµ":3349,"ĠÑĤÐ¾ÑĩÐºÐ¸":3350,"ĠÐ·Ð¸":3351,"ĠÐ¸Ð·Ð±Ð¸ÑĢÐ°":3352,"ĠÐ½Ð¾Ð²Ð°ÑĤÐ°":3353,"ĠÑĥÐ¼Ðµ":3354,"ĠÑģÐ¿ÐµÑĩÐµÐ»Ð¸":3355,"ĠÐ½Ð°Ð¿ÑĢÐµÐ´":3356,"ĠÐ¸Ð½ÑĤÐµÑĢÐ½ÐµÑĤ":3357,"ÑĪÐ¸ÑıÑĤ":3358,"ĠÐ´ÐµÑĤÐµÑĤÐ¾":3359,"ĠÑĢÐ°Ð·Ð»Ð¸ÐºÐ°":3360,"ĠÐ¾ÑĤÐ²":3361,"Ð²Ð³ÑĥÑģÑĤ":3362,"Ð³Ð½Ð¾":3363,"ÑĢÐ°Ð¼":3364,"ÑģÑĬÑĤ":3365,"Ð²ÑĢÐµÐ¼ÐµÐ½":3366,"ĠÑĪÐ°Ð¼Ð¿Ð¸":3367,".)":3368,"ĠÐ²Ð¸Ð´ÐµÐ¾":3369,"2017":3370,"ĠÐ¿ÑĢÐ¾Ð²ÐµÐ´Ðµ":3371,"ĠÑĤÐ¸Ð¿":3372,"ĠÐ¼Ð¾Ð¼":3373,"ĠÐºÐ¾Ð¼Ð¿":3374,"ĠÐ·Ð½Ð°ÑĩÐµÐ½Ð¸Ðµ":3375,"ĠÐµÐ²":3376,"ĠÐ¿ÑĢÐ¾ÑĨÐµÐ´Ñĥ":3377,"µÐ½Ðµ":3378,"ĠÑīÐ¾":3379,"ĠÐ¾Ð¿Ð¸ÑĤÐ°":3380,"Ġâ":3381,"ĲÐļÐ":3382,"==":3383,"ÑĤÐ°Ð½Ð°":3384,"ĠÐºÐ¾Ð½ÐºÑĢÐµ":3385,"ĠÐ°Ð½Ð°Ð»Ð¸":3386,"2018":3387,"ĠÐ¿ÑĢÐ¸ÑĩÐ¸Ð½Ð°":3388,"Ð¼Ð¸ÑģÐ»Ð¸":3389,"ÐºÑĤÐ¾ÑĢÐ¸":3390,"ĠÐ¿Ð°ÑĢ":3391,"ĠÐºÐ°ÑĤÐ°":3392,"Ð¼ÐµÑĢÐ°":3393,"ĠÐĹÐ´ÑĢÐ°":3394,"ĠÐ¿Ð¾Ð²ÐµÑĩÐµÑĤÐ¾":3395,"ĠÐ¿Ð¾Ð¸":3396,"ÑĨÐµÐ¿":3397,"ĠÑħÐ¸Ð»ÑıÐ´Ð¸":3398,"ÑģÐ½ÑıÐ²Ð°":3399,"Ð²Ð°Ð½Ð¸Ñı":3400,"ĠÐºÐ°Ñĺ":3401,"ri":3402,"Ð¹ÐºÐ¾":3403,"Ð¿ÑĢÑĥ":3404,"ĠÐºÐ°Ð´Ðµ":3405,"ĠÐ¿ÑĬÑĢÐ²Ð¸ÑĤÐµ":3406,"ĠÑĤÐ¾ÑĩÐºÐ°":3407,"Ð±Ð¾ÑĢ":3408,"Ð³Ð¸ÑĤÐµ":3409,"ĠÐ¿ÑĢÐµÐ´ÑģÑĤÐ°Ð²Ð¸ÑĤÐµ":3410,"ĠÐ¿ÑĢÐ¾Ð¸Ð·Ð²Ð¾Ð´ÑģÑĤÐ²Ð¾":3411,"Ġl":3412,"ĠÐ´ÑĢÐ°":3413,"ĠÑģÐ²Ð¾ÐµÑĤÐ¾":3414,"ĠÐµÐ½ÐµÑĢÐ³Ð¸":3415,"ĠÐ³ÑĢÑĥÐ¿Ð¸":3416,"ÑĨÐ¸Ð¾Ð½Ð½Ð¸":3417,"»Ñı":3418,"Ð¶Ð½Ð¸ÑĤÐµ":3419,"ĠÐĹÐ°ÑīÐ¾":3420,"ĠÐ¡Ð»Ð°":3421,"Ġin":3422,"Ð·Ð²Ð°Ð½Ðµ":3423,"Ð½Ð³Ð»Ð¸":3424,"ĠÑĢÐ°Ð¹Ð":3425,"ĠÑĤÐµÐ¶":3426,"ĠÐ³Ð»Ð¾":3427,"ĠÐ»ÑĥÑĵÐ":3428,"Ð¶ÐµÑģÑĤÐ²Ð¾":3429,"ÑģÑĤÐ²Ð¸ÐµÑĤÐ¾":3430,"ĠÑĨÐµÐ½ÑĤÑĢÐ°":3431,"ÑĤÐ¸Ð²Ð½Ð¾":3432,"ÑĩÐµÐ²Ð°":3433,"Ð¼Ð¸Ð½Ð¸":3434,"ĠÐĴÐ¸Ðµ":3435,"Ð½ÐµÑģÐ°":3436,"ĠÐºÐ°Ð¿Ð°":3437,"ĠÑĥÐ":3438,"ĠÐĳÐµÐ·":3439,"ĠÐ¸Ð·Ð¿Ð¸":3440,"ĠÐ¼ÐµÑģÑĤÐ¾":3441,"ĠÐ·Ð°Ñı":3442,"23":3443,"ÑĩÐ°Ð²Ð°Ð½Ðµ":3444,"Ð¿ÑĢÐ¾ÑģÑĤÑĢÐ°":3445,"ĠÑĤÐµÐ¼Ð¿Ðµ":3446,"ĠÑģÑĬÐ´Ðµ":3447,"ĠÐ¿ÑĢÐµÐ¿Ð¾ÑĢÑĬ":3448,"ĠÐ¿ÑĢÐ¾Ñĥ":3449,"ÑĤÐ¸ÐºÐ°":3450,"ÑĬÐ³":3451,"ĠÑħÑĢÐ°Ð½Ð°":3452,"µÑĤÐ°":3453,"ĠÑĥÐ¿ÑĢÐ°Ð²Ð»ÑıÐ²Ð°":3454,"ĠÑģÐµÐ·Ð¾Ð½":3455,"Ð»Ð¸Ð²Ð¾":3456,"ĠÐĴÑĬÐ¿ÑĢÐµÐºÐ¸":3457,"ĠÐ¿Ð¾Ð´Ð´ÑĬÑĢÐ¶Ð°":3458,"ĠÐ½Ð¾ÐµÐ¼Ð²ÑĢÐ¸":3459,"ÑīÐ¸ÑıÑĤ":3460,"ĠÐ½ÐµÐºÐ°":3461,"ĠÑĦÐµÐ²":3462,"Ð½Ð´Ð¸Ñı":3463,"ÑĤÐ¸Ð²Ð¸":3464,"ĠÑģÑĤÐ¾Ð»Ð¸":3465,"ÐºÑĤÑĥÑĢÐ°":3466,"ĠÑģÐ²Ð°":3467,"ĠÐĲÐ¼ÐµÑĢÐ¸ÐºÐ°":3468,"ĠÐ²Ð°Ð¶Ð½Ð¾":3469,"ĠÐĳÐ¡ÐŁ":3470,"Ð½ÑĨÐ¸ÑĤÐµ":3471,"ĠÑĦÐ¸Ð»Ð¼":3472,"¾Ð":3473,"¾ÑĨÐ¸":3474,"ĠÑĦÐ¸Ð½Ð°Ð½ÑģÐ¸":3475,"ĠÐ¾Ð½Ð»Ð°Ð¹Ð½":3476,"µÐ²ÑģÐºÐ¸":3477,"ĠÐ²ÑģÑıÐºÐ¾":3478,"ĠÐºÐ¾Ð»Ð°":3479,"ĠÐ¡ÐºÐ¾Ð¿":3480,"ĠÐ¿Ð¾Ð¼Ð°Ð³Ð°":3481,"ĠÐ±ÑĢÐ¾Ñ":3482,"Ð½ÑĤÑĢÐ°":3483,"ÑĢÑĥÐ°ÑĢÐ¸":3484,"ĠÐ½Ð°Ð¿Ð¸ÑģÐ°":3485,"īÐ°":3486,"ĠÐ¾ÑĩÐ¸":3487,"Ð´Ð¾Ð»Ð":3488,"Ð¼Ð¾ÑĤÐ¾":3489,"ÐºÑĬÑĤ":3490,"ĠÑĤÑĢÐ¾":3491,"ÐºÐ¾Ð²Ð¸":3492,"Ð·ÑĢÐ°":3493,"ĠÐĺÑĤÐ°":3494,"ĠÐ²ÑĬÐ·ÑĢÐ°ÑģÑĤ":3495,"ĠÑĢÐµÐ´Ð°":3496,"ĠÐ´Ð²Ñĥ":3497,"ĠÑĤÐ¾Ð¿":3498,"ÑĢÐ»Ð¸":3499,"ĠÑĩÐ°Ñģ":3500,"ĠÐ¿ÑĢÐµÐ²":3501,"Ð´Ð½Ð°ÑĤÐ°":3502,"ĠÐ¿Ð¾Ñ":3503,"ĠÐ¥Ð¸":3504,"ĠÑĢÐµÐ³Ñĥ":3505,"ĠÑĢÐ°Ð·ÑĢÐµ":3506,"ĠÐ´ÑĬÑĢÐ¶Ð°Ð²Ð¸":3507,"Ð»Ð¾Ð²Ðµ":3508,"ĠÑĤÑıÐ»Ð¾ÑĤÐ¾":3509,"ub":3510,"Ð´Ð²Ð¸":3511,"ĠÐ¨Ð°":3512,"ĠÐ²ÑĩÐµÑĢÐ°":3513,"Ð³Ð¸Ð½Ð°":3514,"ĠÑĥÑĩÐ°ÑģÑĤÐ²Ð°":3515,"ĠÐ·Ð´ÑĢÐ°Ð²Ðµ":3516,"ĠÐ´ÐµÐºÐµÐ¼Ð²ÑĢÐ¸":3517,"ĠÐ¾Ð±ÑīÐ¸Ð½Ð°":3518,"ĤÑĬÑĤ":3519,"ÑĤÑĬÑĤ":3520,"ĠÐ¿Ð¾Ð´Ð":3521,"ÑĤÐ¾ÑĢÐ¸ÑĤÐµ":3522,"ĠÑĥÑĩÐ°ÑģÑĤÐ¸Ðµ":3523,"ĠÑĤÑĬÑĢÑģÐµ":3524,"ĠÐºÐ¸Ð»Ð¾":3525,"Ġz":3526,"ĠÑĢÐ°Ð·Ð¼ÐµÑĢ":3527,"ÑĤÐ¿":3528,"¾ÑĢÐ¼Ð¸":3529,"ĠÑĢÐ°Ð±Ð¾ÑĤÑıÑĤ":3530,"Ñ£":3531,"ĠÐĳÑĥÑĢÐ³Ð°Ñģ":3532,"Ð»ÐµÑĤÐ¸":3533,"ĠÐ±ÐµÐ·Ð¾":3534,"ÑĩÐ¸Ð":3535,"ĤÑı":3536,"ĠÐ´Ð°Ð½ÑĬ":3537,"Ġ*":3538,"ÑĤÑı":3539,"ĠÐºÐ°Ð¼Ð¿Ð°":3540,"ĠÑĤÐµÐ±":3541,"ĠÐ¿ÑĢÐ¾ÑģÑĤÑĢÐ°Ð½":3542,"ĠÑĤÐµÐ¼Ð°":3543,"âĢĵ":3544,"Ð¶ÑĥÐ²Ð°":3545,"ĠÐ¾ÑģÑĤÐ°Ð½Ð°Ð»Ð¸ÑĤÐµ":3546,"ĠÐĳÐ»Ð°Ð³Ð¾Ð´Ð°":3547,"Ġa":3548,"ĠÐ¸Ð·Ð±ÑĢÐ°":3549,"Ð²ÑıÐ½Ðµ":3550,"Ð²Ð»Ð°":3551,"Ð»Ð¾Ð¶Ð¸ÑĤÐµ":3552,"ÑĤÐ¸Ð²ÐµÐ½":3553,"ĠÐ´Ð¾ÐºÐ¾":3554,"ĠÐºÐ¾Ð¼Ð¿Ð°Ð½Ð¸Ñı":3555,"ÑĢÐ¸ÐµÐ¼Ð°":3556,"ÑĢÐµÐ½Ð¾":3557,"ĠÐ²Ð»Ð¸Ñı":3558,"ĠÑĤÐ¸Ð":3559,"ÑĢÐ·":3560,"ĠÐ¼Ð°Ð»ÐºÐ¸":3561,"ĠÑĢÐµÐ·Ðµ":3562,"ĠÐºÐ¾Ð³Ð¾":3563,"ÐºÑĥÐ»":3564,"ÑĢÐ¾Ð²Ð¸":3565,"ĠÑģÑĬÑİÐ·":3566,"¾ÑħÐ¾":3567,"¡ÐļÐĲ":3568,"ĠÐ¸Ð·ÑĢÐ°":3569,"ĠÐ²Ð¿ÐµÑĩÐ°":3570,"ĠÐ¿Ð°ÑĢÐ»Ð°Ð¼ÐµÐ½ÑĤÐ°":3571,"ĠÐ»ÐµÐºÐ°":3572,"ĠÐ´ÑĬÐ»Ð¶Ð¸":3573,"ÑĬÐ´Ðµ":3574,"ĠÐĴÐµÐ»Ð¸ÐºÐ¾":3575,"ĠÐ¿ÑĢÐ¾Ð¼ÑıÐ½Ð°":3576,"ĠÑģÐ²Ð¾Ð":3577,"Ð½ÐµÐ¼":3578,"ĠÐ¿ÑĢÐ¾ÐµÐºÑĤÐ°":3579,"Ð¿Ð°ÑĢÑĤÐ°Ð¼ÐµÐ½ÑĤ":3580,"ĠÐĲÐ²ÑĤÐ¾":3581,"ĠÐļÐ°ÐºÑĤÐ¾":3582,"ĠÑĢÐµÐ´Ð¾":3583,"ĠÐ¸ÑģÑĤÐ¾ÑĢÐ¸ÑıÑĤÐ°":3584,"ÑĤÐµÐ³Ð¸":3585,"ÑĨÐ¾":3586,"ĠÑĢÐ°Ð·ÑĢÐ°Ð±Ð¾":3587,"ÑĢÐ¸ÑĢÐ°":3588,"ĠÐ¸Ð·Ð½ÐµÐ½Ð°":3589,"Ð³ÑĢÐ°ÑĦ":3590,"Ð»Ð¾Ð³Ð¸Ñı":3591,"ĠÐ¸Ð·Ð¿Ð¾Ð»Ð·Ð²Ð°ÑĤ":3592,"ĠÐ·Ð°Ð±ÐµÐ»Ðµ":3593,"ÑĤÐ°Ð¼":3594,"ĠÐ²ÐµÑĢÐ¾ÑıÑĤÐ½Ð¾":3595,"ĠÐ¿ÑĢÐ¾ÑĦÐ¸":3596,"ÐłÐ°":3597,"µÐ½ÑĤÐ¸ÑĤÐµ":3598,"ÑĢÐ´Ðµ":3599,"ĠÐ¾ÑĤÐ¿Ð°":3600,"ĠÑĢÐµÐ³Ð¸ÑģÑĤÑĢÐ¸":3601,"ev":3602,"ÑĪÐµÐ½Ð¸":3603,"Ð°Ð½":3604,"Ġ198":3605,"ĠÑĤÐ¸Ðµ":3606,"Ð¼ÑģÐºÐ¸":3607,"ĠÐºÐ¾Ð½ÑĤÐ°":3608,"ĠÑĢÐ°Ð·ÐºÑĢÐ¸":3609,"ĠÐ³ÑĬÑĢÐ":3610,"ĠÑĤÐµÑĢÐ°":3611,"45":3612,"Ġ?":3613,"ess":3614,"ĠÐ·Ð°Ð¿Ð¸":3615,"Ð»Ð°Ñ":3616,"ĠÐ¸Ð·Ð¿ÑĬÐ»Ð½Ð¸ÑĤÐµ":3617,"35":3618,"ÑģÐ½Ð°ÑĤÐ°":3619,"ĠÑģÑĬÑģÑĤÐ°":3620,"ĠÐ¿Ð»Ðµ":3621,"ÐĿÐ¾":3622,"ĠÑĩÐ»Ðµ":3623,"Ð»Ð°ÑĤ":3624,"ÑĢÐ¾Ð²Ðµ":3625,"ĠÐ´ÑĥÐ¼Ð¸ÑĤÐµ":3626,"ÑģÑĬÐ½":3627,"ÑģÑĤÐ²ÐµÐ½Ð°ÑĤÐ°":3628,"ÑĢÐ´Ð¾":3629,"ĠÐ¼Ð¾Ð¼Ð¸":3630,"Ð½ÐµÑĤÐ°":3631,"26":3632,"Ð½ÑıÑĤ":3633,"ĺÐļÐ":3634,"ÑĢÑģÐºÐ¸ÑĤÐµ":3635,"ĠÐ¿Ð¾Ð·Ð²Ð¾Ð»ÑıÐ²Ð°":3636,"ĠÐºÐ°ÐºÑĬ":3637,"ĠÐ¢ÐµÐ·Ð¸":3638,"ĠÐºÐ°ÑĢÐ°":3639,"ÑģÐ½Ð¸ÑĤÐµ":3640,"Ð»Ð°ÑĨÐ¸Ñı":3641,"ÑĢÐ¸Ð»":3642,"ĠÑī":3643,"ĠÑĪÐ°Ð½":3644,"ĠÐ¿Ð»Ð°ÑīÐ°":3645,"ĠÐ¾Ð±ÑĢÐ°ÑĤ":3646,"ĠÐĲÐ»ÐµÐºÑģÐ°Ð½Ð´":3647,"Ð»Ð¸Ð·Ð¸ÑĢÐ°":3648,"ĠÐ¡ÐºÐ¾Ð¿ÑĺÐµ":3649,"Ð¸Ð½":3650,"ĠÐ¿ÑĢÐ¸ÑıÑĤÐµÐ»":3651,"ĠÐ¸Ð½Ð´":3652,"Ð´Ð¶Ðµ":3653,"ĠÐ¢ÑĥÑĢÑĨÐ¸Ñı":3654,"Ġ31":3655,"ŀÐľÐ":3656,"ĠÐ´Ð¾Ð±ÑĢÐ¸":3657,"Ð´ÐµÐ¼":3658,"ĠÐ¿Ð°ÑĢÐ¸ÑĤÐµ":3659,"ĠÐ¾ÑĤÐºÐ¾Ð»ÐºÐ¾ÑĤÐ¾":3660,"ĠÑĩÑĥÐ²ÑģÑĤÐ²Ð°":3661,"ce":3662,"Ð´ÐºÐ°":3663,"ĠÐ¾Ð±ÑıÑģÐ½Ð¸":3664,"27":3665,"ĠÐ¼Ð°ÑģÐ°":3666,"ÐºÐ½Ð°":3667,"ĠÐłÐµÐ¿ÑĥÐ±Ð»Ð¸ÐºÐ°":3668,"ĠÐ¿ÑĬÑĤÑı":3669,"ĠÑģÑĢÐ°Ð²":3670,"ĠÑģÐ»ÑĥÑĩÐ²Ð°":3671,"ÑĢÐ¾Ð±":3672,"ÑĤÐ¾ÑĢÐ°":3673,"ĠÑĤÐµÐ¼Ð°ÑĤÐ°":3674,"Ð½Ð³Ðµ":3675,"ĠÐ¾Ñħ":3676,"ĴÐł":3677,"ĠÐ³ÑĢÐ°Ñ":3678,"99":3679,"ĠÐµÐ´Ð½Ð¸":3680,"ÑĤÐºÐ¸ÑĤÐµ":3681,"ÑĤÐ¾Ð²Ð¸":3682,"ĠÐ½ÐµÐ¸Ð·":3683,"ĠÐ¿Ð°Ð·Ð°ÑĢ":3684,"ĠÐ³Ð¾Ð´Ð¸Ð½Ð°ÑĤÐ°":3685,"ĠÐµÐ¿Ð¸":3686,"Ð·Ð°ÑĨÐ¸Ñı":3687,"ĠÐ½Ð¾Ñī":3688,"Ð°ÑĤÐ°":3689,"ĠÐ¿Ð¾ÑĢÐ°":3690,"ĠÐ²ÐºÐ»ÑİÑĩÐ¸ÑĤÐµÐ»Ð½Ð¾":3691,"ĠÐ¾Ð±Ñī":3692,"ĠÐ±ÑıÑħ":3693,"ĠÐ²Ð¼Ðµ":3694,"ĠÐ¼Ð¾Ð±Ð¸":3695,"ĠÐ¿ÑĢÐ¸Ð¼ÐµÑĢ":3696,"ĠÑģÑĬÑīÐµÑģÑĤÐ²ÑĥÐ²Ð°":3697,"¨Ð":3698,"ĠÑģÐ»ÑĥÑĩÐ°Ñı":3699,"ĠÐĶÐ½ÐµÑģ":3700,"Ð²Ð¸ÑĢÑĥ":3701,"ĠÐ°Ð½Ð°":3702,"ĠÐºÐ¾ÑĢÐ¾Ð½Ð°":3703,"ĠÐºÐ¾Ð½ÑĤÑĢÐ¾Ð»":3704,"lt":3705,"ĠÐ¼Ð°Ð³Ð¸":3706,"ĠÑĢÐµÐ¼Ð¾":3707,"ĠÐ¿ÑĢÐµÐ´ÑģÐµÐ´Ð°ÑĤÐµÐ»":3708,"ÐºÐ²Ð°ÑĤ":3709,"ĠÐľÐ¸Ð½Ð¸ÑģÑĤÐµÑĢ":3710,"ÑģÑĤÐ½Ð¸Ðº":3711,"ĠÐ¿ÑĬÐ»Ð½Ð¾":3712,"ĠÐľÐµÐ¶Ð´Ñĥ":3713,"28":3714,"µÐ¼Ð¾":3715,"ÑĢÑĥÐ²Ð°":3716,"ÑĤÐ¾Ð²Ðµ":3717,"ĠÐ¾Ð±ÑĢÐ°Ð·Ð¾Ð²Ð°Ð½Ð¸Ðµ":3718,"ĠÐ²ÑıÑĢÐ²Ð°":3719,"ĠÐºÐ½Ð¸Ð³Ð°":3720,"ÑĩÐµÑģÑĤÐ¾":3721,"ĠÐºÐ¾Ð¼Ð¿Ð°Ð½Ð¸Ð¸":3722,"ĠÐ¾ÑģÑĬÑīÐµ":3723,"ĠÐ´Ð¾ÐºÑĥÐ¼ÐµÐ½ÑĤÐ¸":3724,"ÑĪÐ½Ð¸Ñı":3725,"Ð¿Ð¾Ð»Ð¸":3726,"ation":3727,"Ð¼Ð¸Ð½":3728,"ĠÐ°Ð²Ð³ÑĥÑģÑĤ":3729,"ĠÑģÐ°Ð¼":3730,"ĠÐ´ÐµÐ»Ð¾":3731,"ĠÐ¿Ð»Ð°Ñ":3732,"Ð´Ð½ÑĬÐ¶":3733,"ĠÐ¿Ð¾Ð´ÑħÐ¾Ð´Ñı":3734,"ĠÐ¿Ð»Ð°ÑĤ":3735,"ĠÐ´Ð²Ð°ÑĤÐ°":3736,"ÑĢÐ»Ð":3737,"ĠÐ¿ÑĢÐµÐºÐ°":3738,"ĠÐ¸Ð·Ð»ÐµÐ·Ðµ":3739,"ĠÐ·Ð°Ð¿Ð¾Ð·Ð½Ð°":3740,"ĠÐºÐ¾Ð¼Ð¿Ñİ":3741,"ĠÐ½Ð¾Ð²Ð¸ÑĤÐµ":3742,"Ġ2013":3743,"ĠÐ¿Ð¾Ð²ÑĤÐ¾":3744,"Ð½ÐºÐ":3745,"Ð¼Ð¸ÑģÑĬÐ»":3746,"ĠÐ¼Ð¾ÑĢÐ°":3747,"ĠÑĨÐµÐ½Ð°ÑĤÐ°":3748,"ĠÑģÑĬÑģÑĤÐ°Ð²":3749,"ÑĢÐ°ÑĤÑĥÑĢÐ°ÑĤÐ°":3750,"Ð½ÑģÐºÐ¸ÑıÑĤ":3751,"ĠÑģÐ½Ð¸Ð¼ÐºÐ¸":3752,"ĠÐ½Ð°Ð²Ð¸":3753,"Ð¼Ð±Ð°":3754,"ĠÐ¿ÑĢÐµÐºÑĥ":3755,"ÑļÐ°":3756,"ĠÐ²Ð¾Ð¹Ð½Ð°":3757,"ÐºÐ»Ð¸":3758,"ÐºÑĨÐ¸ÑıÑĤÐ°":3759,"ĠÐĶÐĲ":3760,"ĠÐ³Ð¾ÑĢÐµ":3761,"ÑĬÑĢÐ½Ð°":3762,"ĠÐ½Ð°Ð»Ð°Ð³Ð°":3763,"ĠÐ³Ð¾ÑģÐ¿Ð¾":3764,"ĠÑĤÐµÑħÐ½Ð¸ÑĤÐµ":3765,"ĠÐ»Ð¸ÑĨÐµÑĤÐ¾":3766,"Ð½ÑģÐºÐ¸Ð¾ÑĤ":3767,"ĠÐ¼Ð¸ÑģÐ»Ðµ":3768,"ÑĩÐµÑģÐºÐ¸Ñı":3769,"ĠÐŀÐ´":3770,"ÐºÐ°Ð´Ðµ":3771,"ĠÐºÐ°Ð¿Ð¸ÑĤÐ°":3772,"ÐºÑģÐµ":3773,"ĠÐ¿Ð¾Ð¼Ð¾Ð³Ð½Ðµ":3774,"ÑĢÑģÐºÐ¾ÑĤÐ¾":3775,"Ð»Ð¾ÑĪ":3776,"ĠÐ²ÐµÐ´Ð½Ð°Ð³Ð°":3777,"ÑıÐ²Ð°ÑĤ":3778,"ĠÑĥÐ¼":3779,"ĠÑģÐ¸Ð³Ð½Ð°":3780,"Ð¦Ð":3781,"ÑĦÐ¾ÑĢÐ¼Ð°":3782,"ĠÑĥÐ»":3783,"Ð²ÐºÐ°ÑĤÐ°":3784,"Ð´Ð¸ÑĨÐ°":3785,"ĠÐ¿ÐµÐ½":3786,"ĠÐ¸Ð·ÐºÐ»Ñİ":3787,"Ð¿ÑĬÑĤ":3788,"ĠÑĥÐ¿Ð¾ÑĤÑĢÐµÐ±Ð°":3789,"Ð½ÑıÑĤÐ°":3790,"Ð»Ð¾Ð¶ÐµÐ½Ð¸":3791,"ÑĤÐ»Ð°":3792,"ĠÑģÑĤÐµÐ¿ÐµÐ½":3793,"ĠÐŀÑģÐ½Ð¾":3794,"ÐĶÐ¾":3795,"ĠÐ²ÑĤÐ¾ÑĢÐ¸":3796,"ĠÐ¿Ð¾ÑĢÐµÐ´":3797,"ĠÐ·Ð»Ð¾":3798,"ĠÐ´Ð¾Ð¹Ð´Ðµ":3799,"Ð³ÑĢÐ°ÑĦÐ":3800,"Ð¶ÐµÐ»Ð°":3801,"Ð»ÑģÐºÐ¸":3802,"up":3803,"ĠÐ´Ð¾Ð±ÑĢÐ°":3804,"ĠÐ¿ÑĢÐ¸Ð»Ð°Ð³Ð°":3805,"Ð»Ð¾Ð¶ÐµÐ½":3806,"ĠÐ¶ÑĥÑĢÐ½Ð°":3807,"ĠÑıÐ½ÑĥÐ°ÑĢÐ¸":3808,"ĠÐ¿Ð¾Ð½Ñı":3809,"ĠÑħÑĢÐ°Ð½Ð¸ÑĤÐµ":3810,"ĠÑĦÐµÐ²ÑĢÑĥÐ°ÑĢÐ¸":3811,"Ð²Ð¾ÑĢÐ¸ÑĤÐµ":3812,"ĠÐ²ÑģÑĬÑīÐ½Ð¾ÑģÑĤ":3813,"Ð½Ð´ÐµÐ½":3814,"ÑĢÑĥÐ¿":3815,"ĠÐłÐµÐ¹ÑĤÐ¸Ð½Ð³":3816,"ĠÑĩÐµÑĤÐµ":3817,"Ð½ÐµÐ½Ð¾":3818,"ĠÐ²ÑĢÐ°":3819,"Ð½ÑĬÑĤ":3820,"ĠÑħÐ¾ÑĤÐµÐ»":3821,"ĠÐ¿ÑĢÐ°Ð²Ð°":3822,"ÑĪÑĤÐ°":3823,"ĠÐ»Ð¸ÑĤÐµ":3824,"ĠÐºÐ»Ñİ":3825,"ĠÐ½ÐµÐ²Ðµ":3826,"ÑĨÐ¸Ð¾Ð½Ð¸":3827,"ĠÐ¾ÑĤÐ½Ð¾ÑģÐ½Ð¾":3828,"60":3829,"ĠÐĸÐµ":3830,"Ġ500":3831,"Ð½ÑģÐºÐ¾ÑĤÐ¾":3832,"ĠÐĹÐ°ÑīÐ¾ÑĤÐ¾":3833,"Ð¶Ð½Ð¾ÑģÑĤÑĤÐ°":3834,"Ġ2012":3835,"ĠÐ¸Ð·ÑĩÐµ":3836,"ĠÑĢÐ°Ð·Ð±Ð¸":3837,"ÑĤÐµÐ»ÐµÐ½":3838,"ĠÐ¸Ð¼Ñĥ":3839,"Ð±ÑīÐ¾":3840,"ĠÐķÐ²ÑĢÐ¾Ð¿ÐµÐ¹ÑģÐºÐ¸":3841,"ĠÐ¼ÑıÑģÑĤÐ¾ÑĤÐ¾":3842,"ĠÑĤÐ°Ð":3843,"Ð²ÐµÐ¶Ð´Ð°":3844,"ĠÑĢÐµÐ·ÑĥÐ»ÑĤÐ°ÑĤÐ¸":3845,"Ð½Ñİ":3846,"Ġh":3847,"ÐºÑĬÐ»":3848,"ĠÐ¿Ð¾Ð»Ð":3849,"ĠÐĿÐ¾Ð²Ð¸":3850,"ĠÐ¡ÑĢÐµÐ´":3851,"ĠÐŁÐ¾ÑģÐ»ÐµÐ´":3852,"ĠÐºÐ»Ð°Ñģ":3853,"ĠÑĥÑĩÐ¸Ð»Ð¸ÑīÐµ":3854,"ÑĩÐ¸Ðµ":3855,"ĠÐ´ÐµÐ½Ð°":3856,"ĠÑģÑĤÐ¾Ð¹Ð½Ð¾ÑģÑĤ":3857,"ĠÐ¼Ð°ÑĤÐµ":3858,"ĠÐ¼Ð°ÐºÑģÐ¸Ð¼Ð°":3859,"ĠÐ³ÑĢÐ°Ð¶Ð´Ð°Ð½Ð¸":3860,"ĠÐµÐ½ÐµÑĢÐ³Ð¸Ñı":3861,"ĠÐĸÐ¸":3862,"ĠÐ·Ð°Ð²Ð¸":3863,"ĠÑģÑı":3864,"ĠÐ´ÑĬÐ»Ð±Ð¾":3865,"Ð¶ÑĤÐµ":3866,"ÑĢÐ°Ð½ÐµÑĤÐ¾":3867,"Ð±ÐµÑĢÐµÑĤÐµ":3868,"ÑĤÐ²Ñı":3869,"ÐĹ":3870,"ÑĢÐ¼Ð¾":3871,"ĠÐ²Ð·ÐµÐ¼Ðµ":3872,"29":3873,"ÑĢÑģÐ¸":3874,"ĠÐ¸Ð³ÑĢÐ¸":3875,"ÑĤÐ²Ð°ÑĢÑı":3876,"ĠÐ·Ð°Ð³ÑĥÐ±Ð¸":3877,"ĠÑĨÐµÐ½Ð¸":3878,"ĠÐ¾ÑĢÐ¸":3879,"ĠÑĩÐ°ÐºÐ°":3880,"ÐĺÐ·":3881,"ĤÑĢÐ¾Ð²":3882,"ĠÐļÐ¸ÑĤÐ°Ð¹":3883,"ĠÐ¿ÑĢÐµÐ²Ð¾":3884,"ĠÐ½ÐµÐ³Ð¾Ð²Ð¸ÑĤÐµ":3885,"ĠÑĤÑĬÑĢÑģÐ¸":3886,"Ġ80":3887,"Ð»Ð¸ÑģÑĤ":3888,"ĠÑĥÑģÐ¸":3889,"ĠÐ¿Ð¾Ð±ÐµÐ´Ð¸":3890,"ĠÐĶÐ¶Ðµ":3891,"ÑĤÑĢÐ¾Ð²":3892,"ĠÐ´ÐµÐ¼Ð¾ÐºÑĢÐ°":3893,"ĠÑģÑĢÐ¾Ðº":3894,"ĠÐ½Ð°ÑĢÐ°":3895,"ĠÐ¿Ð¾Ð´ÐºÑĢÐµÐ¿Ð°":3896,"ÑĢÑģÐºÐ¾":3897,"ĠÐ±Ð¸Ð¾":3898,"ĠÐ¢ÑĢÑıÐ±Ð²Ð°":3899,"ĠÐĳÐ¾Ð³":3900,"Ð´ÐµÐºÐ°":3901,"°Ð»ÐµÐ½":3902,"ĠÐĪÐ°":3903,"ews":3904,"ĠÐĺÐ»Ð¸":3905,"Ð½ÐºÐ¸ÑĤÐµ":3906,"ĠÐ¾ÑģÐ²Ð¾Ð±Ð¾":3907,"ĠÐ¼Ð°ÐºÐ°ÑĢ":3908,"ŀÐ¡Ð":3909,"ers":3910,"ĠÐ¾Ð±ÐµÐºÑĤÐ¸":3911,"ĠÐ½Ð°ÐºÐ°Ð·Ð°":3912,"ĠÐ¿Ð¾Ð´Ð¾":3913,"ÐºÑĤÑĬÑĤ":3914,"ĠÑģÐ¸Ð»Ð½Ð¾":3915,"ĠÐ·Ð°ÑģÐ»Ñĥ":3916,"ĠÐĲÐ½":3917,"ĠÐ½Ð¾Ð²Ð¸Ñı":3918,"ĠÐ¸Ð³ÑĢÐ°Ð":3919,"ĠÑĦÐ¾ÑĢÑĥ":3920,"Ð²Ð½Ð¸ÑıÑĤ":3921,"Ð½Ð¸ÑĨÐ¸Ð°":3922,"ĠÐ½ÐµÐ¿ÑĢÐµ":3923,"ĠÑĤÐµÐ»ÐµÑĦÐ¾Ð½":3924,"ĠÐ¸ÑģÐºÐ°Ð¼":3925,"Ġ35":3926,"ÑĩÑĥÐ²Ð°":3927,"ĠÐºÐ¾Ð½ÑģÑĥÐ»":3928,"ĠÐ±Ð°Ð·Ð°":3929,"ÑģÑĤÐ¾Ñĺ":3930,"Ð²Ð³ÑĢÐ°Ð´":3931,"ĠÐ¾ÑĩÐ¸ÑĤÐµ":3932,"ÐŁÑĢÐ¾":3933,"ĠÐ¿Ð¾Ð´Ð¾Ð±Ð½Ð¸":3934,"ĠÐºÐ¾Ð¼ÑĥÐ½Ð¸":3935,"ĠÑĢÐµÐ³Ð¸Ð¾Ð½Ð°":3936,"ĠÑĦÐ¸ÑĢÐ¼Ð°":3937,"az":3938,"ĠÑĥÐ´Ð¾Ð±":3939,"µÑĢÐ°":3940,"ĠÐµÐ¶Ðµ":3941,"ĠÐ³Ð¾ÑĢÐ¸":3942,"ĠÐ¿ÑĢÐ¸Ð´Ð¾Ð±Ð¸":3943,"ĠÑģÐµÐºÑģ":3944,"ĠÐ·ÐµÐ¼Ðµ":3945,"ÑĢÑģÐºÐ¸Ñı":3946,"ÑĢÐ¸Ð¹":3947,"Ð½ÑģÑĤÐ²Ð¾":3948,"ĠÑĤÑĥÑĢÐ¸ÑģÑĤÐ¸":3949,"Ð½Ð¶Ðµ":3950,"ĠÐ¼ÐµÑĩ":3951,"ÐºÑĢÑĬ":3952,"ĠÐ³Ð»Ð°Ð²Ð°":3953,"ĠÐ·Ð°Ð´ÑĬÐ»Ð¶Ð¸ÑĤÐµ":3954,"Ð»Ð²":3955,"ĠÐ·Ð°Ð²ÐµÐ´Ðµ":3956,"ĠÐ¿ÑĢÐ¾Ð³ÑĢÐ°Ð¼Ð¸":3957,"Ð½ÐµÑĤÐ¸":3958,"ĠÐ¸Ð´ÐµÐ":3959,"ÑĪÐ½Ð¾ÑĤÐ¾":3960,"Ð½Ð½Ð¸":3961,"ĠÐ¡ÐµÐ²Ðµ":3962,"Ð½ÑĦÐµÑĢÐµÐ½":3963,"ÑģÐ¿Ð¸":3964,"ÑħÐ°Ð½Ð¸":3965,"ĠÐ¾ÑĤÐ±Ð¾ÑĢ":3966,"ķÐļÐ":3967,"ÐºÐ¾Ð»Ð°":3968,"ĠÑĤÐ°Ð°":3969,"ĠÐ¿Ð°Ð·Ð°ÑĢÐ°":3970,"ĠÐ¡ÑĤÑĢÐ°":3971,"ĠÐ½":3972,"ĠÐ¼Ð°Ð¹ÐºÐ°":3973,"ĠÐ¶Ð¸Ð»Ð¸":3974,"ĠÐºÐ¼ÐµÑĤ":3975,"Ð·Ð´ÑĢÐ°":3976,"ÑĢÐ¸Ð¼":3977,"ĠÐºÑĥÑħ":3978,"ĠÐ´ÐµÑĤÐ¾":3979,"Ð»ÐºÐ°ÑĤÐ°":3980,"ĶÐ¡":3981,"ĠÐ²ÑĬÐ¿ÑĢÐ¾ÑģÐ°":3982,"ĠÐľÐ°Ð»":3983,"ĠÐ´Ð²Ð°Ð¼Ð°ÑĤÐ°":3984,"ĿÐŀ":3985,"ĠÐ¿Ð¾ÑĤÐµÐ½":3986,"ĠÐ¡Ð²Ðµ":3987,"ĠÐ±ÑĢÐ°ÑĤ":3988,"ĠÐ¸Ð·Ñı":3989,"ĠÐ±ÑĬÐ»Ð³Ð°ÑĢÑģÐºÐ¸ÑĤÐµ":3990,"ÐºÐ¾Ð²Ðµ":3991,"ĠÐ¶Ð¸ÑĤÐµ":3992,"ĠÐ¿ÑĢÐ°ÐºÑĤÐ¸ÐºÐ°":3993,"ĠÐ´ÑĥÑħÐ¾":3994,"ĠÐ¢ÑĢÐµ":3995,"Ġ90":3996,"ĠÐ¼ÑĢÐµÐ¶Ð°":3997,"ĠÑĤÐ°ÐºÐ¾Ð²Ð°":3998,"ĠÐĵÐ»Ð°":3999,"ÑĤÐµÐ»Ð½Ð°ÑĤÐ°":4000,"ĠÐ·Ð´ÑĢÐ°Ð²":4001,"ĠÐ¸Ð³ÑĢÐ°Ðµ":4002,"ĠÐ¼Ð°ÑĤÐµÑĢÐ¸Ð°Ð»":4003,"ĠÐ¸Ð·ÑĤÐ¾Ñĩ":4004,"ĠÐºÐ°Ð½Ð´Ð¸Ð´Ð°ÑĤ":4005,"ĠÐ²Ð¼ÐµÑģÑĤÐ¾":4006,"Ð¿Ð°Ñ":4007,"ĠÐ²Ð´Ð¸":4008,"ÑģÑĤÑĥ":4009,"ĠÐ¿ÑĢÐµÐ´Ð²Ð°ÑĢÐ¸":4010,"ĠÐ¿Ð¾ÐºÐ¾":4011,"ĠÑĢÐ°Ð·Ð¿ÑĢÐ¾ÑģÑĤÑĢÐ°":4012,"ook":4013,"ĠÐµÐ¼Ð¾ÑĨÐ":4014,"ÑĢÑĨÐ¸":4015,"ĠÑħÐ°ÑĢÐµÑģ":4016,"ite":4017,"ĠÐ¼Ð¸Ð½Ð°Ð»Ð°ÑĤÐ°":4018,"Ð²Ð¸ÑĨÐ°":4019,"ÑĨÑıÐ»Ð¾":4020,"ĠÑģÐ»Ð¸":4021,"ÑĢÐ·Ð":4022,"ob":4023,"ĠÐ²ÑĢÐµ":4024,"ÑĩÐµÑģÑĤÐ²Ð¾ÑĤÐ¾":4025,"ĠÑĢÐ°Ð·Ð½Ð¾":4026,"ĠÐ¿ÑĥÐ±Ð»Ð¸ÐºÐ°":4027,"ĠÑĢÐµÑĪÐµÐ½Ð¸Ñı":4028,"ÑĨÐ¸Ð¾Ð½ÐµÐ½":4029,"Ð³Ð¾Ð´Ð¸":4030,"ÐºÐµÑ":4031,"ÑģÑĤÐ²ÐµÐ½Ð¸ÑĤÐµ":4032,"ĠÐ½ÑıÐ¼Ð°Ñ":4033,"ĠÐ½ÑıÐ¼Ð°ÑĤ":4034,"ĠÑĢÐ°Ð±Ð¾ÑĤÐµ":4035,"ĠÐ¼Ð¸Ð»Ð¸Ð¾Ð½Ð¸":4036,"ĺÐļ":4037,"ĠÐ¿ÑĢÐµÐ´ÑģÑĤÐ°Ð²Ð»ÑıÐ²Ð°":4038,"ÐºÐµÑĤ":4039,"ÐĶÐ°":4040,"¸ÐµÐ²":4041,"ĠÐ¡Ð¿Ðµ":4042,"ÑĩÐµÑĢÑĤÐ°":4043,"Ð´ÐºÐ¾":4044,"ĠÐ³ÑĢÐ°Ð´Ð¸":4045,"ĠÐ±ÐµÐ±Ðµ":4046,"Ġ2011":4047,"ĠÐºÐ¾Ð»Ð¾":4048,"ĠÑĥÐ½Ð¸ÐºÐ°":4049,"ÑĨÐ¸Ð¾Ð½Ð½Ð°":4050,"ĠÐ½Ð¸Ð²":4051,"ÑĩÐµÑĤÐ°ÑĤÐ°":4052,"ĠÐ¿ÑĢÐµÐ":4053,"ĠÑģÑĤÐ°Ð±Ð¸":4054,"ĠÐ²Ð¾Ð´Ð¾":4055,"ÑģÑĤÐ¾Ð¹ÑĩÐ¸":4056,"ĠÐ¼Ð°ÑĤÐµÑĢÐ¸Ð°Ð»Ð¸":4057,"ĠÐ¢Ð¾Ð³Ð°Ð²Ð°":4058,"2016":4059,"ĠÐ¿Ð¾Ð²Ð¾Ð´":4060,"ĠÐ¼Ð°Ñĩ":4061,"Ðł":4062,"ĠÐ¢ÑĬÑĢ":4063,"ĠÐ·Ð»Ð°":4064,"Ð¿Ð°Ð´":4065,"ĠÑĢÐ°Ð·Ð±ÑĢÐ°":4066,"ĠÑģÑĤÑĢÐ°ÑĤÐµÐ³Ð¸":4067,"ĠÑģÐ¸ÑģÑĤÐµÐ¼Ð¸":4068,"ĺÐķ":4069,"ĠÐ½ÐµÐ³Ð°":4070,"ĠÐºÐ¾ÑĢÐ°":4071,"ĠÑĩÐ¸ÑĤÐ°":4072,"ĠÐ¼Ð¸ÑģÐ»Ñı":4073,"ĠÑĢÐµÑĩÐµ":4074,"ĠÐºÐ»ÑĥÐ±":4075,"ĠÐĴÑģÐµÐºÐ¸":4076,"ĠÐ·Ð°Ð´ÑĬÐ»Ð¶Ðµ":4077,"ĠÑĤÑĢÐ°Ð½ÑģÐ¿Ð¾ÑĢÑĤ":4078,"ĠÐ²Ð¾Ð":4079,"ĠÑĩÑĥÐ¶":4080,"ĠÑĨÑĬÑĢÐº":4081,"Ð»Ð¾Ð½":4082,"ĠÐĲÐ²":4083,"II":4084,"ÑħÐ¾ÑĤ":4085,"ĠÐ±ÐµÐ·Ð¿Ð»Ð°":4086,"ĠÐ¾ÑģÑĤÐ°Ð²Ð¸":4087,"ĠÑĢÐ¾Ð´Ð¸":4088,"ÑĢÐ³Ð¾":4089,"ĠÐ³ÑĬ":4090,"ÑĢÐ²Ð°ÑĤ":4091,"ĠÐĵÐ¾ÑģÐ¿Ð¾":4092,"ĠÐĲÐ½Ð´":4093,"ĠÑĤÑĥÑĢÐ¸":4094,"ĠÑĪÐ¸ÑĢÐ¾":4095,"ÑĤÐµÐ»Ð½Ð¸ÑĤÐµ":4096,"ÑĢÐ¾ÑĦÐ":4097,"ĠÑģÐ²ÐµÑ":4098,"ĠÑģÐ²ÐµÑĤ":4099,"ĠÐ¼Ð½ÐµÐ½Ð¸Ðµ":4100,"ÑĤÐµÐ½Ð°":4101,"Ð¾Ð±ÑĢÐ°Ð·":4102,"ĠÑĢÑı":4103,"ÑģÐ»ÑĥÐ¶":4104,"ÑīÐµÐ½Ð¸Ñı":4105,"ĠÐ¸Ð·ÑĢÐ°Ð·":4106,"Ð»Ð¾Ð¶":4107,"ĠÐ²ÐµÑĢ":4108,"ĠÐ¢ÑĢÐ¸":4109,"ÐºÑģÐ¾":4110,"ĠÐ¾Ð±Ð»Ð°ÑģÑĤÑĤÐ°":4111,"ĠÐ¾Ð¿ÑĢÐµÐ´ÐµÐ»Ñı":4112,"ĠÐ°Ð½Ð³Ð»Ð¸":4113,"ĠÐ¿ÑĢÐ¾Ð´Ð°Ð²Ð°":4114,"ĠÐ²Ð°ÐºÑģÐ¸":4115,"ĠÐ¢ÑĢÐ°":4116,"ĠÐ¶ÐµÐ½Ð¸ÑĤÐµ":4117,"ĠÐ¾Ð±ÑĢÐ°Ð·":4118,"ÑģÐ¾Ð»Ñİ":4119,"ĠÐ²Ð¸Ð´Ð¸ÑĤÐµ":4120,"Ð»Ð½Ð¸ÑıÑĤ":4121,"44":4122,"Ġ70":4123,"Ð¼Ð¸ÑģÐ»Ðµ":4124,"ÑĢÐµÑĨ":4125,"ĠÐ¿ÑĢÐ¸ÑģÑĤÐ¸":4126,"ÑĤÐ¸ÑĩÐ½Ð¸":4127,"ĠÑģÑĨÐµÐ½Ð°":4128,"ÐºÑĢÐ°Ñı":4129,"................":4130,"¾ÑĨ":4131,"ĠÐ¼Ð¾Ñī":4132,"ĠÑģÐºÑĬ":4133,"ĠÑģÐ¿ÑĢÑıÐ¼Ð¾":4134,"ĠÐ¼Ð¾Ñ":4135,"ĠÐ´Ð¾Ð¼":4136,"ĠÐºÐ¾Ð¼Ð¸ÑģÐ¸Ñı":4137,"ĠÐŁÑĢÐ¾Ñ":4138,"ĠÐ¿ÑĢÐ¾Ð´ÑĥÐºÑĤ":4139,"ĠÑĨÐ²ÑıÑĤ":4140,"ÐĴÐ¸":4141,"ĠSp":4142,"ÑĤÑĥÑĢÐ°":4143,"ĠÐ¾Ð±ÑģÑĬ":4144,"ĠÑģÑĬÐ¶Ð°":4145,"ĠÐ·Ð°ÑģÑĤÑĢÐ°":4146,"ĠÑģÑĬÐ²ÑĢÐµÐ¼ÐµÐ½":4147,"ĠÐ³Ð»Ð°Ð²Ð°ÑĤÐ°":4148,"ĠÐ¾ÐºÐ°":4149,"Ġ01":4150,"Ð¿Ð¾Ð²Ðµ":4151,"ĠÐ¼Ð¾Ð¶ÐµÑĪ":4152,"ĠÐ¸Ð¼Ð°Ð»Ð¾":4153,"ÑĤÐµÐ²":4154,"ĠÐµÑĦÐµÐºÑĤ":4155,"ĠÐ¸Ð½Ð´Ð¸Ð²Ð¸":4156,"¾Ð±Ð¸":4157,"ĠÐ¢ÑĥÐº":4158,"ÑĢÐ¼Ñĥ":4159,"ÑĮ":4160,"Ġand":4161,"ĠÐ»Ð¾ÐºÐ°":4162,"Ð´Ð¾Ð±ÑĢÐ¸":4163,"ĠÐ¾Ð±Ð¾ÑĢÑĥ":4164,"ĠÐ³Ð¾ÑģÑĤÐ¸":4165,"Ð¼ÐµÑĤÐ°":4166,"ĠÐ´Ð»ÑĬ":4167,"ĠÑģÐ¾Ð":4168,"ĠÐĽÐµÐ²ÑģÐºÐ¸":4169,"ĠÑĥÑģÐ¿ÐµÑħ":4170,"ÑĪÐ°Ð²Ð°Ð½Ðµ":4171,"ĿÐĲ":4172,"ÐĽ":4173,"ĠÐ²Ð¸ÑĢÑĥ":4174,"ĠÐ±Ð¸Ð´Ð°ÑĤ":4175,"ĠÐ´Ð¾Ð±ÑĬÑĢ":4176,"ÑĬÑĢÑĨÐ¸Ñı":4177,"ÑľÐ°":4178,"ĠÑĨÐµÐ½":4179,"ĠÐ¿Ð¾ÑĤÐ²ÑĬÑĢÐ":4180,"ĠÐ¸Ð¼Ð°Ð°ÑĤ":4181,"ĠÐ°ÑĤÐ°":4182,"ĠÐµÐ´Ð¸Ð½ÑģÑĤÐ²ÐµÐ½Ð¾":4183,"ĠÑĤÑĢÐµÑĤÐ¸":4184,"ĠÐ»ÐµÐºÐ¾":4185,"ĠÐ¢ÑĢÑĬ":4186,"ĠÑĤÐµÐ°ÑĤ":4187,"ĠÐ¿Ð¾Ð»Ð¾Ð¶ÐµÐ½Ð¸Ðµ":4188,"Ġ07":4189,"ĠÐ²ÐµÑĩÐµÑĢ":4190,"ine":4191,"¾Ð¿Ð°":4192,"Ð²ÑĢÐµÐ¼Ðµ":4193,"Ð²ÑĢÐµÐ¼ÐµÐ½Ð½Ð¾":4194,"amp":4195,"ĠÐ¸Ð·ÑĨÑıÐ»Ð¾":4196,"ĠÐµÐ»ÐµÐºÑĤÑĢÐ¸":4197,"ĺÐ°ÑĤÐ°":4198,"ĠÐ¾ÐºÐ¾Ð»Ñĥ":4199,"ĠÐ¿Ð¾Ð¿ÑĥÐ»Ñı":4200,"ĠÐ½Ð°Ð¿ÑĢÐµ":4201,"ÑĢÑĤÐ¸ÑĢÐ°":4202,"ÑģÑĤÐ²ÐµÐ½Ð¾ÑĤÐ¾":4203,"ĠÐ³ÑĢÐ°ÑĵÐ°":4204,"ĠÐ¸Ð½ÑĦ":4205,"Ð²Ð¾Ð":4206,"Ð´Ð±Ð°ÑĤÐ°":4207,"ĺÐĶÐ":4208,"Ð»ÐµÐ¹":4209,"ĠÐ¿Ð°ÑĢÑĤÐ¸Ñı":4210,"ĠÑģÐ¼Ð¸ÑģÑĬÐ»":4211,"ĠÐ±ÑĬÐ»Ð³Ð°ÑĢÑģÐºÐ°ÑĤÐ°":4212,"ĠÐ½ÑıÐ¼Ð°ÑĪÐµ":4213,"ĠÐ»ÐµÑĩÐµÐ½Ð¸Ðµ":4214,"ĠÐ¾Ð´Ð":4215,"ĠÐļÐ¾Ð¹":4216,"ĠÑģÐ²ÑĬÑĢ":4217,"ĠÐ¾Ð¿ÑĤÐ¸":4218,"ĠÐºÐ°ÑĢÐ¸Ðµ":4219,"ĠÐºÐ¾ÑĢÐ¾Ð½Ð°Ð²Ð¸ÑĢÑĥ":4220,"ĠÐĿÐµÐ³Ð¾":4221,"ÐºÐ¾Ð½Ð°":4222,"ĠÑģÑĤÐ¾Ð¿Ð°":4223,"ĠÑģÐ°Ð¹ÑĤÐ°":4224,"ÑģÑĮÐ¾":4225,"ĠÐ½ÐµÐºÐ¾Ð»ÐºÑĥ":4226,"ĠÐ·Ð°ÑĢÐ°":4227,"ĠÑģÑĥÑĤÑĢÐ¸":4228,"ĠÐ¿Ð¾Ð»Ð¸ÑĤÐ¸ÑĩÐµÑģÐºÐ¸":4229,"ĠÐ¿ÐµÑĢÑģÐ¾":4230,"Ð¿Ð¸ÑģÐ°Ð½Ð¸Ðµ":4231,"ĠÐ´Ð¾ÐºÐ»Ð°":4232,"ÑĢÑģÐ°":4233,"ÑĢÐ¾Ðµ":4234,"ost":4235,"ĠÑģÐ²Ð¾Ð¹":4236,"ĠÑĤÑĬÑĢÐ³Ð¾Ð²":4237,"Ð½ÐºÐ¾Ð²":4238,"ĺÐ§Ð":4239,"Ð²Ð»ÐµÐ½Ð¸ÐµÑĤÐ¾":4240,"ĠÑģÑĤÑĢÑĥÐ²Ð°":4241,"ĠÐ¿Ð¾Ð·Ð¸ÑĨÐ¸Ñı":4242,"Ð»ÐµÐ·":4243,"ĠÐ¾Ð¿Ð¸ÑģÐ°":4244,"ĠÐ±ÐµÐ·Ð¾Ð¿Ð°":4245,"ĠÐ¿ÑĢÐ¸ÑĩÐ¸Ð½Ð¸":4246,"ĠÐĺÐ½":4247,"µÑĦ":4248,"Ġ2010":4249,"ĠÐ¿ÑĢÐ¸ÑıÑĤÐµÐ»Ð¸":4250,"ĠÐ¿ÑĢÐ°Ð²Ð¸ÑĤÐµÐ»ÑģÑĤÐ²Ð¾ÑĤÐ¾":4251,"Ð²ÑıÐ²Ð°ÑĤ":4252,"ĠÑģÑĬÐ¿ÑĢÑĥ":4253,"Ð²Ð°ÑļÐ°":4254,"ĠÐ¼ÐµÑĤÑĢÐ°":4255,"ÐºÐ°ÑĪ":4256,"ÐºÐ¾ÑĤÐ¾":4257,"ÑĥÐ¼Ð°":4258,"ĠÐºÐ°Ð½Ð´Ð¸Ð´Ð°":4259,"ÐĿ":4260,"Ð³Ð¸Ð":4261,"ĠÑĢÑĬÐºÐ¾Ð²Ð¾Ð´":4262,"ĠÐ¡Ð¢Ð":4263,"Ð¹Ð¾Ð½":4264,"ÐµÐ¼Ð¸":4265,"ĠÐ´Ð²Ð°Ð¼Ð°":4266,"Ð»Ð¸Ð°":4267,"ĠÐ¿ÑĢÐ¸Ð³Ð¾":4268,"ĲÐ¢Ðŀ":4269,"Ð½Ð°Ð»Ð°":4270,"ĠÐ¼Ð¾Ð´ÐµÐ»Ð¸":4271,"ÑĢÐ¸ÐºÐ°":4272,"ÑĢÐºÐ¸ÑĤÐµ":4273,"ĠÐ·Ð°ÑģÐµ":4274,"ĠÐ²ÑĬÐ·ÑģÑĤÐ°Ð½Ð¾":4275,"Ġ:)":4276,"ÑĪÐºÐ°ÑĤÐ°":4277,"ĠÐ²Ð·Ðµ":4278,"ĠÐĶÐ¸Ð¼Ð¸ÑĤÑĢÐ¾Ð²":4279,"Ġ300":4280,"ĠÐ¸Ð·Ð²Ð¸":4281,"ĤÑĬÐº":4282,"ÑĤÑĬÐº":4283,"ÑĢÑĤÐµ":4284,"Ð½Ð³Ð°Ð¶Ð¸":4285,"ĠÐ¤ÑĢÐ°Ð½ÑĨÐ¸Ñı":4286,"Ð±Ð¸Ð":4287,"ķÐľÐ":4288,"Ð¶Ð½Ð¾ÑĤÐ¾":4289,"Ð·Ð¸ÑĢÐ°ÑĤ":4290,"36":4291,"ex":4292,"Ð½Ð²Ð°":4293,"ĠÐ²ÐµÑľÐµ":4294,"ÑħÐ¾Ð´Ð¸ÑĤÐµ":4295,"ĠÑģÑĬÑīÐ¸Ñı":4296,"ĠÐ¾Ð¿ÑĢÐ°":4297,"________":4298,"Ð²Ð¾ÑĢÐ°":4299,"ĠÐ¢Ð¾Ð´Ð¾":4300,"ĠÐ¸Ð½ÑģÑĤÐ°":4301,"ĠÐ´ÐµÐ¹ÑģÑĤÐ²Ð¸Ñı":4302,"ĠÑĢÐµÐºÐ¾":4303,"ĠÐ¼Ð»Ð°Ð´Ð¸":4304,"ĠÐ¿ÑĢÐµÐ´Ñĥ":4305,"ĠÐºÑĥÐ¿Ð¸":4306,"\":":4307,"ĠÐ°ÐºÑĤÑĥ":4308,"ĠÐ¼ÐµÑģÑĤ":4309,"ĠÐŀÑģÑĤÐ°":4310,"Ð»ÐµÑĤÐ°":4311,"ĠThe":4312,"Ð¹ÑģÐºÐ¸Ñı":4313,"ĠÑħÑĢÐ°Ð½Ð¸":4314,"ĠÑģÐ²":4315,"ĠÐ¿ÑĢÐµÐ´ÑģÑĤÐ°Ð²Ð¸ÑĤÐµÐ»Ð¸":4316,"ĠÑģÑĤÐ¾Ð":4317,"ÑģÐ¾Ð²Ð¾":4318,"ÑĢÐµÑĤÐµ":4319,"Ð»ÐµÐ²Ð°":4320,"ĠÐ¿ÑĢÐ¾ÑĨÐ":4321,"ÑıÐ½Ð°":4322,"ĠÐ¾ÑĤÐ³Ð¾Ð²Ð°ÑĢÑı":4323,"ĠÐ½Ð°ÑģÐ»ÐµÐ´":4324,"Ġ2021":4325,"ÑĩÐ°Ð»Ð¾":4326,"ÐľÐ¾":4327,"ĠÐ½ÐµÐ·Ð°Ð²Ð¸ÑģÐ¸Ð¼Ð¾":4328,"ĲÐĹÐ":4329,"ÑĤÐ¸Ð¸":4330,"ĠÐ¸Ð·Ð¾Ð±ÑīÐ¾":4331,"ĠÐĺÑģÑĤÐ¾":4332,"ĠÑĤÐ¸Ñı":4333,"ĠÐ°Ð»Ð":4334,"ÑĪÐµÐ½Ð°":4335,"ÑģÐ¸ÑĺÐ°":4336,"ĠÐ¼ÐµÐ¶Ð´ÑĥÐ½Ð°ÑĢÐ¾":4337,"ĠÐ°Ñĥ":4338,"Ð¼Ð±Ð¾":4339,"ĠÐºÑĥÐ»ÑĤÑĥÑĢÐ°":4340,"Ð·Ð¸ÑĢÐ°Ð½Ðµ":4341,"Ð´ÑĬÑĤ":4342,"ÑĢÐ°Ð½Ð¸ÑĤÐµ":4343,"Ð¿ÑıÑĤ":4344,"ÑģÑĤÑĬÐ¿Ð»Ðµ":4345,"ĠÐ¾ÑģÑĤÐ°Ð½Ðµ":4346,"ĠÐ¶ÐµÑĢ":4347,"ÑĢÐ°Ð°ÑĤ":4348,"ĠÐ½Ð°ÑĢÐ¸ÑĩÐ°":4349,"ĠÐ³Ð¾Ð»":4350,"ĠÐ¼Ð°ÑĩÐ°":4351,"of":4352,"ĠÑģÐ¸ÑģÑĤÐµÐ¼Ð°ÑĤÐ°":4353,"ÑĢÐ°Ð½ÑĤ":4354,"ÑĤÐ¸Ð²Ð½Ð°":4355,"ÑĩÑĥÐ²":4356,"ĠÐĺÑģÐºÐ°":4357,"ĠÐ²Ð»ÐµÐ·Ðµ":4358,"ĠÐľÐ°Ð¹":4359,"Ð²Ð¼Ð":4360,"ĠÐĵÑĬÑĢÑĨÐ¸Ñı":4361,"Ð´ÐµÐ½ÑĤÐ°":4362,"ĠÐ¾Ð½Ð°":4363,"Ð²Ð°Ð½Ð¸":4364,"Ġse":4365,"ĠÐ²Ð¾Ð´Ð°ÑĤÐ°":4366,"ĠÐ¸Ð½Ð¸ÑĨÐ¸Ð°":4367,"ÑĢÐ°ÑĨÐ¸Ñı":4368,"Ð·Ð¸ÑĢÐ°Ð½Ð¸":4369,"ĠÐ¿Ð¾Ð¼Ð°":4370,"ĠÐ³ÑĢÑĥÐ¿Ð°ÑĤÐ°":4371,"ĠÐ·Ð´ÑĢÐ°Ð²Ð¾":4372,"ĠÐ½ÐµÐ³Ð¾Ð²Ð¾ÑĤÐ¾":4373,"ÑģÑĦÐµ":4374,"ĠÐ´Ð¾Ð¼Ð°ÐºÐ¸":4375,"ĠÐºÐ»Ð¸ÐµÐ½ÑĤÐ¸":4376,"ĠÐ¼ÐµÑħÐ°Ð½Ð¸":4377,"ĠÐ¼ÐµÑģÐµÑĨÐ¸":4378,"ĠÐ´Ð¾Ð´ÐµÐºÐ°":4379,"ĠÐĳÐ¾Ð¹ÐºÐ¾":4380,"ÑĬÑĢÐ¶Ð°ÑĤ":4381,"ÑģÑĤÐ»Ð¸":4382,"ĠÐ¿Ð¾Ð¸ÑģÐºÐ°":4383,"ŁÐ¡":4384,"ĠÐºÑĢÐ¸ÑĤÐ¸":4385,"ĠÐºÐ¾Ð¼Ð°":4386,"Ð´ÑĥÐ²Ð°":4387,"Ð´Ð¾ÑħÐ°":4388,"ĠÐºÐ¾Ð¶Ð°":4389,"ĠÐ¿Ð¾ÑģÐ¾ÑĩÐ¸":4390,"ÑĪÐ°Ñ":4391,"ĠÐ¼Ð°ÑģÐ»Ð¾":4392,"ĠÐ¾Ð±ÑĢÐ°Ð±Ð¾":4393,"ĠÑĤÑĢÐµÐ½Ð¸":4394,"ĠÑĢÐ°Ð·Ð²Ð¸ÑĤÐ¸ÐµÑĤÐ¾":4395,"ĠÑĢÐµÑģÑĤÐ¾":4396,"ĠÐļÐ°ÑĢÐ°":4397,"ĠÐ³Ð»ÐµÐ´":4398,"ÐľÐ¸":4399,"ĠÐ³ÐµÑĢÐ¼Ð°":4400,"ĠÑĤÑĥÑĢÐ½Ð¸":4401,"°Ð½ÑĤÐ°":4402,"Ð¼Ð°Ñħ":4403,"Ð»ÑģÑĤÐ²Ð¾":4404,"ĠÑģÐ¸Ð¼":4405,"·Ð°Ð":4406,"Ð¼Ð½Ð¾Ð³Ð¾":4407,"ĠÑĩÐµÑĢÐ²Ðµ":4408,"ĠÐ¾Ð±Ð¸ÐºÐ½Ð¾Ð²ÐµÐ½Ð¾":4409,"ĠÐ¿ÐµÑĩÐ°":4410,"Ð¿Ð°Ðº":4411,"ĠÐĲÐ»":4412,"ĠÑĤÐµÐ»ÐµÐ²Ð¸Ð·Ð¸":4413,"ÑģÐ»Ð¸":4414,".....":4415,"55":4416,"one":4417,"ĠÐ¸Ð·Ð²Ð°":4418,"ĠÐ·Ð°Ð²Ð¸ÑģÐ¸":4419,"ĠÐ´Ð¾Ð²Ð¾":4420,"ÐºÐ¾Ð³Ð°ÑĪ":4421,"33":4422,"Ġda":4423,"ĠÑģÐ¿Ð¾ÐºÐ¾Ð¹":4424,"ÑĩÐµÐ½Ð¸ÑĤÐµ":4425,"ĠÐ±ÑĢ":4426,"ĠÐºÐ°Ð±Ð¸":4427,"ĠÐ´ÐµÐ¿Ñĥ":4428,"ÑģÑĤÑĬÐ¿Ð¸":4429,"ĠÐĴÑģÐ¸ÑĩÐºÐ¾":4430,"--------":4431,"ĠÐ¿ÑĢÐ°Ð²Ð¸ÑĤÐµÐ»ÑģÑĤÐ²Ð¾":4432,"ĠÑģÐ¿Ð¸ÑĢÐ°":4433,"ÑĢÐ¼Ðµ":4434,"2021":4435,"¸Ð½ÑĤÐµ":4436,"Ð»ÐµÐ":4437,"ÐºÐ³":4438,"78":4439,"ĠÐ½ÑıÐºÐ°ÐºÐ²Ð°":4440,"ĠÐĹÐ°Ð¿Ð¾":4441,"ĠÐ¿Ð¾Ð³Ð¾":4442,"ĠÐ¿ÑĢÐµÐ³Ð¾":4443,"ĠÐ½Ð°ÑĤÐ¸":4444,"ĠÑģÐµÐºÐ¾Ñĺ":4445,"ist":4446,"ell":4447,"ŀÐĶ":4448,"Ġst":4449,"Ð¼Ð¾Ð²":4450,"ĠÐ´Ð²Ð¸Ð³Ð°":4451,"ĠÐ´Ð°Ð²Ð°ÑĤ":4452,"ka":4453,"ÑĪÐµÐ²":4454,"ĠÐĿÐ¾Ð²Ð°":4455,"ÑĢÐµÐ½Ð¸Ñı":4456,"Ð»Ð³Ð":4457,"ĠÐ¾ÑĢÑĬ":4458,"ªÐłÐ":4459,"ĠÐºÑĥÐ¿ÑĥÐ²Ð°":4460,"ĠÐ½Ð°ÑĩÐ¸Ð½Ð°":4461,"ÐľÐµ":4462,"ĠÐ´ÐµÐ¹Ð½Ð¾ÑģÑĤÐ¸":4463,"if":4464,"ĠÐ¸Ð½ÑĤÐµÑĢÐ²":4465,"ĠÐ´Ð²Ð¸Ð¶ÐµÐ½Ð¸Ðµ":4466,"¾Ð´Ð¾":4467,"Ð´ÐºÐ¸":4468,"ÑĢÐ¸Ð°Ð½ÑĤ":4469,"·Ð°Ð¸":4470,"Ð²ÐµÐ½ÑĤ":4471,"ĠÑģÐ¸Ð³ÑĥÑĢÐ½Ð¾":4472,"ĠÐĺÑĤÐ°Ð»Ð¸Ñı":4473,"ĠÐĳÐ°Ð»ÐºÐ°":4474,"Ð²Ð°Ð½Ð°":4475,"ĠÑĩÑĥÐ²Ð°":4476,"ĠÐºÐ°ÑĦÐµ":4477,"48":4478,"ÑĤÐ¸ÑıÑĤÐ°":4479,"ĠÐ¿Ð¾ÑıÐ²Ð¸":4480,"ĠÐ¿ÑĢÐ¾Ð¸Ð·Ð²Ð¾Ð´Ð¸ÑĤÐµ":4481,"ĠÑģÐ¼Ð°":4482,"¾Ð¿":4483,"ĠAp":4484,"ĠÐ¾Ð¿Ð¸ÑĤÐ²Ð°":4485,"ÑģÑĤÐ¸ÐµÑĤÐ¾":4486,"Ð¾Ð±ÑĢÐ°":4487,"ĠÑĨÐµÐ½ÑĤÑĬÑĢÐ°":4488,"Ð¼Ð¸ÑĪ":4489,"ĺÐĽÐ":4490,"ĠÑĦÐ¸ÑĢÐ¼Ð¸":4491,"ĠÐ·Ð°Ð¿Ð¾ÑĩÐ½Ðµ":4492,"Ð²ÑĬÐ·":4493,"ĠÐºÐ¾Ð¼ÑĥÐ½Ð¸ÐºÐ°":4494,"ĠÐ°Ð½Ð³Ð°Ð¶Ð¸":4495,"Ð³ÑĢÐ°ÑĦÐ¸":4496,"ĠÐ¿ÑĢÐ¾Ð³ÑĢÐ°Ð¼Ð°ÑĤÐ°":4497,"ĠÑĢÑĥÑģÐºÐ¸":4498,"ĠÐ²ÑĬÐ·Ð¼Ð¾Ð¶Ð½Ð¾ÑģÑĤÐ¸":4499,"ĠÐĵÑĢÐ°":4500,"ĠÐ¾Ð´Ð³Ð¾":4501,"ĠÑĨÑıÐ»Ð¾ÑĤÐ¾":4502,"ĠÐĶÐ¸Ð¼Ð¸ÑĤÑĬÑĢ":4503,"ĠÐ³Ð»Ð¾Ð±Ð°":4504,"ĠÐ·ÐµÐ¼ÑĺÐ":4505,"Ð´Ð¾Ð²Ð¾":4506,"ĠÐ¿ÑģÐ¸ÑħÐ¾":4507,"ĠÑģÐ¸Ð½":4508,"ĠÐ²Ð·Ð°Ð¸":4509,"ĠÐºÐ°ÑĤÐµÐ³Ð¾ÑĢÐ¸":4510,"ĠÑĥÐ½Ð¸Ð²ÐµÑĢÑģÐ¸ÑĤÐµÑ":4511,"ĠÑĥÐ½Ð¸Ð²ÐµÑĢÑģÐ¸ÑĤÐµÑĤ":4512,"ĠÐĿÐķ":4513,"ĠÐµÐºÐ¾":4514,"ĠÑģÑĬÐ·Ð´Ð°Ð²Ð°":4515,"Ð»Ð°Ð´Ð¸":4516,"ĠÐŀÐ±ÑīÐ¸Ð½Ð°":4517,"ĠÐĶÐ¶Ð¾":4518,"ĠRe":4519,"ĺÐľÐ":4520,"ĠÐ±Ð¸Ð´ÐµÑĺÑľÐ¸":4521,"ĠÐ±ÑĢÐ¾Ñĺ":4522,"ĠÐ½Ð¾Ð¼ÐµÑĢ":4523,"ĠÐ¿ÑĬÑĢÐ²Ð¾ÑĤÐ¾":4524,"ÑģÑĤÐ²Ñĥ":4525,"ŀÐĴ":4526,"ĠÐ½Ð°ÑĥÑĩÐ¸":4527,"ĠY":4528,"ĠÐľÐ¸ÑħÐ°":4529,"ĠÐŀÐŀÐ":4530,"ĠÐ¾Ð²Ð¸Ðµ":4531,"ĠÐĺÐ²Ð°Ð½Ð¾Ð²":4532,"ĠÐ·Ð°Ð²ÑĬÑĢÑĪÐ¸":4533,"ĠÐ¸Ð½ÑĦÐ¾ÑĢÐ¼Ð¸":4534,"ĠAn":4535,"Ð½Ð½Ð°":4536,"ĠÐ¾Ð±ÑĥÑĩÐµÐ½Ð¸Ðµ":4537,"ĠÐ°Ð²ÑĤÐ¾Ð¼Ð°ÑĤÐ¸":4538,"ĠÐ¿Ð¾Ð´Ð¿Ð¾":4539,"Ð·Ð¸ÑĢÐ°Ð½":4540,"ĠÐ³Ð¾Ð»ÑıÐ¼Ð¾":4541,"Ð¡Ðµ":4542,"ĠÐ§Ð¾":4543,"ĠÐºÐ¸ÑģÐµ":4544,"ĠÑģÑĤÑĢÐ°Ð½":4545,"Ð½Ð¾Ð²ÐµÑĤÐµ":4546,"ĠÐ´Ð¸Ð¿Ð»Ð¾":4547,"ĠÐ¸Ð·Ð±Ðµ":4548,"ÐłÐµ":4549,"ĠÑģÐµÐ´Ð¼Ð¸ÑĨÐ¸":4550,"ÑĢÑıÐ²Ð°ÑĤ":4551,"ĠÐĶÐ°Ð»Ð¸":4552,"¿Ð¸":4553,"ĠÐ°Ð²ÑĤÐ¾Ð¼Ð¾Ð±Ð¸Ð»Ð¸":4554,"all":4555,"Ð±Ð¾ÑĤÐ°":4556,"ĠÐĶÐ¾ÑĢÐ¸":4557,"ÑĪÐµÐ½Ð¾":4558,"ĠÐ¸Ð½Ð´ÑĥÑģÑĤ":4559,"ĠÐĴÐ»Ð°Ð´Ð¸":4560,"ĠÐ§Ñĥ":4561,"ĠÐ¸Ð¼Ð°ÑĪ":4562,"ÑĢÐµÑģÐ°":4563,"ĠÐ¢Ð¾Ð":4564,"ĠÐ³ÑĢÐ¾":4565,"ÐºÐ°Ð½":4566,"ĠÐ¼Ð¸Ð½Ð¸ÑģÑĤÐµÑĢ":4567,"Ð´Ð¾Ð²":4568,"¾Ð½Ð°ÑĩÐ°":4569,"ĠÐ³Ð»Ð°ÑģÑĥÐ²Ð°":4570,"Ġto":4571,"ĠÐ½ÑıÐºÐ°ÐºÑĬÐ²":4572,"Ð´Ð¶Ð¸":4573,"ĠÐºÑĢÑĬÐ³":4574,"ĠCh":4575,"Ð¿ÑĢÐ¸ÑıÑĤ":4576,"2015":4577,"ĠÐ¼Ð¸Ð½ÑĥÑĤÐ°":4578,"Ð»ÐºÐ¾ÑħÐ¾":4579,"ĠÐ¾ÑĢÐ³Ð°Ð½Ð¸Ð·Ð°ÑĨÐ¸Ð¸":4580,"ĠÐ´ÐµÐ½Ñı":4581,"ĠÑģÑĤÐ¸Ð»":4582,"ĠÑħÑĢÐ¸ÑģÑĤÐ¸":4583,"°Ð":4584,"ĠÐºÐ°ÐºÑĬÐ²":4585,"ĠÑģÐ¿Ð¾Ð´ÐµÐ»Ñı":4586,"ĠÐ¿ÑĢÐ¾ÑĦ":4587,"ĠÐµÐ²ÑĢÐ¾Ð¿ÐµÐ¹":4588,"ĠÑĩÑĥÐ´Ðµ":4589,"38":4590,"ĠÐ¾ÑĤÐ¿Ñĥ":4591,"ĠÐ¸Ð¼Ð¾ÑĤÐ¸":4592,"ĠÐ¾ÑģÐ½Ð¾Ð²Ð½Ð¸ÑĤÐµ":4593,"ÑĢÐ¶Ð¸":4594,"ÐķÐ":4595,"Ġ45":4596,"ÑĨÐµÐ½ÑĤ":4597,"ĠÑĨÐ²ÐµÑĤ":4598,"ĠÐµÐ¶ÐµÐ´Ð½Ðµ":4599,"ĠÐĳÑĢÐ°":4600,"ÑĺÐ·Ð¸":4601,"ĠÐľÐ¸Ð½Ð¸ÑģÑĤÐµÑĢÑģÑĤÐ²Ð¾ÑĤÐ¾":4602,"ĠÑģÑĤÑĢÐ°Ñħ":4603,"%.":4604,"ĠÐ´Ð¸Ð·Ð°Ð¹Ð½":4605,"37":4606,"Ð»ÐµÐ¶Ð¸":4607,"ĠÐ±ÑĬÐ»Ð³Ð°ÑĢÐ¸":4608,"ĠÑĦÐµÑģÑĤÐ¸":4609,"ĠÐ·ÐµÐ¼ÑıÑĤÐ°":4610,"Ð·ÑĬ":4611,"Ð¸Ð»Ð¸":4612,"ĠÐ¶ÐµÐ»Ð°Ð½Ð¸Ðµ":4613,"ĠÑĢÐµÑģÑĥ":4614,"ĠÐºÐ½Ð¸Ð³Ð¸":4615,"Ð´Ð¶ÐµÑĤ":4616,"ÐµÐ´Ð¸":4617,"ĠÐ²Ð¸Ð½Ð¾":4618,"ĠÐ°Ð²ÑĤÐ¾Ð¼Ð¾Ð±Ð¸Ð»":4619,"ĠÐ²ÑĢÐ°ÑĤÐ¸":4620,"Ð½Ð·Ð":4621,"ĠÑĪÐµÑģÑĤ":4622,"ĠÐ¼Ð¸Ð»Ð¸Ð°":4623,"łÐŀ":4624,"ĠÑģÐµÐ¼ÐµÐ¹ÑģÑĤÐ²Ð¾":4625,"ĠÐ±ÑĬÐ»Ð³Ð°ÑĢÑģÐºÐ¸Ñı":4626,"ĠÐ²ÑĢÐµÐ´":4627,"Ð½Ð¾ÑģÐ½Ð¾":4628,"ud":4629,"ĠÑģÑĤÐ¸Ð³Ð½Ð°":4630,"ĠÐ³ÑĢÐ°Ð½Ð¸":4631,"ÑĥÐ¼Ð¸":4632,"ÑĤÐ²Ð°ÑĤ":4633,"ID":4634,"ĠÐ¸ÑģÐºÐ°ÑĤÐµ":4635,"ĠÐ°ÐºÑĤÐ¸Ð²Ð½Ð¾":4636,"ÑģÐ¾ÑĨÐ¸Ð":4637,"µÑĪ":4638,"ÐĳÐ¾":4639,"ĲÐ¢":4640,"Ð¿Ð¸Ñı":4641,"ÐºÑĤÐ¾ÑĢÐ°":4642,"ĿÐĺ":4643,"ÑĢÐ¸Ð°Ð»":4644,"ĠÑĢÐµÐ¶Ð¸Ð¼":4645,"ĠÐ³Ð°ÑĢÐ°Ð½ÑĤÐ¸ÑĢÐ°":4646,"ĠÐ¾ÑĤÐ±":4647,"ĠÐ½Ð°ÑĪÐ¸Ñı":4648,"Ð½Ð°ÑĢ":4649,"ĠÐ¿ÑĢÐµÐ´Ð¿Ð°":4650,"90":4651,"ĠÐļÐ»Ð¸":4652,"ĠÐ¿Ð¾Ð±ÐµÐ´Ð°":4653,"ĺÐĴÐ":4654,"!!!!":4655,"ÑĢÑģÐµ":4656,"ĠÐ¸Ð·Ð¿ÑĬÐ»Ð½ÐµÐ½Ð¸Ðµ":4657,"ĠÐ¿ÑĢÑı":4658,"ÑĢÑĤÑĥ":4659,"ĠÐ²Ð°ÑĪÐ¸ÑĤÐµ":4660,"ĠÐ±Ð°Ð½ÐºÐ°":4661,"ĠZ":4662,"Ð¢Ð°":4663,"Ð»ÐµÐ½Ð¸Ñı":4664,"ĠÐ¸Ð·Ð´":4665,"Ð½Ð°Ð·Ð½Ð°":4666,"ĠÑĤÐµÑħÐ½Ð¾Ð»Ð¾Ð³Ð¸Ð":4667,"ÑĢÐ°Ð·ÑĥÐ¼Ðµ":4668,"ER":4669,"ĠÐ°ÑĢÐ¾":4670,"ĠÐ¾ÑĨÐµÐ½ÐºÐ°":4671,"Ð²Ð´Ð°":4672,"ĠÐ¸Ð½Ð´Ð¸Ð²Ð¸Ð´Ñĥ":4673,"ÑĢÐ¸Ð´":4674,"ĠÑģÐµÐ·Ð¾Ð½Ð°":4675,"ĠÐĴÐľÐ":4676,"ĠÑĤÐµÑħÐ½Ð¾Ð»Ð¾Ð³Ð¸Ð¸":4677,"ĠÐ¿Ð¾Ð´ÑĩÐµÑĢÑĤÐ°":4678,"ĠÐ´ÐµÐ¹ÑģÑĤÐ²Ð°":4679,"Ð¼Ð¸ÑıÑĤÐ°":4680,"ĠÑģÐ¿ÐµÑĨÐ¸Ð°Ð»Ð½Ð¾":4681,"Ð¼ÐµÐ½ÑĤÐ¸ÑĤÐµ":4682,"ĠÐ²ÑĬÑĤÑĢÐµ":4683,"Ġ2009":4684,"ĠÐ¾ÑĢÐ³Ð°Ð½Ð¸Ð·Ð°ÑĨÐ¸Ñı":4685,"ĠÐ¿ÐµÑĢÐ¸Ð¾Ð´Ð°":4686,"ĠÑģÑĤÐ¸Ð³Ð°":4687,"ĠÐ¿ÑĢÐµÐ¶Ð¸":4688,"ĠÑģÑĤÐ¾Ð¼Ð°":4689,"Ð²Ð¾Ð»Ñİ":4690,"ĠÑħÑĥÐ´Ð¾":4691,"ĠÑĢÐ°Ð·ÑĪÐ¸":4692,"ÑĢÐ¸ÑĨÐ°":4693,"Ð³ÑĢÐ°Ð´":4694,"ĠBl":4695,"ĠÐ²ÑģÐ¸ÑĩÐºÐ¸ÑĤÐµ":4696,"ĠÐ²Ð·Ð¸":4697,"Ð¼Ð¸ÑĢÐ°ÑĤ":4698,"ĠÐŀÐ²Ð°":4699,"ÑģÑĢÐ¾":4700,"Ð¾Ð¿Ð°":4701,"ct":4702,"ive":4703,"ĠÑĢÐµÑĨÐµÐ¿":4704,"ĠÐ¿ÑĢÐµÐ¼Ð¸ÐµÑĢ":4705,"ĠÑĤÑĢÑıÐ±Ð²Ð°Ð»Ð¾":4706,"ÑģÑĤÐ¸ÑĢÐ°":4707,"ĠÐ¾ÑĦÐ":4708,"ÑģÐ¾Ð²Ð¸":4709,"Ð´Ð²Ð°ÑĤ":4710,"ªÐĽÐ":4711,"ĠÐ²Ð°ÑĪÐ°ÑĤÐ°":4712,"ÑĩÐµÑģÐºÐ¾ÑĤÐ¾":4713,"ĠÐķÐ´Ð½Ð°":4714,"ÑĬÑĨ":4715,"Ð²Ð°ÑĪ":4716,"ĠÑĤÑĢÑıÐ±Ð²Ð°ÑĪÐµ":4717,"ĠÐ³ÑĢÐµ":4718,"ÑĨÐ¸Ð¾Ð½Ð½Ð¾":4719,"°ÐºÐ¾":4720,"ĠÐĵÐµÐ¾ÑĢÐ³Ð":4721,"ĠÐļÑĢÐ¸":4722,"ĠÐ»Ð¾Ð³Ð¸":4723,"Ð²Ð°ÑĺÑľÐ¸":4724,"ĠÐ¦Ð¡ÐļÐĲ":4725,"ÑĢÐµÐ²Ð°":4726,"ĠÐ¾Ð±ÐµÐ´Ð¸":4727,"ĠÐ±ÑĢÐ¾Ñı":4728,"ĠÑĢÐµÐ»Ð¸":4729,"ÑĪÐµÐ½Ð¸ÑıÑĤÐ°":4730,"ĠÐĵÑĢÐ¸":4731,"ma":4732,"Ð·Ñĥ":4733,"ata":4734,"ĠÑĤÐµÐ":4735,"Ð¼ÑĬÐº":4736,"ĠÐºÐ°ÐºÐ²Ð¾ÑĤÐ¾":4737,"ĠÐ·Ð°Ð»Ð°":4738,"Ġna":4739,"ĠÐ»Ð¸Ð³Ð°":4740,"ÑĤÐ²Ðµ":4741,"Ð´Ð¾ÑģÑĤ":4742,"ĠÐºÑĬÑīÐ°":4743,"ÑĤÐ°ÑĨÐ¸Ñı":4744,"Ð½ÐµÐ·Ð¸":4745,"Ð´Ð¾Ð±ÑĢÐ¸ÑĤÐµ":4746,"ĠÑĨÑıÐ»":4747,"ĤÐ½Ð¸ÑĤÐµ":4748,"Ð»ÐµÐºÑĤ":4749,"ĠÐľÐĴÐł":4750,"ÑĤÐ°ÑĢ":4751,"ÑĤÐ½Ð¸ÑĤÐµ":4752,"ĠÐ¾Ð±ÑģÐ»ÑĥÐ¶":4753,"ĠÐ¾ÐºÐ°Ð·Ð°":4754,"ĠÑģÐºÑĢÐ¸":4755,"ĠÐ±Ð°ÑīÐ°":4756,"ĠÑĨÐ¸Ð³Ð°":4757,"ÑĢÐ½Ðµ":4758,"80":4759,"ĠÐĿÐ°Ð´":4760,"Ð¹Ñ":4761,"Ð¹ÑĤ":4762,"Ð½Ð³Ð¾":4763,"ĠÐºÐ¾Ð¼Ð±Ð¸Ð½Ð°":4764,"46":4765,"ĠÐŁÐ¾Ð»Ð¸":4766,"ĠÐ¾ÑģÐ¸Ð³ÑĥÑĢÑıÐ²Ð°":4767,"ĠÐ·ÐµÐ»ÐµÐ½":4768,"ĠÑĤÐ²ÑĬÑĢÐ´Ð¸":4769,"ĠÐĴÑĬÐ²":4770,"ĠÑģÐ»ÑĥÐ¶Ð¸ÑĤÐµÐ»Ð¸":4771,"ĠÐ¾Ð´Ð»Ñĥ":4772,"ip":4773,"ĠÐĿÐ¸ÐºÐ¾Ð»Ð°Ð¹":4774,"Ð½Ð´Ð¾Ð½":4775,"Ð´Ð¶Ð°":4776,"ÑħÐµ":4777,"ard":4778,"ĠÐ§Ð¸":4779,"ĠÐ½Ð°Ð·Ð½Ð°":4780,"Ð³Ð¸ÑģÑĤÑĢÐ¸":4781,"ĠÐ±Ð¸Ð»Ðµ":4782,"ĠÐ´Ð¾Ð²ÐµÐ´Ðµ":4783,"Ð³ÐµÐ½ÑĤ":4784,"ĠÑĢÐ°Ð·ÑģÐ»ÐµÐ´":4785,"ļÐ°ÑĤÐ°":4786,"ĠÐ°Ð±ÑģÐ¾Ð»Ñİ":4787,"ĠÐ´ÐµÐ¹ÑģÑĤÐ²Ð¸Ðµ":4788,"ĠÑģÐµÐ¼ÐµÐ¹ÑģÑĤÐ²Ð¾ÑĤÐ¾":4789,"ĠÐºÐ¾Ð½ÑģÑĥ":4790,"ĠÐ¼ÑĬÐ¶Ðµ":4791,"ĠÐ¿Ð¾ÑģÑĤÐ°Ð²Ñı":4792,"th":4793,"ĠÐłÑĥÑģÐµ":4794,"ĠÐ¼ÑĥÐ·Ðµ":4795,"ĠÐ¸ÑĤÐ°":4796,"ĠÐ³Ð¾Ð»ÐµÐ¼Ð¸ÑĤÐµ":4797,"Ð¹Ð¼":4798,"ĠÐ¼Ð»ÑĢÐ´":4799,"ĠÑĤÐµÐ¾":4800,"Ð²ÐµÑĨ":4801,"ĠÐĳÐ¾Ð¶Ð¸":4802,"Ð½Ð·Ð¾":4803,"ÑĢÐ¶":4804,"ĠÐ¿ÑĢÐ¾Ð¸Ð·Ð²ÐµÐ´Ðµ":4805,"ĠÐ¸Ð´ÐµÑı":4806,"ÑģÐ¿ÐµÐºÑĤÐ¸":4807,"ĠÐ¸Ð·Ð´Ð¸":4808,"Ð°ÐºÐ¾":4809,"ie":4810,"ĠÐ»Ð¸Ð½Ð¸Ñı":4811,"ĠÐ¸Ð·Ð»ÑĬ":4812,"µÐ±":4813,"ĠÐŀÐ¢":4814,"Ð·Ð²Ð°Ð½ÐµÑĤÐ¾":4815,"ĠÐ¸Ð´ÐµÐ½ÑĤÐ¸":4816,"ĠÐºÐ°ÑĩÐµÑģÑĤÐ²Ð¾":4817,"ĠÑģÐ¾ÑĦ":4818,"ĠÐ±ÑĢÐ¸ÑĤÐ°":4819,"¸ÑıÑĤÐ°":4820,"Ð°Ð»Ð½Ð¾":4821,"ÑĢÐ°Ð½Ð°ÑĤÐ°":4822,"ĠÐ¼ÑĥÑģÐºÑĥ":4823,"Ð´ÑĬÑħ":4824,"Ð¶Ð½Ð°ÑĤÐ°":4825,"ĠÑģÑĬÑĤÑĢÑĥ":4826,"ĠÐ·Ð°Ð±Ð¾Ð»ÑıÐ²Ð°":4827,"ĠÐłÐ°Ð·Ð±Ð¸ÑĢÐ°":4828,"ĠÐ·Ð½Ð°ÑıÑĤ":4829,"ĠÐı":4830,"ĽÐĲÐ":4831,"ĠÑĨÐµÐ½Ð¸ÑĤÐµ":4832,"ĠÐ²ÑĬÐ»":4833,"ĠÐ²Ð°ÑĢÐ¸Ð°Ð½ÑĤ":4834,"ĠÑģÐ´ÐµÐ»":4835,"ÐĳÑĬÐ»Ð³Ð°":4836,"ĠÐ»ÑĥÑĵÐµ":4837,"Ð½Ð°ÑĤÐ¸":4838,"ĠÐ¿ÑĢÐµÑģ":4839,"ĠÐ¾ÑĤÑģÑĤÑĢÐ°":4840,"ĠÐ±Ð»Ð°Ð³Ð¾Ð´Ð°ÑĢÐµÐ½Ð¸Ðµ":4841,"ĠÐ¿Ð¸Ðµ":4842,"Ð´Ð¾Ð»Ñĥ":4843,"ĠÐ²Ð¸ÑģÐ¾ÐºÐ°":4844,"ÑĤÐ¾ÑĨÐ¸":4845,"ÑĢÐ²ÐµÐ½":4846,"ĠÐ·Ð°Ð´ÑĬÑĢÐ¶Ð°":4847,"ĠÐ³Ð¾Ð²Ð¾":4848,"ill":4849,"Ð·ÐµÐ½Ð¸":4850,"ĠÐļÐ¾Ð¼ÐµÐ½ÑĤÐ°":4851,"ĠÐĵÑĢÑĥ":4852,"ĠÑĤÐ¾Ñı":4853,"ĠÑģÐ¿Ð¾Ð´ÐµÐ»Ð¸":4854,"ĠÐ¿Ð¾Ð»Ð¾Ð²Ð¸Ð½Ð°":4855,"Ð»ÑıÐ¼":4856,"ĠÑħÑĢÐ°Ð½Ðµ":4857,"ĠÑģÑĦÐµ":4858,"ĠÐ¦Ð²ÐµÑĤÐ°":4859,"ĠÑĤÐµÐºÑģÑĤ":4860,"ĠÐ½Ð°Ð»Ð¾Ð¶Ð¸":4861,"ĠÐ°ÑĢÐµ":4862,"ÑĤÐµÐ»Ð°":4863,"ĠÑĨÐ²ÐµÑĤÐ¾":4864,"Ð²Ð»ÐµÐ½Ð¸Ñı":4865,"ÑĢÐ¾Ð½Ð¸":4866,"ĠÑĨÐµÐ»ÑĤÐ°":4867,"ĠÐ·Ð°Ð²ÑĢ":4868,"39":4869,"ĠÐ¿ÑĢÐµÐ´Ð»Ð¾Ð¶Ð¸":4870,"!\"":4871,"¶ÐµÐ½Ð¸Ðµ":4872,"ÑĬÑĢÐ²Ð¸":4873,"ÑĬÑĢÐ²Ð°":4874,"ĠÐĴÑĤÐ¾":4875,"ĠÐ¸Ð½Ð°ÑĩÐµ":4876,"ĠÐºÐ¾Ñģ":4877,"ĠÑĥÐ²Ð°":4878,"ĠÐ´Ð¸ÑĢÐµÐºÑĤÐ½Ð¾":4879,"34":4880,"ĠÐļÑĬÐ¼":4881,"ÐĳÐµ":4882,"ĠÑĺ":4883,"ĠÐºÑĢÐ¸Ð·Ð°":4884,"ĠÑģÐ¿Ð¾Ð¼ÐµÐ½Ð°":4885,"ĠÐļÐµ":4886,"ĠÑĦÐ°ÐºÑĤÐ¸":4887,"ĠÐ²Ð¸Ð´Ð¾Ð²Ðµ":4888,"2013":4889,"ĠÑĢÐµÐ´Ð¸ÑĨÐ°":4890,"ĠÐ²ÑĤÐ¾ÑĢÐ°ÑĤÐ°":4891,"Ð²Ð°ÑĪÐµ":4892,"Ð±ÐµÐ»Ð¸":4893,"Ð»Ð´":4894,"ĠÑĤÑĢÑĥÐ´":4895,"Ð±ÐµÐ´Ð¸":4896,"ĠÐ¿ÑĢÐ¾Ð´Ð¾Ð»Ð":4897,"ĠÐ²Ð¸ÑĤÐ°":4898,"ŀÐĵÐ":4899,"Ð´ÐµÐ²":4900,"ĠÑģÑĢÐµÐ´Ð°ÑĤÐ°":4901,"ĠÐľÐ°ÑĢÐ¸Ñı":4902,"Ð²ÑĬÑĢÑħ":4903,"gle":4904,"ĠÑģÑĢÐ°Ð²Ð½ÐµÐ½Ð¸Ðµ":4905,"ĠÐ´ÐµÐ½Ðµ":4906,"Ð³Ð¾ÑĢÐ°":4907,"ĠÐ³Ð¾Ð²Ð¾ÑĢÐ¸Ð¼":4908,"ĠÐ²ÐµÑīÐµ":4909,"ĠÑĨÐµÐ»Ð¾":4910,"ĠÐ´Ð¾ÑħÐ¾":4911,"Ġ2008":4912,"ĠÐµÐ¼Ð¸":4913,"¾ÑĪÐ":4914,"Ð¼Ð¿ÑĤÐ¾":4915,"ĠÐ¾Ð±ÑĺÐ°":4916,"ĠÐ¸Ð·Ð²ÑĬÑĢÑĪÐ²Ð°":4917,"ÑĢÐ½Ð¾ÑĤÐ¾":4918,"Ð¼ÐµÑĤÑĢÐ¸":4919,"Ð´ÐµÐ½Ð¸Ñı":4920,"ĠÑĤÑĢÐµÐ½ÑĮÐ¾":4921,"ĠÐºÐ»Ð°ÑģÐ°":4922,"ĠÐ¸Ð½ÑģÑĤÐ¸ÑĤÑĥÑĨÐ¸Ð¸":4923,"ĠÐ·Ð°ÐºÐ¾Ð½Ð°":4924,"Ð¢Ðµ":4925,"ĠÐ·Ð°ÑģÐµÐ´Ð°":4926,"Ð²ÐµÐ¹":4927,"ÑĢÐ¾Ð½":4928,"ÑĢÐ´Ð¶Ð¸":4929,"Ð±Ð»Ð¸Ð¾":4930,"ĠÐ½ÐµÑĺÐ·Ð¸":4931,"Ð±Ð½Ð°ÑĤÐ°":4932,"ĠÂ":4933,"ĠÑģÐµÐºÑĤÐ¾ÑĢ":4934,"ĠÑģÑĬÑīÐ°ÑĤÐ°":4935,"Ð¼Ð°Ð½Ð¸":4936,"ĠÐ¾ÑĤÐ±Ð¾ÑĢÐ°":4937,"Ð³Ð¾Ð»ÑıÐ¼Ð°":4938,"ĠÐ¿Ð»Ð¾Ñī":4939,"ĠÑģÐ»ÑĥÑĪÐ°":4940,"ÑĦÐ¾ÑĢÐ¼Ð¸":4941,"ĠÐĸ":4942,"ĠÐ°Ð´ÑĢÐµÑģ":4943,"ĠÐ¿Ð¾ÑģÑĤÐ¸Ð³Ð½Ð°":4944,"ĠÑģÐµÐºÑĢÐµ":4945,"ĠÐ½ÐµÐºÐ¾Ð":4946,"ĠÐ¿Ð¾Ð»Ð¾Ð¶Ð¸ÑĤÐµ":4947,"ĠÐ¸Ð·ÑĩÐ¸":4948,"ĠÑĤÐµÑĢÐ¸ÑĤÐ¾ÑĢÐ¸ÑıÑĤÐ°":4949,"2014":4950,"ĠÐ±ÑĬÐ»Ð³Ð°ÑĢÐ¸ÑĤÐµ":4951,"ĠÐ±ÐµÐ":4952,"ĠÐºÐ½Ð¸Ð³Ð°ÑĤÐ°":4953,"ÐĸÐ":4954,"ÑħÐ²ÑĬÑĢÐ»Ñı":4955,"ÑĢÐ³Ð°Ð½Ð¸":4956,"ĠÐŁÐ¾Ð»":4957,"ĠÐ¿ÑĥÑģÐ½Ð°":4958,"ĠÐ¿Ð¾ÑģÑĤÐ¾ÑıÐ½Ð½Ð¾":4959,"ĠÐºÐ°ÑĢÑĤÐ°":4960,"ant":4961,"Ð»Ð¾Ð½Ð°":4962,"ĠÐ¼Ð°Ð»ÐºÐ°":4963,"ÐŁÐ°":4964,"ĠÐĺÐĹÐ":4965,"ĠÐ¾ÑĤÐ´ÐµÐ»":4966,"ĠÐ°ÑĢÑħÐ¸ÑĤÐµ":4967,"Ġne":4968,"ĠÐĳÐĿÐ":4969,"ÑħÐ¾Ð´Ð°":4970,"ĠÐ²Ð¸Ð´Ð¸Ð¼":4971,"ÑĢÐ±Ð":4972,"Ð¼ÐµÑĤÐ¸":4973,"Ð¿Ð»Ð°ÑĤÐ°":4974,"ĠÐ¼ÑĢÐµÐ¶Ð¸":4975,"ĠÐ£ÐºÑĢÐ°":4976,"ĠÐ´Ð°Ð¶Ðµ":4977,"Ð¿Ð¾Ð»":4978,"na":4979,"ĠÑģÑĤÐ¾Ð¸":4980,"ĠÑĺÑĥ":4981,"ĠÐ½Ð°ÑĪÐµÑĤÐ¾":4982,"ĠÐ½Ð°Ð¿ÑĢÐ°Ð²ÑıÑĤ":4983,"ÐºÐµÑĤÐ¸":4984,"ĠÐ·ÑĬ":4985,"ÐµÐ¼Ð¾":4986,"47":4987,"ÑĩÐ¸Ð½Ð°ÑĤÐ°":4988,"ĠÐ¢Ð°Ð¼":4989,"ĠÐ´ÑĢÑĥÐ¶Ðµ":4990,"ĠÐ¿ÑĢÐ°Ð²Ð¸Ð»Ð°":4991,"AN":4992,"ĠÐ¸Ð½Ð¾Ð²Ð°":4993,"ĠÐ¸Ð·Ð±Ð¾ÑĢÐ¸ÑĤÐµ":4994,"ĠÐ³ÑĢÑĬ":4995,"ĠÑĢÐ°Ð·Ð²Ð¸Ð²Ð°":4996,"ĠÐ¿ÑĢÐ¾ÐºÑĥÑĢÐ¾":4997,"ÑĢÐ±Ð°ÑĤÐ°":4998,"ĠÐ·Ð°ÑĤÐ¾Ð°":4999,"ĠÐ¨Ð¸":5000,"ĠÐ½Ð¾Ð²Ð¸Ð½Ð¸":5001,"ÑĥÐ¸":5002,"Ð´Ð¸ÑĨÐ¸":5003,"ĠÐ¸Ð´ÐµÐ¸":5004,"ĠÐ°ÐºÑĤÐ¸Ð²Ð¸":5005,"ĠÐ¸Ð¼Ð¾ÑĤ":5006,"Ð¼Ð½Ð¸ÑĤÐµ":5007,"ĠÐ´Ð¾ÐºÐ°":5008,"ĠÑĤÑıÐ»Ð¾":5009,"ĠÑģÐ¿ÐµÑĨÐ¸":5010,"Ð³Ð¾Ð²Ðµ":5011,"ind":5012,"ĠÑĥÐºÑĢÐ°":5013,"Ð¶ÐµÐ½Ð¸":5014,"ĠÐ¿Ð¾Ð¶Ð°":5015,"ĠÑĩÐ¸ÑģÑĤÐ¾":5016,"ĻÑĥ":5017,"ÑĢÐ°ÑľÐ":5018,"ĠÐ¡ÑĤÐ°ÑĢÐ°":5019,"ĠÐ²ÑĬÐ²Ðµ":5020,"Ð³Ð°ÑĪ":5021,"Ð³Ð¾Ð»ÐµÐ¼Ð¸ÑĤÐµ":5022,"ÑıÑħ":5023,"ĠÐµÐ»Ð¸":5024,"ÑıÐ²Ð°Ð½ÐµÑĤÐ¾":5025,"ĠÑģÑĬÑģÐµ":5026,"ĠÐļÐ¾Ð¼Ð¸":5027,"ĠÐ¾Ð¿Ð¾":5028,"ĠÐ´Ð¾Ð±Ð°Ð²Ð¸":5029,"ĠÐµÐºÐ¸Ð¿Ð°":5030,"ĠÑģÐ»ÐµÐ´Ð½Ð¸ÑĤÐµ":5031,"ĠÐķÐ²ÑĢÐ¾Ð¿ÐµÐ¹":5032,"Ġ02":5033,"Ð¿ÑĢÐµÐ´Ð¸":5034,"ĠÑģÑĤÑĢÑĥÐºÑĤÑĥ":5035,"ĠÐ·Ð°ÑħÐ°":5036,"Ġ06":5037,"ĠÐĶÑĬÑĢÐ¶Ð°":5038,"ÑģÑĤÐ°Ð²Ð¸":5039,"ĠÐ¾ÑĩÐ°":5040,"ĠÐ±ÐµÐ°":5041,"ĠÑģÐ°Ð¹Ñ":5042,"ĠÑģÐ°Ð¹ÑĤ":5043,"ĠÐ¸Ð·Ð²ÑĬÑĢÑĪ":5044,"ast":5045,"ĠÐ°ÑĢÐ¼Ð":5046,"ĠÐ¿Ð¾Ð¿Ð¸ÑĤÐ°":5047,"ĠÐ¾Ð¿ÑĢÐµÐ´ÐµÐ»ÐµÐ½Ð¸":5048,"ĠÐ·Ð°Ð²Ð¸ÑģÐ¸Ð¼Ð¾":5049,"ĠÑĢÐµÑĪÐµÐ½Ð¸ÐµÑĤÐ¾":5050,"ĠÐ¾Ð»Ð¸":5051,"ĠÐ¿Ð¸ÑĤÐ°":5052,"µÑģÑĤ":5053,"ÑģÐ½ÐµÑĤÐµ":5054,"ĠÑģÑĬÐ´Ð¸":5055,"ĠÐĲÐ»ÐµÐºÑģÐ°Ð½Ð´ÑĬÑĢ":5056,"ĠÐ¼ÐµÐ½Ðµ":5057,"Ð´ÐµÐ½Ð¸ÑĤÐµ":5058,"ĠÑħÐµ":5059,"ĠÐºÐ°ÑĩÐµÑģÑĤÐ²Ð¾ÑĤÐ¾":5060,"ĠÐ½Ð¾ÑĢÐ¼Ð°":5061,"ĠÑĢÐ¾Ð´Ð¸ÑĤÐµÐ»Ð¸ÑĤÐµ":5062,"Ð·Ð°Ð´":5063,"ĠÐ´ÑĬÑīÐµ":5064,"Ð¹ÑģÐºÐ°":5065,"Ð·Ð¼Ð¾Ð¶Ð½Ð¾":5066,"ĠÑĥÑĤÑĢÐµ":5067,"ĠÑģÑĬÐ±Ð¸ÑĤÐ¸Ñı":5068,"Ð¤":5069,"Ð³Ð°Ð½ÑĤ":5070,"ÑģÐ±Ñĥ":5071,"ĠÐ¸Ð·Ð´Ð°Ð½Ð¸Ðµ":5072,"49":5073,"ÑĤÐ¼Ð¾":5074,"ĠÑģÐ±":5075,"Ð¶Ð±Ð¸Ð½Ð°":5076,"ĠÐ¸Ð·ÑĤÐµ":5077,"ĠÐĴÐµÑĩÐµ":5078,"ĠÐ¿Ð¾Ð²ÑĬÑĢÑħ":5079,"ÑĤÐ»":5080,"ĠÐ¿Ð°Ð´Ð½Ð°":5081,"ĠÐ±Ð°ÑĢÐ°":5082,"ĠÐ¼Ð¸Ð½Ð¸Ð¼Ð°":5083,"ħÐ":5084,"ĠÐ·Ð°Ð±Ð¾Ð»ÑıÐ²Ð°Ð½Ð¸Ñı":5085,"ĠÑĥÑģÐ¼Ð¸":5086,"ÑĢÑĪÐ¸":5087,"ĠÐ½ÐµÐ¹":5088,"%,":5089,"Ð»ÑıÐ·Ð²Ð°":5090,"ĠÐ¾ÑģÑĬÑīÐµÑģÑĤÐ²":5091,"ĠÐ´ÐµÐ¼Ð¾Ð½":5092,"Ġ197":5093,"ĠÐ¿Ð¾ÑģÐ¾ÐºÐ°":5094,"ĠÐ¡Ðķ":5095,"ĠÑģÐµÐºÑĥ":5096,"ĠÐ¿ÑĬÑĢÐ²ÐµÐ½":5097,"ĠÐ½Ð°ÑģÐ¸":5098,"Ð¿ÐµÐ½Ð¸":5099,"ĠÐ½Ð¾Ð²Ð¸Ð½Ð°":5100,"ÑĥÐ¼ÐµÐ½":5101,"ĠÐºÐ²Ð°Ð»Ð¸":5102,"Ð²Ð¸Ð½":5103,"Ð´Ð°Ð¼":5104,"Ð½ÑĥÐ²Ð°ÑļÐµ":5105,"ĠÐ¿ÑĢÐ¾Ð³Ð½Ð¾":5106,"ĠÐ¸Ð½ÑĤÐµÑĢÐ²Ñİ":5107,"ÐºÐ¾Ð»Ð¾":5108,"ĠÑĤÐ¾Ðº":5109,"ĠÐ³Ð¾ÑĤÐ¾Ð²":5110,"ĠÐ¸Ð´ÐµÑıÑĤÐ°":5111,"ĠÑĦÑĢÐµ":5112,"ĠÐ¿Ð¾ÑģÐ»Ð°":5113,"Ġ36":5114,"ÑĢÑĪ":5115,"ĠÐ½ÐµÑĪÑĤÐ¾":5116,"ĠÐ³Ð»Ð°ÑģÑĥ":5117,"ĠÐŁÐµÑĤÑĬÑĢ":5118,"ĠÐ¢ÑĢÑĬÐ¼Ð¿":5119,"ĠÐ¿ÑĢÐ¸ÐµÐ¼":5120,"ĠÐ°Ð»ÐºÐ¾ÑħÐ¾":5121,"ĠÐ±Ð¸ÑħÐ°":5122,"Ð¹ÑģÐºÐ¸ÑĤÐµ":5123,"ĠÐ¼Ð¾Ð»Ð¸":5124,"ĠÑģÑĬÐ¶Ð°Ð»ÐµÐ½Ð¸Ðµ":5125,"ÐºÑĬÑģÐ½Ð°":5126,"ĺÐłÐ":5127,"ĠÐ¿Ð»Ð°Ð½Ð¸ÑĢÐ°":5128,"ÑĢÐ·Ð°":5129,"ĠÐ³ÑĢÐ°Ð´Ð¸Ð½Ð°":5130,"OV":5131,"ĠÐµÐºÐ¸Ð¿":5132,"ĠÐ¿ÑĢÐ¸Ð²Ð»Ðµ":5133,"ĠÑıÐ²Ð½Ð¾":5134,"Ð·Ð¾Ð²":5135,"2012":5136,"ĠÐ·Ð½Ð°ÑĩÐ¸ÑĤÐµÐ»Ð½Ð¾":5137,"ĠÑĩÑĥÐ¶Ð±Ð¸Ð½Ð°":5138,"ÑıÐ²Ð°Ð¼":5139,"ĠÐ±Ð¾Ð»Ð½Ð¸ÑĨÐ°":5140,"ĠÑĦÑĢÐ°":5141,"Ð»Ð½Ð¸Ðº":5142,"ĠÐ¿Ð¾Ð¼Ð¾ÑīÑĤÐ°":5143,"ĠÐ¾ÑĢÑĬÐ¶Ð¸":5144,"ĠÐŀÑħ":5145,"ĠÐ¿ÑĢÐ¾Ð¸Ð·Ð²Ð¾Ð´ÑģÑĤÐ²Ð¾ÑĤÐ¾":5146,"ĠÐ¸Ð·Ð¾Ð±ÑĢÐ°":5147,"31":5148,"ĠÐĲÐ¼Ð°":5149,"ĠÐ¼Ð»Ð°Ð´Ð¸ÑĤÐµ":5150,"ÐºÑĢÐ°Ð¹":5151,"ĠÑĢÐ°Ð¹Ð¾Ð½Ð°":5152,"ĠÐ½Ð°ÑĤÐ¿":5153,"ĠÐ¡Ð¿Ð°":5154,"ĠÐ·Ð±Ð¾":5155,"ÑļÐµÑĤÐ¾":5156,"ĠÐŀÐ±Ð¸":5157,"ĠÐºÑĢÑĬÐ²":5158,"ĠÐ¿Ð¾Ð¼Ð¾Ñ":5159,"ĠÐ¿ÑĢÐµÐ´Ð²Ð°ÑĢÐ¸ÑĤÐµÐ»Ð½Ð¾":5160,"ÑĤÐµÑĢÐ½Ð°":5161,"ĠÐ¿Ð¾Ð½ÑıÐºÐ¾Ð³Ð°":5162,"ŀÐ¢Ðŀ":5163,"ÑģÐºÐ¸ÑıÑĤ":5164,"ĠÑĦÐ¾ÑĢÐ¼Ð°ÑĤÐ°":5165,"ĠÐºÐ¾Ð¼Ð¿Ð»ÐµÐºÑģ":5166,"ĠÑģÐ¿Ð¾ÑģÐ¾Ð±":5167,"Ð³Ð²Ð°":5168,"ĠÐľÐ»Ð°":5169,"ĠÐ²ÐµÐ´Ð½ÑĬÐ¶":5170,"Ð¹ÑģÐºÐ°ÑĤÐ°":5171,"ĠÐ¡ÐµÐ²ÐµÑĢÐ½Ð°":5172,"ĠÐ°Ð¿Ð°":5173,"ĠÐĲÐ¼Ð¸":5174,"ÑģÑĤÐ¸ÐºÐ°":5175,"ĠÑĤÐ°Ð±":5176,"ĠÐ½Ð°ÑĢÐµÐ´":5177,"ĠÐ¿ÑĢÐ°ÑĪÐ°Ñ":5178,"ĠÐ½Ð°Ð´Ðµ":5179,"ĠÐ¿ÑĢÐ¾Ð·Ð¾":5180,"ĠÑģÐ»ÐµÐ´Ð²Ð°ÑīÐ¸ÑĤÐµ":5181,"ĠÐ¿ÑĢÐ¸Ð½ÑĨÐ¸Ð¿":5182,"ĠÐ¾ÑĤÐ½Ð°ÑģÑı":5183,"ĠÐ¾ÑģÐ²Ðµ":5184,"ĠÐ±Ð¸Ñħ":5185,"Ð½Ð°Ð´":5186,"ĠÐ¾Ð±ÑīÐµÑģÑĤÐ²Ð¾ÑĤÐ¾":5187,"ĠÑģÑĬÐ±Ð¸ÑĢÐ°":5188,"ĠÐ½ÐµÐ³Ð¾Ð²Ð¸":5189,"ÑĨÐµÐ½":5190,"ĠÐĶÐ¶Ð":5191,"Ð´Ð°Ð»Ð¸":5192,"ÑĢÐµÐ´ÐµÐ½":5193,"ĠÐ¾ÑĤÐ´Ð°Ð²Ð½Ð°":5194,"ĠÑģÑĤÐ°Ð²Ð°ÑĤ":5195,"32":5196,"ĠÐµÐ»ÐµÐ¼ÐµÐ½ÑĤÐ¸":5197,"ĠÐºÐ¾Ð½ÐºÑĥÑĢÐµÐ½":5198,"ĠÑģÐ¾Ð±ÑģÑĤÐ²ÐµÐ½Ð¾ÑģÑĤ":5199,"ĠÐ¿Ð¾ÐºÐ°Ð·Ð²Ð°ÑĤ":5200,"ĠÐ¿ÑĢÐµÐ´Ð¿ÑĢÐ¸Ñı":5201,"ÑĤÐ²Ð°Ð½Ðµ":5202,"ĠÐĹÐĲÐ":5203,"ĠÐºÐ¾Ð»ÐµÐ³Ð¸":5204,"ÑĢÐ¸ÑĤÐ°Ð½Ð¸Ñı":5205,"Ð²Ð°Ð»Ð°":5206,"ĠÐ´ÑĢÑĬ":5207,"56":5208,"ĠÐ¿ÑĢÐ¸Ð¿Ð¾":5209,"ĠÐ´ÑĬÐ»Ð³Ð":5210,"ĠÐ·Ð½Ð°ÐµÑĤÐµ":5211,"¾Ñģ":5212,"Ð¼ÐµÑģÐµ":5213,"Ð¾Ð±ÑīÐµ":5214,"ĠÑģÐ°Ð¼Ð°ÑĤÐ°":5215,"ĠÑģÑĥÐ¼":5216,"ļÐĺ":5217,"ÑĪÑĥÐ²Ð°":5218,"¾ÑĤÐ":5219,"ĠÐ¿ÑĢÐ¸Ð½Ñĥ":5220,"ĠÐŁÐ°ÑĢÐ¸":5221,"ĠÐ¼ÐµÐ´Ð¸Ð¸":5222,"ĠÑģÐºÐ¸":5223,"ĠÐ¼ÐµÑģÐ¾":5224,"ĠÑģÐ²ÑĬÑĢÐ·":5225,"Ð¼ÐµÑĢÐ½Ð¾":5226,"ĠÐ¾ÑĤÐ³Ð¾Ð²Ð¾ÑĢÐ½Ð¾ÑģÑĤ":5227,"ÑĨÐ¸Ð°Ð»ÐµÐ½":5228,"ĠÑĢÐ°Ð·Ð¿ÑĢÐµÐ´Ðµ":5229,"ĠÑĢÐµÐ°Ð»Ð¸Ð·Ð¸ÑĢÐ°":5230,"ÑģÑĤÑĥÐ²Ð°":5231,"ĠÑĢÐµÐ·ÑĥÐ»ÑĤÐ°ÑĤÐ¸ÑĤÐµ":5232,"ĠÑģÐ²ÐµÑĤÐ»Ð¸Ð½Ð°":5233,"ĠÐ¿Ð°ÑĢÐºÐ¸":5234,"ĠÑģÐ²Ð¸Ð´Ðµ":5235,"ĠÐºÐ¾Ð½ÑĦ":5236,"ge":5237,"ĠÐ±ÑİÐ´Ð¶ÐµÑĤ":5238,"ĠÐ½Ð°Ð±Ð»ÑİÐ´Ð°Ð²Ð°":5239,"ĠÐ¿Ð¾Ð»Ð·Ð°":5240,"ĠÐķÐ²ÑĢÐ¾Ð¿ÐµÐ¹ÑģÐºÐ¸Ñı":5241,"ate":5242,"ĠÐ¿Ð»Ð¾ÑīÐ°":5243,"ĠÐŁÑĥÑĤÐ¸Ð½":5244,"Ð»ÐµÐ¿":5245,"ĺÐ¦Ð":5246,"ĠÐ¸ÑģÑĤÐ¸Ð½ÑģÐºÐ¸":5247,"ĠÐĿÑıÐºÐ¾Ð¸":5248,"Ð¢Ð¾Ð²Ð°":5249,"ĠÐ¿ÑĢÐµÐ´Ð½Ð°Ð·Ð½Ð°":5250,"ĠÐ¸Ð·Ð±Ñı":5251,"ĠÐ¿ÑĢÐµÐ´Ð»Ð°Ð³Ð°Ñ":5252,"ĠÐ¿ÑĢÐµÐ´Ð»Ð°Ð³Ð°ÑĤ":5253,"Ð±Ð»Ð¸Ð¾ÑĤÐµ":5254,"ÑģÐ¾Ð²Ð°":5255,"ĠÐ½Ð°Ð¿ÑĢÐ°Ð²Ð¸ÑĤÐµ":5256,"Ġ2000":5257,"Ð´Ð½Ð¾ÑģÑĤ":5258,"ĠÑģÑĢÐµÑī":5259,"ĠÐ¿ÑĬÑĤÑĥ":5260,"ĠÐŁÐ¾ÑģÐ»Ðµ":5261,"ack":5262,"ĠÑģÐ²Ð¾Ð¸":5263,"ĠÐ½ÐµÐºÐ¾Ñĺ":5264,"ĠÐ·Ð°ÐºÐ°":5265,"ÑĢÑİ":5266,"ĪÑĥ":5267,"oogle":5268,"ĠÐĹÐ°Ð³Ð¾ÑĢÐ°":5269,"ĠÑģÐµÑĢÐ¸Ð¾Ð·Ð½Ð¾":5270,"ĠÐ·Ð¾Ð½Ð°":5271,"ÑģÐ¾ÑĢ":5272,"ÑĮÐ¾ÑĢ":5273,"ĠÑģÑĤÐ¸Ð³Ð½Ðµ":5274,"Ð»ÑĥÐ²Ð°":5275,"ĠÐĶÐ¾Ð±ÑĢÐµ":5276,"ĠÐ¿Ð¾ÑģÐ»ÐµÐ´Ð½Ð°ÑĤÐ°":5277,"Ð¿Ð¸Ð":5278,"Ð¸Ð»":5279,"AR":5280,"ĠÐ¿ÐµÑĢÑĦÐµ":5281,"ĠÐ¼Ð¾Ñı":5282,"ĠÐ½ÑıÐºÐ°ÐºÐ²Ð¸":5283,"ment":5284,"ĠÐ¿Ð¾ÑģÑĤÐ°Ð²Ð¸":5285,"Ð´Ð½Ð¸Ñı":5286,"ĠÐ¾ÑĤÐ²Ð¾ÑĢÐ¸":5287,"ĠÐ¿ÑĢÐµÑģÑĤÑĬÐ¿Ð»Ðµ":5288,"ĠÑģÑĢÐµÐ´Ð½Ð¾":5289,"ĠÐµÐºÑģÐ¿ÐµÑĢÑĤÐ¸":5290,"Ġ05":5291,"ĠÐ±Ð°Ð»Ð°Ð½":5292,"ĠÑģÐ¸ÑĤÑĥÐ°ÑĨÐ¸Ñı":5293,"ĠÐ¥Ñĥ":5294,"ĠÐŁÑĥÐ±Ð»Ð¸":5295,"Ð²Ð°ÑīÐ°":5296,"ĠÑģÑĬÐ·Ð½Ð°":5297,"ĠÑģÐµÐ»":5298,"Ð¼ÐµÐ½ÑıÑĤ":5299,"Ð°Ð»Ð½Ð¸":5300,"ĠÐ³ÐµÐ":5301,"ĠÐºÐ²Ð°ÑĢÑĤÐ°":5302,"ĠÐ¿ÑĢÐ°Ð²Ð¾ÑĤÐ¾":5303,"ÑĢÐ°ÑĤÐ¾":5304,"ĠÐºÐ¾Ð»Ð°ÑĤÐ°":5305,"ĠÐ½Ð°Ð³ÑĢÐ°Ð´Ð°":5306,"ÑĪÐ¸Ð¾ÑĤ":5307,"ĠÑģÑĤÐ°ÑĤÑĥ":5308,"¾ÑĨÐµ":5309,"ÑĤÐµÐ»Ð½Ð¸Ñı":5310,"ĠÑĢÑĬÑĨÐµÑĤÐµ":5311,"ĠÑħÐ²ÑĬÑĢÐ":5312,"ĠÐ¾ÑĤÐ½Ðµ":5313,"Ð½Ð¸Ñģ":5314,"Ġ[#":5315,"ĠÐ´Ð¾Ð»Ð":5316,"ĠÐºÐ¾Ð½ÑģÑĤÑĢÑĥ":5317,"ĺÐĹÐ":5318,"ĠÐ´Ð°Ð»ÐµÑĩ":5319,"ĠÐ¸Ð½ÑĦÐµ":5320,"ĠÐļÑĬ":5321,"ĠÐ¥Ðµ":5322,"ĠÐ¿ÑĬÑĤÑĥÐ²Ð°":5323,"ĠÐ³Ð°Ð·":5324,"ĠÐ¿ÑĢÐ¾ÑģÑĤÑĢÐ°Ð½ÑģÑĤÐ²Ð¾":5325,"ÑĦÐ°Ð½":5326,"ĠÐ©Ð¾":5327,"ĠÑģÐ½Ð¸Ð¼Ð°":5328,"ÑĩÐ²Ð°Ð½ÐµÑĤÐ¾":5329,"ĠÐ¼Ð»Ñı":5330,"ĠÑīÐµÑĪÐµ":5331,"ĠÐ±Ð¾ÑĢÐ±Ð°":5332,"ĠÐ¸Ð½ÑĦÑĢÐ°":5333,"ĠÐĶÑĢÐ°":5334,"ĠÐ¸Ð·ÑģÐ»ÐµÐ´Ð²Ð°Ð½Ð¸Ñı":5335,"ÑĩÐ½Ð¾ÑģÑĤÑĤÐ°":5336,"ĠÐ¸Ð³ÑĢÐ°ÑĤÐ°":5337,"ĠÑĢÐ°Ð·Ð»Ð¸ÑĩÐ½Ð¸ÑĤÐµ":5338,"ĠÐ½Ð°ÑģÑĤÑĢÐ¾Ð":5339,"ĠÑģÑĬÐ±ÑĢÐ°Ð½Ð¸Ðµ":5340,"ĠÐºÐ°Ð¿Ð°ÑĨÐ¸ÑĤÐµ":5341,"ĠÐ»Ð¾ÑĪÐ¾":5342,"ĠÑĢÐ°Ð´Ð²Ð°":5343,"ĠÐ·Ð°ÑģÑĤÐ°":5344,"ĠÑĦÐ¾ÐºÑĥ":5345,"ĠÐ·Ð²ÐµÐ·":5346,"ĠÐ±Ð¾Ð³Ð°ÑĤ":5347,"ĠÐ°ÑĢÑĤÐ¸":5348,"Ġ**":5349,"ĠÑĥÑĩÐµÐ½Ð¸ÑĨÐ¸":5350,"Ð±ÑĢÐ¸ÑĤÐ°Ð½Ð¸Ñı":5351,"ÑģÑĤÐ²ÐµÐ½Ð¸Ñı":5352,"ĠÐ·Ð°ÑģÑĤÑĢÐ°ÑħÐ¾":5353,"ĠÐ¿ÑĬÑĤÐµ":5354,"ĠÐĶÑĢÑĥÐ³Ð¸":5355,"Ð½ÐµÑģÑĥÐ²Ð°":5356,"Ð´ÑĬÑĢ":5357,"ĠÑģÐ¼ÑĬÑĢÑĤÑĤÐ°":5358,"ĠÐ¿ÑĢÐ¾ÑĤÐ¾":5359,"ÑĩÐ½Ð¸ÑıÑĤ":5360,"Ð³ÑĢÐ¾":5361,"ĠÐ¾Ð±ÑīÐ¸Ð½Ð°ÑĤÐ°":5362,"Ð´ÐµÐ¹ÑģÑĤÐ²Ð¸Ðµ":5363,"io":5364,"ĠÑĥÐ¿ÑĢÐ°Ð¶":5365,"Ð½ÑĦÐ¾ÑĢÐ¼Ð°":5366,"ĠÑĤÐµÐ½Ð´ÐµÐ½":5367,"ĠÑĢÐ°Ð·ÑħÐ¾Ð´Ð¸":5368,"ĠÐ¿ÑĢÐµÐ´Ð¾":5369,"ĠÐ´Ð¸ÑģÐºÑĥ":5370,"ĠÐĶÐ¾ÐºÐ°ÑĤÐ¾":5371,"ĠÐ¢ÑĬ":5372,"ĠÐķÐ´Ð½Ð¾":5373,"ĠÑģÑĬÑĢÑĨÐµÑĤÐ¾":5374,"ĠÐĴÐ°ÑģÐ¸":5375,"ebook":5376,"Ð³Ð¾Ð´Ð¸ÑĪÐµÐ½":5377,"ĠÐ¼Ð½Ð¾Ð·Ð¸":5378,"ĠÐ½Ð°ÐµÐ¼":5379,"ĠÐ´Ð¾ÑĪ":5380,"ĠÑĥÐ¶Ð°":5381,"ĠÐ²ÑĤÐ¾ÑĢÐ°":5382,"Ð³Ð¾Ð»ÑıÐ¼Ð°ÑĤÐ°":5383,"ÑģÑĤÐ²Ð¸ÑĤÐµ":5384,"ĠÑĥÑģÐµÑīÐ°":5385,"ĠÐŁÑĢÐ°Ð²Ð¸":5386,"54":5387,"ÑĨÐ¸Ð¾Ð½Ð½Ð¸ÑĤÐµ":5388,"ĠÑģÑĤÐ¸Ð¼Ñĥ":5389,"Ð³ÑĢÐ°ÑĦÐ¸Ñı":5390,"ÐºÐ¸ÑĢÐ°":5391,"ĠÑĤÑĥÐºÑĥ":5392,"Ð¹Ð¾":5393,"Ð·Ð¸Ð":5394,"Ð³Ð¸ÑģÑĤÑĢÐ¸ÑĢÐ°Ð½":5395,"ĠÑĤÐµÑħÐ½Ð¸ÐºÐ°":5396,"ÑıÑħÐ°":5397,"ĠÐ¶Ð¸Ð²ÐµÑıÑĤ":5398,"ĠÐĿÐĲÐ¢Ðŀ":5399,"ĠÑģÑĤÐ°ÑĤÐ¸Ñı":5400,"ĠPro":5401,"ĠÐ°Ð´Ð²Ð¾":5402,"iz":5403,"ĠÑģÐ²Ð¾ÑĺÐ°ÑĤÐ°":5404,"Ð±ÐµÑĢÐ°":5405,"ĠÐ°Ð¿Ð°ÑĢÑĤÐ°Ð¼ÐµÐ½ÑĤ":5406,"Ð½Ð¸Ð´Ð¶":5407,"ĠÐ¿ÑĢÐ¸ÐºÐ»Ñİ":5408,"ĠÐŀÐĳÐ":5409,"ĠÐ¦Ð°":5410,"ĠÐ´ÐµÐ»Ð°":5411,"ÑģÑĤÑĬÑĤ":5412,"ĠÑĤÐµÑĢÐ¾":5413,"ĠÐ¾Ð´Ð¸":5414,"ĠÐ²ÑĬÐ·Ð¼Ð¾Ð¶Ð½Ð¾ÑģÑĤÑĤÐ°":5415,"ĠÐ¿Ð»Ð°ÑĤÐ¸":5416,"ĠÐ¸Ð·Ð»Ð¸":5417,"Ð±ÐµÐ»":5418,"ÐºÑĤÐ¾Ñ":5419,"ÐºÑĤÐ¾ÑĤ":5420,"ÐĴÐ°":5421,"ĠÐºÐ¾Ð°Ð»Ð¸":5422,"ĠÑĢÐ°Ð±Ð¾ÑĤÐ½Ð¸":5423,"ŀÐĳÐ":5424,"Ġ150":5425,"ĠÐĲÑĤÐ°Ð½Ð°":5426,"Ð©Ð":5427,"Ð¶ÐºÐ¸":5428,"ĠÐ½Ð°ÑģÐµÐ»ÐµÐ½Ð¸ÐµÑĤÐ¾":5429,"ĠÐµÐ²ÑĢÐ°":5430,"Ð¿Ð°ÑĤ":5431,"ĠÑīÐ°ÑģÑĤÐ»Ð¸":5432,"Ð½Ð¾ÑģÐ¸":5433,"Ġ2007":5434,"ĠÐ±Ð¸Ð²Ð°":5435,"ĠÐĳÐ»Ð¸":5436,"ĠÐ¸Ð·Ð²ÐµÑģÑĤÐ½Ð¾":5437,"ĠÐ¤Ñĥ":5438,"ĠÑĢÐ°Ð´Ð¸Ð¾":5439,"ĠÑĤÐ²Ð¾ÑĢ":5440,"ÑģÑıÐºÑĬÐ´Ðµ":5441,"ĠÐ½Ð¸ÐºÐ°ÐºÐ²Ð¸":5442,"ĠÐ¸Ð·ÐºÐ°":5443,"ĠÐĳÐ»Ð°Ð³Ð¾Ð´Ð°ÑĢÑı":5444,"ĠÑģÑĤÐ°Ñı":5445,"ĠÑĥÐ±Ð¸Ð¹":5446,"ĠÑģÐ°Ð¼Ð¸ÑĤÐµ":5447,"ĠÐ¿Ð¾Ð»":5448,"IN":5449,"ÑĤÐ¼Ð°":5450,"ŀÐŀÐĶ":5451,"se":5452,"ĠÐ¼Ð½Ð¾Ð¶ÐµÑģÑĤÐ²Ð¾":5453,"ĠÐºÐ°ÑĤÐ°ÑģÑĤ":5454,"ÑģÑĤÐµÐ¿ÐµÐ½":5455,"ĠÐĹÐµÐ¼":5456,"ĠÐ°Ð²ÑĤÐ¾Ð±Ñĥ":5457,"57":5458,"ĠÑģÐ¿Ð¾ÑĢÐ°Ð·ÑĥÐ¼Ðµ":5459,"ĠÐ¾ÑĤÐºÐ°Ð·Ð°":5460,"ÑħÑĢÐ°Ð½Ð²Ð°":5461,"ĠÐ¾Ð±ÐµÑīÐ°":5462,"Ð²Ð¸Ð´Ð½Ð¾":5463,"ĠÐ»ÐµÐ½":5464,"ĠÑĦÐ¸ÑĢÐ¼Ð°ÑĤÐ°":5465,"ĠÐ³ÐµÐ¾":5466,"ĠÑģÑĬÐ´ÑĬÑĢÐ¶Ð°Ð½Ð¸Ðµ":5467,"ĠÐ´ÑĢÑĥÐ³Ð°ÑĤÐ°":5468,"ĠÐ¿ÑĢÐ¸ÑĢÐ¾Ð´Ð°ÑĤÐ°":5469,"ĠÐ³ÐµÐ½ÐµÑĢÐ°":5470,"58":5471,"ĠÐ¿ÑĢÐµÐ´Ð¿Ð¾ÑĩÐ¸ÑĤÐ°":5472,"ĠÐ¾Ð½ÐµÐ·Ð¸":5473,"Ð½Ð´Ð°ÑĤÐ°":5474,"ÑīÐµÐ½Ð¸ÐµÑĤÐ¾":5475,"ĠÐ¿ÑĬÑĢÐ²Ð°":5476,"ĠÐºÐ³":5477,"ĠÐ·Ð°Ð±":5478,"ĠÐ·Ð°ÑĢÐµ":5479,"ĠÐºÐ¾Ð»Ð¸ÑĩÐµÑģÑĤÐ²Ð¾":5480,"ÑĢÐ¾Ð¹":5481,"ĠÐ²ÑģÑıÐºÐ°ÐºÐ²Ð¸":5482,"ĠÐ¿ÑĢÐ¸ÑıÑĤ":5483,"Ð»ÐµÐ½Ð¸ÑĤÐµ":5484,"ĠÑĦÐ¸Ð³Ñĥ":5485,"ĠÐ²ÑĢÑĬÑīÐ°":5486,"ore":5487,"ĠÑĤÑĢÐµÐ½Ð¸ÑĢÐ¾Ð²":5488,"ĠÑģÑĤÑĬÐº":5489,"ĠÐ´ÐµÐ»Ð¾ÑĤÐ¾":5490,"ĺÐ¡Ð":5491,"ĠÐ°Ð³ÐµÐ½ÑĨÐ¸Ñı":5492,"ĠÐ½ÐµÑģÑĬ":5493,"Ð³Ð¸ÑĤÐ°":5494,"ĠÐ¿ÑĢÐµÐ²ÑĢÑĬÑīÐ°":5495,"ĠÐ·Ð°Ð´Ð°ÑĩÐ°":5496,"ĠÐĳÐ¾Ð³Ð°":5497,"...]":5498,"ĠÐĺÑģÐ¿Ð°":5499,"Ð²Ð°ÑīÐ¸":5500,"ÑĢÐ¾ÑĪÐ":5501,"ĠÐ¼ÑĥÐ·Ð¸":5502,"ĠÐ±Ð¸Ð·Ð½ÐµÑģÐ°":5503,"ĠÐ´ÐµÑĤÐ°Ð¹":5504,"ÑĥÐ½":5505,"ĠÐºÐ¾ÑĢÑĥÐ¿":5506,"Ð½ÐµÐ²Ð°":5507,"acebook":5508,"ÐĵÐ¾":5509,"Ð²ÐµÐ¹ÑĤÐµ":5510,"ĠÐ³Ð»Ð°ÑģÐ°":5511,"ber":5512,"Ð½Ð¸Ð½":5513,"59":5514,"ĠÑĤÑĥÐºÐ°":5515,"ĠÐ¿ÑĢÐ¾Ð¼ÐµÐ½Ñı":5516,"ĠÐ´ÐµÐºÐ¾":5517,"ĠÐ¿Ð»Ñİ":5518,"Ð¿Ð¾ÑĤ":5519,"ĠÐ¿ÑĢÐ¸ÑĺÐ°":5520,"ĠÐĹÐ°ÐºÐ¾Ð½Ð°":5521,"ĠÐ¾ÑĤÐ½Ð¾ÑĪÐµÐ½Ð¸Ñı":5522,"ĠÐ¿ÑĢÐµÑĨÐµ":5523,"ĠÐ¿ÑĥÑģÐºÐ°":5524,"ĠÐ´ÐµÐ¹ÑģÑĤÐ²Ð¸ÑĤÐµ":5525,"ĠÐ±Ð¾Ð»":5526,"ĠÑģÑıÐºÐ°ÑĪ":5527,"ÑģÐ¸Ðµ":5528,"ĠÐ¡Ðª":5529,"ĠÑĢÐ°Ð¹Ð¾Ð½":5530,"ÐµÑĪ":5531,"ĠÑĢÐ°Ð·ÐºÐ°Ð·Ð²Ð°":5532,"ĠÐ¿Ð°ÑĢÑĤÐ¸Ð":5533,"ĠÐ¸ÐºÐ¾Ð½Ð¾Ð¼Ð¸ÐºÐ°":5534,"ĠÐ´ÐµÐºÐ»Ð°":5535,"ĠÐĴÐµÐ»Ð¸ÐºÐ¾Ð±ÑĢÐ¸ÑĤÐ°Ð½Ð¸Ñı":5536,"ĠÑĥÐ²ÑĢÐµ":5537,"Ð¿ÑĬÐ»Ð½Ð¸ÑĤÐµ":5538,"ph":5539,"ĠÐļÐ¾Ð":5540,"ĠÑģÐ¾ÑĦÑĤÑĥÐ":5541,"ĠÐĽÐ¾Ð½Ð´Ð¾Ð½":5542,"Ð¡ÑĬ":5543,"ĠÑģÑĬÑĤÑĢÑĥÐ´Ð½Ð¸":5544,"ĠÐ²ÐµÑĢÐ¸":5545,"ĠÐºÐ°ÑĢÑĤÐ¾":5546,"ĠÐ¿ÑĢÐ¾Ñı":5547,"ĠÐ²Ð°ÑĪÐµÑĤÐ¾":5548,"ĠÐĴÐľÐłÐŀ":5549,"ĠÐ¿ÑĢÐµÑģÑĤÑĬÐ¿":5550,"ÑĪÐºÐ¸ÑĤÐµ":5551,"ĠÐ¾Ð´Ð¾Ð±":5552,"ĠÐ²Ð°Ð¶Ð½Ð¸":5553,"ĠÐ¼Ð°Ð½Ð¸":5554,"ĠÐŁÐ»Ðµ":5555,"are":5556,"2011":5557,"Ð´Ð°Ð»":5558,"ĠÐ¿ÑĢÐ¾Ð²ÐµÑĢÐºÐ°":5559,"ĠÑģÑĬÑīÐµÑģÑĤÐ²Ñĥ":5560,"qu":5561,"ĠÐºÑĢÐ°Ð¹Ð½Ð°":5562,"ĠÐ´Ð¾Ð½ÐµÑģÐµ":5563,"ĠÐ¿ÑĢÐ¾Ð´ÑĬÐ»Ð¶ÐµÐ½Ð¸Ðµ":5564,"ĠÑĢÐµÐ°Ð»Ð½Ð¾":5565,"ļÐĲ":5566,"ĠÑĦÐ°ÐºÑĤ":5567,"ĠÐļÐ°ÐºÐ¾":5568,"ÑİÑ":5569,"ĠÐ¿Ð°ÑĢÑĤÐ¸Ð¸":5570,"ÑİÑĤ":5571,"ĠÐ¿ÑĢÐ¾Ð±Ð»ÐµÐ¼Ð¸ÑĤÐµ":5572,"ĠÐ¿Ð¾ÑĤÑĢÐµÐ±Ð¸ÑĤÐµÐ»Ð¸ÑĤÐµ":5573,"ĠÐ°ÐºÐ°Ð´Ðµ":5574,"ĠÑģÑĥÐ¼Ð°":5575,"Ġ04":5576,"ĠÐ¿ÑĢÐ¸ÑģÑĤÐ°":5577,"Ð³Ð¾Ð»ÑıÐ¼":5578,"ĠÐ¡Ð¸Ð¼Ðµ":5579,"ĠÐ²ÑĬÐ·ÑĢÐ°ÑģÑĤÐ½Ð¸":5580,"ĠÐķÐŀÐŀÐĶ":5581,"ĠÐļÐ¾Ð³Ð°":5582,"ĠÐ»ÐµÑĤÐ¸":5583,"ĠÐ±Ð°ÑģÐµ":5584,"ĠÐ·Ð°ÐºÐ¾Ð½Ð¾Ð´Ð°":5585,"ĠÐ¿ÑĬÐ»Ð½Ð°":5586,"ĠÐ²ÑĤÐ¾ÑĢÐ¾":5587,"ĠÐ¿Ð¾Ðµ":5588,"ŀÐĴÐĲ":5589,"Ã¨":5590,"ĠÐ¾Ð¿ÑĢÐµÐ´ÐµÐ»ÐµÐ½Ð¾":5591,"ŀÐŁÐ":5592,"Ġ[...]":5593,"ĠÐ¼Ð¾Ð¶Ð°ÑĤ":5594,"ĠÐºÐ¾Ð¾":5595,"ĠÑĥÑģÐ¿ÐµÑĪÐ½Ð¾":5596,"ity":5597,"Ð´Ð¾Ð²ÐµÑĤÐµ":5598,"ĠÐĿÐµÐºÐ°":5599,"ĠÐ¿Ð¾Ð´Ð°ÑĢÑĬ":5600,"ĠÐ¿ÑĢÐ¾Ð´Ð°Ð¶Ð±Ð°":5601,"¡Ð¢ÐĴÐ":5602,"ĠÐ¿ÑĢÐ°Ð²Ð¸Ð»Ð½Ð¾":5603,"ĠÐ¿ÑĢÐµÐ´Ð¾ÑģÑĤÐ°Ð²Ñı":5604,"ÑĢÐ¼Ð¸ÑĤÐµ":5605,"ĠÐ¿Ð°ÑĢÑĤÐ½ÑĮÐ¾ÑĢ":5606,"ĠÐĴÑģÑı":5607,"ĠÐ²Ð¸Ñģ":5608,"ĠÐ¾Ð±ÑīÐµÑģÑĤÐ²Ð¾":5609,"ĠÑģÐ¸Ð¼Ð¿ÑĤÐ¾":5610,"ÑĤÐ»ÐµÐ½Ð¸Ðµ":5611,"ĠÐ½Ð¾ÑĢÐ¼Ð°Ð»Ð½Ð¾":5612,"ĠÐ²Ð°ÑĪÐ¸Ñı":5613,"ĠÐ¶Ð¸Ð²Ð¾ÑĤÐ½Ð¸":5614,"Ð½Ð°ÑħÐ°":5615,"ĠÐĶÐŁÐ¡":5616,"ĠÐ½Ð¾ÑģÐµ":5617,"ĠÐ£Ð½Ð¸":5618,"Ð¼Ð¸Ð»":5619,"ĠÐ¼Ð°Ð³Ð°Ð·Ð¸Ð½":5620,"ĠÑĤÐ°ÐºÑģÐ¸":5621,"ĠÐ¸ÑģÑĤÑĢÐ°":5622,"ĠÑĤÑĢÑĬÐ³Ð½Ð°":5623,"ĠÐ±Ð»Ð¸Ð·Ð¾ÑģÑĤ":5624,"Ð¿ÐµÑĤÐµ":5625,"ÑĤÐµÐ½Ð¾":5626,"ÑĤÐ¾Ð²ÐºÐ°":5627,"Ð»Ð¸Ð²":5628,"ĠÐ¿ÑĢ":5629,"ĠÐ¿ÑĢÐ¸Ð¾":5630,"ÑĤÐµÐ»Ð½Ð¾ÑĤÐ¾":5631,"ĠÐ¡Ð½Ð¸Ð¼":5632,"Ð´Ð²Ð°Ð½Ðµ":5633,"ĠÐ¿ÐµÑģÐµÐ½":5634,"Ġ1000":5635,"Ð¿ÑĬ":5636,"ĠÐ´Ð¾ÐºÑĥÐ¼ÐµÐ½ÑĤÐ°":5637,"ĠÑĤÐ°Ñı":5638,"ĠÐ¢Ð¾Ð°":5639,"Ð½Ð°ÑģÑĤÐ¸":5640,"Ð¡Ð²":5641,"ĠÐŁÐµÑĤÐºÐ¾":5642,"ĠÐ½ÐµÐ±Ðµ":5643,"our":5644,"Ð²ÐµÐ»Ð¸":5645,"ĠÐĲÐ½Ð°":5646,"ĠÐµÑĤÐ°Ð¿":5647,"ĠÑħÐ°ÑĢÑĤÐ¸":5648,"Ð²ÐµÐ½Ð¸ÑĤÐµ":5649,"ĠÐ¸Ð½Ð¶Ðµ":5650,"ĠÑĦÐ¸Ð»Ð¾":5651,"ĠÐľÐ°ÐºÐµÐ´Ð¾Ð½Ð¸Ñı":5652,"ĠÐ´ÐµÑĤÑģÐºÐ¸":5653,"ĠÐĶÐ²Ð°":5654,"Ð´Ð½Ð¾ÑĤÐ¾":5655,"ĠÑĢÐ°Ð·ÐºÐ°":5656,"Ġ196":5657,"ÑĤÐµÑĢ":5658,"ĠÐ¡Ð»Ñĥ":5659,"ĠÐ¸Ð·Ð¼Ð¸Ð½Ð°":5660,"Ð´Ð¾Ñħ":5661,"ĠÐ½Ð¸Ð·":5662,"ĠÑĥÑĢÐµ":5663,"ÑĢÐ±":5664,"ÑĦÐ¾ÑĢÑĤ":5665,"ÑĤÐ¸ÑĢÐ°Ð½Ð¸":5666,"ĠÐ¾ÑĤÐ±ÐµÐ»ÑıÐ·Ð°":5667,"ÑĢÐµÐ¹":5668,"ĠÑĢÐµÐ¼Ð¾Ð½ÑĤ":5669,"Ð»ÐµÑĢ":5670,"ĠÑĥÐ½Ð¸ÑīÐ¾":5671,"ĠÐ¿ÑĬÑĢÐ²Ð¸ÑıÑĤ":5672,"ÑĢÐ¸ÐµÑĤÐ¾":5673,"ĠÑĤÑıÑħÐ½Ð°ÑĤÐ°":5674,"ĠÐ±ÑĬÐ´ÐµÑīÐµ":5675,"Ġx":5676,"ĠÐ²Ð·ÐµÐ¼Ð°Ñ":5677,"ĠÐ²Ð·ÐµÐ¼Ð°ÑĤ":5678,"ĠÐĴÑĬÐ·":5679,"ĠÑģÑĬÑĩÐµÑĤÐ°":5680,"ĠÐ¿Ð¾ÑĩÐ½Ð°":5681,"ÐĲÐ":5682,"ĠÐĲÐ½Ð³":5683,"ĠÐ½ÐµÐ´Ð¾ÑģÑĤÐ°":5684,"ĠÑģÑĥÐ±":5685,"ĠÐµÐºÑģÐ¿Ð»Ð¾":5686,"¸Ð¾Ð½Ð°":5687,"ÑħÐ¾Ð´Ñı":5688,"ĠÐ½ÑıÐºÐ¾Ñı":5689,"ĠÐ¾ÑģÐ¸Ð³ÑĥÑĢÐ¸":5690,"ĠÑĥÑģÑĤÐ¾Ð¹ÑĩÐ¸":5691,"ĠÑģÐ¼Ð¸":5692,"ĠÐ¾Ð½Ð¾Ð²Ð°":5693,"ĠÐ¿ÑĢÐ°Ð²":5694,"ĠÐ¿Ð¾Ð´Ð¾Ð±Ð½Ð¾":5695,"Ð»Ð¸ÐµÐ²":5696,"µÐ¾":5697,"ĠÐ¿ÑĢÐµÑĤÑģÑĤÐ°Ð²":5698,"ĠÐ»Ð¸Ð´ÐµÑĢ":5699,"ĠÐ²Ð»Ð°ÑģÑĤÑĤÐ°":5700,"ĠÐ¢ÐµÑħ":5701,"ĠÑıÐ¹":5702,"Ð³ÑĬ":5703,"ĠÐ¾ÑģÐ½Ð¾Ð²Ð½Ð¾":5704,"ĠÐ¿Ð¾Ð»Ð¸ÑĨÐ°":5705,"ĠÑĢÐ°Ð²Ð½Ð¾":5706,"ĠÑģÐ²ÐµÑĤÐ¾ÑĤ":5707,"ÑģÑĤÑĢÐ°ÑĨÐ¸Ñı":5708,"ĠÐ¸Ð½ÑĦÑĢÐ°ÑģÑĤÑĢÑĥ":5709,"ĠÐ¿ÑĢÐ¸ÐºÐ°Ð·":5710,"ĠÑħÐ¾ÑĤÐµÐ»Ð°":5711,"ĠÐ³Ð»Ð°Ñģ":5712,"ÑĢÐµÑī":5713,"ĠÐ§ÐµÑĢÐ½Ð¾":5714,"´Ð°":5715,"ÑģÑĤÐ¾ÑĺÐ°":5716,"ĠÑĦÐ¾ÑĢÐ¼Ñĥ":5717,"Ð²ÐºÐ¸ÑĤÐµ":5718,"ĠÐ¦ÐµÐ½ÑĤ":5719,"ĠÑģÑĤÐ°Ð½Ð´Ð°ÑĢÑĤ":5720,"ĠÐ½Ð°Ð´Ð":5721,"ĠÐ½Ð¸Ð²Ð°":5722,"Ð´Ð¸Ð°":5723,"ĠÐ¾ÑģÑĤÑĢÐ¾":5724,"¾ÑĨÐ¸ÑĺÐ°":5725,"ĠÐºÐ¾ÑģÐ°":5726,"ĠÐ·Ð½Ð°ÐµÐ¼":5727,"ĠÐ¿Ð¾Ðº":5728,"ĠÐ·Ð°ÐµÐ¼Ð°":5729,"ĠÐ±ÑĥÐ»":5730,"ĠÐ¿ÑĢÐ¾Ð±Ð»ÐµÐ¼Ð°":5731,"ĠÑģÐ³ÑĢÐ°Ð´Ð°":5732,"ĠÐ¡Ð¾ÑĦÐ¸":5733,"ĠÐ¾ÑģÐ½Ð¾Ð²Ð½Ð¸":5734,"ĠÐ¿ÑĢÐµÐ´Ð»Ð¾Ð¶ÐµÐ½Ð¸Ðµ":5735,"Ð¿ÑĤÐ¸":5736,"ĠÑĢÐ¾Ð´Ð¸ÑĤÐµÐ»Ð¸":5737,"ĠÑģÐ²Ð¾ÑĺÐ¾ÑĤ":5738,"Ð´ÐµÑģÐµÑĤ":5739,"ÑģÑĤÐ°Ð½ÑĤÐ¸":5740,"Ð¶Ð°Ð²Ð°ÑĤ":5741,"ĠÐ¸Ð½ÑĤÐµÑĢÐµÑģÐ¸":5742,"ĠÐ¿Ð°Ð½Ð´Ðµ":5743,"ĠÐ¿Ð¾ÑģÑĤÐ¸Ð³Ð½Ðµ":5744,"ĠÐ¸Ð·ÑĤÐ¾":5745,"ĠÑĥÐ¿ÑĢÐ°Ð²":5746,"ĠÐ¿ÑĢÐ¸ÐºÐ°":5747,"ĠÐ¿ÑĢÐµÐ¼Ð°Ñħ":5748,"ĠÐŁÑĢÐ¾ÑģÑĤÐ¾":5749,"ÑĨÐ¸Ð¾Ð½Ð½Ð°ÑĤÐ°":5750,"ĠÐ»ÐµÐ³Ðµ":5751,"ÑģÑĤÐ²Ð¸Ñı":5752,"ĠÐ¾ÑĤÐºÑĢÐ¸Ðµ":5753,"Ð²Ð°Ð¹ÐºÐ¸":5754,"ĠÐ·Ð°Ð²Ð¸ÑģÐ¸Ð¼Ð¾ÑģÑĤ":5755,"ĠÐ½ÑĥÐ¶":5756,"ĠÐºÐ°ÑģÐ°":5757,"Ġ03":5758,"ĠÐ¸Ð·Ð¿Ð¾Ð»Ð·Ð²Ð°ÑĤÐµ":5759,"ĠÐ´Ð°Ð½Ð½Ð¸ÑĤÐµ":5760,"ĠÐļÐ°Ð·Ð°":5761,"ĠÐµÑģÐµÐ½":5762,"ĠÑĨÑıÐ»Ð°":5763,"ĠÐ¿Ð¾ÑģÐ»ÐµÐ´Ð½Ð¸Ñı":5764,"43":5765,"ĠÐ²Ð´ÑĬÑħ":5766,"ĠÐŀÑħÑĢÐ¸Ð´":5767,"ĠÑĨÐ°ÑĢ":5768,"ÐŁÑĢÐ¸":5769,"ĠÐ¿ÐµÐ½ÑģÐ¸Ð":5770,"ĠÐ½ÐµÐºÐ¾Ð¸":5771,"ĠÑĥÑģÐ»Ð¾Ð²Ð¸ÑıÑĤÐ°":5772,"ĠÐ´ÑĬÑĢÐ¶Ð¸":5773,"ĠÑĢÐ¾Ðº":5774,"ĠÑĥÐ´Ð°ÑĢ":5775,"ĠÐ³Ð»ÑĥÐ¿Ð¾":5776,"ĠAl":5777,"Ġ37":5778,"ĠÐ¿Ð¾ÑĺÐ°":5779,"ĠÑģÐ°Ð¼Ð¾ÑģÑĤÐ¾Ñı":5780,"ĠÑģÑĬÐ¾ÑĤÐ²ÐµÑĤÐ½Ð¾":5781,"µÐ½ÑĤ":5782,"ŀÐļÐ":5783,"ĠÐºÐ°Ð·Ð²Ð°ÑĤ":5784,"ĠÑģÑĢÐµÑīÐ°ÑĤÐ°":5785,"ĠÐ¿ÑĢÐµÐ´Ð¿Ð¾Ð»Ð°Ð³Ð°":5786,"ÑĢÐµÐ¼ÐµÐ½Ð½Ð¾":5787,"Ð´Ð°Ð½":5788,"ĠÑģÐ»ÐµÐ´Ð²Ð°ÑīÐ°ÑĤÐ°":5789,"ÑĢÐ³Ñĥ":5790,"ĠÐ¿ÑĢÐµÐ´ÑģÑĤÐ°Ð²Ð¸ÑĤÐµÐ»":5791,"ĠÐºÐ¾Ð½ÑĦÐ»Ð¸":5792,"ĠÐ¾ÑĤÐ³":5793,"ĠÑģÑĬÐ·Ð´Ð°Ð²Ð°Ð½ÐµÑĤÐ¾":5794,"ĠÐŀÑĩÐ°ÐºÐ²Ð°":5795,"ĠÑģÑĤÐ°ÑĢÑĤÐ¸ÑĢÐ°":5796,"ĠÐ¿Ð°Ð´Ð°":5797,"Ð»ÑıÐ½Ðµ":5798,"ĠÑħÐ¾Ð´Ð¸":5799,"ĠÐ´ÐµÑģÐµÑĤ":5800,"ÑģÑĤÐ½Ð°ÑĤÐ°":5801,"ĠÑĤÑĢÐ¸ÑĤÐµ":5802,"ĠÐ¾Ð±ÑıÑģÐ½ÑıÐ²Ð°":5803,"ĠÐ¿Ð¾Ð²ÑĢÐµ":5804,"ÑģÑĢÐµÐ´":5805,"ĠÑģÐ¿ÐµÑĨÐ¸ÑĦÐ¸":5806,"ĠÐºÐ¾Ð½ÑĦÐµÑĢÐµÐ½":5807,"Ð½ÑĩÐ°":5808,"ĠÑĥÐ´Ð¾Ð²Ð¾Ð»":5809,"ĠÐ°ÑĤÐ¼Ð¾":5810,"ĠÑĢÐ¸ÑģÐº":5811,"ĠÐĲÑĦ":5812,"Ġ38":5813,"ĠÐ¸Ð½ÑĨÐ¸":5814,"ĠÑĤÑıÑħÐ½Ð¾ÑĤÐ¾":5815,"br":5816,"ĠÐ±Ð°Ð½Ñı":5817,"ĠÑĢÐ¾Ð»ÑıÑĤÐ°":5818,"ĠÐ¼Ð¾Ð¶ÐµÑĪÐµ":5819,"ĠÑģÐ½Ð¸Ð¼ÐºÐ°":5820,"ĠÐºÑĥÐ»ÑĤÑĥÑĢÐ°ÑĤÐ°":5821,"łÐķÐ":5822,"ĠÐ¾ÑĤÐ³Ð¾Ð²Ð¾":5823,"ĠÑģÐ»Ð°Ð³Ð°":5824,"ĠÐ²Ð¸ÑģÐ¾ÐºÐ¸":5825,"ĠÐ½Ð°ÑģÐ»Ð°":5826,"ĠÐ¿Ð¾ÑģÐ²ÐµÑĤÐµ":5827,"Ð¡Ð°":5828,"ĠÐ¾ÑĤÐ¿ÑĢÐ°":5829,"ĠÑħÐ¸Ð»":5830,"Ð¸Ð·Ð²Ðµ":5831,"ĠÐ·ÐµÐ»ÐµÐ½ÑĩÑĥ":5832,"ĠÐ°Ð»Ð±":5833,"ÑĢÑĥÐ²Ð°ÑļÐµ":5834,"ĠÐºÐ¾Ð½ÑĤÐ°ÐºÑĤ":5835,"ĠÐ·Ð°Ð±ÑĢÐ°Ð²Ñı":5836,"ÐµÐ²ÑģÐºÐ¸":5837,"ĠÑģÑĥÐ¿ÐµÑĢ":5838,"ĠÑĢÐ°Ð·Ð±ÐµÑĢÐµ":5839,"ĠÐ¾ÑģÑĤ":5840,"Ð´Ð¾ÑĤÐ¾":5841,"ĠÐ¿Ð¾ÑĩÐ¸Ð²ÐºÐ°":5842,"ki":5843,"ĠÐ¡Ð²ÐµÑĤÐ¾":5844,"ÐĲÐºÐ¾":5845,"ĠÐ¼ÐµÐ´Ð¸Ð¸ÑĤÐµ":5846,"Ð·Ð½Ð°ÑĤÐ°":5847,"ĠÐ¿Ð¾Ð·Ð²Ð¾Ð»Ð¸":5848,"ĠÐ½Ð°ÑĤÐ¾Ð²Ð°":5849,"Ð¼Ð¿Ð¾":5850,"ĠÐ²ÑĢÐ·":5851,"ĠÐ¿ÑĢÐ¸Ð»Ð¾Ð¶ÐµÐ½Ð¸Ðµ":5852,"ĠÐ°Ð²":5853,"ĠÐĶÐµÐ¹":5854,"ĠÐ²ÑĬÐ·Ð½Ð¸Ðº":5855,"ĠÐºÐ¾Ð¼Ð¿ÑİÑĤÑĬÑĢ":5856,"ĠÐŀÑĤÐ³Ð¾":5857,"Ð²Ð¾Ð´Ð°":5858,"ÑĢÐµÐ³Ð¸ÑģÑĤÑĢÐ¸ÑĢÐ°Ð½":5859,"ĠÐ¸ÑģÑĤÐ¸Ð½Ð°ÑĤÐ°":5860,"ĠÑģÑĤÐ°ÑĢÐ¸":5861,"ĠÑģÑĬÐ²Ð¼Ðµ":5862,"ĠÐ»Ð¸ÑĩÐ½Ð¸":5863,"ĠÐ´Ð¾Ð¿ÑĬÐ»Ð½Ð¸ÑĤÐµÐ»Ð½Ð¾":5864,"ĠÐ²ÐµÑĢÑģÐ¸Ñı":5865,"ĠÐ»ÑıÑĤÐ¾ÑĤÐ¾":5866,"ĠÐ³Ð¸Ð¼Ð½Ð°":5867,"ĠÑĩÐµÑĤÐ²ÑĬÑĢ":5868,"ÑĢÐ¸Ð¸ÑĤÐµ":5869,"ĠÐ¼Ð°Ñĺ":5870,"ĠÐ¿Ð¾ÑĤÐµÐ½ÑĨÐ¸Ð°Ð»":5871,"Ð½ÐµÑĪ":5872,"ĠÐ¿Ð¾ÑģÑĢÐµÐ´":5873,"ĠÐ·Ð°Ð³Ð»Ð°":5874,"ĠÐ¿Ð°ÑĨÐ¸ÐµÐ½ÑĤÐ¸":5875,"ÑĦÐ¾Ð½Ð°":5876,"Ð²Ð°Ð¹ÑĤÐµ":5877,"ĠÐ¶ÑĬÐ»":5878,"ĠÐ±Ð¸Ð±Ð»Ð¸Ð¾ÑĤÐµ":5879,"ĠÑĢÐ°Ð·ÑģÑĤÐ¾Ñı":5880,"ĠÐ¿Ð¾Ð¶ÐµÐ»Ð°":5881,"Ġj":5882,"ĠÑĥÑģÑĤÐ°Ð½Ð¾Ð²Ð¸":5883,"ĠÑģÐµÐ»Ð¾ÑĤÐ¾":5884,"ÑģÐ°Ð¼":5885,"ĠÐ½ÑıÐºÑĬÐ´Ðµ":5886,"41":5887,"ĠÐłÐ°Ð´ÐµÐ²":5888,"ĠÐ¿ÑĢÐ¸Ð¾ÑĢÐ¸ÑĤÐµ":5889,"ĠÐ°Ð»ÑĤÐµÑĢÐ½Ð°":5890,"ĠÑĩÐ°Ðº":5891,"Ð¡Ð¢Ð":5892,"ĠÐ¾Ð¿Ð¾Ð·Ð¸":5893,"ÑĤÐ²Ð¾ÑĢÐ¸":5894,"Ð»Ð±Ð°ÑĤÐ°":5895,"Ð»Ð¸ÑĨÐ°":5896,"£ÐłÐ":5897,"Ð²Ð½Ð¸Ð¾ÑĤ":5898,"ĠÐ¿ÐµÑĩÐµÐ»Ð¸":5899,"µÑļÐµ":5900,"µÐ²Ð³ÑĢÐ°Ð´":5901,"ÐµÐ²Ð³ÑĢÐ°Ð´":5902,"ĠÐºÐ»ÑİÑĩÐ¾":5903,"ÑĢÐºÑĥ":5904,"ĠÐıÐ":5905,"ĠÑĤÐ¾Ð¿Ð»Ð¸":5906,"ĠÐ»ÑİÐ±Ð¾":5907,"Ð½Ð»Ð¸":5908,"42":5909,"ĠÐ¿Ð¾ÐºÐ°Ð¶Ðµ":5910,"ĠÑģÐ¿ÑĢÐ¾":5911,"ĠÐ¡ÑĬÑīÐ¾":5912,"ĠÑģÐ¿Ð°ÑģÐ¸":5913,"ĠÑĩÐ¾Ð²ÐµÑĪÐºÐ¸":5914,"ÑĢÐ²Ð°Ð½Ðµ":5915,"ĠÐĴÑģÑĬÑīÐ½Ð¾ÑģÑĤ":5916,"łÐ£":5917,"Ð°Ð»Ð½Ð°":5918,"ÑģÐ¾ÑĨÐ¸Ð°":5919,"Ð»Ð³Ð°":5920,"ĠÐ»ÑİÐ±Ð¾Ð²ÑĤÐ°":5921,"ĠÐ¿ÑĢÐ¸Ð²":5922,"ĠÐ¿Ð¾Ð»ÑĥÑĩÐ°Ð²Ð°ÑĤ":5923,"ĠÐ¸Ð·Ð¿Ð¾Ð»Ð·Ð²Ð°Ð½Ðµ":5924,"ĠÑĪÐ°Ð¼Ð¿Ð¸Ð¾Ð½":5925,"Ð·Ð½Ð¸ÑĤÐµ":5926,"ĠÐ¿ÑĢÐ¾Ð¸Ð·Ð²Ð¾Ð´Ð¸ÑĤÐµÐ»":5927,"ĠÐ½Ð°Ð¿Ð°":5928,"ÐºÑĥÐ¿":5929,"ĠÐ¼Ð¼":5930,"ĠÑĪÐ¾ÑĦ":5931,"ĠÐ¶ÐµÐ½Ð°ÑĤÐ°":5932,"Ġ400":5933,"ĠÐľÐ¾ÑģÐºÐ²Ð°":5934,"ĠÐ±ÑİÐ´Ð¶Ðµ":5935,"ĠÑģÐ»Ð¾Ð¶Ð¸":5936,"ÑģÑĤÐ°Ñ":5937,"ĠÑīÐ¾Ð¼":5938,"ÐºÐ°ÑĩÐµ":5939,"ÑĢÐ»":5940,"Ð¶Ð°Ð»":5941,"ĠÐ¨Ðµ":5942,"ĠÐºÑĬÑĢÐ":5943,"Ð½ÐµÐ²Ð½Ð¸Ðº":5944,"ĠÐ¿ÑĢÐ¸Ð·Ð¾Ð²Ð°":5945,"ÑģÑĤÐ°ÑĤ":5946,"ĠÐ½Ð°ÑĪÐ¸":5947,"ĠÐ¡ÐŁÐ":5948,"ĠÐ½ÐµÐ²ÑĬ":5949,"ĠÑģÑĤÑĢÐ°Ð´Ð°":5950,"ĠÐ¸Ð¼Ð¸":5951,"ĠÑģÐ°Ð½Ðº":5952,"ÑĢÐ°ÑĤÐµ":5953,"ĠGoogle":5954,"ĠÐ¸Ð·ÑĢÐ°Ð·Ð¸":5955,"Ð½ÐµÐ½Ð¸ÑĤÐµ":5956,"ĠÐĴÐ¡Ð":5957,"ÑĢÐµÐ½Ð¸ÑĤÐµ":5958,"ĠÐ¤Ð¸Ð»Ð¸":5959,"ĠÐ³ÑĢÑĬÑĨ":5960,"ĠÐ³ÑĢÐµÑĪÐºÐ°":5961,"ĠÑĩÐ»ÐµÐ½Ð¾Ð²Ðµ":5962,"ĠÐ²ÑĢÐ°ÑĤÐ°ÑĤÐ°":5963,"ÑģÐ²Ð°ÑĤ":5964,"Ð±ÑĬÑĢ":5965,"Ð¿ÑĢÐ¸Ñı":5966,"ĠÑĤÑĢÐ°Ð½ÑģÑĦÐ":5967,"Ð¡Ð¸":5968,"Ġ(\"":5969,"Ð»ÑıÐ½":5970,"ĠÐ¡ÑĢÐµ":5971,"ĠÐ¡Ñ":5972,"ĠÐºÐ¾Ð³Ð¾ÑĤÐ¾":5973,"ax":5974,"ÑĨÐ¸Ð¿Ð»Ð¸":5975,"ĠÐ¸Ð¼Ð°Ð»":5976,"...\"":5977,"ĠÐ¼ÐµÑĤÐ¾Ð´Ð¸":5978,"ÑĩÐ¸ÑĤÐ°ÑĤ":5979,"Ġ%":5980,"ĠÐ¢Ð¾Ñĺ":5981,"ĠÑģÐ¿ÐµÑĨÐ¸Ð°Ð»Ð¸ÑģÑĤÐ¸":5982,"Ð»Ð¸ÐµÑĤÐ¾":5983,"ĠÐ³ÑĢÐ¸Ð¶Ð¸":5984,"ĠÐ´ÐµÐ¹Ð½Ð¾ÑģÑĤÑĤÐ°":5985,"³ÑĢÐ°":5986,"ĠÐ±ÑĬÐ´ÐµÑīÐµÑĤÐ¾":5987,"ĠÐ¾Ð±ÑĬÑĢ":5988,"ĠÐ¿ÑĢÐ¸ÑĤÐµÐ¶Ð°Ð²Ð°":5989,"¾Ð´":5990,"Ð½Ð´Ð°ÑĢ":5991,"ĠÐ¿ÑĢÐµÐ´Ð°Ð²Ð°":5992,"ĠÐ·Ð´ÑĢÐ°Ð²ÐµÑĤÐ¾":5993,"ĠÐĲÐ½Ð³Ðµ":5994,"ĠÐ¾ÑģÑĤÐ°Ð²Ñı":5995,"ĠÐ²ÑĤÐ¾ÑĢÐ¸Ñı":5996,"ĠÑĢÐ°Ð·Ð³Ð»ÐµÐ´Ð°":5997,"Ð±Ð°Ð²Ð¸":5998,"ÑĤÐ²Ð¸ÑĤÐµ":5999,"Ð»Ð¸Ð²Ð°":6000,"ĠÐ¸Ð·Ð²ÐµÑģÑĤÐµÐ½":6001,"Ð½ÐµÑĢÐµÐ³Ð¸ÑģÑĤÑĢÐ¸ÑĢÐ°Ð½":6002,"Ð¾Ð±ÑĢÐ°Ð·Ð¸":6003,"ĠÐ¾ÑĦÐµ":6004,"¸ÑĤÐ¾":6005,".-":6006,"ĠÐ¸Ð·Ð±Ð¸":6007,"Ð»ÐµÑĢÐ¸":6008,"ĠÐºÐ¾Ð½ÑģÑĥÐ»ÑĤÐ°":6009,"ĠÑĦÐ¸Ð»Ð¼Ð°":6010,"Ð´ÐµÐ½ÑĤÐ¸ÑĤÐµ":6011,"ĠÐºÑĢÐ°ÑĤÐºÐ¾":6012,"Ð·Ð¸ÑĢÐ°Ð½Ð°":6013,"====":6014,"ĠÐ½Ð°Ð¼Ð°Ð»ÑıÐ²Ð°":6015,"ĠÑģÑĬÑģÑĤÐ¾Ð¸":6016,"Ð¼Ð¿Ð»Ðµ":6017,"ĠÐ°Ð¼ÐµÑĢÐ¸ÐºÐ°Ð½ÑģÐºÐ¸":6018,"ep":6019,"ĠÑĪÐµÑĦ":6020,"ĠÐ¿Ð¾Ð·Ð´ÑĢÐ°":6021,"ÑĤÐ¾Ð¿":6022,"ord":6023,"Ð´ÐµÐ»Ð½Ð¸Ðº":6024,"ĠÐ¾ÑĤÐ¸Ð´Ðµ":6025,"ont":6026,"ÑĦÐ¾Ð½Ð¸":6027,"ÑĤÐ¸Ð»":6028,"ĠÐ·Ð°Ð¿Ð¸ÑģÐ°":6029,"ÑıÐ»":6030,"ĠÑģÑĬÐ·Ð´Ð°Ð´Ðµ":6031,"Ð»ÐµÐ³Ð°":6032,"ĠÐ´Ð¾ÑģÑĤÐ¾":6033,"ĠÐ¿ÑĢÐ¸ÑģÑĬÑģÑĤÐ²Ð°":6034,"ÑĩÐµÑĤÐ¸":6035,"ĠÑĤÐ²ÑĬÑĢÐ´":6036,"ĠÐ¾ÑĦÐ¸ÑĨÐ¸Ð°Ð»Ð½Ð¾":6037,"ĠÐ¿Ð¾Ð½ÐµÐ¶Ðµ":6038,"Ð³Ð½Ð¸":6039,"Ð»Ð¾Ð·Ð¸":6040,"ÑĤÐ¸ÑĩÐ°":6041,"Ð»Ð¸Ð·Ð°ÑĨÐ¸Ñı":6042,"Ð»Ð¸Ð°Ð½":6043,"ĠÑģÑĬÐ´Ð°":6044,"ĠÑģÐ»ÐµÐ´Ð²Ð°ÑīÐ¸Ñı":6045,"ĠÑģÐµÑĢÐ²Ð¸":6046,"Ð½Ð³ÐµÐ»":6047,"ÑģÐ»ÐµÐ´Ð¾Ð²Ð°":6048,"ÑĤÐ°ÑĤÐ¸":6049,"Ð¼Ð¾ÑģÑĤ":6050,"ĠÐ¾Ð³Ð»ÐµÐ´":6051,"ĠÐµÐ²ÐµÐ½ÑĤ":6052,"Ð½Ð°Ð²":6053,"ĠÐ¾ÑģÑĤÐ°Ð²Ð°ÑĤ":6054,"ĠÐ·Ð°ÐºÑĢÐ¸":6055,"ĠÐ¸Ð·ÐºÐ»ÑİÑĩÐ¸":6056,"ÑĩÐ¸ÐµÑĤÐ¾":6057,"Ð´Ð¾Ð±ÑĢÐ¾":6058,"ĠÐĿÐ°Ð»Ð¸":6059,"Ð²Ð¾Ð»Ð¸":6060,"ÑĤÐ¸Ð²Ð½Ð¸ÑĤÐµ":6061,"ran":6062,"ĠÐ¼Ð°Ð»ÑĬÐº":6063,"ĠÑĥÑĩÐµÐ½Ð¸ÑĨÐ¸ÑĤÐµ":6064,"ĠÐ¿ÑĢÐ¾Ð»ÐµÑĤ":6065,"ĠÐ¿ÑĬÑĢÐ²Ð¾Ð½Ð°ÑĩÐ°":6066,"ĠÐ¿Ð¾Ð»Ð¸ÑĨÐ¸ÑıÑĤÐ°":6067,"ĠÑĩÐµÑĢÐ½Ð¾":6068,"ĠÐ¸Ð·Ð¼Ð°":6069,"ĠÐ·Ð½Ð°Ðº":6070,"Ð·Ð°ÑĨÐ¸ÑıÑĤÐ°":6071,"ĲÐĿÐķ":6072,"µÑĪÐµ":6073,"ĠÐ¿ÑĢÐµÐ´Ð»Ð¾Ð¶ÐµÐ½Ð¸Ñı":6074,"ĲÐĿ":6075,"ĠÐºÑĬÑīÐ¸":6076,"Ġhttps":6077,"ĠÐ¿Ð¾ÑģÐ»ÐµÐ´Ð½Ð¾":6078,"ĠÐ·Ð°Ð¿Ð¾ÑĩÐ²Ð°ÑĤ":6079,"ĠÐ²ÐºÐ»ÑİÑĩÐ¸":6080,"ĠÐ¸Ð·ÑĺÐ°Ð²Ð¸":6081,"Ð´ÑĥÐ²Ð°ÑļÐµ":6082,"ÑĢÑĤÐ°ÑĤÐ°":6083,"ĠÐ¿ÑĢÐ¸Ð±Ð»Ð¸":6084,"Ð·Ð¶Ð¸":6085,"ĠÑĦÑĥÐ½ÐºÑĨÐ¸Ð¾Ð½Ð¸":6086,"ÑģÑĤÐ²ÐµÐ½Ð¸ÑıÑĤ":6087,"Ġ32":6088,"ĠÐľÐ¾Ð½":6089,"Ð»Ð¸Ð²Ð¸":6090,"ĠÐ¾ÑģÑĬÐ·Ð½Ð°":6091,"ĠÐŁÑĢÐµÐ´Ð»Ð°Ð³Ð°":6092,"ĠÐ¿Ð°ÑĢÐ»Ð°Ð¼ÐµÐ½ÑĤ":6093,"ĠÐ´Ð¶Ð°":6094,"Ð½ÐµÑĢÐ°Ð»":6095,"ĠPl":6096,"ÑģÑĤÐ¸Ñı":6097,"ĠÐ²ÑĬÑĢÐ²Ð¸":6098,"ĠÐ°Ð½Ð³Ð»Ð¸Ð¹ÑģÐºÐ¸":6099,"ĠÐ¿Ð¾Ð´Ð¿Ð¸ÑģÐ°":6100,"ĠÑĨÐ°":6101,"Ð½Ð°Ð½":6102,"ÑĢÐ¸ÑģÑĤÐ¸ÐºÐ¸":6103,"ÑĤÐµÑĢÐ°":6104,"ĠÑģÐ»ÐµÐ´Ð¸":6105,"ĠÐ£ÐºÑĢÐ°Ð¹Ð½Ð°":6106,"ĠÐ²ÐºÑĥÑģ":6107,"ĠÐ²Ð¸Ð´Ð°":6108,"ÑģÐ¼":6109,"ķÐĴÐ":6110,"ĠÐ¦Ð¸":6111,"Ð»ÐµÑĨ":6112,"Ð³Ð¾Ð´Ð¸ÑĪÐ½Ð°":6113,"ĠÐ¿ÑĢÐ°Ð²Ð°ÑĤÐ°":6114,"Ð³ÑĢÐ°Ð¼Ð°":6115,"ne":6116,"Ð»Ð¸ÑĢÐ°Ð½Ðµ":6117,"ĠÐĺÐ·Ð¿Ð¾Ð»Ð·":6118,"Ð¼ÐµÑĤÑĢÐ°":6119,"ĠÐĵÑĥ":6120,"ĠÑģÑĤÐ¾ÐºÐ¸":6121,"ĠÐ·Ð°Ð´ÑĬÐ»Ð¶Ð¸ÑĤÐµÐ»Ð½Ð¾":6122,"ĠÐºÐ¾Ð½ÑĤÑĢÐ°":6123,"ĠÑģÐ³ÑĢÐ°Ð´Ð°ÑĤÐ°":6124,"ĠÐ´Ð°ÑĤÐ°":6125,"Ð»Ð¸ÑıÑĤÐ°":6126,"ĠÑĤÐµÐ¼Ð¸":6127,"ĠÑģÑĤÐ°Ð":6128,"ĠÐ²ÐºÐ»Ñĥ":6129,"ĠÐ¸ÐºÐ¾Ð½Ð¾Ð¼Ð¸ÐºÐ°ÑĤÐ°":6130,"ĠÐ¾Ð¿ÑĪÑĤÐ¸":6131,"Ð½ÑĨÐµ":6132,"ÐŁÑĢÐµ":6133,"ĺÐ¡Ð¢Ð":6134,"ĠÐ¿Ð¾ÑĤÐµ":6135,"ĠÐ¸Ð·Ð¿ÑĬÐ»Ð½ÑıÐ²Ð°":6136,"ÑĢÐµÐ½ÑĤ":6137,"ĠÐ¾Ð´Ð½Ð¾ÑģÐ½Ð¾":6138,"Ð¿Ð¾Ð´":6139,"ÑĢÐ¿Ð¾":6140,"ĠÐ¼Ð¾Ð·ÑĬ":6141,"ĠÐĲÐ³ÐµÐ½":6142,"ÑģÐ±ÑĥÐº":6143,"°Ð½ÑĤÐ¸":6144,"ĠÐºÐ¸Ð½Ð¾":6145,"ĠÐ³Ð¾ÑĤÐ¾Ð²Ð¸":6146,"ĠÐ½Ð¸ÐºÐ°ÐºÑĬÐ²":6147,"ĠÐ¸Ð·Ð»Ðµ":6148,"ĠÐ´Ð¾Ð¿ÑĬÐ»Ð½Ð¸ÑĤÐµÐ»Ð½Ð¸":6149,"ĠÑģÐ²Ð¾Ð±Ð¾Ð´Ð°":6150,"ĠÐŁÐµÑĢ":6151,"ĠÐŁÑĢÐ¾Ð":6152,"70":6153,"ĠÐ¡Ð»Ð¸":6154,"Ð±Ð°ÑĢ":6155,"ĠÐŁÐµÑĤÑĢÐ¾Ð²":6156,"Ð³ÑĬÐ»":6157,"°Ð½Ð°":6158,"ĠÐ´Ð¾Ð³Ð¾Ð²Ð¾ÑĢÐ¸":6159,"ĠÐµÐ·Ð¸":6160,"ĠÑĢÐ¾Ð¼Ð°":6161,"ĠÐ¿ÑĢÐ¾Ð´ÑĬÐ»Ð¶Ð¸ÑĤÐµ":6162,"ĠÐ¿ÑĢÐµÐ¿Ð¾Ð´Ð°Ð²Ð°":6163,"ĠÐ¢ÑĬÑĢÐ½Ð¾Ð²Ð¾":6164,"ĠÐ¿ÑĢÐ¾Ð±Ð¸":6165,"ĠÑģÐ¼ÐµÑĤÐ°":6166,"ĠÐ¸ÑģÐº":6167,"ĠÐ°Ð³ÑĢÐµ":6168,"ĠÐ¼Ð»ÑıÐºÐ¾":6169,"Ð½Ð¾Ð½Ð¸":6170,"ÑĩÐ°Ð½Ð¸":6171,"ĠÑĢÐµÑĪÐ°Ð²Ð°":6172,"ĠÐ³Ð¾Ð²Ð¾ÑĢ":6173,"ÑĪÐµÑĤÐµ":6174,"ŀÐ¡Ð¢Ð":6175,"ĠÑħÑĢÐ°Ð½ÐµÐ½Ðµ":6176,"ĠÐ¸Ð·Ð³Ñĥ":6177,"ĠÑħÑĥÐ±Ð°Ð²Ð¾":6178,"ĠÐ¸ÐºÐ¾Ð½Ð¾Ð¼Ð¸ÑĩÐµÑģÐºÐ¸":6179,"ĠII":6180,"ĠÐ¿Ð°ÑĢÐº":6181,"ĠÐĶÐ¶Ð°":6182,"ple":6183,"ect":6184,"ĠÐ·Ð°ÑĪÑĤÐ¸":6185,"2010":6186,"ĠÐĿÑİ":6187,"ĠÐ¿ÑĢÐµÐ·Ð¸Ð´ÐµÐ½ÑĤÐ°":6188,"ĠÐ¿ÑĢÐµÑĩÐ¸":6189,"ĠÐ¡ÑĤÐµÑĦÐ°Ð½":6190,"ĠÑĤÐµÑĢÐ¼Ð¸":6191,"Ð¿ÑıÐ²Ð°":6192,"ĠÑģÐ¾ÑģÑĤÐ¾Ñĺ":6193,"ĠÐ¸Ð·ÐºÑĥÑģÑĤÐ²Ð¾":6194,"ÑĢÐµÐ¼":6195,"ĠÐ·Ð½Ð°ÐµÑĪ":6196,"Ð±ÐµÐ·":6197,"ÑĢÐ¸Ñģ":6198,"ĠÐ¿ÑĢÐµÐ´Ð¸Ð¼":6199,"Ð´Ð²Ð¸Ð¶Ð¸":6200,"ĠÐ¿Ð¾ÑģÑĤ":6201,"ĠÐ´ÑĬÑĢÐ²Ð¾":6202,"ĠÑĤÐ¸Ð¼":6203,"Ð½Ð±":6204,"ĠÐºÐ¾Ð¼ÐµÐ½ÑĤÐ°ÑĢÐ¸":6205,"ÑĢÐ°Ð·Ð»Ð¸":6206,"ĠÐ¼Ð¾ÑĢÐµÑĤÐ¾":6207,"ĠÐĺÑģÐ¿Ð°Ð½Ð¸Ñı":6208,"53":6209,"ĠÑģÐºÐ¾ÑĢÐ¾ÑģÑĤ":6210,"ĠÐºÑĢÐ°ÑģÐ¾":6211,"Ð»Ð°Ð½Ð´":6212,"ĠÐĵÐ¸":6213,"ĠÐ¡ÑĤ":6214,"ĠÐ°Ð½Ð°Ð»Ð¸Ð·":6215,"ĠÐµÐ´Ð½Ð¾Ð²":6216,"ÑģÑĤÐ¾Ð²":6217,"ĠÐľÐ°ÑĢÑĤÐ¸":6218,"ĠÐĴÐ¸Ð¶ÑĤÐµ":6219,"ĠÐ±ÐµÐ»Ðµ":6220,"ĠÐ¾Ð²":6221,"ĠÐ¿ÑĢÐ¾Ð´ÑĥÐºÑĤÐ°":6222,"ÐµÐ¼Ð°":6223,"ĠÐŀÐ±Ð°":6224,"no":6225,"ĠÑģÐ³ÑĢÐ°Ð´Ð¸":6226,"ĠÐ¿ÑĢÐ°Ð²Ðµ":6227,"ĠÐ¿ÑĢÐµÐ´Ð°Ð´Ðµ":6228,"ĠÐ¼Ð°ÑĪÐ¸Ð½Ð¸":6229,"Ð½ÑĤÐ¸ÑĤÐµ":6230,"ĠÐľÐ¾Ð¶ÐµÑĤÐµ":6231,"ĠÑĢÐ°Ð·ÑħÐ¾Ð´":6232,"ĠÐºÑĬÑģ":6233,"Ð²Ð¸ÑĨÐ°ÑĤÐ°":6234,"ÐºÑĤÐ¸Ð²Ð½Ð¸":6235,"ĠÐºÐ°Ð»":6236,"ĠÑĢÐµÐ°Ð³Ð¸":6237,"ÑĤÐ¸Ð²Ð°ÑĤÐ°":6238,"ĠÐ½ÐµÐ°":6239,"ĠÐŁÑĢÐ¾Ðµ":6240,"ĠÑģÐ±Ð»ÑĬ":6241,"ĠÑıÐ´":6242,"Ġ..":6243,"ĠÑģÐµÑĢÐ¸Ð¾Ð·Ð½Ð¸":6244,"ĠÑĦÐ¾Ð½Ð´":6245,"Ð¨Ð":6246,"ÑĤÐ¸Ð½Ð¸":6247,"ĠÑĥÐµÐ±":6248,"Ð²ÑıÐ²Ð°Ð½ÐµÑĤÐ¾":6249,"Ð½Ð·":6250,"ĠÐ½Ð°ÑĤÐ¿ÑĢÐµÐ²Ð°":6251,"ĠÑĥÑģÑĤÐ°Ð½Ð¾":6252,"Ð»Ð¸Ñģ":6253,"ĠÑģÐ¾ÑĨÐ¸Ð°Ð»Ð½Ð¸ÑĤÐµ":6254,"ĠÑĢÐµÑĦÐµ":6255,"va":6256,"ĠÐ¼ÐµÐ½Ð¸Ð´Ð¶":6257,");":6258,"ĠÐ¿ÑĢÑĬÐ²":6259,"ĠÐºÐ°Ð·Ð°Ð»":6260,"ĠÐ²ÑĬÑĢÐ":6261,"ĠÐ³Ð»ÐµÐ´Ð°Ð¼":6262,"ĠÑģÑĤÐ°Ð¸":6263,"ĠÐ¿ÑĢÐ¾ÑĩÐ¸ÑĤÐ°":6264,"ĠÐ¼Ð¾Ð¼ÐµÐ½ÑĤÐ¸":6265,"ĠÐ¸Ð·Ð¿Ð»Ð°":6266,"Ð²ÐµÑĢÐ¾ÑıÑĤÐ½Ð¾":6267,"Ð·Ð¾Ð²Ð¸":6268,"Ð½Ð³Ð¸":6269,"ÐºÑĤÐ¸ÑĤÐµ":6270,"ĠÑĦÐ°Ð»":6271,"Ð·Ð¸ÑıÑĤÐ°":6272,"ru":6273,"ĠÐºÐ°Ð¼Ð¿Ð°Ð½Ð¸Ñı":6274,"ĠÑģÐ»ÑĥÐ¶Ðµ":6275,"Ð¼Ð°Ð»":6276,"ĠÐºÐ¸ÑĤÐ°":6277,"ÑģÐ»Ñı":6278,"ĠÐ°ÑĤÐ¼Ð¾ÑģÑĦÐµ":6279,"Ð½Ð´Ð°Ð»":6280,"ĠÐĺÐ½Ð°ÑĩÐµ":6281,"Ð¼ÑĥÐ¼":6282,"ON":6283,"ĠÐ¼Ð°ÑģÐ¸":6284,"ĠÐ³ÑĢÐ°Ð´Ñĥ":6285,"ĠÐ¿Ð¾Ð½Ð¸":6286,"ĠÐ¾ÑĢÐ¸Ð³Ð¸Ð½Ð°":6287,"ĠÐ±ÑĬÐ»Ð³Ð°ÑĢÑģÐºÐ¾ÑĤÐ¾":6288,"ĠÐ¼Ð°ÑīÐ°":6289,"ĠÐ¿Ð¾Ð²ÐµÐ´ÐµÐ½Ð¸Ðµ":6290,"ĠÑĢÐ°Ð·Ð´Ðµ":6291,"ĠÐ¾Ð±ÑĢÐ°Ð·Ð¾Ð²Ð°Ð½Ð¸ÐµÑĤÐ¾":6292,"ĤÐ½Ð°ÑĤÐ°":6293,"ĠÐ¼Ð°ÑĢÐºÐ":6294,"ĠÑĩÐ¸Ð":6295,"Ð½Ð°ÑģÑıÑĤ":6296,"ÑĤÐ¸ÑĩÐ½Ð°":6297,"ĠÐ¿ÑĢÐµÐ´Ð¿ÑĢÐ¸ÐµÐ¼Ð°":6298,"ĲÐ¡Ð":6299,"ĠÑĤÑĬÑĢÑģÑıÑĤ":6300,"ÑĤÐ½Ð°ÑĤÐ°":6301,"¡ÐļÐĺ":6302,"Ð´Ð°Ð²Ð°ÑĤ":6303,"af":6304,"ĠÐ²ÑĬÐ·Ð¿Ð¸ÑĤÐ°":6305,"ĠÑģÐºÐ»Ð°":6306,"ÑĤÐ¸Ð»Ðµ":6307,"ĠÐ¾ÑĤÐ²Ð°ÑĢÑı":6308,"ĠÐ¾ÑĢÐ¸Ð":6309,"ĠÐ´ÑĬÑīÐµÑĢÑı":6310,"ĠÐ±Ð»Ðµ":6311,"52":6312,"ĠÐ¿ÑĢÐ¸ÐºÐ»ÑİÑĩÐ¸":6313,"ĠÐ½Ð¾Ð²Ð¾ÑĤÐ¾":6314,"ĠÐºÐ¾Ð½ÑĤÐµ":6315,"ĠÐ°Ð±ÑģÐ¾Ð»ÑİÑĤÐ½Ð¾":6316,"ÐºÑĨÐ¸ÑĺÐ°":6317,"ĠÐ¼ÐµÐ¶Ð´ÑĥÐ½Ð°ÑĢÐ¾Ð´":6318,"ĠÐ·Ð°Ð¿Ð»Ð°ÑĤÐ°":6319,"Ð»ÐµÐ½Ð°ÑĤÐ°":6320,"ĠÑģÐ°Ð¼Ð¸Ñı":6321,"ĠÑģÑĤÐ°Ð½":6322,"ÑĬÑĢÐ´":6323,"Ð¾ÑĤÐ":6324,"ĠÐ½Ð°Ð»Ñı":6325,"ĠÑģÐ¸ÑĤÑĥÐ°ÑĨÐ¸ÑıÑĤÐ°":6326,"ĠÑĥÐ¿ÑĢÐ°Ð²Ð»ÐµÐ½Ð¸ÐµÑĤÐ¾":6327,"ĠÐ¶ÑĥÑĢÐ½Ð°Ð»Ð¸ÑģÑĤÐ¸":6328,"ĠÐ¡ÑĤÐ¾Ñı":6329,"ĠÑĥÑģÐ¿Ð¾":6330,"ĠÐļÐ¸ÑĢÐ¸Ð»":6331,"Ð´Ð¾Ð¼":6332,"Ð¾ÑĤÐ½Ð¾":6333,"SB":6334,"Ð»ÐµÑģ":6335,"ĠÐ³ÑĢÐ°Ð¶Ð´Ð°Ð½Ð¸ÑĤÐµ":6336,"ĠÐĪÑĥ":6337,"ian":6338,"ĠÑģÑĬÑħ":6339,"ĠÐ¿Ð¾Ð´Ð´ÑĢÑĬ":6340,"ĤÑıÑĤ":6341,"ÑĤÑıÑĤ":6342,"ĠÑĤÐµÐ¼Ð¿ÐµÑĢÐ°ÑĤÑĥÑĢÐ°":6343,"ĠÑĢÐ°Ð·Ð³Ð»ÐµÐ¶Ð´Ð°":6344,"ĠÑĢÐ°Ð·Ð¼ÐµÑĢÐ¸":6345,"Ð½ÑĩÐµ":6346,"µÐ»ÑĤÐ°":6347,"ĠÐļÐ»Ð°":6348,"ĠÐ³ÑĢÐ°Ð´Ð¾Ð²Ðµ":6349,"ĠÐ¿ÑĢÐµÐ¼Ðµ":6350,"ĠÐ¡ÑĤÐ¸":6351,"ĠÐµÑĤÐ¾":6352,"ĵÐĲÐłÐ":6353,"ĠÐ¾ÐºÐ°Ð·Ð²Ð°":6354,"ĠÑĥÑĩÐµÐ½Ð¸":6355,"ĠÐ¿ÑĢÐ¾Ð²ÐµÐ¶Ð´Ð°":6356,"ĠÐ»Ð¸ÑĤÐµÑĢÐ°ÑĤÑĥÑĢÐ°":6357,"ĠÐ¿Ð¾Ð´ÐºÑĢÐµÐ¿Ñı":6358,"Ð¿Ð½Ð¾":6359,"ĠÐļÐ¾Ð½ÑģÑĤÐ°Ð½ÑĤÐ¸":6360,"ĠÐºÐ»Ð¸Ð¼Ð°ÑĤÐ¸":6361,"ĠÑģÑĥÑĤÑĢÐ¸Ð½":6362,"Ð½Ð°Ð¼Ð¸":6363,"51":6364,"ÑĢÐ·Ð¸":6365,"µÐ´Ð½Ð¾":6366,"ĠÐ³ÑĢÐ°ÑĦÐ¸":6367,"ĠÐ½Ð°Ð¼Ð°Ð»Ð¸":6368,"ĠÐ²ÑĬÐ·Ð´ÑĥÑħ":6369,"ĠÐ±Ð¾Ð³Ð°":6370,"Ġde":6371,"Ð²Ð½Ð¾ÑģÑĤÑĤÐ°":6372,"ĠÐ¦ÐµÐ½Ð°":6373,"ĠÐŁÑĬÑĢÐ²Ð¾":6374,"ĠÐłÑĥÐ¼ÑĬ":6375,"¸Ð¸ÑĤÐµ":6376,"ĠÐ¿Ð¸ÑģÐ¼Ð¾":6377,"ĠÐĳÐ¾ÑĤÐµÐ²":6378,"ĠÐºÐ²Ð°Ð»Ð¸ÑĦÐ¸ÐºÐ°":6379,"ass":6380,"ĠÑģÑĩÐ¸ÑĤÐ°":6381,"ÑģÐºÐ¾Ð¿":6382,"±Ð¸Ñı":6383,"ÑĪÐ°Ð²Ð°ÑĤ":6384,"Ġ....":6385,"ÑĬÑĢÐºÐ°":6386,"ĠÐ½Ð°Ð´ÐµÐ¶":6387,"ĠÐ¼Ð°ÑĢÐºÐ¸":6388,"ĠÑģÑĤÑĢÐ°Ð½Ð¸ÑĤÐµ":6389,"ĠÐ½Ð°Ð¿ÑĢÐ°Ð²Ð¾":6390,"ĠÑģÐ¾Ð·Ð´Ð°":6391,"ĠÑĤÐµÐ»ÐµÐ²Ð¸Ð·Ð¸Ñı":6392,"ĠÑģÑĤÐ°ÑĢÐ°":6393,"ĠÐ½Ð°Ð³ÑĢÐ°Ð´Ð¸":6394,"ĠÐ¿ÐµÑģÐ½Ð¸":6395,"ĠÑħÑĢÐ¸ÑģÑĤÐ¸Ñı":6396,"ĠÐ²Ð»Ð¸ÑıÐ½Ð¸Ðµ":6397,"ĠÐĹÐ»Ð°":6398,"ĠÑĢÐ°Ð·Ð¾":6399,"ÑĢÐ°Ð·ÑıÐ²Ð°":6400,"ĠÐłÐ°Ð±Ð¾":6401,"ĠÑģÑĤÑĢÐ°Ð½Ð¸ÑĨÐ°":6402,"ÑĬÑĢÐ³Ð¾":6403,"ĠÑĦÐ°ÐºÑĤÐ°":6404,"ĠÑģÐ¼Ð°ÑĢÑĤ":6405,"ĠÑĨÐ¸ÑĦ":6406,"pe":6407,"ĠÐ¾Ð±ÐµÐºÑĤ":6408,"ĠÐŁÐ»ÐµÐ²ÐµÐ½":6409,"ĠÐ½Ð°ÐºÑĢÐ°Ñı":6410,"Ð½Ð°Ð»Ð¸ÑĤÐµ":6411,"ÑĢÐµÐ½Ðµ":6412,"ÑĢÐ°Ð¼Ðµ":6413,"ED":6414,"ÑĤÐµÐ»Ð¾ÑĤ":6415,"ĠÐĿÐ¾Ð²Ð¸Ð½Ð¸":6416,"ĤÑĬÐ½":6417,"ÑĤÑĬÐ½":6418,"Ð´Ð¾Ð½Ð°":6419,"ĠÐºÐ¾Ð»ÐºÑĥ":6420,"ĠÐķÐºÑģ":6421,"ÑĢÐ¾Ð´Ð¸":6422,"ķÐ¢Ðŀ":6423,"ĠÐ¿Ð¾Ð»Ð¸ÑĤÐ¸ÐºÐ°ÑĤÐ°":6424,"ĠÐ¼Ð¸ÑģÑĬÐ»":6425,"ĠÐ¾Ð±ÑĢÐ°ÑĤÐ½Ð¾":6426,"ĠÐĹÐ¾":6427,"ĠÐ¸Ð·Ð¸ÑģÐºÐ²Ð°Ð½Ð¸Ñı":6428,"Ð³Ð¾Ð»Ðµ":6429,"ĠÐ¿Ð¾ÑĩÐµÑĤÐ¾":6430,"ĠÐ¸Ð·ÑģÐ»ÐµÐ´Ð²Ð°Ð½Ðµ":6431,"ĠÐļÑĢÐ°ÑģÐ¸":6432,"AT":6433,"ĠÑĪÐ°Ð½Ñģ":6434,"ĠÐ½Ð°ÑĤÑĢÑĥ":6435,"ĠAr":6436,"ĠÐ²Ð¾Ð·Ð¸":6437,"ĠÐ´Ð¾Ð":6438,"ĠÐ²Ð¸ÐºÐ°":6439,"ĠÐ¿ÑĢÐ¾ÑĨÐµÐ½ÑĤÐ°":6440,"ĠÐĹÐµ":6441,"ĠÐ¼Ð¸Ð½Ð°Ð»Ð¾ÑĤÐ¾":6442,"ĠÐ³Ð¾Ð´Ð¸Ð½Ð¸ÑĤÐµ":6443,"ĠÑĤÑĬÑĢÑģÐµÐ½Ðµ":6444,"ĠÐĴÑĬÐ¿ÑĢÐ¾":6445,"):":6446,"ĠÐ¿Ð¾Ð´Ð³Ð¾ÑĤÐ¾Ð²ÐºÐ°":6447,"ĠÑĦÑĥÐ½ÐºÑĨÐ¸Ð¸":6448,"ÑħÐ²ÑĬÑĢÐ»Ð¸":6449,"Ġ48":6450,"ĠÐ°Ð´Ð°":6451,"ĠÐ¿ÑĢÐ¸ÐµÐ¼Ðµ":6452,"Ð²ÑĥÐ²Ð°":6453,"ĠÐŁÑĢÐ¾Ð´Ñĥ":6454,"Ġ=":6455,"ĠÑĥÑģÑĤÑĢÐ¾Ð¹ÑģÑĤÐ²Ð°":6456,"ĠÐ¿ÑĢÐ¾Ð´ÑĬÐ»Ð¶Ð°Ð²Ð°ÑĤ":6457,"ĠÐ½Ð¸Ð²Ð¾ÑĤÐ¾":6458,"ĠÐ±Ð»Ð¾Ðº":6459,"ĠÑĩÐ¾":6460,"ĠÐºÑĢÐµÐ":6461,"ĠÐ´Ð¶Ð":6462,"Ð½ÑģÑĤÐ²Ð¾ÑĤÐ¾":6463,"ĠÐ¡ÑĤÐ°Ð½Ð¸":6464,"ĠÑģÑĤÐ°Ð´Ð¸Ð":6465,"Ð»Ð¾Ð¶ÐµÐ½Ð°":6466,"Ð¼Ð¾ÑĢ":6467,"ĠÐ½Ð°Ð¿ÑĢÐ°Ð²Ð¸Ð¼":6468,"ĠÐĲÐĶ":6469,"ÑĩÐ¸Ð»Ð¸":6470,"ÑģÑĤÐ¾Ð²Ð¸":6471,"Ð¼Ð¾Ð²Ð¸":6472,"ĠÐºÐ¾ÑģÐ°ÑĤÐ°":6473,"ĠÐ±ÑĬÐ»Ð³Ð°ÑĢÑģÐºÐ°":6474,"ĠÐ³Ð»Ð°Ð²ÐµÐ½":6475,"ĠÐ¾ÑģÑĤÐ°Ð½Ð°Ð»Ð¸":6476,"¾ÑĢÑĬ":6477,"ĠÐ¡ÑĬÑĢÐ":6478,"end":6479,"ĠÐ¹Ð":6480,"¢ÐĲ":6481,"ĠÐ°ÑĢÐ¼Ð¸Ñı":6482,"ÐºÑĤÐ¾ÑĢÐ¸ÑĤÐµ":6483,"Ð·Ð¸Ð´ÐµÐ½ÑĤ":6484,"ĠÐ½ÑıÐºÐ¾Ð³Ð°":6485,"ĠÐ¿Ð¾Ð¿Ð°":6486,"ÑģÑĤÑĬÑĢÐ°":6487,"ĠÐ¾Ð½Ð¸Ðµ":6488,"ÐºÑĤÐµÐ½":6489,"Ð»Ð¸ÐºÐ°":6490,"ĠÑĪÐ¾Ñĥ":6491,"ĠÐ²ÑĢÑĬÐ·ÐºÐ¸":6492,"ĠÐ¾Ð¿ÑĤÐ¸Ð¼Ð¸":6493,"Ð²Ð¾ÑģÑĤ":6494,"ĲÐľÐ":6495,"ĠÐĹÐ´ÑĢÐ°Ð²ÐµÐ¹ÑĤÐµ":6496,"Ð¿Ð¾Ð»Ð°Ð³Ð°":6497,"ĠÐŁÐ¾ÑĢÐ°Ð´Ð¸":6498,"ÑĬÐ³ÑĬÐ»":6499,"Ġ00":6500,"ĠÐ³Ð¾ÑģÑĤÐ¸ÑĤÐµ":6501,"ĠÐķÐ²ÑĢÐ¾Ð¿ÐµÐ¹ÑģÐºÐ°ÑĤÐ°":6502,"ĠÐ½ÐµÐ¿ÑĢÐµÐºÑĬÑģÐ½Ð°":6503,"ÑĢÐ½Ð¾ÑģÑĤÑĤÐ°":6504,"ĠÐ¢Ð¾ÑĩÐ½Ð¾":6505,"Ð±Ð½Ð¸ÑĤÐµ":6506,"ĠÐ¸ÑģÑĤÐ°":6507,"ÑĢÐ°ÑļÐµÑĤÐ¾":6508,"ĠÐ´ÑĢÑĥÐ³Ð¸Ñı":6509,"ĠÐ¿Ð¾Ð²ÑĤÐ¾ÑĢÐ½Ð¾":6510,"ÑģÐ¾Ð²ÐµÑĤÐµ":6511,"ko":6512,"ĠÑģÐ²ÑĬÑĢÑĪÐ¸":6513,"ĠÐĿÐ°ÑĢÐ¾Ð´":6514,"ĠÐ²Ð»Ð°ÑģÑĤÐ¸":6515,"ĠÐ²Ð·Ð°Ð¸Ð¼Ð¾":6516,"ĠÑĥÑĩÐ°ÑģÑĤÐ²Ð°ÑĤ":6517,"ĠÐ²Ð½Ð¸Ð¼Ð°Ð½Ð¸ÐµÑĤÐ¾":6518,"Ð´Ð±Ð¸":6519,"Ð»ÑģÑĤÐ²Ð¾ÑĤÐ¾":6520,"ĠÐ³Ð»Ðµ":6521,"Ð³Ð¾ÑĢ":6522,"ĠÐŀÑĤÐº":6523,"ĠÑĢÐ°Ð·Ð¿Ð¾ÑĢÐµ":6524,"Ð±Ð¸Ð¾":6525,"ĠÐ½Ð¸ÑĤÑĥ":6526,"ĠÐ½Ð°Ð¼Ð¸ÑĢÐ°ÑĤ":6527,"ĠÐ¿Ð¾Ð´Ð¿Ð¾Ð¼Ð°Ð³Ð°":6528,"ĠÐĴÐ»Ð°Ð´Ð¸Ð¼Ð¸ÑĢ":6529,"ĠÐ²Ð¾Ð·":6530,"ĠÐ½Ð°ÑģÐµÐ»ÐµÐ½Ð¸Ðµ":6531,"ĠÐ½Ð°ÑĩÐ°Ð»Ð¾":6532,"ĠÐ¾ÑĩÐµÐºÑĥÐ²Ð°":6533,"ĠÐ²Ð°Ð¶Ð½Ð°":6534,"ĠÑģÑĤÑĥÐ´ÐµÐ½ÑĤÐ¸":6535,"ķÐĹÐ":6536,"Ġ)":6537,"ĠÐ¿ÑĢÐ°Ð²Ð¸Ð¼":6538,"ĠÐ·Ð°ÐºÐ»Ñİ":6539,"Ð½Ð°Ð":6540,"gar":6541,"ĠÐ¿Ð¾ÑĩÐµ":6542,"ĠQ":6543,"Ð²Ð¸ÐµÑĤÐ¾":6544,"ĠÑĻÑĥ":6545,"ĠÑģÑħÐ":6546,"ĠÐ¿ÑĢÐ¾ÑĨÐµÑģÐ°":6547,"ÑģÑĤÐ¼Ð°":6548,"ĠÐ¼ÑĬÐ¶ÐµÑĤÐµ":6549,"ĠÐ²Ð»Ðµ":6550,"ĠÑģÑĬÐ¾Ð±ÑīÐ°Ð²Ð°":6551,"ĠÐ¿ÑĬÐ»ÐµÐ½":6552,"ÑĢÐ°Ñī":6553,"ĠÐ·ÐµÐ¼ÐµÐ´ÐµÐ»":6554,"Ð½ÐµÐ½Ð¸ÑıÑĤÐ°":6555,"ĠÐ·Ð²ÐµÐ·Ð´Ð°":6556,"ĠÑģÑĤÑĢÐ°ÑħÐ¾ÑĤ":6557,"ĠÐĴÐ°Ñģ":6558,"ĠÐµÐ²ÐµÐ½ÑĤÑĥÐ°Ð»":6559,"ĠÐ²Ð¾Ð¹":6560,"ĠÐ´ÐµÑĦÐ¸":6561,"ÑģÐ°Ð½":6562,"Ð½Ð¾ÑģÑĤÐ°":6563,"Ð½Ð¾Ð²Ð¸ÑĤÐµ":6564,"Ð»Ð¸ÑģÑĤÐ¸ÑĤÐµ":6565,"ÑĢÐ°Ð±Ð¾ÑĤ":6566,"Ġ120":6567,"ĠÐ¸Ð½Ð²ÐµÑģÑĤÐ¸ÑĨÐ¸Ð¸":6568,"ĠÑģÐµÐ´ÐµÐ¼":6569,"ĿÐķ":6570,"ĠÐ¡ÑĤÑĢÑĥ":6571,"ĠÐ³ÑĢÐ°ÑĵÐ°Ð½Ð¸ÑĤÐµ":6572,"ÑĢÐ¾Ð·Ð°":6573,"Ð¹ÑĤÐ¾":6574,"ĠÐºÑĢÑĥ":6575,"ĠÐºÑĥÑħÐ½Ñı":6576,"ĠÐ´ÑĢÑĥÐ³Ð¾ÑĤÐ¾":6577,"ĠÐ´ÑĥÑĢÐ¸":6578,"Ð¶Ð±Ð°ÑĤÐ°":6579,"ĠÐ·Ð°Ð³ÑĥÐ±Ð°":6580,"ĠÐ¼ÑĬÐ»":6581,"ĠÐ·Ð°ÑģÐ¸":6582,"ĠÐºÐ¾Ð¼Ð¿Ð¾":6583,"ĠÐ´Ð¸Ð³Ð¸ÑĤÐ°":6584,"ÑħÐ¾Ð´Ð½Ð¾":6585,"ĠÐ¿ÑĢÐµÐºÐ°Ð»ÐµÐ½Ð¾":6586,"ÑĤÐ°ÑĤÐ¸ÑĤÐµ":6587,"ĠÑģÐ°Ð¼Ð¾ÑĤÐ¾":6588,"ĠÐ½Ð°Ð²ÑģÑıÐºÑĬÐ´Ðµ":6589,"ĠÑĤÐµÐ°ÑĤÑĬÑĢ":6590,"Ð²ÑĢÑĬÑīÐ°":6591,"ĠÐ¿Ð¾ÐµÐ¼Ð°":6592,"ÑĥÐ°":6593,"Ð´ÐµÑĢÐ°":6594,"ĠÐľÐ°ÑĢÐ¸":6595,"ĠÐ½Ð°Ð·Ð°Ð´":6596,"ĠÐºÐ°ÑĤÐµÐ³Ð¾ÑĢÐ¸Ñı":6597,"ĠÑĤÑĢÑĥÐ´Ð°":6598,"ĶÐ¡Ð":6599,"ĠÐ½ÐµÐ´ÐµÐ»Ñı":6600,"ĠÐ±ÑĥÐºÐ²Ð°":6601,"ĠÑĥÑģÐ¿ÐµÐ":6602,"ĠÐ¿Ð°ÑĢÑĤÐ¸ÑıÑĤÐ°":6603,"ÑĥÑĢÐ°":6604,"ĠÑĢÐ°Ð±Ð¾ÑĤÐ¾":6605,"ĠÑģÐ¸Ð»Ð°ÑĤÐ°":6606,"?\"":6607,"ĠÐ»Ð¸Ð¿ÑģÐ²Ð°":6608,"ÑĥÐº":6609,"ĠÑģÐµÐ»Ðµ":6610,"Ð¶Ð´ÐµÐ½Ð¸Ðµ":6611,"ÑĤÐµÑĢÐ¸":6612,"ĠÐ¼ÑĢÑĬ":6613,"ĠÐºÐ»Ð¸ÐµÐ½ÑĤÐ¸ÑĤÐµ":6614,"ĠÐµÐºÐ":6615,"Ð»Ð½Ð¾ÑģÑĤÑĤÐ°":6616,"Ð±Ñı":6617,"ĠÑĩÐ»ÐµÐ½Ð¾":6618,"ĠÑĤÐ²":6619,"ĠÐłÑĥÐ¼ÑĬÐ½Ð¸Ñı":6620,"ĠÐ¾ÑĤÐ¿Ð°Ð´ÑĬ":6621,"Ð¿Ð¾Ð²":6622,"Ð½ÐµÑĢÐ¸ÑĤÐµ":6623,"Ð²ÐµÐ»":6624,"ĠÐµÐ´Ð½Ð¾Ð²ÑĢÐµÐ¼ÐµÐ½Ð½Ð¾":6625,"ĠÐ²Ð¸Ð¶Ð´Ð°Ð¼":6626,"ĠÐ¸Ð³ÑĢÐ°ÑĩÐ¸":6627,"ĠÐļÑĢÑĬ":6628,"¾ÑĪÑĤÐ¾":6629,"ĠÐ½ÐµÐ¾Ð±ÑħÐ¾Ð´Ð¸Ð¼Ð¸":6630,"¦ÐĺÐ":6631,"ķÐ¡Ð":6632,"ĠÐ²ÐµÑīÐµÑģÑĤÐ²Ð°":6633,"ÑģÑĤÐµÐ½Ð¸":6634,"ĠÐŀÐŀÐĶ":6635,"ĠÑĦÐ¾Ð½":6636,"ŀÐĻ":6637,"ĠÐ»Ð¸Ð¿ÑģÐ°ÑĤÐ°":6638,"ĠÑĥÑģÐ¸Ð»Ð¸Ñı":6639,"ĠÐĺÐ·ÑĢÐ°":6640,"Ð°Ð»Ð¸":6641,"ĠÐ¾Ð±ÑıÑģ":6642,"ĠÐ¿ÑĢÐ°Ð·Ð½Ð¸":6643,"ÐĳÐ°":6644,"ÐĶÐµ":6645,"ĠÐ½ÐµÐ´Ðµ":6646,"ÑģÑĬÐºÐ°":6647,"ĠÐºÐ»ÑĥÐ±Ð°":6648,"ĠÐĶÐ¾Ð±ÑĢÐ¸":6649,"Ġ33":6650,"ight":6651,"ĠÐĲÑĢ":6652,"OVID":6653,"ĠÐ¸ÑģÐºÐ°ÑĪ":6654,"ĠÐ½ÐµÑģ":6655,"ĠÐ½Ð°Ð¼Ð°Ð»ÑıÐ²Ð°Ð½Ðµ":6656,"ĠÐ¼ÐµÑģÑĤÐ½Ð¸ÑĤÐµ":6657,"ĠFacebook":6658,"88":6659,"ĠÐ¿Ð¾ÑģÐµÑĤÐ¸ÑĤÐµ":6660,"ĠÐ²Ð½Ðµ":6661,"ÑıÑģÐ½Ð¾":6662,"ÑģÐ²Ð°Ð½Ðµ":6663,"EN":6664,"ĠÑģÐ¸Ð»ÐµÐ½":6665,"ĠÑĥÑĩÐ°ÑģÑĤÐ¸ÐµÑĤÐ¾":6666,"ĠÐ´Ð¾Ð±Ð°Ð²Ñı":6667,"ĠÐ¼Ð¾Ð¸ÑĤÐµ":6668,"ÐĿÐ¸":6669,"ES":6670,"ÑĢÐ¾ÑĺÐ°":6671,"Ð½Ð¸Ð¸ÑĤÐµ":6672,"ĠÑĥÐ¼Ð¾":6673,"ĠÑģÐ»ÑĥÐ¶Ð±Ð°":6674,"ĠÐ°Ð¼Ð¸":6675,"ÐºÑĥÐ»ÑĤÐµ":6676,"ĠÐ¿ÑĢÐµÐ´Ð¾ÑĤÐ²":6677,"ÑĢÑĥÐ¼":6678,"ĠÐ¾ÑĤÐ¿Ð":6679,"ÑĢÐ¾ÑĨÐ":6680,"Ð¿Ð²Ð°Ð½Ðµ":6681,"±Ð¸ÑĤÐµ":6682,"ĠÐ±ÑĢÐµÐ¼ÐµÐ½":6683,"ĠÑĢÐµÐ²Ð¾Ð»Ñİ":6684,"ĠÐ¿ÑĢÐ¾ÐºÑĥÑĢÐ¾ÑĢ":6685,"ĠÐºÑĢÐ°Ñ":6686,"ĠÑĺÐ°Ñģ":6687,"ÑĢÐµÐ½Ð¸ÐµÑĤÐ¾":6688,"ĠÑģÑĬÑħÑĢÐ°":6689,"ĠÐ±Ð¾ÑĢÐ±Ð°ÑĤÐ°":6690,"Ð´ÐµÐ½Ðµ":6691,"Ð´ÐµÐ½Ð¸ÐµÑĤÐ¾":6692,"Ð¼Ð¸Ð½Ðµ":6693,"ÐĺÐ¼Ð°":6694,"ĠÐ°ÑĢÑħÐ¸":6695,"īÐ¸":6696,"ĠÐ»Ð¸ÑĩÐ½Ð¾ÑģÑĤ":6697,"°ÑļÐµ":6698,"OR":6699,"ĠÑĦÑĥÑĤÐ±Ð¾Ð»":6700,"ÑŁÐ":6701,"Ð½ÑĨÑĥ":6702,"ĠÐ²ÑĬÐ¾Ð±ÑīÐµ":6703,"ĠÐ¼Ð¸ÑģÐ»Ð¸ÑĤÐµ":6704,"ÐĴÐ¾":6705,"ĠÐºÐ¾Ð½ÑĨÐµÐ¿":6706,"ÑĤÐµÑħ":6707,"ĠÑĨÐ¸Ð²Ð¸":6708,"ĠÐ¼Ð°Ð»ÐºÐ¸ÑĤÐµ":6709,"Ð¼ÐµÑĤÑĬÑĢ":6710,"ĠÐ¸Ð´Ð²Ð°ÑĤ":6711,"µÑĨ":6712,"ĠÐ¿Ð¾ÑĤÐ¾":6713,"ÑĬÑĦ":6714,"Ð»ÐµÑĤÐ¾":6715,"ĠSh":6716,"Ð½ÑĤÑĢÐ¾":6717,"Ġon":6718,"ÑĢÐ¸ÐµÐ¼":6719,"ust":6720,"Ġ39":6721,"ĠÐĳÐ»Ð°Ð³Ð¾ÐµÐ²Ð³ÑĢÐ°Ð´":6722,"ĠÐ¿Ð¾ÑģÐ»ÐµÐ´Ð¾Ð²Ð°":6723,"ĠÐ¼Ð¾ÑĤÐ¸Ð²Ð¸":6724,"ÑģÑĤÐ°Ð½Ð¾Ð²":6725,"Ġ2006":6726,"ĠÑĥÐ¼ÐµÐ½Ð¸Ñı":6727,"ĠÐ¿ÑĢÐµÐ´ÑģÑĤÐ¾Ñı":6728,"ªÐĽÐĵÐĲÐłÐ":6729,"ĠÐĳÑĢÐµ":6730,"ĠÐĿÐ°Ñĺ":6731,"???":6732,"ĠÐºÐ°ÑĤÐ°ÑģÑĤÑĢÐ¾ÑĦÐ":6733,"ĠÐ·ÐµÐ¼Ñı":6734,"ĠÐ²Ð¸ÑģÑĤÐ¸":6735,"ĠÐ²Ð·Ð¸Ð¼Ð°":6736,"ĠÐ¾ÑĤÐ³Ð»Ðµ":6737,"ÑĤÐµÐ»Ð½Ð¾ÑģÑĤ":6738,"ĠÑģÑĬÑīÐ¸ÑĤÐµ":6739,"ĠÐ¼Ð°Ð·Ð½Ð¸":6740,"Ð¿Ð»Ð¸ÐºÐ°":6741,"ĠÑĢÐµÐºÐ°":6742,"ÑĢÐ³Ð¸Ñı":6743,"ĠÐ¾ÑĢÐ³Ð°Ð½Ð¸Ð·Ð¼Ð°":6744,"ĠÐ½ÐµÐ³Ð¾Ð²Ð¸Ñı":6745,"ĠÐŁÑĥÐ±Ð»Ð¸ÐºÑĥÐ²Ð°":6746,"ĠÑģÐ¾ÑĨÐ¸Ð°Ð»Ð¸":6747,"ĠÐ¼ÐµÑĩÑĤÐ°":6748,"ĠÐ³Ð¾Ð»ÐµÐ¼":6749,"ĠÐŁÑĢÐ¾Ð¸Ð·":6750,"Ð²Ð°Ð°ÑĤ":6751,"ĠÐ¿ÑĢÐ¾ÑĨÐµÑģÐ¸":6752,"ĠÐ¾Ð±ÑĢÐ°Ð·ÑĥÐ²Ð°":6753,"Ð»ÐµÑĤÐµ":6754,"Ð»Ð¾Ð½Ð¸":6755,"ĠÐ¿ÑĢÐ¸ÐµÐ¼Ð°Ñ":6756,"ĠÐ¿ÑĢÐ¸ÐµÐ¼Ð°ÑĤ":6757,"ĠÐ¼Ð°Ð³Ð¸ÑģÑĤÑĢÐ°":6758,"ÑģÐµÐ½Ð¸":6759,"ĠÑģÑĢÐµÑīÐ¸":6760,"Ð½Ð°Ð¹":6761,"ĠÑĨÐ²ÐµÑĤÐ¾Ð²Ðµ":6762,"Ð´Ð¾Ð±ÑĬÑĢ":6763,"ĠÐ¼Ð°ÑĢÐºÐ°":6764,"ĠÐ¡ÑĬÑģ":6765,"ĠÑģÑĢÐ¾":6766,"Ð¾ÑĢÑĬ":6767,"ĠÐ·ÐµÐ¼ÑĺÐ°":6768,"ĠÐ·Ð°Ð¿Ð¾Ð²ÐµÐ´":6769,"ÑĢÐ°Ð±Ð¾ÑĤÐºÐ°":6770,"ĠÐ¸Ð½ÑĦÐ¾ÑĢÐ¼Ð°ÑĨÐ¸ÑıÑĤÐ°":6771,"Ð·Ð¼Ð¸":6772,"ĠÐŁÑĬÑĢÐ²Ð¸":6773,"ĠÐ¿Ð¾Ð´Ð¸":6774,"Ġre":6775,"ĠÐĲÐ½Ð³Ð»Ð¸Ñı":6776,"ÑĢÑĦ":6777,"ĠÐ¿Ð¾Ð»Ð·Ð²Ð°":6778,"ÑħÐ¾Ð²Ðµ":6779,"Ġr":6780,"ĠÐ´Ð¾Ð¿ÑĬÐ»Ð½Ð¸":6781,"Ð´Ð¸Ð¼":6782,"ÐºÐ¾Ð»":6783,"ÑĢÑıÐ·Ð°":6784,"ĠÐ½Ð°Ð¿Ñĥ":6785,"Ð¨":6786,"Ð³ÑĥÐ²Ð°":6787,"Ð¿Ð½Ð°":6788,"ķÐĵÐ":6789,"ĠÐ¸Ð·Ð¿Ð¸ÑĤÐ°":6790,"ĠÑģÐ¾Ð»":6791,"ĠÐ´ÐµÐ½ÐµÑģÐºÐ°":6792,"ÑħÐ¸Ñı":6793,"ĠÑĨÑĬÑĢÐºÐ²Ð°":6794,"ĠÐ¥Ð¾ÑĢÐ°ÑĤÐ°":6795,"ĠÑģÑĬÐ·Ð´Ð°Ð²Ð°Ð½Ðµ":6796,"ĠÑĦÐ°Ð·Ð°":6797,"ĠÐ·Ð°ÑĤÑĢÑĥ":6798,"ĠÐ°Ð´Ð¼Ð¸Ð½Ð¸ÑģÑĤÑĢÐ°ÑĨÐ¸Ñı":6799,"Ð³Ð»ÐµÐ´Ð¸":6800,"ĠÐ¿ÑĢÐ¸ÑĩÐ¸Ð½Ð°ÑĤÐ°":6801,"ĠÐ¿ÑĢÐ°Ð·Ð½Ð¸Ðº":6802,"ĠÐ¿Ð¾ÑĢÑĬÑĩÐºÐ°":6803,"ĠÐ²ÑĬÐ·Ð¿Ð¾Ð»Ð·":6804,"ĠÐ´Ð¸Ðµ":6805,"ÑĢÐ½Ð¸Ðº":6806,"Ð¼ÐµÑĤÐ¾":6807,"ÑĢÐ±Ðµ":6808,"ŁÐľÐ":6809,"ĠÐ¾ÑĤÐºÐ°ÐºÐ¾":6810,"Ð¼Ð½Ð°ÑĤÐ°":6811,"ĠÐ²Ð¸ÑģÐ¾Ðº":6812,"ĠÐ¾Ð¿ÑĢÐµÐ´ÐµÐ»Ð¸":6813,"ÑĢÐ¸Ð·Ð¾":6814,"ĠÑĤÑĬÑĢÐ³Ð¾Ð²ÑģÐºÐ¸":6815,"Ð¼Ð¾Ð½":6816,"ĠÐ½Ð°ÑĢÐºÐ¾":6817,"ÑģÑĤÐµÐ¿ÐµÐ½Ð½Ð¾":6818,"ĠÐ²ÑĬÐ·Ð¿":6819,"ĠÐ´Ð¾Ñĺ":6820,"Ð»Ð±Ð¸":6821,"ĠÑĩÐµÑĤÐ²ÑĬÑĢÑĤ":6822,"ĠÐ¿Ð¾ÑĤÐ¾Ð°":6823,"Ð»Ð¸Ð½Ð¸":6824,"ĠBG":6825,"ĠÑģÐºÐ»Ñİ":6826,"Ð»Ð¾ÑģÑĤ":6827,"ĤÐ½Ð¸Ñı":6828,"ÑĤÐ½Ð¸Ñı":6829,"ĠÐºÐ°Ð·Ð°Ð½Ð¾":6830,"ĠÑĢÐµÐ´Ð¾Ð²Ð½Ð¾":6831,"ĠÐºÑĢÐ¸ÑĤÐµ":6832,"ĠÑģÐ¾ÑĨÐ¸ÑĺÐ°":6833,"ĠÑĦÐ¸Ð»Ð¾ÑģÐ":6834,"µÐ²Ð°":6835,"Ð³Ð¾Ð´Ð¸ÑĪÐ½Ð°ÑĤÐ°":6836,"ĠÐ¿ÑĢÐµÐ´Ð¸Ð¼Ð½Ð¾":6837,"Ð¿Ð²Ð°":6838,"ĠÑģÐ½Ðµ":6839,"77":6840,"ĠÐ±Ð°Ðº":6841,"ĠÐłÑĬ":6842,"ĠÐ²Ð½Ñĥ":6843,"ĠÐ°Ð²Ð¸Ð":6844,"ĠÐŀÐ¢Ð":6845,"ĠÑģÑĬÐ¾ÑĢÑĬ":6846,"ĠÐ¾ÑģÐ½Ð¾Ð²Ð°ÑĤÐ°":6847,"ĠÐµÐ·Ðµ":6848,"ĠÐ¼Ð¸ÐºÑĢÐ¾":6849,"ĠÐ§Ð¾Ð²Ðµ":6850,"ĠÑĢÐ°Ð²Ð½Ð¸":6851,"Ð½Ð½Ð°ÑĤÐ°":6852,"ĠÐ¾ÑģÐ½Ð¾Ð²Ð°Ð½Ð¸Ðµ":6853,"ĠÐ¼Ð¾Ð»Ñı":6854,"Ð³Ð¾Ð´Ð¸ÑĪÐ½Ð¸ÑıÑĤ":6855,"ĠÑĥÐ´Ð°ÑĢÐ¸":6856,"ĠÐŁÐ°Ð·Ð°":6857,"ĠÐ¸Ð·Ð²ÐµÑģÑĤÐ½Ð¸":6858,"ÐŀÑ":6859,"ÐŀÑĤ":6860,"Ð¿ÐµÑ":6861,"ĠÑĦÐ¸Ð»Ð¼Ð¸":6862,"ĠÐ½Ð°Ð¼ÐµÑĢÐ¸ÑĤÐµ":6863,"\")":6864,"ĠÐºÑĢÐ°ÑĺÐ¾ÑĤ":6865,"ĠÐ·Ð°Ð¿Ð°Ð·Ð¸":6866,"Ð¥Ð¾":6867,"ĠÑĢÐ°Ð·Ð»Ð¸ÑĩÐµÐ½":6868,"ĠÐ¸Ð¼Ð¿Ðµ":6869,"ĠÐ£Ð¸":6870,"ĠÐ²Ð¸ÑģÐ¾ÑĩÐ¸Ð½Ð°":6871,"Ð¿ÐµÑĤ":6872,"ĠCOVID":6873,"Ð²ÑĥÐ²Ð°ÑļÐµ":6874,"Ð²ÐµÐ·":6875,"ĠÐ¿Ð¾ÐºÐ¾Ð»ÐµÐ½Ð¸Ðµ":6876,"Ð½ÑıÐ²Ð°Ð½ÐµÑĤÐ¾":6877,"ĠÑħÐ°ÑĢÐµÑģÐ²Ð°":6878,"ĲÐĶÐ":6879,"Ð·ÐµÐ»":6880,"ķÐĿÐĺÐķ":6881,"ĠÐ¿Ð¾Ð»ÑĥÑĩÐ°ÑĤ":6882,"ÑĩÐ¾ÑĤ":6883,"ĠÑģÑĬÐ³Ð»Ð°ÑģÐ½Ð¾":6884,"ĠÐ¢ÑĢÑĥ":6885,"ros":6886,"ĠÐ»Ð°Ð³Ðµ":6887,"ÑĢÐ¸Ð¾ÑĤ":6888,"Ð½Ð·Ð°":6889,"2009":6890,"ĠÑģÑĬÑĢÑĨÐµ":6891,"ĠÐ¾ÑĨÐµÐ½ÐºÐ¸":6892,"Ð»ÑıÐ·":6893,"ĠÐ¿ÑĢÐ¾ÑĤÐ¸Ð²Ð¾Ð¿Ð¾":6894,"ĠÐ½ÐµÐ²Ð¸":6895,"ĠÐ¸Ð·Ð¿Ð¾Ð»Ð·Ð²Ð°Ð½ÐµÑĤÐ¾":6896,"ĠÐ´Ð¸ÑģÑĨÐ¸Ð¿Ð»Ð¸":6897,"ÐłÐ¾":6898,"ĠÐŁÑĢÐ¾Ð±":6899,"ÑĩÑĬÑĤ":6900,"Ð³Ð°Ð½ÐµÑĤÐ¾":6901,"ĠÐ¸Ð·Ð»Ð¾":6902,"ĠÐ·Ð°Ð¼Ð¸Ð½Ð°":6903,"ĠÐ²Ð¾Ð»Ñı":6904,"ĠÑģÐµÐ¼ÐµÑĺ":6905,"ÑĩÐºÐ¸Ð¾ÑĤ":6906,"ĠÐ¸Ð·Ð²ÑĬÑĢÑĪÐ¸":6907,"ĠÑģÐµÐºÑĥÐ½Ð´Ð¸":6908,"ĠÐµÐºÑģÐ¿ÐµÑĢÐ¸":6909,"ĠÐ¸Ð¼ÐµÐ½Ð°":6910,"ĠÑĦÐ°Ð»ÑĪÐ¸":6911,"ĠÐ¿Ð¾Ð¼Ð¾ÑĪ":6912,"ĠÐ³Ð¾Ð»Ð°":6913,"te":6914,"ĠÐ¼ÑĢÐ°":6915,"ÑģÐ»ÐµÐ´ÑģÑĤÐ²Ð¸Ðµ":6916,"¾ÑĵÐ°":6917,"ĠÐ½Ð¸ÐºÐ°ÐºÐ²Ð°":6918,"ĠÐ½Ð°ÑĢÐ¾Ð´Ð°":6919,"ĠÐ¾ÑĤÐºÑĢÐ¸ÑĤÐ¾":6920,"OS":6921,"ĠÑĤÑĥÑĢ":6922,"ÑĢÑģÐºÐ¸ÑıÑĤ":6923,"ĠÐºÐ¾Ð¼ÑĥÐ½Ð¸ÑģÑĤÐ¸":6924,"Ð²ÑĬÑĢÐ·Ð°":6925,"ĠÐĶÐ¸ÑĢÐµ":6926,"ĠÐĵÐµÐ¾ÑĢÐ³Ð¸ÐµÐ²":6927,"ĠÐ¿ÑĢÐ¸Ðµ":6928,"ĠÐ¼Ð°ÑĪÐ¸Ð½Ð°":6929,"ĠÐ¿Ð¾ÑģÑĤÑĢÐ°":6930,"ĠÐĶÐ¶Ð¾Ð½":6931,"ĠÐ²Ð½Ð¸Ð¼Ð°ÑĤÐµÐ»Ð½Ð¾":6932,"ĠÐ´ÑĢÐµÑħÐ¸":6933,"ĠÑĢÑĬÐºÐ¾Ð²Ð¾Ð´ÑģÑĤÐ²Ð¾ÑĤÐ¾":6934,"Ð¼Ð±Ñĥ":6935,"ĠÐ¿Ð¾ÑĤÑĢÐµÐ±Ð¸ÑĤÐµÐ»Ð¸":6936,"ĠÑĢÐ°Ð·Ð½Ð¸":6937,"ĠÑģÑĢÐµÐ´ÑģÑĤÐ²Ð¾":6938,"ĠÑģÑĬÐ²Ðµ":6939,"ja":6940,"ĠÐ¾Ð¿Ð»Ð°":6941,"ĠÑĥÑĩÐ¸Ð»Ð¸ÑīÐ°":6942,"ĠÑģÐ°Ð¼Ð¾Ñĥ":6943,"ĠÑĥÐ¿ÑĢÐ°Ð²Ð¸":6944,"ĠÐ²Ð½Ð¾":6945,"ĠÑħÐ°ÑĢÐ°ÐºÑĤÐµÑĢ":6946,"ure":6947,"ÑĤÐ¸Ð½Ð¾":6948,"ĠÐ°ÐºÑĤÐ¸Ð²Ð½Ð¾ÑģÑĤ":6949,"ĠÑĤÐµÐ»ÐµÑĦÐ¾Ð½Ð°":6950,"ÑģÐ¾Ð½":6951,"ock":6952,"ĠÐĴÐ°ÑģÐ¸Ð»":6953,"ĠÐµÑĤÐ°Ð¶":6954,"ÑĺÑĥ":6955,"ĠÐŁÐ¾Ð½Ðµ":6956,"Ġza":6957,"ĠÑĢÐ°Ð·ÐºÐ°Ð·Ð°":6958,"ĠÐ¸Ð·Ð½ÐµÐ½Ð°Ð´Ð°":6959,"ÑĨÐ¾ÑĤ":6960,"ĠÐ¸Ð½ÑģÑĤÑĢÑĥÐ¼ÐµÐ½ÑĤÐ¸":6961,"ÑĦÑĥ":6962,"pl":6963,"ĠÑģÐµÑĢÑĤÐ¸":6964,"Ð¼ÑıÐ½Ð°ÑĤÐ°":6965,"ĠÐ¾Ð±ÑģÑĤÐ¾Ñı":6966,"ĠÐ¿ÑĢÐ¾ÑĨÐµÐ´ÑĥÑĢÐ°":6967,"ĠÐ´ÑĥÑħ":6968,"ĺÐĶÐķÐ":6969,"ĠÐµÐ²ÑĢÐµ":6970,"ĠÐĽÑİÐ±Ð¾":6971,"ark":6972,"ĠÐ¾Ð³ÑĢÐ°":6973,"ĠÑĢÐ¸ÑģÐºÐ¾":6974,"ĠÐ°ÐºÑĥ":6975,"ĠÐµÐ²ÑĢÐ¾Ð¿ÐµÐ¹ÑģÐºÐ¸ÑĤÐµ":6976,"ĠÐ¾ÑĦÐ¾":6977,"ÑĪÑĥ":6978,"ĠÑģÐ¾Ð¿":6979,"Ð»Ð°ÑĨÐ¸Ð¸":6980,"Ġ;":6981,"Ð±ÑĬÑĢÐ·Ð¾":6982,"ĠÑĢÐµÑģÑĥÑĢÑģÐ¸":6983,"ĠÐ¿ÑģÐ¸ÑħÐ¸":6984,"Ð¼Ð¸ÑģÐ»Ñı":6985,"66":6986,"ĠÐµÑģÑĤÐµÑģÑĤÐ²ÐµÐ½Ð¾":6987,"ĠÐ¾ÑĤÐ¼Ðµ":6988,"ĠÐ½Ð¸ÐºÐ¾":6989,"ĠÐ¿Ð¾Ð³":6990,"ĠÑĤÐ¾Ð³Ð°ÑĪ":6991,"ĠÑĥÐ²ÐµÐ»Ð¸ÑĩÐ°Ð²Ð°":6992,"ĠÐ¿Ð¾Ð´ÑħÐ¾Ð´ÑıÑī":6993,"ĠÐ¿Ð¾ÑĤÐ":6994,"ĠÐ²ÑĬÐ²ÐµÐ´Ðµ":6995,"ĠÐ³ÑĢÐµÑĪÐºÐ¸":6996,"ĠÐ·Ð´ÑĢÐ°Ð²Ð¸":6997,"ĠÐ²ÑĤÐ¾ÑĢÐ¾ÑĤÐ¾":6998,"ĠÐ¿ÑĢÐ¾ÐºÑĥÑĢÐ°ÑĤÑĥÑĢÐ°ÑĤÐ°":6999,"ĠÑģÐ¾ÑĨÐ¸Ð°Ð»Ð½Ð¸":7000,"Ð½Ð°ÑĤÐ°ÑĤÐ°":7001,"ÑĩÐ¸Ðº":7002,"ĠÐ¡Ð»ÑĬÐ½":7003,"Ð¹Ð´":7004,"Ġ$":7005,"Ð¸Ð½ÑĤÐµ":7006,"ĠÐºÑĢÐ¸Ðµ":7007,"ĠÐ¼Ð¾ÑıÑĤÐ°":7008,"ĠÐ¸Ð½ÑĤÐµÑĢÐµÑģÐ½Ð¸":7009,"ĠÐ½ÑıÐ¼Ð°Ð¼":7010,"Ð¶Ð´Ð°Ð½Ð¸Ñı":7011,"ĠÐ¸Ð·Ð±ÐµÑĢÐµÑĤÐµ":7012,"ĠÐ¸Ð½ÑĤÐµÑĢÐµÑģÐ½Ð¾":7013,"ÑħÐ°ÑħÐ°":7014,"ĠÐ´Ð¾ÐºÐ°Ð·Ð°ÑĤÐµÐ»ÑģÑĤÐ²Ð°":7015,"ĠÐ·Ð´ÑĢÐ°Ð²ÐµÐ¾Ð¿Ð°":7016,"ÑĢÐ°Ð±Ð¾ÑĤÐ¸":7017,"ĠÐ¿ÐµÑĩÐ°ÑĤ":7018,"ÑĺÑĤÐµ":7019,"ĠÐ±Ð¾Ð»ÐµÑģÑĤÐ¸":7020,"ĠÐ²Ð°Ð¶ÐµÐ½":7021,".:":7022,"ĠÐļÑĢÐ¸ÑģÑĤÐ¸":7023,"ĠÐºÐ¾Ð¼ÑĦÐ¾ÑĢÑĤ":7024,"ĠÑĦÐ»Ð°":7025,"UR":7026,"Ð±ÐµÑ":7027,"ÑĤÐ¾ÑĩÐ½Ð°":7028,"ĠÑģÐ¿ÐµÑĨÐ¸Ð°Ð»Ð½Ð¸":7029,"ĠÐ¿Ð¾ÑĢÑĤ":7030,"ÑĩÐ¸Ð»":7031,"ÑĮÐ¾ÑĢÐ¸":7032,"ÑĤÐµÑĢÐ¸Ð¸":7033,"ĠÑģÑĤÐ¾Ð»Ð¸ÑĨÐ°ÑĤÐ°":7034,"ĠÐ¾Ð±ÑīÐ°":7035,"Ð½ÐµÐ»":7036,"ĠÐ¼Ð¸Ð½":7037,"ĠÐ¸ÑģÐ¿Ð°":7038,"ĠÐ¿ÑĢÐ¸ÑģÑĬÐµÐ´Ð¸":7039,"Ð±ÐµÑĤ":7040,"ĠÐ¿Ð¾Ð´ÑĢÐµ":7041,"ÐłÐ°Ð·":7042,"ĠÐ´Ð¾ÑģÑĤÐ°Ð²ÐºÐ°":7043,"ome":7044,"Ð²ÑĬÑĢÑĪÐµÐ½":7045,"ĠÐ¦ÐµÐ½ÑĤÑĢÐ°":7046,"ĠÑĢÐ°Ð±Ð¾ÑĤÐ½Ð¸ÑĨÐ¸":7047,"ĠÐ½Ð°ÐºÐ°ÑĢÐ°":7048,"ÐºÑĨÐ¸":7049,"ĠÐĳÐµÑĪÐµ":7050,"ĠÐ¢ÑĬÐ¹":7051,"ĠÑĪÑĥ":7052,"ĠÐ´Ð¾Ð¿ÑĢÐ¸":7053,"ĠÐ¿Ð¾ÑģÑĤÐ¾ÑĺÐ°":7054,"ĠÑĩÑĥÐ²ÑģÑĤÐ²Ð¾":7055,"ĠÐķÐ£":7056,"Ġ250":7057,"ĠÐ¿Ð¾Ð»Ð¸ÑĤÐ¸ÑĩÐµÑģÐºÐ°":7058,"ĠÑĢÐ°Ð·Ñĥ":7059,"ĠÑģÐ²Ð¾Ðµ":7060,"Ġwww":7061,"ĠÐ¿ÐµÑĩÐµ":7062,"ĠÐ¿ÑĢÐ°Ð²Ñı":7063,"ĠÑģÐºÐ»Ð¾":7064,"ÑĤÐ»Ð¾":7065,"Ð±ÐµÑĢÐ°ÑĤ":7066,"ĠÑģÑĬÑģÑĤÐ¾ÑıÐ½Ð¸ÐµÑĤÐ¾":7067,"ĠÐ¾Ð¿Ð°ÑģÐ½Ð¾ÑģÑĤ":7068,"ĠÐ¿Ð¾Ð½ÐµÐ´ÐµÐ»Ð½Ð¸Ðº":7069,"ĠÐ¾Ð³Ð»ÐµÐ´Ð°":7070,"ĠÐĳÐĵ":7071,"ÑĤÐ»Ðµ":7072,"Ĥ¬":7073,"Ð»ÐµÑģÐ½Ð¾":7074,"ĲÐĽ":7075,"ĠÑģÐ¼ÑıÑĤÐ°Ñ":7076,"ĠÑģÐ¼ÑıÑĤÐ°ÑĤ":7077,"ĠÑģÐ½Ð°":7078,"Ð²Ð¾Ð¸":7079,"ĠÐ¸Ð·Ñĥ":7080,"ĠÑģÐµÑĢÐ¸Ñı":7081,"ÑīÐµÐ½":7082,"ĠÐ½Ð°Ð¿ÑĢÐ°Ð²ÐµÐ½Ð¸":7083,"ÑĢÐ´Ð¸Ð½Ð°":7084,"ĠÑĥÑģÑĤÑĢÐ¾Ð¹ÑģÑĤÐ²Ð¾":7085,"ĠÐ¤ÑĢÐ°":7086,"ach":7087,"ĠÐ°Ð¿Ð°ÑĢÑĤÐ°":7088,"ĠÑĦÐ¸Ð½Ð°Ð½ÑģÐ¸ÑĢÐ°Ð½Ðµ":7089,"ĠÐ¥Ð¾ÑĤÐµÐ»":7090,"ĠÑĦÐ°Ð¹":7091,"ĠÐ²ÐºÐ»ÑİÑĩÐ²Ð°ÑĤ":7092,"ĠÑħÐ¸Ð¼Ð¸":7093,"ĠÐ°Ð²ÑĤÐ¾Ð¼Ð¾Ð±Ð¸Ð»Ð°":7094,"ĠÐ»ÑĥÑĵÐµÑĤÐ¾":7095,"Ð¶Ð´Ð°Ð²Ð°":7096,"ÑĬÑĢÐ¸":7097,"ĠÐ´Ð²Ð¸Ð¶ÐµÐ½Ð¸ÐµÑĤÐ¾":7098,"ÑĨÐ¸Ð¾Ð½Ð½Ð¸Ñı":7099,"ĠÐ°ÑĢÐ³Ñĥ":7100,"ŁÐľÐĿÐķ":7101,"ĠÐ²ÑĬÑĢÐ½Ðµ":7102,"ĠÐºÐ¾Ð¼Ð±Ð¸Ð½Ð°ÑĨÐ¸Ñı":7103,"Ð¶Ð±Ð¸ÑĤÐµ":7104,"Ð³Ð¾ÑĤ":7105,"ĠÑģÑĬÐ±Ð¸ÑĤÐ¸Ðµ":7106,"ĠÐĳÐªÐĽÐĵÐĲÐłÐ":7107,"ĠÐ¿ÐµÑĤÑĬÐº":7108,"ÑģÑĥÑģ":7109,"ĠÐ´Ð²Ð¸Ð¶Ðµ":7110,"ĠÐ¼Ð¸Ð»Ð¸":7111,"Ð»ÑĮÐ¾":7112,"ĠÐ½Ð¾ÑģÑıÑĤ":7113,"Ð³Ð¸Ñı":7114,"ĠÐĶÐĶÐ¡":7115,"Ð¡ÑĤÐ°":7116,"ĠÐ¾ÐºÐ¾Ð»Ð½Ð°ÑĤÐ°":7117,"ĠEx":7118,"ĺÐĿ":7119,"ĠÐ¾Ð±Ð»Ð¸":7120,"''":7121,"ĠÑĤÐ¾Ð»ÐºÑĥ":7122,"ĠÐ¿ÑĢÐ¾Ð²Ð¾":7123,"Ð³Ð¸Ð¾":7124,"ĠÐ¿ÑĢÐ¾Ð¼ÐµÐ½Ð¸ÑĤÐµ":7125,"ĠÐ¼ÐµÐ´Ð¸ÑĨÐ¸Ð½ÑģÐºÐ¸":7126,"ĠÐ³ÑĥÐ±Ð¸":7127,"ĠÐ±Ð¾Ð¹":7128,"ĠÑĢÐ°Ð·Ð³Ð¾Ð²Ð¾ÑĢ":7129,"¶ÐµÑĤÐµ":7130,"ĠÐ¼Ð¸Ðº":7131,"ÑīÐ°Ð²Ð°ÑĤ":7132,"ĠÐĺÐ¼Ð°Ð¼":7133,"ĠÐ¦ÐµÐ»ÑĤÐ°":7134,"ĠÑħÐ»Ñı":7135,"ĠÑģÐµÐ²Ðµ":7136,"ĠÐĴÐ¸ÑģÐ¾":7137,"ÑĤÐ¸Ð²Ð½Ð°ÑĤÐ°":7138,"ĠÐŀÐ»Ð¸":7139,"ĠÑģÑĬÐ±Ð¾ÑĤÐ°":7140,"ĠÐĴÑģÑıÐºÐ°":7141,"ĠÑĤÐµÐ±Ðµ":7142,"ÑĪÐ½Ð¸Ð¾ÑĤ":7143,"ÑģÐµÐ»":7144,"ĠÐ¿ÑĢÐ¾ÑĩÐµÑĤÐµ":7145,"ÐºÑĤÐ¸Ð²Ð½Ð¾":7146,"ÑģÑĤÐ°Ð²Ñı":7147,"per":7148,"ĠÐ½ÐµÐ¿ÑĢÐ¸":7149,"ĠÐ¾Ð±Ð¾ÑĢÑĥÐ´Ð²Ð°Ð½Ðµ":7150,"ÑģÐ¾Ð±ÐµÐ½Ð¾":7151,"ĠÐºÐ¾Ð½ÑĤÐ¸":7152,"ÐºÑģÐµÐ»":7153,"ĠÑĩÐµÑĢÐµÐ½":7154,"ĠÑģÑĬÑĢÐ´Ðµ":7155,"ĠÐ°Ð»Ðµ":7156,"ĠÐ¿ÑĢÐ°Ð²Ð¾ÑģÐ»Ð°":7157,"ĠÑĢÑĥÑģÐ½Ð°":7158,"ĠÐ¼Ð°Ð½Ð°ÑģÑĤÐ¸":7159,"ĠÐĲÐ»Ð":7160,"ĠÑĥÑģÐ»ÑĥÐ³Ð°":7161,"Ð±ÑĬÐ»":7162,"ĠÐľÐµÑĤÐ¾":7163,"ron":7164,"ÑĢÐ¾Ð¼":7165,"ĠÐ¼Ð°Ð¹ÑģÑĤÐ¾":7166,"ÑģÐºÐµ":7167,"ĠÐ²ÑĬÐ·Ð´ÑĥÑħÐ°":7168,"ĠÐ°ÑģÐ¸":7169,"./":7170,"ĠÑģÐ¾Ð´":7171,"ĠÐĶÐ°Ð½":7172,"ĠÐºÐ¾Ð½ÑĨÐµÑĢÑĤ":7173,"ÑĢÐµÐ¼Ð¾":7174,"ÑģÑĤÐ²Ð°Ð½ÐµÑĤÐ¾":7175,"ĠÐ¾ÑĤÑģÑĤÑĬÐ¿":7176,"ĠÑĤÐµÐºÐ¾ÑĤ":7177,"Ð»ÑĤÐ¸":7178,"ĠÐ¿ÑĢÐ¾Ð¸Ð·Ð²Ð¾Ð´Ð¸ÑĤÐµÐ»Ð¸":7179,"ĠÐ¼Ð¸Ð»Ð¸Ð°ÑĢÐ´Ð°":7180,"ĠÐ¼Ð¾Ð½ÑĤÐ°":7181,"ĠÐ¾Ð±Ð»ÐµÐº":7182,"ĠÐ¼Ð°ÐºÑģÐ¸Ð¼Ð°Ð»Ð½Ð¾":7183,"ÐĴÑĬ":7184,"ĠÐ¿Ð¾ÑģÐµÑĤÐ¸":7185,"ĠÐ³ÑĢÐ¸Ð¶Ð°":7186,"ĠÐĲÐ´":7187,"ĠÐļÐ¾Ð»ÐºÐ¾ÑĤÐ¾":7188,"ĠÐĿÐ°Ð¿ÑĢÐ¸Ð¼ÐµÑĢ":7189,"ĠÐľÐ°ÑĢÐºÐ¾":7190,"ĠÐ¼ÑĬÑĢ":7191,"Ð¹ÐºÐ°ÑĤÐ°":7192,"Ð¹Ñģ":7193,"ĠÐ¾Ð±ÑĬÑĢÐ½Ð°":7194,"ĠÐ±Ð°ÑĤÐµ":7195,"ĠÐļÐ¾Ð¼Ð¿Ð°":7196,"°Ñī":7197,"Ð³Ð½Ð¾ÑģÑĤÐ¸":7198,"ĠÑģÑĬÐ¾Ð±ÑīÐ¸ÑħÐ°":7199,"ĠÐ¿Ð»Ð¾Ð´Ð¾Ð²Ðµ":7200,"ry":7201,"ĠÑģÑĤÑĬÐ»Ð":7202,"100":7203,"ĠÐºÐ»ÐµÑĤÐºÐ¸":7204,"Ð¼ÐµÑģÑĤÐ¾":7205,"ĠÑģÐ²ÐµÑĤÐ¾Ð²Ð½Ð°":7206,"ĠÑĢÐ°Ð·ÑĢÑĥ":7207,"Ð½ÑĥÐ²Ð°Ð°ÑĤ":7208,"ÑĢÑĨÐµ":7209,"ĠÐļÐ½Ð¸":7210,"ÑĢÐ¾ÑĦÐ¸":7211,"ĠÐ·Ð°ÐµÐ´Ð½Ð¸":7212,"ĠÑĢÐ°Ð·ÑħÐ¾Ð´Ð¸ÑĤÐµ":7213,"ĠÐ¼Ð¸Ð³ÑĢÐ°":7214,"ĠÐ±ÑİÐ´Ð¶ÐµÑĤÐ°":7215,"Ġ75":7216,"ĠÐ¼Ð»Ðµ":7217,"ĠÑģÐµÐºÑģÑĥÐ°Ð»":7218,"ĠÐĹÐ°ÐµÐ²":7219,"ĠÑĤÐµÑģÑĤÐ¾":7220,"AS":7221,"ĠÑĤÐ¾ÑĤÐ°":7222,"Ð³Ð½Ð°ÑĤÐ¸":7223,"ĠÐŁÐ¾Ð´Ð¾Ð±":7224,"ĠÐ±ÐµÐ½Ð·Ð¸":7225,"ĠÐ·Ð°Ð´Ð¾Ð²Ð¾":7226,"ĠÐ¸Ð½ÑĤÐµÐ»Ð¸":7227,"ĠÑĢÑĬÑģÑĤ":7228,"ĠÐºÐ¾ÑĢÐ¾Ð½Ð°Ð²Ð¸ÑĢÑĥÑģ":7229,"ĠÑģÑĬÑĤÑĢÑĥÐ´Ð½Ð¸ÑĩÐµÑģÑĤÐ²Ð¾":7230,"ĠÐ²Ð¾Ð´ÑıÑĤ":7231,"ĠÐ½Ð°Ð¿ÑĢÐ°Ð²Ñı":7232,"ĠÐŁÐ°ÑĢÐ¸Ð¶":7233,"ĠÐĹÐ½Ð°ÑĩÐ¸":7234,"ĠÐŀÑĢÐ³Ð°Ð½Ð¸":7235,"ĠÐ´Ð¾Ð¹":7236,"ĠÐ¿ÑĢÐ¾ÑĨÐµÐ½ÑĤ":7237,"Ð±Ð¸Ð»Ð¸":7238,"Ð§Ðµ":7239,"ĠÑģÐ¿Ð¸ÑģÑĬÐº":7240,"ĠÐºÐ°Ð¼ÑĬ":7241,"ÑģÐ²Ðµ":7242,"ĠÑĦÑĥÐ½ÐºÑĨÐ¸Ñı":7243,"ĠÐ¸Ð½ÑĤÐµÑĢÐµÑģÑĥÐ²Ð°":7244,"ĠÐ·Ð°ÑĤÐ²Ð¾ÑĢ":7245,"ĠÑĦÑĥÐ½ÐºÑĨÐ¸Ð¾Ð½Ð°":7246,"ĠÑĨÐ¸ÑĤÐ¸ÑĢÐ°":7247,"ĠÐ½Ð°Ð´ÐµÐ¶Ð´Ð°":7248,"¦ÐĺÐ¯":7249,"ĠÐ¸ÑģÐºÐ°Ð¼Ðµ":7250,"ĠÐ´Ð¾Ð³Ð¾Ð²Ð¾":7251,"ĠÐ¶Ð¸ÑĤÐµÐ»Ð¸":7252,"Ð´ÑĬÐ»Ð¶Ð°":7253,"Ð»Ð½Ð¸Ð¾ÑĤ":7254,"ĠÐ³Ð¾Ð²Ð¾ÑĢÑıÑĤ":7255,"ÑĤÐµÐ":7256,"ĠÑĢÐ°Ð´Ð¾ÑģÑĤ":7257,"ĠÐ´ÑĢÐ¾":7258,"Ġpro":7259,"ĠÑħÐ°ÑĢÐµÑģÐ°":7260,"ĠÐ¿ÑĢÐ¸ÑĤÐ¸":7261,"ĠÐ¾ÑĢÐ³Ð°Ð½":7262,"Ð½ÑĦÐ¸":7263,"98":7264,"ĠÑģÐ»Ð¾Ð±Ð¾":7265,"Ð¿ÑĢÐµÐ²Ð°":7266,"ĠÐ·Ð°ÑģÐµÐ´Ð°Ð½Ð¸Ðµ":7267,"ÑħÐ½Ð°":7268,"ĠÐ´ÑĥÑĪÐ°ÑĤÐ°":7269,"ĠÐĶÐµÐ»":7270,"ĠÐ¥ÑĢÐ¸ÑģÑĤÐ¾Ñģ":7271,"ķÐĿÐ¢Ð":7272,"Ð»ÑıÐ²Ð°Ð½ÐµÑĤÐ¾":7273,"ĠÐĿÐ¸ÐºÐ¾Ð»Ð¾Ð²":7274,"ĠÑĥÑģÐ¿ÑıÐ²Ð°":7275,"ĠÐ²ÑĬÐ·Ð½Ð°":7276,"ĠÐ½Ð°Ð³Ð¾ÑĢÐµ":7277,"ĠÐĴÑĬÑĢ":7278,"ĠÐ´ÐµÐ½ÐµÑģ":7279,"ĠÐµÐºÑģÐ¿ÐµÑĢÑĤ":7280,"ĠÐĶÑĬÐ»Ð":7281,"Ġ34":7282,"ĠÑģÑĤÐ°Ð½Ð°ÑĤ":7283,"ĠÐ´ÑĥÐ¼Ð°ÑĤÐ°":7284,"ĠÐ±Ð¾Ð»ÐºÐ°":7285,"Ð¼Ð¸Ð½Ð¸ÑĢÐ°":7286,"Ġfor":7287,"ĠÐ°Ð²ÑĤÐ¾ÑĢ":7288,"ĠÐ´ÐµÑģÐµÑĤÐ¸Ð»Ðµ":7289,"ĠÐ¿Ð°ÑĤÐ¸":7290,"ĠÐ¼Ð°Ð½Ð¸Ð¿Ñĥ":7291,"ĠÐ¯Ð¿Ð¾":7292,"ĠÐ¿Ð¾Ð·Ð¸ÑĨÐ¸Ð¸":7293,"Ð±Ð¸Ñı":7294,"ĠÑģÐ¸ÑģÑĤÐµÐ¼":7295,"ĠÐºÐ¾Ð½ÐºÑĥÑĢÑģ":7296,"ĠÐ½ÑĥÐ¶Ð½Ð¾":7297,"ĠÑģÐ¸Ð³Ð½Ð°Ð»":7298,"ĠÑĦÐ°ÐºÑĤÐ¾ÑĢÐ¸":7299,"Ð²ÐµÐ¹ÑĨÐ°":7300,"ĠÐ¼Ð¾Ð":7301,"ox":7302,"ĠÐ¾Ð±Ð»Ð°ÑģÑĤÐ¸":7303,"ĠÑĪÐ°Ð¼Ð¿Ð¸Ð":7304,"ĠÐ¼Ð¸Ð½ÐµÑĢÐ°":7305,"Ġ55":7306,"ĠÐĴÑĢÐ°":7307,"ĠÑģÐ¿Ð¾ÐºÐ¾Ð¹Ð½Ð¾":7308,"ÑģÐ»Ð¾Ð²":7309,"ÐŀÐ±":7310,"ĠÐļÐ¾Ð¼Ð¸ÑģÐ¸ÑıÑĤÐ°":7311,"ĠÑĢÐµÐ¶Ð¸ÑģÑĮÐ¾":7312,"ÑĢÑĤÐµÐ½":7313,"ÐºÑĬÑīÐ¸":7314,"ĠÐ½Ð¸ÑģÐºÐ¾":7315,"ĠÐ¾ÑĤÑĩÐµ":7316,"ĠÑĥÑĤÐ²ÑĬÑĢÐ":7317,"ĠÐ³Ð¾Ð´Ð¸ÑĪÐ½Ð¾":7318,"ĠÐłÑĥÐ¼ÐµÐ½":7319,"ĠÑģÐ»Ð°Ð±Ð¾":7320,"Ð½Ð¾Ð²ÐµÐ½Ð¾":7321,"Ð´Ð°ÑĢ":7322,"ĠÐ¢ÐµÐ":7323,"ÐĶÐ¸":7324,"ĠÐ·Ð°Ð±ÐµÐ»ÐµÐ¶Ð¸ÑĤÐµ":7325,"ĠÐ¸Ð·Ð²ÑĢ":7326,"ĠÐ³Ð¾Ð´":7327,"ĠÐ±Ð°Ð»":7328,"ĠÐ¼Ð¾Ð´ÐµÑĢÐ½Ð¸":7329,"ĠÐ³ÑĢÐ°Ð´ÑĥÑģÐ°":7330,"Ð»Ð¾Ð³Ð¸ÑĩÐ½Ð¸":7331,"ĠÐŀÐ¿":7332,"AL":7333,"Ð·Ð½Ð°Ð²Ð°":7334,"ĠÐºÐ¾Ð·":7335,"ĠÐļÐ¾Ð»ÐºÐ¾":7336,"ĠÐºÐ°Ð¿Ð°ÑĨÐ¸ÑĤÐµÑ":7337,"ĠÐºÐ°Ð¿Ð°ÑĨÐ¸ÑĤÐµÑĤ":7338,"ĠÐ¾Ð±ÑĺÐµ":7339,"ĠÐ´ÐµÑĤÑģÐºÐ°":7340,"ĠÐ»Ð¸ÑģÑĤÐ°":7341,"Ð»ÐµÑĢÐ¸Ñı":7342,"ĠÐ·Ð´ÑĢÐ°Ð²Ð¾ÑģÐ»Ð¾":7343,"ress":7344,"ina":7345,"ĠÐ²ÑĬÐ·ÑģÑĤÐ°Ð½Ð¾Ð²ÑıÐ²Ð°Ð½Ðµ":7346,"out":7347,"Ð·ÐµÐ½ÑĤÐ°":7348,"ĠÐ¿ÑĢÐ¾ÑĥÑĩÐ²Ð°Ð½Ðµ":7349,"ĠÑģÑĤÑĬÐ¿ÐºÐ°":7350,"ĠÐ¿Ð¾Ð»Ð¾Ð²Ð¸Ð½":7351,"ÐºÐ¾Ð»Ð¸":7352,"ĠÐĳÑĬÐ»Ð³Ð°ÑĢÑģÐºÐ°ÑĤÐ°":7353,"ĠÐ°ÑĢÑħÐ":7354,"Ð»Ð¸ÐµÐ½ÑĤ":7355,"ĠÐ´Ð¾ÐºÑĥÐ¼ÐµÐ½ÑĤ":7356,"ĠÐ¿Ð¾Ð²Ð´Ð¸":7357,"ĠÐ¿ÑĬÑĢÐ²ÐµÐ½ÑģÑĤÐ²Ð¾":7358,"ĠÐ¿ÑĢÐ¾Ð¸Ð·Ð²ÐµÐ¶Ð´Ð°":7359,"ÑĤÐ¸ÑĩÐ½Ð¾":7360,"org":7361,"95":7362,"ĠÐ³ÑĬÑĢÐ±Ð°":7363,"ĠÐ´Ð¸Ð½Ð°Ð¼Ð¸":7364,"ÑĢÐ¾ÑĪ":7365,"Ð¼Ð¾Ð²Ðµ":7366,"ĠÐ¿ÑĢÐ¾Ð¿Ð°":7367,"ĠÐ¿ÑĢÐ¾ÑģÑĤÐ¸":7368,"ÑĤÐ¸ÑĩÐµÐ½":7369,"ĠÐ¶Ð¸Ð²Ð¾ÑĤÐ¾":7370,"ĠÐľÐ°Ð»ÐºÐ¾":7371,"'s":7372,"ĠiP":7373,"ĠÐ½Ð°Ð¿ÑĢÐ°Ð²Ð¸Ð»":7374,"ĠÐºÑĬÑīÐ°ÑĤÐ°":7375,"ÐºÐ¾ÑĺÐ°":7376,"ĠÑĢÐ°Ð·ÑģÑĤÐ¾ÑıÐ½Ð¸Ðµ":7377,"ĠÐ¾ÑģÑĤÐ°Ð½Ð°ÑĤ":7378,"Ð»ÑĺÐ°":7379,"ĠÐ²ÑıÑĤ":7380,"ĠÑĥÑĩÐ°ÑģÑĤÐ½Ð¸ÑĨÐ¸ÑĤÐµ":7381,"ĠÐºÐ¾Ð½ÑĤÑĢÐ¾Ð»Ð°":7382,"ĠÐ²ÐµÑģÑĤ":7383,"ĠÑĥÑĩÐ¸ÑĤÐµÐ»":7384,"ĠÐ¼ÑĢÐµÐ¶Ð°ÑĤÐ°":7385,"ĠÐ¼Ð¾Ð¼ÑĩÐµ":7386,"ĠÐ¾Ð¿ÑĢÐµÐ´ÐµÐ»ÐµÐ½":7387,"ĠÐ»Ð°Ð±Ð¾":7388,"ĠÐĵÐ¾Ð»Ñı":7389,"ĠÐ½Ð°Ð¾ÑĵÐ°":7390,"ĠÑģÐ¿ÐµÑĩÐµ":7391,"ĠÐ¾Ð±ÑĢÑĬÑīÐ°":7392,"ĠÐ¸Ð³ÑĢÐ°ÑıÑĤ":7393,"ķÐĽ":7394,"ĠÑĦÐ°Ð½ÑĤÐ°":7395,"ĠÑĢÐ¸Ð±Ð°":7396,"Ð²Ð°ÑħÐ°":7397,"ĠÐ¿ÑĢÐµÐ¼Ð¸ÐµÑĢÐ°":7398,"ĠÐ¸Ð½ÑĤÐµÐ½Ð·Ð¸":7399,"ĠÐ¿Ð¾ÑĢÐµÐ´Ð¸":7400,"ĠÐĵÑĢ":7401,"ĠÐ´Ð¸ÑģÑĤÐ°Ð½":7402,"ĠÐ»Ð¸Ð¿ÑģÐ°":7403,"oy":7404,"****":7405,"ĠÐ´ÑĬÑĢÐ¶Ð°Ð²Ð½Ð¸":7406,"ĠÐ¿Ð¾Ð´Ð³Ð¾ÑĤÐ²Ð":7407,"ĠÐĳÑĬ":7408,"ĠÐ¾Ð±ÑīÐ¸Ð½ÑģÐºÐ¸":7409,"ĠÐ²Ð¾Ñĺ":7410,"Ð²Ð¾Ð·Ð¼Ð¾":7411,"ĠÐ¿Ð¾Ð¼Ð¾Ð³Ð½Ð°":7412,"ĠÑĤÐµÐ³Ð»Ð¾":7413,"ice":7414,"ĠÐ±Ð°Ð½ÐºÐ¾":7415,"ĠÐ¿Ð¾Ð»Ð¾Ð²Ð¸Ð½Ð°ÑĤÐ°":7416,"ĠÐºÐ¾Ð½Ð²Ð":7417,"ash":7418,"ÑģÐ»Ð°Ð²Ð°":7419,"ĠÐ¿ÑĥÐ½Ðº":7420,"ÑĤÐ¸ÑĢÐ°ÑĤ":7421,"Ð»Ð°ÑĨÐ¸ÑıÑĤÐ°":7422,"ĠÐ¸Ð·Ð³ÑĢÐ°Ð¶Ð´Ð°Ð½Ðµ":7423,"ĠÑĢÑĬÐºÐ¾Ð²Ð¾Ð´Ð¸ÑĤÐµÐ»":7424,"ĠÐ·Ð°Ð´Ð°ÑĩÐ¸":7425,"ain":7426,"ĠCom":7427,"ĠÑģÐ°Ð¼Ð°":7428,"ĠÐ¸Ð·Ð¿ÑĢÐ°ÑĤÐ¸":7429,"ĠÐ¸Ð½ÑģÐ¿Ðµ":7430,"ÑĢÐ°Ð¼Ð¸":7431,"Ð±Ð¾Ð²Ðµ":7432,"ĠÐ¼Ð¾Ð¶Ð°":7433,"uc":7434,"ĠÐ´Ð¾Ð¿ÑĥÑģÐºÐ°":7435,"ĠÑĢÐ°Ð·ÑĩÐ¸ÑĤÐ°":7436,"ÑĢÑıÐ´Ð°":7437,"Ð¡Ð¾ÑĦÐ¸Ñı":7438,"ĠÐ¾Ð²Ð»Ð°":7439,"ni":7440,"ĠÐ¸Ð·Ð³Ð»ÐµÐ´Ð°":7441,"ÑĢÐµÐ½Ð´":7442,"ĠÑĥÐ¿Ð¾":7443,"ĠÐ¸Ð·Ð¸ÑģÐº":7444,"ĠÐ¿ÑĢÐ°Ð²Ð¸Ð»Ð°ÑĤÐ°":7445,"ĠÐ¡Ð¿Ð¸":7446,"Ġ600":7447,"ĠÐ¡ÑĤÑĥ":7448,"ĠÐ·ÐµÐ¼ÑĺÐ¸":7449,"ĠÐ¿ÑĥÐ±Ð»Ð¸ÐºÐ°ÑĤÐ°":7450,"ĠÐ³ÑĢÐ°Ð½Ð¸ÑĨÐ°ÑĤÐ°":7451,"ows":7452,"ĠÐ²ÑĬÑĢÐ½Ð°":7453,"ĠÐ²Ð°ÑĢÐ¸Ð":7454,"ĠÐ¸Ð·Ð¸ÑģÐºÐ²Ð°Ð½Ð¸ÑıÑĤÐ°":7455,"ĠÐĳÐ¾Ð³Ð¾":7456,"ĠÑĤÑĢÐµÐ²Ð¾":7457,"ÑħÐ¾Ð¶Ð´Ð°":7458,"Ð½ÑĤÑĢÐ¸":7459,"ĠÐ¡Ð²Ð¸":7460,"Ġ2005":7461,"ok":7462,"ĠÐµÐ¼Ð¾ÑĨÐ¸Ð¾Ð½Ð°":7463,"ĠÐłÐµÐ³Ð¸":7464,"ÑĢÐ¸Ñ":7465,"ĠÐ¿ÑĢÐµÐ´ÑģÑĤÐ¾Ð¸":7466,"ÑĢÐ¾Ð²Ð¾":7467,"¶Ð°Ð»":7468,"ÑĥÑĢ":7469,"ĠÐ¼Ð»Ð°Ð´ÐµÐ¶":7470,"ĠÐ°Ð½Ð°Ð»Ð¸Ð·Ð°":7471,"ĠÐ¾ÑĤÑĢÐ°":7472,"ĠÐ³Ð»ÐµÐ´Ð½Ð°":7473,"ĠÐ¿ÑĢÐ°Ð²Ð¸ÑĤÐµ":7474,"ĠÐ¿Ð¾Ð´Ð¾Ð±ÐµÐ½":7475,"ace":7476,"Ð·Ð²Ð¾":7477,"ÑĢÐ·Ð¾":7478,"ĠÑĦÐ¾ÑĢÑĥÐ¼":7479,"ÑĤÐµÐ½Ð¸ÑĤÐµ":7480,"ĠÐ²Ð³ÑĢÐ°":7481,"ĠÑģÑĤÐ°ÑĢ":7482,"ĠÐĿÐ°Ñĥ":7483,"ĠÐĶÐ½ÐµÐ²Ð½Ð¸Ðº":7484,"ĠÐ¾ÑĤÐ±ÐµÐ»ÑıÐ·Ð²Ð°":7485,"ĠÐ¸Ð·ÑĢÐµ":7486,"ĠÑĩÐ¸ÑģÑĤÐ°":7487,"ĠÐ°ÐºÑģÐµ":7488,"ĠÐºÐ¾Ð¼ÐµÐ½ÑĤÐ°ÑĢÐ°":7489,"Ð¿Ð¸ÑģÐ²Ð°":7490,"ĠÐ¸Ð½ÑĦÐ¾ÑĢÐ¼Ð¸ÑĢÐ°":7491,"Ð»Ð¾Ð³Ð¸ÑıÑĤÐ°":7492,"ĠÐ²Ð¸Ð½Ð°":7493,"ĠÐ·Ð°Ð¼ÐµÑģÑĤÐ½Ð¸Ðº":7494,"ĺÐĶÐķÐŀ":7495,"ĠÐ¿ÑĢÐ¾ÑĦÐ¸Ð»Ð°":7496,"ĠÐ´Ð¾Ð´Ð°":7497,"ĠÑĤÐµÑģÑĤ":7498,"·Ð°Ð½":7499,"ĠÐ¿ÑĢÐµÑĤÑģÐµÐ´Ð°ÑĤÐµÐ»":7500,"ĠÐ±Ð¾Ñı":7501,"ĠÐ·Ð°Ð²Ðµ":7502,"ĠÑĥÐ´Ð¾Ð²Ð¾Ð»ÑģÑĤÐ²Ð¸Ðµ":7503,"ĠÐĺÐ½ÑĦÐ¾ÑĢÐ¼Ð°":7504,"Ð»Ð¾Ð³Ð°":7505,"Ð·Ð¼ÑĬÑĤ":7506,"µÐ½Ð¾":7507,"ĠÐµÐºÑĢÐ°":7508,"ĠÐĺÐ´Ðµ":7509,"ÑĩÐ¸Ñı":7510,"ĠÑģÐ¿ÑĢÐ°Ð²Ð¸":7511,"ĠÐ½Ð¾ÑīÑĥ":7512,"ĠÐºÐ°ÑĢÐ¸ÐµÑĢÐ°":7513,"ĠÐ¿Ð¾ÑģÐ»ÐµÐ´Ð½Ð¾ÑĤÐ¾":7514,"ĠÐĺÐ¼ÐµÐ½Ð½Ð¾":7515,"ĠÑĤÐµÑħÐ½Ð¾Ð»Ð¾Ð³Ð¸Ñı":7516,"ĠÐºÑĢÐ°Ñĺ":7517,"ĠÑģÑĬÑī":7518,"Ð¶Ð´ÐµÐ½Ð¸Ñı":7519,"ĠÐ¿Ð¾Ð·Ð½Ð°ÑĤÐ¸":7520,"ĠÐĺÐ·ÑĢÐ°ÐµÐ»":7521,"ĠÐ²Ð°Ð»Ñĥ":7522,"ĠÐ¨Ð¾":7523,"ies":7524,"act":7525,"ÐºÐ°Ð»":7526,"ĠÐ¡ÑĬÑĢÐ±Ð¸Ñı":7527,"ĠÐ¼Ð¾ÐµÑĤÐ¾":7528,"Ð¶ÐºÐ°ÑĤÐ°":7529,"ĠÐ¿ÑĢÐ²Ð¸Ð¾ÑĤ":7530,"ĠÑĤÑĢÐµÑĤÐ°":7531,"ĠÐ¶Ð°Ð»":7532,"ÑĬÐ»ÑĬÐ³":7533,"ĠÐļÐ°ÑĤÐµ":7534,"ĠÐ¼Ð°Ð»ÐºÑĥ":7535,"ĠÐ¿ÑĢÐµÐ¿Ð¾ÑĢÑĬÑĩÐ²Ð°":7536,"ĠÐ¼ÑĥÐ·Ð¸ÐºÐ°ÑĤÐ°":7537,"ung":7538,"ĠÐ½ÐµÐ´Ð²Ð¸Ð¶Ð¸":7539,"Ð¶ÑĥÐ²Ð°ÑļÐµ":7540,"Ð·Ð¸ÑĺÐ°":7541,"ÑĤÐ°ÑĢÑı":7542,"ĠÐºÐ¾Ð½ÑĤÑĢÐ¾Ð»Ð¸ÑĢÐ°":7543,"ĠÐ»ÐµÐº":7544,"ĠÑĨÐµÐ½ÑĤÐ°":7545,"ĠÐ±Ð¾ÑĢÐ¸":7546,"Ð¾Ñģ":7547,"ĠÐ½ÐµÐ¿ÑĢÐµÐºÑĬÑģÐ½Ð°ÑĤÐ¾":7548,"Ñĭ":7549,"ib":7550,"ĠÐĴÐµÑģÐµ":7551,"ĠÐºÐ»Ð¸Ð½Ð¸":7552,"ĠÐķÐ²ÑĢÐ¾Ð¿":7553,"ĠÐ½ÐµÐ³Ð°ÑĤÐ¸Ð²Ð½Ð¸":7554,"ĠÐ°ÑĢÐ°":7555,"ÑĢÐºÐµ":7556,"Ð´ÑĢÐ¸Ð´":7557,"ĠÐ¿ÑĢÐµÐ¾Ð´Ð¾":7558,"ĠÑĥÐ»Ð¸ÑĨÐ°":7559,"ĠÐĳÐ°ÑĢÑģÐµ":7560,"Ð¯":7561,"ĠÐĴÑĢÐµÐ¼Ðµ":7562,"ĠÐ½Ð°ÑĢÑĥÑĪÐµÐ½Ð¸Ñı":7563,"ĠÐ½Ð¸Ð²Ð½Ð¸ÑĤÐµ":7564,"ĠÐ¸Ð·ÑĤÐ¾ÑĩÐ½Ð¸ÑĨÐ¸":7565,"ĠÐ²ÑĢÑĬÑħ":7566,"ĠÐºÐ¾Ð»Ð¸ÑĩÐµ":7567,"ĠÐ½ÐµÐ¿ÑĢÐ°Ð²Ð¸":7568,"ĠÑĤÐ¾Ð¿Ð»Ð¾":7569,"ĠÐ¼Ð¸Ð³":7570,"ĠÐºÐ°Ð½Ð°":7571,"ĠÐºÐ°Ð»Ðµ":7572,"ÐºÐ°Ð»Ð¸":7573,"Ð¿ÑĢÐ¾ÑĤÐ¸Ð²":7574,"ond":7575,"ĠÐ½Ð°Ð¿ÑĢÐµÐ¶ÐµÐ½Ð¸Ðµ":7576,"ÑĤÐµÐ»ÑģÑĤÐ²Ð°ÑĤÐ°":7577,"ĠÐ°Ð»Ð°":7578,"ĠÐ°Ð¿":7579,"ĠÐ¾ÑĦÐ¸Ñģ":7580,"ĠÐºÑĢÐµÐ´Ð¸ÑĤÐ¸":7581,"ĠÐ¿ÑĢÐ¸Ð»Ð¾Ð¶ÐµÐ½Ð¸Ñı":7582,"ĠÐ¡Ð²":7583,"ĠÐ¿ÑĢÐ¾ÑĥÑĩÐ²Ð°":7584,"ĠÐ¿Ð»Ñĥ":7585,"ĠÐĴÐ°Ð»ÐµÐ½":7586,"ĠÑĤÐ°Ð»Ð°":7587,"ĠÐ±ÑĥÑĤÐ¸":7588,"ĠÑĤÐµÐ¼Ð¿ÐµÑĢÐ°ÑĤÑĥ":7589,"ĠÑĩÐ°ÑģÐ¾Ð²Ðµ":7590,"ĠÐ´Ð¶Ð¸":7591,"ĠÑĢÐ°Ð·Ð»Ð¸ÑĩÐ½Ð¾":7592,"ĠÑģÐ»ÑĥÑĩÐ°Ð¹Ð½Ð¾":7593,"ĠÑħÑĢÐ°Ð½Ð°ÑĤÐ°":7594,"ÐºÐ»Ðµ":7595,"ĠÑģÑĬÐ·Ð´Ð°Ð²Ð°ÑĤ":7596,"Ð³Ð»Ð¾ÑĤÐ¾":7597,"ĠÐ»ÑĬÐ¶Ð¸":7598,"ĠÐ²ÑĬÐ·Ð¼Ð¾Ð¶Ð½Ð¾ÑģÑĤÐ¸ÑĤÐµ":7599,"ĠÐĹÐµÐ¼ÑıÑĤÐ°":7600,"ĠÐ´Ð¾ÑģÑĤÐ¸Ð³Ð½Ð°":7601,"ĠÑģÃ¨":7602,"Ð³Ð¾Ð²Ð¾":7603,"ĠÐ¿ÑĢÐ¾ÑĤÐµÑģÑĤÐ¸":7604,"ĠÐ½Ð°Ð³Ð»Ð°":7605,"ue":7606,"ĠÐµÐºÑģÑĤÑĢÐ°":7607,"ÐĲÐ·":7608,"ĠÐºÑĢÐ°ÐºÐ°ÑĤÐ°":7609,"ĠÐ¼Ð»Ð°Ð´Ðµ":7610,"ĠÐ¿Ð¾ÑĩÐ¸ÑģÑĤÐ²Ð°Ð½Ðµ":7611,"ĠCl":7612,"ĠÐ¿ÑĢÐµÐ³Ð»ÐµÐ´":7613,"ĠÐ±ÑĬÐ´ÐµÑĤÐµ":7614,"ĠÐĳÐ¾ÑĢÐ¸Ñģ":7615,"ĠÑĢÐµÐ³Ð¸Ð¾Ð½":7616,"ich":7617,"ĠÐļÑİ":7618,"ĠÐ°Ð¿Ðµ":7619,"ĠÐ±ÑĢÐ¸":7620,"ĠÑħÑĥÐ´Ð¾Ð¶":7621,"ĠÐ±Ð¾Ð":7622,"ĠÐºÐ°Ð¼Ðµ":7623,"ĠÐłÐ¸Ð¼":7624,"ĠÑĢÑıÐ´ÐºÐ¾":7625,"ĠÐŁÑĢÐµÐ¿Ð¾":7626,"age":7627,"ult":7628,"ĠÐ¾Ð±ÑĥÐ²ÐºÐ¸":7629,"ĠÑĤÑĬÑĢÐ³Ð¾Ð²Ð¸Ñı":7630,"ĠÐ½Ð°ÑĩÐ¸Ð½Ð¸":7631,"ĠÐ¡Ð¼":7632,"Ġ***":7633,"ĠÐ°Ð»ÐºÐ¾ÑħÐ¾Ð»":7634,"Ġ46":7635,"ĠÐ¨ÑĥÐ¼ÐµÐ½":7636,"ĠÐ¿ÑĢÐ²":7637,"ĠSport":7638,"ĠÐĻÐ¾ÑĢÐ´Ð°":7639,"ĠÑģÐ¼ÐµÐ½Ð¸":7640,"ĠÐ½Ð°Ð¿ÑĥÑģÐºÐ°":7641,"ĤÑĥÐ²Ð°":7642,"ÑĤÑĥÐ²Ð°":7643,"ĠÐĳÐ°ÑĢÑģÐµÐ»Ð¾Ð½Ð°":7644,"ĠÐ¾Ð¿ÑĢÐ°Ð²Ð´Ð°":7645,"ĠÐ²Ð¸Ð´ÐµÐ":7646,"ĠÐºÑĢÐ¸Ð¼Ð¸Ð½Ð°":7647,"ĠÐºÑĥÑĢÑģ":7648,"ĠÐ³ÑĢÐ°Ð½Ð¸ÑĨÐ°":7649,"Ð½Ð¾Ð²ÐµÐ½":7650,"ĠÑĢÐµÐºÐ¾ÑĢÐ´":7651,"ĠÐ¿Ð¾Ð´Ð´ÑĢ":7652,"Ð»Ð¸Ð²Ð¾ÑģÑĤ":7653,"Ð»Ð°ÑĤÐ¾ÑĢ":7654,"ÐµÐ´Ð½Ð¾":7655,"ĠÑĥÑĩÐ°ÑģÑĤÐ½Ð¸ÑĨÐ¸":7656,"ĠÐ¢ÐµÐ»Ðµ":7657,"man":7658,"ĠÐºÐ¾Ñı":7659,"ĠÐ·Ð°Ð»Ð¸":7660,"ĠÑĤÐ¾Ð°Ð»ÐµÑĤ":7661,"ĠÑģÑĤÐ¾ÑĤÐ¸ÑĨÐ¸":7662,"ĠÐ¼Ð°ÑĤÐµÐ¼Ð°ÑĤÐ¸":7663,"ĠÑĩÑĥÐ¶Ð´Ðµ":7664,"ĠÐ¿Ð¾ÑĤÑĬÑĢ":7665,"ĠÑģÐ¾Ð»Ð¸":7666,"ÑĢÐ¸Ð´Ð¸":7667,"Ð´ÐµÐ¹ÑģÑĤÐ²Ð°":7668,"Ð¿Ð¸Ðµ":7669,"ĠÑģÐ°Ð¼Ð¸ÑıÑĤ":7670,"ĠÑĦÐ¸Ð½Ð°Ð½ÑģÐ¾Ð²Ð¸":7671,"ram":7672,"ĠÐ¾Ð¿Ðµ":7673,"Ð¿ÑĢÐµÐ´ÑģÐµÐ´Ð°ÑĤÐµÐ»":7674,"ĠÐ½Ð°Ð¿ÑĥÑģÐ½Ð°":7675,"Ð½Ð¾Ð½Ð¸Ð¼ÐµÐ½":7676,"rav":7677,"ĠÑĢÐ°Ð½Ð¾":7678,"ĠÐ´Ð¾Ð³Ð¾Ð²Ð¾ÑĢÐ°":7679,"ÐĴÐµ":7680,"ÑĢÐ´Ð°ÑĢ":7681,"ÐºÑĢÐ°ÑĤÐ½Ð¾":7682,"ĠÑĢÐµÑģÑĤÐ¾ÑĢÐ°Ð½ÑĤ":7683,"ĠÐ¿Ð»ÑĬÑĤ":7684,"ĠÐºÑĢÐ¸Ð·Ð°ÑĤÐ°":7685,"ĠÐ·Ð°ÐºÐ¾Ð½Ð¸":7686,"ĠÐľÐ°ÑĢÑĤÐ¸Ð½":7687,"ĠÐ¼Ð°ÑĢÑĪ":7688,"ĠÐ¼Ð¾Ð½Ð¾":7689,"ĠÐ¾Ð³ÑĢÐ¾Ð¼Ð½Ð°":7690,"ĠÐ²ÑĢÑĬÐ·ÐºÐ°ÑĤÐ°":7691,"ĠÑģÑĤÑĢÐ¾Ðµ":7692,"ĠÐ½ÐµÐ´Ð¾ÑģÑĤÐ°ÑĤÑĬ":7693,"ĠÑģÑĤÑĢÑĥÐºÑĤÑĥÑĢÐ°":7694,"ĠÐ¸ÑģÐ¿Ð¾":7695,"ĠÐ¿Ð¾ÐºÑĢÐ°Ñĺ":7696,"ĠÐ¸Ð¼Ð°Ð»Ð¸":7697,"ĠÐ·Ð°Ð¼ÑĬÑĢ":7698,"ĠÐ²ÐºÑĬÑīÐ¸":7699,"ÑĩÐµÐ»Ð¾":7700,"ĠÐ¡ÑĤÐ¾Ð":7701,"ĠÐ¿Ð¾ÑģÑĤÑĢÐ¾Ð":7702,"pt":7703,"ĠÑĤÐµÐ»ÐµÐ²Ð¸Ð·Ð¾":7704,"Ġth":7705,"ĠÐ°ÐºÑģÐµÑģÐ¾":7706,"ĠÐ¡Ð¸ÑĢÐ¸Ñı":7707,"ĠÐºÑĬÑģÐ½Ð¾":7708,"Ð»Ð¸ÑĢÐ°ÑĤ":7709,"ĠÐ¼Ð¾Ð´Ñĥ":7710,"Ð¼Ð¸ÑıÑĤ":7711,"ÑĪÐ°Ð»":7712,"ÑĢÐ²Ð¾":7713,"Ð²Ð·Ð":7714,"ĠÐŁÐŀ":7715,"ĠÐ±ÑıÐ»":7716,"ĠÐ¸Ð·Ð¿ÑĬÐ»Ð½Ð¸":7717,"ķÐ¡":7718,"ĠÑģÐ¾ÑĦÑĤÑĥÐµÑĢ":7719,"ĠÑģÐ¸Ð»Ð½Ð°":7720,"ĠÑģÐµÐºÑĢÐµÑĤÐ°ÑĢ":7721,"ÐĿÑı":7722,"ĠÐ´ÑĬÐ¶":7723,"ĠÑĥÐ¸":7724,"ĠÐ¿Ð¾Ñħ":7725,"ĠÐ´Ð¾Ð·Ð°":7726,"76":7727,"ÑĢÐ´Ð°Ð½":7728,"ĠÐ¾Ð±ÑģÐ»ÑĥÐ¶Ð²Ð°Ð½Ðµ":7729,"Ð¼ÑĢÐ°":7730,"ĠÐ´Ð¸ÑģÐºÐ¾":7731,"ÑĥÐ·Ð°":7732,"ĠÐļÑĬÐ´Ðµ":7733,"ĠÑĩÐ¸ÑıÑĤÐ¾":7734,"BG":7735,"ÑģÐ¿Ð¾ÑĢÑĤ":7736,"ĠÐ¾Ð´Ð»Ð¸":7737,"ĠÐºÐ°Ð·Ð²Ð°Ð¼":7738,"ĠÐºÐ¾Ð´":7739,"ĠÐ¸Ð·ÑĤÐ¾ÑĩÐ½Ð¸Ðº":7740,"ĠÑģÐ¸ÑĤÑĥÐ°ÑĨÐ¸Ð¸":7741,"Ð½Ñģ":7742,"Ð²ÐµÐ":7743,"ĠÐļÐ¾ÑģÑĤÐ°":7744,"Ð»Ð¸Ð¼":7745,"ÐºÐ°Ð½Ð¸":7746,"ĠÐ²ÑĬÑĢÑħÐ°":7747,"ĠÑģÐµÐ²ÐµÑĢ":7748,"ĠÑĤÑĬÐ»":7749,"ĠÐ¸Ð·Ð¿ÑĬÐ»Ð½ÐµÐ½Ð¸ÐµÑĤÐ¾":7750,"ĠÑĢÐ°Ð±Ð¾ÑĤÐ¾Ð´Ð°":7751,"ĠÐļÐ°ÐºÐ²Ð¸":7752,"ĠÐ¿Ð¾ÑģÐ¾ÑĩÐ²Ð°":7753,"ĠÑĢÐ°ÐºÐ¾":7754,"ĠÐ¿ÑĢÐ¸Ð½Ð°Ð´":7755,"Ġy":7756,"ÑĩÐ°Ð²Ð°Ð½ÐµÑĤÐ¾":7757,"ĠÐ¾ÐºÐ¾Ð½ÑĩÐ°":7758,"ĠÐĴÑı":7759,"sp":7760,"Ð±Ð°Ð²Ð¾":7761,"ĠÐ½Ð°ÑĨÐ¸Ð¾Ð½Ð°Ð»ÐµÐ½":7762,"ĠÑĥÐ²ÐµÐ»Ð¸ÑĩÐ¸":7763,"Ġ65":7764,"ĠÐļÐ¾Ð¼ÐµÐ½ÑĤÐ°ÑĢÐ¸":7765,"ĠÐĶÐµÑĤ":7766,"ĠÐ¿Ð¾Ð»Ð°Ð³Ð°":7767,"ĠÑģÑĬÑħÑĢÐ°Ð½Ðµ":7768,"ĠÑģÐ¸Ð³ÑĥÑĢÐµÐ½":7769,"µÐ»Ð°":7770,"Ð°Ð½Ð°":7771,"ĠÐ´ÑĢÑĥÐ¶ÐµÑģÑĤÐ²Ð¾":7772,"ĠÐ¿Ð°ÐºÐµÑĤ":7773,"ĠÐ´ÑĬÐ»Ð¶Ð¸Ð½Ð°":7774,"Ð²ÑĨÐ¸":7775,"ĠÐŀÐ±Ð»Ð°":7776,"ĠÐ²Ð¸Ð½Ð¾Ð²":7777,"ĠÐ·Ð°ÑģÑı":7778,"ĠÐ·Ð°Ð½Ð¸Ð¼Ð°Ð²Ð°":7779,"ĠÐ½Ð°ÑģÐ°Ð¼":7780,"ĠÐ¿Ð¾Ð¼Ð¸ÑģÐ»Ð¸":7781,"ÑģÐµÐ´Ð°ÑĤÐµÐ»Ð¾ÑĤ":7782,"ĠÐĳÑĢÑİ":7783,"ĠÐ½ÐµÐ¹Ð½Ð°ÑĤÐ°":7784,"75":7785,"ĠÐ¿ÑĢÐ¾Ð¸Ð·ÑħÐ¾Ð´":7786,"ĠÐ¼Ð°ÑĢÐºÐµÑĤÐ¸":7787,"ĠÑģÑĨÐµÐ½Ð°ÑĤÐ°":7788,"ver":7789,"ĠÐ¿ÑĢÐ¾ÑĤÐ¸Ð²Ð¾ÑĢÐµ":7790,"IT":7791,"ĠÐļÐ¾ÑĢÐµ":7792,"ff":7793,"ĠÐ¡Ð¸Ð³Ñĥ":7794,"Ð´Ð¾Ð±ÑĢÐ°":7795,"ÑģÐ¼Ðµ":7796,"ĠÐ¡Ð¾Ð±":7797,"Ð²Ð¸Ñĩ":7798,"ÑĥÐ´Ð¸":7799,"ĠÐĿÐµÐ·Ð°":7800,"ĠÐ·Ð°Ð±ÑĢÐ°Ð²Ð¸":7801,"AM":7802,"ĠÑĩÑĥÐ²ÑģÑĤÐ²Ð¸ÑĤÐµ":7803,"ĠÐ¸Ð·Ð¿ÑĢÐ°ÑīÐ°":7804,"ĠÐ¶ÐµÐ»Ð°Ð":7805,"ĠÐ¸Ð½ÑĦÑĢÐ°ÑģÑĤÑĢÑĥÐºÑĤÑĥÑĢÐ°":7806,"ĠÑĺÐ°Ð²Ð½Ð¾":7807,"ĠÑģÐµÐºÐ¾Ð³Ð°ÑĪ":7808,"ĠÐ¼ÐµÐ½Ñİ":7809,"ĠÐ¿ÑĬÑĤÐ¸ÑīÐ°":7810,"ĠÑĤÐµÐ»":7811,"Ð¿ÑĢÐ¾Ð¸Ð·":7812,"ĠÐļÐ°ÑĤÐ°":7813,"ÑģÐ¸Ð¸ÑĤÐµ":7814,"Ð¿ÑĬÑĢ":7815,"ĶÐ¡Ðľ":7816,"ĠÐ´Ð²ÑĥÐ±Ð¾":7817,"ĠÐ¾ÑĤÐºÑĬÐ´Ðµ":7818,"ÑĢÐµÑĨÐ°":7819,"ĠÐŁÑĬÑĢÐ²Ð°":7820,"ÑĢÐ°Ð»Ð¸":7821,"ĠÐ²ÐºÐ°ÑĢÐ°":7822,"ĠÐ¾ÑĤÐ¸Ð²Ð°":7823,"¸Ð½Ð°":7824,"ĠÑĦÐ¸Ð·Ð¸ÑĩÐµÑģÐºÐ¸":7825,"Ð¼ÐµÑĵÑĥ":7826,"Ð½ÐºÐµ":7827,"ĠÐ²Ð°Ð»Ð¸":7828,"Ð´ÐµÐ½Ð°ÑĤÐ°":7829,"ĠÐ°ÑĤÑĢÐ°":7830,"ĠÐĺÑģÑĤÐ¸":7831,"ĠÐĿÐ°Ð":7832,"ÐºÐ²Ð°Ð½Ðµ":7833,"ĠÐ¡Ð½Ð¸Ð¼ÐºÐ°":7834,"ÑĢÐ²ÐµÐ½Ð¸":7835,"ĠÐ¿Ð¾Ð´Ð¾Ð±Ð½Ð°":7836,"ÑĪÐºÐ¾ÑĤÐ¾":7837,"ĠÑĢÐµÐºÐ»Ð°Ð¼Ð°":7838,"ÑĢÑıÐ³":7839,"rad":7840,"ĠÐŁÐ¾Ð²ÐµÑĩÐµ":7841,"ens":7842,"ĠÐ¸ÑģÑĤÐ¾ÑĢÐ¸ÑĩÐµÑģÐºÐ¸":7843,"ĠÐ½ÐµÑĢÐ°Ð·":7844,"ĠÐ·Ð°ÑģÐµÐ³Ð°":7845,"¾Ð½Ð¸ÑĤÐµ":7846,"Ð»Ð¸ÑīÐµ":7847,"oun":7848,"ĠÐ±ÑıÑħÐ¼Ðµ":7849,"ĠÐĴÐ¸Ð¶":7850,"ĠÑģÐ¾Ð³Ð»Ð°":7851,"ĠÐ»Ð¸Ð½Ð¸Ð¸":7852,"ÑĤÐ°ÐºÐ°":7853,"ĠÐĶÐ°Ð½Ð¸Ðµ":7854,";&":7855,"Ð¿Ð¾ÑĤÐµ":7856,"ÑĢÐ»Ð¾":7857,"Ð½Ð°Ð¿ÑĢÐµÐ´":7858,"ĠÐ¿ÑĢÐ¾Ð¿Ñĥ":7859,"ĠÐĺÐĿÐ":7860,"Ð¡Ð¿Ð¾":7861,"ĠÐ¡ÐĲÐĶ":7862,"Ð·Ð¸Ð½Ð°":7863,"ĠÐ·Ð°Ð¿Ð»Ð°ÑĤÐ¸":7864,"ÐĿÐ°ÑĩÐ°Ð»Ð¾":7865,"ĠÐ°Ð²ÑĤÐ¾ÑĢÐ¸ÑĤÐµ":7866,"Ð½ÑĤÑĥ":7867,"ĲÐĻ":7868,"ĠÑģÐ²ÐµÑĤÐ¸":7869,"ĠÑĩÐ°ÑģÐ¾ÑĤ":7870,"ĠÐ¸Ð·Ð³ÑĢÐ°Ð¶Ð´Ð°Ð½ÐµÑĤÐ¾":7871,"ĠÑĢÐµÐ¿ÑĢÐµ":7872,"Ð½ÐµÐ":7873,"ĠÐ´ÐµÐ±":7874,"ĠÑģÐ»ÑĥÐ¶Ð¸ÑĤÐµÐ»Ð¸ÑĤÐµ":7875,"ĠÐ¡Ð²ÐµÑĤÐ¸":7876,"ĠÐ·Ð°ÑħÐ°ÑĢ":7877,"ĠÐ¿ÑĢÐµÐ´Ð²Ð¸Ð¶Ð´Ð°":7878,"ĠÐµÐ´Ð½Ð°ÑĤÐ°":7879,"ÑĢÐ°Ð²":7880,"ĠÐłÐµÐ°Ð»":7881,"ĠÑĤÐµÐ¶Ðµ":7882,"oft":7883,"ÑģÐ½Ð¾ÑĤÐ¾":7884,"Ð´Ð¾Ð±ÑĢÐ¾ÑĤÐ¾":7885,"ÑħÐ¾Ð´Ð½Ð°":7886,"ÑĢÐ¸Ðº":7887,"ulgar":7888,"¾ÑĢ":7889,"ĠÐ±Ð¾ÐºÐ»Ñĥ":7890,"Ð¹Ð½Ðµ":7891,"ĠÐ¿Ð»Ð°ÑīÐ°ÑĤ":7892,"ĠÐºÐ»Ð°ÑģÐ¸ÑĢÐ°":7893,"Ð¼Ð½Ð¾Ð³Ñĥ":7894,"ÐºÐ¾Ð¼":7895,"ĠÐ¿ÑĢÐµÐ´Ð¼ÐµÑĤ":7896,"ĠÐ°Ð´Ð²Ð¾ÐºÐ°ÑĤ":7897,"ĠÐŁÑĬÑĢÐ²Ð°ÑĤÐ°":7898,"ĠÐ¸ÑĤÐ°Ð»Ð¸Ð°":7899,"ĠÐºÑĢÐ°ÐºÐ°":7900,"ĠÐ´Ð¾ÑģÑĤÐ¸Ð³Ð°":7901,"Ð¶ÐµÐ½Ð°":7902,"ide":7903,"ĠÑħÐ²Ð°":7904,"ÑıÐ»Ð°":7905,"ÑĨÐ¸Ð°Ð»Ð½Ð¾":7906,"ĠÐľÐŀÐ":7907,"ĠÑĤÐµÐ¶ÐºÐ¸":7908,"ĠÐ¾Ð±ÑĺÐ°Ð²Ð¸":7909,"Ð½Ð¾Ð²ÑģÐºÐ¸":7910,"ĠÐ¾Ð³ÑĢÐ¾Ð¼ÐµÐ½":7911,"ĠÐ¿Ð°ÑĢÑĤÐ½ÑĮÐ¾ÑĢÐ¸":7912,"ĠÐ»ÐµÐºÐ°ÑĢÑģÑĤÐ²Ð°":7913,"ĠÐ±Ð°Ð½ÐºÐ¸":7914,"Ð´ÐµÐ»ÑıÑĤ":7915,"¾Ñī":7916,"ĠÑģÐ¿Ð¾ÑĢÐ°Ð·ÑĥÐ¼ÐµÐ½Ð¸Ðµ":7917,"96":7918,"ĠÐ¾ÑģÑĤÑĢÐ¾Ð²":7919,"ÑĢÐµÐ°":7920,"ĠÑĢÐ¾Ð´ÐµÐ½":7921,"ĠÐ¾ÑģÐµÐ¼":7922,"ĠÑģÐ²Ð°ÑĤÐ":7923,"ľÐĲ":7924,"ĠÐ²ÐµÑģÑĤÐ½Ð¸Ðº":7925,"ĠÐ¼Ð¸ÑĢÐ¸":7926,"Ð¿ÑĥÐ»Ñı":7927,"ĠÐ°Ð¼Ð±Ð¸":7928,"ĠÐ¸Ð³ÑĢÐ°Ñĩ":7929,"und":7930,"ly":7931,"ĠÐ¼Ð¾Ð¼Ð¸ÑĩÐµ":7932,"ÑģÐºÐ¾Ð²":7933,"ĠÐŁÑĢÐµÑ":7934,"ĠÐ½ÐµÐ·Ð°Ð²Ð¸ÑģÐ¸":7935,"ĠÑĢÐµÐ³Ð¸Ð":7936,"ĠÐ¼Ð¾Ð´ÐµÐ»Ð°":7937,"Ð·ÑıÑĤ":7938,"ĠÐ¾ÑĤÑĩÐ¸ÑĤÐ°":7939,"ĠÐ´Ð¾Ð°Ñ":7940,"ĠÐ·Ð°Ð´ÑĬÐ»Ð¶ÐµÐ½Ð¸Ñı":7941,"ĠÐ¾Ð±Ð¾ÑĢÑĥÐ´Ð²Ð°":7942,"ĠÐŁÐ°Ð²":7943,"ĠÐ±Ð»Ð¸Ð·ÐºÐ¸":7944,"ĠÐŁÑĢÐµÑĤ":7945,"ĠÐ±Ð°ÑģÐµÐ¹Ð½":7946,"ĠÐ¼Ð¾Ð¶Ð½Ð¾":7947,"ĠÑĢÐµÑĩ":7948,"ĠÐ¿ÑĢÐ¸ÑĩÐ¸Ð½Ð¸ÑĤÐµ":7949,"ĠÐ±Ð¾Ð³Ð¾":7950,"ĠÐ¿ÑĢÐ¸Ð´ÑĢÑĥ":7951,"ĠÑģÐ»ÑĥÑĩÐ°Ñĺ":7952,"ĠÐ¡Ð»Ð¸Ð²ÐµÐ½":7953,"ĠÐ±ÐµÐ´":7954,"ĠUn":7955,"ĠÑĢÐ°Ð·Ð¾ÑĩÐ°":7956,"ĠÐ¿ÑĢÐ¸ÑģÑĤÐ¸Ð³Ð½Ð°":7957,"ÐºÐµÑĤÐ°":7958,"ĠÐ½ÐµÐ¿Ð¾ÑģÑĢÐµÐ´":7959,"ĠÐ±ÐµÐ·Ð¾Ð¿Ð°ÑģÐ½Ð¾ÑģÑĤ":7960,"indows":7961,"ĠÐ¿Ð°Ð·Ð¸":7962,"ĠÐ¿Ð¾Ð»Ð¸ÑĨÐµ":7963,"Ð½Ð¾ÑģÑĤÐ¸ÑĤÐµ":7964,"ĠÐ³Ð¾Ð»ÑıÐ¼Ð°ÑĤÐ°":7965,"2008":7966,"ÐĳÐ¸":7967,"Ġ/&":7968,"ĠÐ´ÐµÑģÐµÑĤÐºÐ¸":7969,"Ġ!!!":7970,"ĠÐ¾ÑĢÐ³Ð°Ð½Ð¸Ð·Ð°ÑĨÐ¸ÑıÑĤÐ°":7971,"ĠÑĦÐµÐ½Ð¾Ð²ÐµÑĤÐµ":7972,"ĠÑĢÐ¾Ð´Ð½Ð¸":7973,"ĠÐĹÐ°Ð¿Ð°":7974,"ĠÑĤÐµÑħÐ½Ð¸ÑĩÐµÑģÐºÐ¸":7975,"ĠÐ±Ð°Ð·Ð°ÑĤÐ°":7976,"ĠÐ¾ÑĤÐºÑĢÐ¸Ð²Ð°":7977,"ĠÐ¾ÑĢÑĬÐ¶Ð¸Ð":7978,"ĠÐĺÐ·ÑĤÐ¾Ñĩ":7979,"ĠÐ¾Ð±Ð·Ð°":7980,"ĠÐ±ÐµÐ»Ð¸":7981,"ĠÑģÐ¿ÑĢÐ°Ð²ÐµÐ´":7982,"ĠÑģÑĥÐ´":7983,"ĠÐºÑĥÑĢÐ¾":7984,"ĠÐľÐ¸ÑģÐ»Ñı":7985,"ĠÐ¾ÑĢÑĬÐ¶Ð¸Ðµ":7986,"ĠÑĢÐ°Ð±Ð¾ÑĤÐ½Ð°":7987,"ĠÐ²Ð·":7988,"ĠÑĩÐµÑģÑĤ":7989,"ĠÐ³ÐµÑĢÐ¾Ð¸":7990,"ĠÐ½ÐµÐ¹Ð½Ð¸ÑĤÐµ":7991,"AC":7992,"ĠÑģÐ°Ð¼Ð¾Ð»ÐµÑĤ":7993,"ĠÐ¿ÑĢÐ¸ÑĢÐ¾Ð´Ð°":7994,"ĠAnd":7995,"ĠÐŁÐ¾Ð²Ðµ":7996,"ET":7997,"ĠÐ¡ÑĬÐ·Ð´Ð°":7998,"ĠÐ¿ÑĢÐµÐ´ÑģÑĤÐ°Ð²ÑıÐ½Ðµ":7999,"ĠÐ¸Ð»Ñİ":8000,"Ð¿ÐºÐ°ÑĤÐ°":8001,"ĠÐ±ÑĬÐ´ÐµÐ¼":8002,"ĠÐĵÐ¾ÑģÐ¿Ð¾Ð´":8003,"Ð¼ÐµÐ¹":8004,"ĠÐ¸Ð½ÑĦÐ¾ÑĢÐ¼Ð°ÑĨÐ¸Ð¸":8005,"Ð¶Ð½Ð¸Ñı":8006,"Ð»ÑıÐ·Ð°Ñ":8007,"Ð»ÑıÐ·Ð°ÑĤ":8008,"ĠÐ»ÑĥÐºÑģÐ¾":8009,"ĠÐ¸ÑģÐºÑĥ":8010,"ĠÐ¿Ð¾Ð´ÑħÐ¾Ð´ÑıÑīÐ¸":8011,"ĠÐĴÑĤÐ¾ÑĢÐ°ÑĤÐ°":8012,"ĠÐ¸Ð·Ð²ÐµÑģÑĤÐ½Ð°":8013,"ĠÐ±Ð°Ð²Ð½Ð¾":8014,"Ð»ÑıÐ·Ð":8015,"ĠÐ¾Ð±ÑģÑĤÐ°Ð½Ð¾Ð²":8016,"ĠÑħÑĢÐ°Ð½Ð¸ÑĤÐµÐ»Ð½Ð¸":8017,"ĠÐ·Ð°Ð²ÐµÐ´ÐµÐ½Ð¸Ñı":8018,"ÑģÑĤÐ¸ÑĩÐ½Ð¾":8019,"/,":8020,"ĠÐ¾Ð´Ð½Ð¾Ñģ":8021,"ĠÐ·Ð°Ð³Ð¸Ð½Ð°":8022,"ĠÐ¸Ð·Ð´Ð°Ð²Ð°":8023,"ĠÐ¾Ð²Ð¾Ð·Ð¼Ð¾":8024,"ĠÐ²Ð»Ð¸ÑĺÐ°":8025,"ĠÐĶÐ¾ÑģÑĤÐ°":8026,"ĠÐ·Ð°ÑīÐ¸ÑĤÐµ":8027,"ĠÐ´Ð²Ð¸Ð¶Ð¸":8028,"¾ÑĺÐ°":8029,"ire":8030,"ĠÑĢÐ°Ð¹Ð¾Ð½Ð¸":8031,"ĠÐ¿Ð¾Ð¼Ð¾Ð³Ð½Ð°ÑĤ":8032,"ĠÑĦÐ°ÐºÑĤÐ¾ÑĢ":8033,"ĠÐ»Ð¸ÑĩÐ½Ð¸ÑĤÐµ":8034,"ĠÐ¶ÐµÐ»Ð°Ðµ":8035,"ĠÐ¿Ñı":8036,"ÑĩÐµÐ¼":8037,"ĠÑĢÐ°Ð·Ð»Ð¸ÑĩÐ½Ð°":8038,"Ð±Ð°ÑĤ":8039,"ĠÐ·Ð°Ð¿Ð¸Ñģ":8040,"ĠÑīÐ¾ÑĤÐ¾":8041,"ĠÐ¼Ñİ":8042,"edia":8043,"ĠÐ¿Ð¾Ð»Ð·Ð²Ð°Ð½Ðµ":8044,"ĠÑĢÐ°ÑģÑĤÐµÐ¶":8045,"ĠÐ¾Ð´ÑĢÐµ":8046,"ĠÐ½Ð°ÑģÐºÐ¾ÑĢÐ¾":8047,"ĠÐ¿Ð°Ð·Ð°ÑĢÐ¸":8048,"ÑģÑĬÐ´Ð¸":8049,"ĠÐ¸ÑģÐºÐ¾":8050,"ĠÐ½ÑıÐºÐ°ÐºÐ²Ð¾":8051,"ĠÐ¢ÑĬÑĢÐ³Ð¾":8052,"ĠÑģÑĬÐ¿ÑĢÐ¾":8053,"ĠÑģÐºÐ°Ð½Ð´Ð°Ð»":8054,"ĠÐºÐ¾Ð¼Ð¸ÑĤÐµ":8055,"ÑĩÐ¸ÑļÐ°":8056,"ĠÑģÐ¾Ð±ÑģÑĤÐ²ÐµÐ½Ð¸Ðº":8057,"ĠÑĦÐ¾Ð½Ð´Ð°":8058,"ĠÐºÑĥÐ¿Ñĥ":8059,"ĠÐ¢Ð¾Ð´Ð¾ÑĢ":8060,"ÑĩÐ¸Ð½":8061,"ĠÑģÑĬÐ±Ð¸ÑĤÐ¸ÐµÑĤÐ¾":8062,"ĠÑģÑĤÐ°ÑĤÐ¸ÑģÑĤÐ¸":8063,"ÑĢÐµÑ":8064,"ÑĢÑĬÑīÐ°ÑĤ":8065,"ĠÑĢÐ°Ð·Ð²Ð¾Ñĺ":8066,"ĠÐ¿ÑĢÐ¸ÑħÐ¾Ð´Ð¸":8067,"ĠÑģÑĤÐ°ÑĢÐ¸ÑĤÐµ":8068,"ĠÐ´Ð°Ð´ÐµÐ½":8069,"IS":8070,"ĠÐ¾Ð½Ð·Ð¸":8071,"ĠÑĢÐµÑģÑĤÐ¾ÑĢÐ°Ð½":8072,"ĠÐ¿ÑĢÐµÐ´ÑģÑĤÐ°Ð²ÑıÑĤ":8073,"ÑĢÑĬÐ±":8074,"ĠÐ¿Ð¾ÑĩÑĥÐ²":8075,"ÐºÑĥÐ²Ð°ÑĤ":8076,"eg":8077,"ĠÐ¡Ð£":8078,"Ġ42":8079,"ĠÐ¿ÑĢÐµÐ¼Ð¸Ðµ":8080,"ĠÐºÐ²Ð¾":8081,"ĠÑģÑĬÑģÑĤÐ°Ð²Ð°":8082,"ĠÐ¿Ð¾Ð´Ðµ":8083,"ĠÐ²Ð¸ÑĨÐµ":8084,"ĠÐĲÑĦÑĢÐ¸ÐºÐ°":8085,"ĠÐ´Ð°Ð½Ð¾":8086,"ĠÐ¡ÐĶÐ¡Ðľ":8087,"Ð´ÐµÐºÐ²Ð°ÑĤ":8088,"Ð·Ð¾ÑĤ":8089,"¸ÐµÐ²Ð°":8090,"Ġ,,":8091,"ĠÐ´ÑĬÑĢÐ²Ðµ":8092,"ith":8093,"ĠÐºÐ¼ÐµÑĤÐ°":8094,"ĠÐ²ÐºÐ»ÑİÑĩÐµÐ½Ð¸":8095,"ÐŁÐ¸":8096,"ĠÐŁÐ¾Ð»ÑĪÐ°":8097,"ĠÑĢÐµÐ¿ÑĥÐ±Ð»Ð¸ÐºÐ°":8098,"Ð·ÐºÐ¸":8099,"ĠÐ¿ÑĬÑĤÑĥÐ²Ð°Ð½Ðµ":8100,"ÐĳÑĥ":8101,"ĠÐ¼ÐµÑĤÐ¾Ð´":8102,"ÑĤÐ¸ÑıÑĤ":8103,"ÐĽÐ¸":8104,"ĠÐ²ÑıÑĢÐ½Ð¾":8105,"ĠÐ²Ð¸Ð´ÑıÑĤ":8106,"ĠÐ¼Ð¾ÑīÐ½Ð¾ÑģÑĤ":8107,"ÑĤÐ¾ÑĩÐ½Ð¸":8108,"ĠÐĳÑĢÐ¸ÑĤÐ°":8109,"ĠÐ²Ð¾ÐµÐ½Ð½Ð¸":8110,"ĠÐ¿ÑĢÐ¾ÑĦÐ¸Ð»":8111,"ĠÐºÐ°ÑĩÐµÑģÑĤÐ²Ð°":8112,"ĠÐ±ÐµÐ·Ð±Ðµ":8113,"ĠÐµÐ²ÑĢÐ¾Ð¿":8114,"Ð»ÐµÐ¶Ð°":8115,"ĠÐ²ÐµÐ»Ð¾":8116,"ĠÐ·Ð±Ð¾ÑĢ":8117,"79":8118,"ÑĦÐ¾ÑĢÐ¼Ð°ÑĤÐ°":8119,"/.":8120,"Ð¼Ð¾ÐºÑĢÐ°":8121,"ĠÐ´Ð²Ð¾ÑĢ":8122,"ĠTh":8123,"ĠÑĦÐ¾Ð½Ð´Ð¾":8124,"oz":8125,"ĠÐ½Ð°Ð¿Ð°Ð´Ð°":8126,"ÑģÐ¸Ð¿Ðµ":8127,"ĠÐĵÑĢÐ°Ð´":8128,"ĠÐ¿Ð»Ð°ÑģÑĤÐ¼Ð°":8129,"ĠÐ¼ÑĥÐ·ÐµÐ¹":8130,"ĠÐ¿Ð¾ÑĤÑĢÐµÐ±":8131,"Ð±ÐµÐ½Ð¸":8132,"ĠÐ´ÑĢÐ¶Ð°Ð²Ð°ÑĤÐ°":8133,"Ð¼Ð¸ÐµÑĢ":8134,"ÑĢÑħÐ¸":8135,"Ð¼ÐµÐ½Ð¾":8136,"Ð½Ð¸ÑĤÐ°":8137,"ĠÑĤÐµÐ¶ÐºÐ¾":8138,"ĠÑģÑĤÐ°ÑĤÐ¸ÑıÑĤÐ°":8139,"ÐºÑĨÐ¸Ð¸ÑĤÐµ":8140,"ÐĶÐŁÐľÐĿÐķ":8141,"ĠÐ´ÐµÐ±Ðµ":8142,"ĠÐĿÐ¾Ð²Ð¾":8143,"ĠÐĿÐµÑīÐ¾":8144,"ÑģÑĤÑı":8145,"ĠÐ£ÑĩÐ°":8146,"ĠÐĶÑı":8147,"ĠÐ³Ð°ÑĢÐ°":8148,"ĠÐºÐ¾ÑĢÐ¿Ð¾":8149,"ĠÐ¿Ð¾Ð»Ð¸ÑĨÐ¸Ñı":8150,"ĠÑĢÐ°Ð´Ð¸":8151,"ĠÐ¿Ð¾Ð´Ð²Ð¸":8152,"ĠÐĻÐ¾ÑĢÐº":8153,"ek":8154,"ĠÐĿÐ°ÑĨÐ¸Ð¾Ð½Ð°Ð»Ð½Ð°ÑĤÐ°":8155,"ĠÑĦÐµÑģÑĤÐ¸Ð²Ð°Ð»":8156,"ĠÐ²ÑĢÐµÐ¼ÐµÐ½Ð°":8157,"ĠÐ¿Ð¾Ð»ÑĥÑĩÐ¸ÑĤÐµ":8158,"ĠÐ¿Ð¾ÑĢÐ¾":8159,"ĠÐºÑĢÐµÐ°":8160,"ĠÐ´Ð¾Ð»Ð°ÑĢÐ¸":8161,"Ð»ÑĥÐ²Ð°ÑļÐµ":8162,"Ð³Ð°Ð½Ð¸":8163,"ĠÐºÐ°ÐºÐ²Ð¸ÑĤÐ¾":8164,"ÑĩÐ¸ÑĤÐµÐ»Ð½Ð¾":8165,"ÑģÑıÐ²Ð°":8166,"ĠÐ¿ÐµÑĤÑĢÐ¾":8167,"ĠÑģÑĥÐ¿Ðµ":8168,"ÑĢÑıÐ²Ð°Ð½ÐµÑĤÐ¾":8169,"ÑĩÐºÐ¾Ð²":8170,"ÐºÑĬÑĢ":8171,"ĠÐ½Ð°ÑĪ":8172,"ÑĢÐµÑĤ":8173,"ÐĳÑĬÐ»Ð³Ð°ÑĢÐ¸Ñı":8174,"ĠÑģÐ»ÑĥÑĩÐ°Ð¸ÑĤÐµ":8175,"ĠÐľÐ°ÐºÐ°ÑĢ":8176,"Ð´Ð¸Ð»":8177,"ĠÐ¸Ð·Ð²ÑĬÐ½ÑĢÐµÐ´":8178,"ĠÐĶÐ¸Ð°":8179,"ĠÑĤÐµÑĢÐ¸ÑĤÐ¾ÑĢÐ¸Ñı":8180,"ĠÐ¸Ð·Ð¾ÑģÑĤÐ°":8181,"ÑģÐ»Ð°Ð¼":8182,"ĠÐ¸Ð½ÑĤÐµÑĢÐ¸Ð¾":8183,"ĠÑģÑĬÐ²ÐµÑĤÐ¸":8184,"ĠApple":8185,"ĠÐ¼Ð»Ð°Ð´":8186,"ĠÐ½ÐµÐ·Ð½Ð°":8187,"ĠÐ¾Ð³Ð»Ð°":8188,"ĠÐ¸Ð·ÑģÐ»ÐµÐ´Ð¾Ð²Ð°":8189,"ĠÐ¾ÑĤÐ´ÐµÐ»Ð½Ð¸":8190,"Ð»ÐºÐ¾Ð²":8191,"ĠÐ³ÐµÐ½ÐµÑĢÐ°Ð»":8192,"ĠÐĺÑģÐºÐ°Ð¼":8193,"ĠÐ¾ÑģÐ½Ð¾Ð²Ð½Ð°ÑĤÐ°":8194,"ĠÑĥÐ»Ð¸ÑĨÐ°ÑĤÐ°":8195,"ĠÐ¾ÑģÐ½Ð¾Ð²ÐµÐ½":8196,"Ð·Ð°Ð¼":8197,"ĠÐºÐ¾Ð¼Ð¿Ð¾Ð·Ð¸":8198,"ÑĤÑĥÐ²Ð°ÑļÐµ":8199,"ĠÐ³Ð»ÐµÐ´Ð°ÑĤ":8200,"ĠÐºÐ»Ð¸ÐµÐ½ÑĤ":8201,"Ġ::":8202,"ĠÐ¿Ð¾Ð¿ÑĬÐ»":8203,"Ð±Ð¾ÑĢÐ¸":8204,"ĠÐ¿Ð¾ÑģÑĤÐµÐ¿ÐµÐ½Ð½Ð¾":8205,"ÐºÐ¾Ð²ÑģÐºÐ¸":8206,"ĠÐ¡Ð»ÐµÐ´Ð²Ð°":8207,"ĠÐ¿ÑĢÐµÐ³Ð¾Ð²Ð¾ÑĢÐ¸":8208,"ĠÐ¿Ð¾Ð¼ÐµÑĵÑĥ":8209,"ĠÐ´Ð°Ð´Ð°ÑĤ":8210,"ool":8211,"ÑģÐ¿Ð¾ÑģÐ¾Ð±":8212,"ĠÐ¿ÑĢÐ¸Ð²Ð»Ð¸ÑĩÐ°":8213,"mk":8214,"ĠÑĤÐ°ÑĤÐºÐ¾":8215,"ĠÐµÑĤÐ¸":8216,"Ð½Ð¸ÑĺÐ°ÑĤÐ°":8217,"ĠÐ»ÑıÑĤÐ¾":8218,"ĠÐłÐµÐ·ÑĥÐ»":8219,"ĠÑģÐ¾Ð¾Ð¿":8220,"ĠÑīÐ°ÑģÑĤÐ¸Ðµ":8221,"ĠÐ¿Ð¾Ð´Ð´ÑĢÑĬÐ¶ÐºÐ°":8222,"ĠÐ±Ð¾Ð»ÐµÑģÑĤ":8223,"ĠÐ¼Ð°Ð³Ð°Ð·Ð¸Ð½Ð¸":8224,"ĠÑģÑĤÑĢÐ¾Ð¸ÑĤÐµÐ»ÑģÑĤÐ²Ð¾":8225,"ĠÐºÐ¾Ð½Ðµ":8226,"ĠÐ¿Ð¾ÐºÑĢÐ°Ð¹":8227,"ĠÐĺÑĢÐ°Ð½":8228,"ĠÐ»ÐµÐºÐ°ÑĢÐ¸":8229,"ÑĺÐ¾ÑĤ":8230,"ĠÐ¿ÑĢÐµÐ¿Ð°":8231,"ĠÐ¿Ð¾Ð´Ð¾Ð±ÑĢÐ¸":8232,"Ð²Ð°ÑĢÑıÑĤ":8233,"Ð½Ð´Ð°ÑĤ":8234,"ĠÐ½ÐµÐ³Ð¾Ð²Ð¸Ð¾ÑĤ":8235,"ĠÑĪÐ¸ÑĢÐ¾ÐºÐ¾":8236,"ix":8237,"ĠÐ¿ÑĢÐµÑģÑĤÐ°":8238,"Ð»Ð¸Ð¸":8239,"ĠÐĶÐ¾ÐºÐ¾":8240,"\"?":8241,"ĠÐ±ÐµÐ¶Ð°":8242,"ÑħÐ²Ð°ÑīÐ°":8243,"ĠÐ¿Ð¾Ð´ÑĢÐ¾Ð±":8244,"ĠÐ·Ð²ÑĥÑĩÐ¸":8245,"ĠÐ¾ÑĩÐµÐ²Ð¸Ð´Ð½Ð¾":8246,"ÑĤÐµÑĨ":8247,"Ð½ÐµÑĤÐ°ÑĤÐ°":8248,"ĠÐµÐºÐ¸Ð¿Ð¸":8249,"ĠÐ±ÑĢÐ¾ÑıÑĤ":8250,"ĺÐĿÐĲ":8251,"ĠÐ´Ð¾Ð¿ÑĥÑģÐ½Ð°":8252,"Ð»Ð¸Ð·ÑĬÐ¼":8253,"ĠÑĢÐ°Ð·Ð³Ð¾Ð²Ð¾ÑĢÐ¸":8254,"ĠDe":8255,"ĠÐ²ÐµÑĩÐµÑĢÑı":8256,"ĠÑĩÐ°ÑĪÐ°":8257,"Ð»Ð¾Ð²Ð¾":8258,"ÑĤÐ¸Ðº":8259,"°Ð°Ð":8260,"ĮÐµ":8261,"ĠÐļÐ¾Ð¼Ð¿Ð»Ðµ":8262,"ĠÑĢÐµÐ·ÑĥÐ»ÑĤÐ°ÑĤÐ°":8263,"ĠÐķÐ»ÐµÐ½Ð°":8264,"ĠÐ´Ð¾ÑģÑĤÐ°Ð²":8265,"ĠÑģÐ²ÑĬÑĢÐ·Ð°Ð½Ð°":8266,"ĠÐĺÐ½ÑĤÐµÑĢÐµ":8267,"ĠÑģÑĤÐ¾Ð»Ð¸ÑĨÐ°":8268,"ĠÐ¾Ð±ÐµÐ¼":8269,"ĠÐ°Ð»Ð±ÑĥÐ¼":8270,"Ð¼Ð»Ð°":8271,"ĠÐ¿Ð¾ÑĤÑĢÐµÐ±Ð¸ÑĤÐµÐ»":8272,"ĠÐ¿Ð»Ð°ÑĤÑĦÐ¾ÑĢÐ¼Ð°":8273,"hone":8274,"ĠÐ´Ð¾ÐºÐ¾Ð»ÐºÑĥ":8275,"ink":8276,"ĠÐĴÐ°ÑģÐ¸Ð»ÐµÐ²":8277,"ĠÑħÐ°ÑĢÐ°ÐºÑĤÐµÑĢÐ¸ÑģÑĤÐ¸ÐºÐ¸":8278,"ĠÐ³Ð°Ð·Ð¾":8279,"ĠÐ±ÑĬÑĢÐ·Ð°":8280,"ĠÑĩÐ¸Ð¸ÑĤÐ¾":8281,"ĠÐ¿ÐµÐ":8282,"Ð¥Ð°":8283,"ĠÑĤÐµÑĢÐµÐ½":8284,"ĠÐ´Ð¾ÐºÐ»Ð°Ð´":8285,"ĠÑĤÐ²ÑĬÑĢÐ´Ð":8286,"ĠÐĳÑĢÑİÐºÑģÐµÐ»":8287,"ĠÑģÑĤÐ°ÑĢÑĤ":8288,"ĠÑģÐ»ÑĬÐ½ÑĩÐµ":8289,"ĲÐĳÐ":8290,"ĠÐ·Ð°ÑģÐ»ÑĥÐ¶Ð°Ð²Ð°":8291,"ĠÐºÐ¾Ð½ÑģÐµ":8292,"Ð´Ð¾ÑĢ":8293,"ĠÐ±ÑĬÐ»Ð³Ð°ÑĢÐ¸Ð½":8294,"£ÐĴÐ":8295,"ĠÐļÐŀÐľÐ":8296,"ĠÐºÐ°Ð¿":8297,"ĠÐĿÐ¸ÐºÐ¾Ð¹":8298,"ĠÐ»Ð¸ÑĩÐµÐ½":8299,"ĠÐ·ÑĢÐ¸ÑĤÐµ":8300,"ĠÐ°Ð²ÑĤÐ¾Ð¼Ð°ÑĤÐ¸ÑĩÐ½Ð¾":8301,"Ð·Ð±Ð¾":8302,"ĠÐ´Ð¸Ð²Ð¸":8303,"ĠÐ£Ð½Ð³Ð°":8304,"ĠÑĥÑģÐ»ÑĥÐ³Ð¸ÑĤÐµ":8305,"ĠÐ´ÑĬÐ»Ð³Ð¸":8306,"ĠÐ»Ð¸ÑĤÐµÑĢÐ°ÑĤÑĥ":8307,"ĠÑĥÑģÐºÐ¾":8308,"ĠÐ¾ÑģÑĬÑīÐµÑģÑĤÐ²ÑıÐ²Ð°":8309,"ĠÐºÐ²Ð°Ð»Ð¸ÑĤÐµ":8310,"ĠÐ¡ÑĤÐ¾Ð¹":8311,"ĠÐ¿Ð¾ÐºÐ°Ð¶Ð°":8312,"ĠÑĢÐµÐ»Ð¸Ð³Ð¸Ð¾":8313,"ĠÐ¼Ð°Ð»Ð¾":8314,"ĠÐ´ÐµÐ²ÐµÑĤ":8315,"Ð¼Ð¼":8316,"ĠÐµÐ¿Ð¸Ð´Ðµ":8317,"ÑĥÑĩÐµ":8318,"ĠÐ½Ð¾Ð²Ð¸ÑıÑĤ":8319,"ĠÐ²ÑĬÐ¾ÑĢÑĬ":8320,"ĠÐ½Ð°Ð´ÑıÐ²Ð°":8321,"ĠÐºÐ¾Ð»ÐµÐ³Ð¸ÑĤÐµ":8322,"ĠÑĨÐµÐ»Ð¸ÑĤÐµ":8323,"ĠÐ³ÑĢÐ°Ð½Ð¸ÑĨÐ¸":8324,"ĠÐĺÐ½ÑģÑĤÐ¸ÑĤÑĥ":8325,"Ð¿Ð¾ÑģÑĤÐ¾":8326,"ÑĤÐµÑĢÐ¸Ð°Ð»":8327,"ĠÐ¢Ð¸Ðµ":8328,"ĠÐ´ÑĬÐ»Ð±Ð¾ÐºÐ¾":8329,"ĠÐ²ÑĬÐ¿ÑĢÐ¾ÑģÑĬÑĤ":8330,"ĠÐ³Ð»Ð°Ð²Ð½Ð¾":8331,"ĠÐ¡Ð¿Ð¾ÑĢÑĤ":8332,"ĠÐ´Ð¾Ð¿Ñĥ":8333,"ĠÑģÐ»ÑĥÐ¶Ð¸":8334,"ĠÑģÑĥÑĤÑĢÐ¸Ð½ÑĤÐ°":8335,"ĠÐ¿Ð¾ÑĢÐµÐ´ÐµÐ½":8336,"ĠÐ±ÑĢÐ°Ð½":8337,"ĠÐ¿Ð¾ÑĤÐ²ÑĬÑĢÐ´Ð¸":8338,"ĠÑĦÐ°Ð±ÑĢÐ¸":8339,"ĠÑıÐ¿Ð¾":8340,"ĠÐ¿ÑĢÐµÐ´ÑĥÐ¿ÑĢÐµ":8341,"Ð¢ÐĲ":8342,"Ð»Ð³":8343,"łÐĲÐĴÐ":8344,"ĠÐ¿Ð¾Ð¿Ð°Ð´Ð½Ð°":8345,"ĠÑĤÑĢÐ°Ð½Ñģ":8346,"ĠÐºÐ¾ÑģÐ¼Ð¸":8347,"Ġ44":8348,"ĠÐ²Ð¾Ð¹Ð½Ð°ÑĤÐ°":8349,"ĠÐ´Ð°Ð½ÑĬÑĨÐ¸":8350,"ĠÐ¼Ð¸Ð½Ð¸ÑģÑĤÐµÑĢÑģÑĤÐ²Ð¾":8351,"ĠÐľÐ°ÑĢÐº":8352,"ÑĢÐ¾Ð²ÐºÐ°":8353,"ĠÑĢÐµÐ³Ð¸ÑģÑĤÑĢÐ°ÑĨÐ¸Ñı":8354,"ĠÐ¿Ð¾ÑĤÐ²":8355,"ÑģÐµÐ´Ð°ÑĤÐµÐ»Ñı":8356,"ĠÑĥÐ¿ÑĢÐ°Ð²Ð¸ÑĤÐµÐ»":8357,"ĠÐµÐºÑĢÐ°Ð½":8358,"ĠÐºÑĢÐµÐ´Ð¸Ñ":8359,"ĠÐºÑĢÐµÐ´Ð¸ÑĤ":8360,"ĠÐ´Ð¾Ð¿Ð¸":8361,"ams":8362,"ĠÑģÐ¸Ð»Ð½Ð¸":8363,"ĠÐ½ÐµÐ·Ð°ÐºÐ¾Ð½":8364,"ĠÐ²Ð»Ð¸Ð·Ð°Ñ":8365,"ĠÐ²Ð»Ð¸Ð·Ð°ÑĤ":8366,"ĠÐ´ÐµÐ¼Ð¾Ð½ÑģÑĤÑĢÐ¸":8367,"Ð»Ð¾Ð¶ÐµÐ½Ð¾":8368,"ĠÐĴÐ°ÑĢÐ´Ð°ÑĢ":8369,"ĠÑģÑĬÐ±Ñĥ":8370,"ÑģÐ½Ð°Ñ":8371,"ÑģÐ½Ð°ÑĤ":8372,"ĠÐ¿Ð¾ÑĤÐ¾Ðº":8373,"ĠÐ¾ÑģÐ¸Ð³ÑĥÑĢÑıÐ²Ð°Ð½Ðµ":8374,"ĠÐ±ÑĢÑĬ":8375,"ĠÐ¦ÐµÐ½ÑĤÑĬÑĢ":8376,"ĠÐ´Ð°Ð¼":8377,"ĠÐĹÐ¸":8378,"ĠÑģÐ²ÐµÑĤÐ¾Ð²":8379,"ĠÐ³Ð¾ÑĢÐ¸Ð²Ð¾":8380,"ĠÐ¸ÑģÑĤÐ¸Ð½Ð°":8381,"Ð´Ð¾Ð½Ð°ÑĩÐ°":8382,"ĠÐĴÑĬÐ»":8383,"ÑģÐ»Ð¾Ð²Ð¸":8384,"ĠÐ¿ÑĢÐµÐ³":8385,"ĠÑģÐ¾Ð´ÑĢÐ¶Ð¸":8386,"ŀÐĹÐ":8387,"ĠÑĢÐ°Ð·Ð¿Ð¾Ð»Ð¾Ð¶ÐµÐ½":8388,"ĠÐ¾Ð»Ð¸Ð¼Ð¿Ð¸":8389,"ĠÐ½Ð°Ð´Ð¾Ð»Ñĥ":8390,"ĠÐ³ÐµÐ½ÐµÑĢÐ¸":8391,"ĠÐ¸Ð·ÑĢÐ¸":8392,"ĠÐ²Ð¸Ð·":8393,"ĠEn":8394,"ĠÑģÑĤÑĢÐ°Ð½Ð¸ÑĨÐ°ÑĤÐ°":8395,"ĠÐ·Ð°Ð¿Ð¾ÑĩÐ½Ð°ÑħÐ°":8396,"ÑĢÑĤÐ¸ÑĤÐµ":8397,"ĠÐ¤Ð¸Ð»Ð¸Ð¿":8398,"ĠÑĢÐµÑĦÐµÑĢÐµÐ½Ð´":8399,"ini":8400,"ĠMar":8401,"ĠÐĶÐµÐ½":8402,"ĠÐ¼Ð¸Ð»Ð¸Ð¾Ð½":8403,"ķÐ¡Ð¢Ð":8404,"ĠÐ¤Ð¸Ð»":8405,"ÑĦÑ":8406,"ĠÑĥÐ»Ð¸ÑĨÐ¸ÑĤÐµ":8407,"ial":8408,"ĠÑĦÐµÐ½Ð¾Ð²Ðµ":8409,"ĠÐ¿ÑĢÐ¾ÑıÐ²Ð¸":8410,"ĠÐµÐºÑģÐ¿Ð»Ð¾Ð°ÑĤÐ°":8411,"ĠÐ¼Ð¸Ð½Ð°Ð»Ð¸Ñı":8412,"ĠÑģÐ²Ð¾Ð±Ð¾Ð´Ð½Ð¾":8413,"ĠÐ²Ð½ÐµÑģÐµ":8414,"ile":8415,"ÑĦÑĤ":8416,"ĠÐ¸Ð·Ñ":8417,"ĠÐ¿ÑĢÐ¾Ð´ÑĥÐºÑĤÐ¸ÑĤÐµ":8418,"ĠÐ²Ð»Ð°Ð³Ð°":8419,"ĠÐ¿Ð¾Ð´ÑĢÐ¾":8420,"¯ÐĴÐ":8421,"ĠÐĲÑĢÐ°":8422,"ĠÐ´Ð¾ÑĨ":8423,"ĠÐ¼Ð°ÑĢÑĪÑĢÑĥ":8424,"ĠÐ±ÑĢÑıÐ³":8425,"ĠÐ½Ð°Ð»ÑıÐ³Ð°Ð½Ðµ":8426,"Ġ2004":8427,"ĠÑĦÐ°ÐºÑĥÐ»ÑĤÐµ":8428,"ĠÑĢÐ°Ðº":8429,"Ð»Ð¸Ð¾ÑĤ":8430,"ĠÐºÐ¾Ð½ÑĤÐ°ÐºÑĤÐ¸":8431,"ÑĢÐµÐ»Ð¸":8432,"ĠAd":8433,"ĠÑģÐ½Ð¸Ð¼ÐºÐ¸ÑĤÐµ":8434,"ĠÐ¿ÐµÑĢÐ¸Ð¾Ð´Ð¸":8435,"ĠÐ¸Ð·Ð±Ð¾ÑĢÐ°":8436,"Ð·ÐµÐ½Ð°":8437,"ĠÐ¸Ð·ÑĤ":8438,"ĠÐ¶ÐµÑģÑĤÐ¾":8439,"ĠÑĤÐµÐ½Ð¸":8440,"ĠÑģÑĢÐ°Ð²Ð½Ð¸ÑĤÐµ":8441,"ÑĤÐ¾Ð²Ð¾":8442,"ĠÐļÐ°Ð½Ð°":8443,"ĠÐºÐ¾Ð¼Ð¿Ð»ÐµÐºÑĤ":8444,"ish":8445,"ĠÐ¿Ð¾Ð´Ð´ÑĢÑĪÐºÐ°":8446,"Ð³Ð¾Ð²Ð¾ÑĢ":8447,"ĠÑģÑĢÐµÐ´ÑģÑĤÐ²Ð°ÑĤÐ°":8448,"ĠÑĢÐ°Ð·Ð½Ð¾Ð¾Ð±ÑĢÐ°Ð·Ð¸":8449,"ĠÐŁÐłÐķÐĶÐ":8450,"ĠÐľÐ°Ð´ÑĢÐ¸Ð´":8451,"ĠÐľÐ¾Ð»Ñı":8452,"Ð½ÐºÑĥ":8453,"ĠÑģÑĤÑĢÐ°Ð½Ð¸ÑĨÐ¸":8454,"ĠÐ¼Ð¸Ð½Ð°Ð²Ð°":8455,"ĠÑĤÐ¸Ð¼Ð°":8456,"????":8457,"ĠÐ¿Ð¾Ð±ÐµÐ´Ð°ÑĤÐ°":8458,"ĠÐ²Ð¸ÑĤÐ°Ð¼Ð¸Ð½":8459,"ĠÐ±Ð¸Ð²ÑĪÐ¸Ñı":8460,"ĠÐ·Ð°Ð²ÑĬÑĢÑĪÐ²Ð°":8461,"ĠÐ»Ð¸Ñħ":8462,"ĠÐ¼Ð¸ÑģÐ»ÑıÑĤ":8463,"ĠÐ´Ð¸ÑģÐ¿Ð»Ðµ":8464,"ÑĢÑĤÑĥÐ³Ð°":8465,"ĠBe":8466,"ĠÐ°ÑģÐ¾ÑĨÐ¸Ð°":8467,"ĠÐ¾ÐºÐ°Ð¶Ðµ":8468,"ĠÐ¾ÑģÐ¿Ð¾":8469,"ĠÐ½ÐµÐ¿ÑĢÐ¸ÑıÑĤ":8470,"ĠÐĴÐ¸Ð´Ð¸Ð½":8471,"ĠÐ¿ÑĢÐ¾Ð¼Ð¸ÑĪ":8472,"we":8473,"ĠÐ¿Ð¾Ð»Ð¸ÑĤÐ¸ÑĨÐ¸":8474,"ĠÐ³Ð»ÑĥÐ¿Ð¾ÑģÑĤÐ¸":8475,"ĠÐ³Ð¾Ð»ÐµÐ¼Ð°":8476,"ĠÐ¾Ð±ÑīÐ½Ð¾ÑģÑĤ":8477,"ĠÐĳÐ»Ð°Ð³Ð¾Ð´Ð°ÑĢÐµÐ½Ð¸Ðµ":8478,"ĠÐ¿ÑĢÐ¸ÑģÑĥ":8479,"ug":8480,"ĠÑģÑĤÐ°Ð½ÑĥÐ²Ð°":8481,"ĠÑģÑĬÐ½":8482,"ĠÐĹÐ°ÑĢÐ°Ð´Ð¸":8483,"Ð½Ð¸ÑĢÐ°Ð½Ð¸":8484,"ĠÐĴÐ»Ð°Ð´Ð°ÑĤÐ°":8485,"ĠÐ¼Ð½ÐµÐ½Ð¸ÐµÑĤÐ¾":8486,"ĠÑĤÑĢÐ¸Ð¼Ð°":8487,"ĠÐŁÐ»Ð°Ð¼ÐµÐ½":8488,"ÑĢÐ´Ð¶Ð¸Ðº":8489,"ĠÐĹÐ°ÐºÐ¾Ð½Ð¾":8490,"ĠÑĥÑĩÐµÐ±":8491,"ĠÐ½Ð°Ð²ÑĬÐ½":8492,"ĠÐºÐ°ÑĢÐ¸ÐµÑĢÐ°ÑĤÐ°":8493,"ĠÐ¿Ð¾Ð´ÐºÑĢÐµÐ¿Ð¸":8494,"ĠÐ¿Ð¾Ð´Ð¾Ð±ÑĢÑıÐ²Ð°Ð½Ðµ":8495,"ĠÐºÐ²Ð°ÑĢÑĤÐ°Ð»":8496,"ÐŁÐµ":8497,"Ð¿Ð¾Ð»Ð½Ð¸ÑĤÐµ":8498,"IC":8499,"86":8500,"ĠÑģÐ¿Ð¾Ð´Ðµ":8501,"ĠÐľÐ¸Ð½Ð°":8502,"ĠÐ¿ÑĢÐ¸Ð³Ð¾ÑĤÐ²Ñı":8503,"Ð·Ð½Ðµ":8504,"ĠÐ·Ð°Ð¿Ð¾ÑĩÐ½Ð°Ñ":8505,"ĠÐ·Ð°Ð¿Ð¾ÑĩÐ½Ð°ÑĤ":8506,"ÑĤÐµÑĤÐµ":8507,"ĠÐ²Ð°Ð¶Ð¸":8508,"ÐĿÐ°Ð¹":8509,"ĠÐ¾ÑĤÑģÐ»Ð°":8510,"ĠÐ»Ð°Ð±Ð¾ÑĢÐ°ÑĤÐ¾":8511,"ķÐĴ":8512,"Ð·Ð°ÑĢ":8513,"Ð¿ÑĥÐ²Ð°":8514,"ĠÐ®Ð¶Ð½Ð°":8515,"ĠÐ´ÐµÐ½Ð°ÑĢÐ¸":8516,"ĠÑģÐµÑĢÐ¸Ð¾Ð·ÐµÐ½":8517,"ĠÐ½ÐµÐ¼":8518,"ĠÐ·ÐµÐ¼ÐµÐ´Ðµ":8519,"Ð¿ÑĢÐ¾Ð":8520,"ĠÑģÑĤÐ°Ð½Ð¾Ð²Ð¸":8521,"ĠÂ·":8522,"ĠÐļÐ¾ÑģÑĤÐ¾Ð²":8523,"ĠÐ½Ð°ÑģÑĬÑĢ":8524,"ÑĢÐµÑĪÐ½Ð¸":8525,"ÑģÐ°Ñ":8526,"Ð·ÑĬÐº":8527,"ĠÐ¼Ð¸Ð½Ð¸Ð¼ÑĥÐ¼":8528,"Ð½Ð´Ð¶Ð¸":8529,"ĠÑģÑĤÐ°ÑĤÐ¸Ð¸":8530,"ĠÐºÐ°Ð´ÑĢÐ¸":8531,"Ð½ÑĩÐµÐ²":8532,"ĠÑģÐ²Ð¾Ð±Ð¾Ð´Ð°ÑĤÐ°":8533,"ĠÐ½Ð°ÑĨÐ¸Ð¾Ð½Ð°Ð»Ð½Ð¸Ñı":8534,"ĠÐ¸Ð·ÑĩÐµÐ·Ð½Ð°":8535,"ĠÐ½Ð°ÑĤÐ¸ÑģÐº":8536,"ĠÐ£Ð¿ÑĢÐ°":8537,"ÐºÐ¾Ð¼Ð¾":8538,"ĠÐ±Ð°Ð±Ð°":8539,"ĠÐ¿Ð¾ÑĢÑĬÑĩÐºÐ¸":8540,"ĠWindows":8541,"ld":8542,"ĠÑĦÐ¾Ð»":8543,"ÐĵÐ°":8544,"Ð³Ð¸Ð¿ÐµÑĤ":8545,"ÑģÐ°ÑĤ":8546,"ÑĺÐ°Ð½":8547,"ĠÐ·Ð¾Ð½Ð¸":8548,"ĠÐĿÐ¸ÑīÐ¾":8549,"ÐºÐµÑĢ":8550,"ĠÐ²ÑĬÐ½ÑĪÐµÐ½":8551,"Ð´Ð¸Ðµ":8552,"âĢĵâĢĵ":8553,"ÑĥÐ¿Ð¾ÑĤÑĢÐµ":8554,"ĠÐ¿ÑĢÐµÐ²ÑĬÑĢÐ½Ðµ":8555,"ĠÐ»Ð¾ÑĪ":8556,"ĠÐľÑĬ":8557,"ĠÑĩÑĥÐ¶Ð´Ð¸":8558,"ĠÐ½Ð°ÑĢÑĥÑĪÐµÐ½Ð¸Ðµ":8559,"ĠÐ¿ÑĢÐµÐ´Ð¼ÐµÑĤÐ¸":8560,"ĠâĤ¬":8561,"ĴÐĲ":8562,"EL":8563,"ĠÐ·Ð¸Ð¼Ð°ÑĤÐ°":8564,"ÑĪÐ½Ð¸ÑıÑĤ":8565,"ĠÐ¿ÑĢÐ¾ÑĤÐµÑģÑĤ":8566,"ÐºÑĤÐ¸Ð²ÐµÐ½":8567,"Ð¶ÑĬÑĤ":8568,"ĠÐ±ÐµÐ±ÐµÑĤÐ¾":8569,"ĠÐ¿Ð»ÑĬ":8570,"ĠÐ¡Ðĺ":8571,"ĠÐ¾Ð¿ÐµÑĢÐ°ÑĨÐ¸Ñı":8572,"ÑĩÐ°Ð¼":8573,"ĠÐ¾ÑĤÐ½Ð¾ÑĪÐµÐ½Ð¸ÑıÑĤÐ°":8574,"ÑĢÑĬÑħ":8575,"ĠÐ¿ÑĢÑıÐºÐ¾":8576,"ang":8577,"ĠÐ²ÐµÑĢÐ¾ÑıÑĤ":8578,"ĠÐ¢ÐĴ":8579,"Ð¼Ð°Ð¹":8580,"ÑĢÐ»Ð¸Ð½":8581,"ĠÐ·Ð°ÑĤÐ²Ð¾ÑĢÐ°":8582,"ĠÐ¿ÐµÑĢÑģÐ¿ÐµÐºÑĤÐ¸":8583,"ĠÐ¼ÐµÐ´":8584,"ĠÐ¸Ð½ÑĤÐµÐ»Ðµ":8585,"ah":8586,"ÑĤÐ¾ÑĢÑĬÑĤ":8587,"Ð»ÐµÐµ":8588,"ĠÐ¶ÐµÐ»Ð°Ð½Ð¸ÐµÑĤÐ¾":8589,"net":8590,"ĠÐ¼Ð¸ÑĢ":8591,"ÑĢÐ¾ÑĺÐ°ÑĤÐ½Ð¾":8592,"ĠÑĪÐ¾ÐºÐ¾Ð»Ð°":8593,"Ð²Ð¸ÑģÐ¾ÐºÐ°":8594,"ĠÐ¼Ð°Ð½Ð´Ð°ÑĤ":8595,"ĠÑĤÑĢÐ°Ð":8596,"ĠÐ¿Ð¾Ð»ÐµÐ·Ð½Ð¸":8597,"ĠÐĿÐ°ÑĤÐ¸":8598,"ĠÐ¼Ð¾Ð³Ð»Ð¸":8599,"ĠÐ½Ð°ÑģÑĤÐ¸":8600,"ÑĥÐ·":8601,"ĠÐºÐ°Ð¼ÐµÑĢÐ°":8602,"ĠÐ±ÐµÐ·Ð¿Ð»Ð°ÑĤÐ½Ð¾":8603,"ĠÐ¿ÑĢÐ¾Ð¸Ð·Ð²Ðµ":8604,"ĠÑĥÑĢÐµÐ´":8605,"µÑĦÐµ":8606,"Ð½ÑıÐºÐ¾Ð³Ð°":8607,"ĠÐ¯Ð¿Ð¾Ð½Ð¸Ñı":8608,"ĠÑĤÐ¾Ð¿ÐºÐ°ÑĤÐ°":8609,"ĠÐ¿ÑĢÐ¾ÑĨÐµÐ´ÑĥÑĢÐ¸":8610,"ĠÐºÑĢÐµÐ¼":8611,"ÐµÐ½Ð¸":8612,"ÑħÐµÐ½":8613,"ÐļÐ°Ðº":8614,"ĠÐ·Ð°Ð±Ð¾Ð»ÑıÐ²Ð°Ð½Ðµ":8615,"ĠÐĲÐ½ÑĤÐ¾":8616,"old":8617,"Ð²Ð»ÑıÐ²Ð°ÑĤ":8618,"ĠÐµÐ·Ð¸ÐºÐ°":8619,"ĠÐ½Ð°ÑĥÐºÐ°ÑĤÐ°":8620,"Â°":8621,"ÑĤÐ¸Ð¼":8622,"Ġis":8623,"ĠÐ¿ÑĢÐ¸Ð»Ð¸ÑĩÐ°":8624,"ĠÑģÑĢÐµÐ´Ð¸":8625,"ÑĢÐ¸ÑĤ":8626,"ĠAm":8627,"Ġ800":8628,"ĠÐ¼ÐµÐ¶Ð´ÑĥÐ½Ð°ÑĢÐ¾Ð´Ð½Ð¸":8629,"Ð·Ð¸Ð¸":8630,"ÑĤÐ¸ÑĢÐ°Ð½":8631,"ÑĺÐ°Ñ":8632,"Ð½ÐµÐ½ÑĤ":8633,"ĠÐµÐ»ÐµÐ¼ÐµÐ½ÑĤ":8634,"ÑĺÐ°ÑĤ":8635,"ica":8636,"ĠÐ²ÑĢÑģÐºÐ°":8637,"Ð½ÑĤÐ¸ÑĢÐ°":8638,"ĠÐ´ÐµÐ½Ð¾":8639,"ÑĢÐ±Ð¾":8640,"ĠÐ¿Ð¾ÑĢÑĤÐ°":8641,"ĠÐ¸Ð·ÐºÑĥÑģÑĤÐ²Ð¾ÑĤÐ¾":8642,"ĠÐ·Ð°ÑĪÑĤÐ¸ÑĤÐ°":8643,"ĠÐ¿ÑĢÐ°ÐºÑĤÐ¸ÐºÐ¸":8644,"ĠÐ·Ð°Ð²ÑĢÑĪÐ¸":8645,"ÑĤÐ°Ð½":8646,"ÑģÑĤÐ¸ÑĩÐ½Ð¸":8647,"ĠÑģÐ²ÐµÑĤÐ¾Ð²ÐµÐ½":8648,"ĠÐ½ÐµÐ²ÐµÑĢÐ¾ÑıÑĤ":8649,"ĠÐ½ÐµÐ¹Ð½Ð¾ÑĤÐ¾":8650,"ĠÐ¥ÑĢÐ¸ÑģÑĤÐ¾Ð²":8651,"ĠÐ¶Ð¸Ð²Ð¾ÑĤÐ¾Ñ":8652,"ĠÐ¶Ð¸Ð²Ð¾ÑĤÐ¾ÑĤ":8653,"ĠÐ´Ð¾Ð±ÑĢÐ¾ÑĤÐ¾":8654,"Ð³Ð¾Ð»ÑıÐ¼Ð¾":8655,"ĠÑģÐ¸Ð¼Ð¿ÑĤÐ¾Ð¼Ð¸":8656,"ĠÐĿÐµÐ":8657,"ĠÐ½ÐµÐ¾Ð±Ð¸":8658,"ĠÐ¡ÑĤÐµÑĦÐ°":8659,"ĠÐ¿ÑĢÐ¸Ð»Ð¸":8660,"ĠÐ²Ð¾ÐµÐ½Ð½Ð¾":8661,"ĠÐ½ÐµÐ½Ð°":8662,"ĠÑģÑĦÐµÑĢÐ°ÑĤÐ°":8663,"ĠÐºÐ¾Ð½ÐºÑĢÐµÑĤÐ½Ð¸":8664,"Ð®":8665,"ĠÐ¶ÐµÐ»Ðµ":8666,"ĠÐ¾Ð±Ð²Ð¸Ð½Ð¸ÑĤÐµ":8667,"ĠÑĢÑĥÑģÐºÐ°ÑĤÐ°":8668,"ĠÐ¡ÐĴÐ":8669,"\"-":8670,"ĠÑĤÐ¾Ð½Ð°":8671,"ÑĤÐ¾ÑĩÐ½Ð¾":8672,"Ð¼Ð°ÑĢ":8673,"ĠÐ¾ÑĩÐ°ÐºÐ²Ð°ÑĤ":8674,"Ð±Ð°Ð²Ð½Ð¾":8675,"ĠÐ¾Ð¿ÑĪÑĤÐµ":8676,"ĠÐ¸Ð·ÐºÐ»ÑİÑĩÐµÐ½Ð¸Ðµ":8677,"ĠÑģÐµÐºÐ¾ÑĺÐ°":8678,"ĠÐ¿Ð¾Ð´Ð°ÑĢÑĬÐº":8679,"Ð²ÐµÐ´ÑĥÐ²Ð°":8680,"ĠÑĤÐ²ÑĬÑĢÐ´ÑıÑĤ":8681,"ĠÐĲÐ²ÑģÑĤÑĢÐ°":8682,"ĠÐ·Ð°Ð³Ð°":8683,"ĠÐ¿Ð¾Ð»Ð·Ð²Ð°ÑĤ":8684,"Ð±Ð²Ð°ÑĤ":8685,"ÑĤÐ²ÑıÑĤ":8686,"ĠÐ¼ÐµÑĢÐºÐ¸ÑĤÐµ":8687,"ĠÐ¿ÑĢÐµÑĤÐµ":8688,"ĠÐ½Ð°ÑģÐ»ÐµÐ´ÑģÑĤÐ²Ð¾":8689,"ĠÐ°Ð":8690,"ĠÐ¾ÑĤÑĢÐ¸ÑĨÐ°":8691,"ĠÐ½ÑĥÐ¶Ð´Ð°Ð":8692,"co":8693,"ĠÐ¡ÑĬÑīÐµ":8694,"ÑĢÐ¶Ð":8695,"Ġ47":8696,"]:":8697,"ÑĢÐ¾ÑĦÐµ":8698,"ĠÐ»ÐµÑĩÐµ":8699,"ĠÐºÐ¾Ð½ÑģÑĥÐ¼Ð°":8700,"otel":8701,"ĠÐ¾ÑĤÐºÐ°Ð·Ð²Ð°":8702,"Ġ56":8703,"ÑĢÐ¾Ñĺ":8704,"Ð¿ÑĢÐ¾Ðµ":8705,"ĠÐ²ÐºÐ°":8706,"Ġ49":8707,"£ÐĽÐ":8708,"ĠÐ¼Ð¾Ð½Ð¸":8709,"ĠÐ²Ð¿ÐµÑĩÐ°ÑĤÐ»ÐµÐ½Ð¸Ðµ":8710,"ĠÑģÐ²ÐµÑīÐµ":8711,"ÐłÑĥ":8712,"ĠÑĥÐ¼ÐµÑĤ":8713,"ĠÑħÑĥÐ´Ð¾Ð¶Ðµ":8714,"ĠÐ¾Ð´ÑĢÐ¶":8715,"ÑĪÐ¸Ð½Ð³":8716,"ĠÐŁÑĥÐ±Ð»Ð¸ÐºÑĥÐ²Ð°Ð½Ð¾":8717,"ÑĤÐ³Ð¾":8718,"ĠÐ¾ÑĤÐ»Ð":8719,"Ð±Ð»Ðµ":8720,"ÐºÑĤÐ½Ð¸":8721,"ÑģÐºÑĬ":8722,"ĠÐłÐĲÐĹÐ":8723,"ĠÐ±ÑĥÐºÐ²Ð°Ð»Ð½Ð¾":8724,"ĠÑĢÐ°Ð·Ð»Ð¸ÐºÐ°ÑĤÐ°":8725,"ĠÐ½Ð¾ÑīÑĤÐ°":8726,"ĠÑģÐ½Ð¸Ð¼ÐºÐ°ÑĤÐ°":8727,"ĠÐŁÐ¾Ð²ÐµÑĩÐµÑĤÐ¾":8728,"ĠÐłÐ°Ð¹":8729,"ĠÐ¿ÑĢÐ°Ð²Ð¸ÑĪ":8730,"ĠÐ¾ÑĤÐ¿Ð°Ð´ÑĬÑĨÐ¸":8731,"°Ð½ÑģÐºÐ¾":8732,"ĠÐ¿Ð°ÑĨÐ¸ÐµÐ½ÑĤÐ¸ÑĤÐµ":8733,"Ð³ÑĢÐ°Ð¼Ð°ÑĤÐ°":8734,"ĠÐ´ÑĥÑĪÐ°":8735,"ĠÐ½ÐµÑ":8736,"ĠÐĺÐ½ÑĤÐµÑĢÐ½ÐµÑĤ":8737,"ĠÑģÐºÑĥ":8738,"ĠÐ¼Ð¾Ð¶Ð½Ð¾ÑģÑĤ":8739,"¡Ðł":8740,"ĠÐ¼ÐµÐ´Ð¸ÑĨÐ¸Ð½Ð°":8741,"ĠÐ¿Ð¾Ð¼Ð°Ð³Ð°ÑĤ":8742,"ÑĤÐµÐ»ÑģÐºÐ¸":8743,"ĠÐķÐ»ÐµÐºÑĤ":8744,"ĠÐ½Ð¸ÑĪÑĤÐ¾":8745,"ĠÐľÐµÐ¶Ð´ÑĥÐ½Ð°ÑĢÐ¾Ð´":8746,"Ð²Ð°ÑĤÐ¸":8747,"ĠÐ¿ÑĢÐµÐ²ÑĬÑĢÐ½Ð°":8748,"ĠÑģÐ¿ÐµÑĨÐ¸Ð°Ð»Ð½Ð°":8749,"ĠÐ¡Ð¸Ð¼ÐµÐ":8750,"ĠÑģÐµÐ¼ÐµÐ¹ÑģÑĤÐ²Ð°":8751,"ĠÐ¸Ð½ÑĤÐµÐ³ÑĢÐ°":8752,"ĠÐ·Ð³Ð¾Ð»Ðµ":8753,"ĠÐ¿ÑĢÐµÑĨÐ¸":8754,"ĠÑģÐ¿Ð¾Ð¼Ðµ":8755,"ĠÐ»Ð¸ÑĩÐ½Ð¾ÑģÑĤÐ¸":8756,"ĠÐ²ÑĬÐ³Ð»Ðµ":8757,"Ð½Ð¾ÑĢÐ°":8758,"Ð²Ð°Ð¶Ð½Ð¾ÑĤÐ¾":8759,"ĠÐ¡Ð¸Ð¼ÐµÐ¾":8760,"Ð»Ð·Ð¸":8761,"ĠÐ±ÐµÐ·Ð¿Ð¾":8762,"ĠÑģÐ»ÑĬÐ½ÑĨÐµ":8763,"Ð³Ð¾ÑĢÐµÑĨ":8764,"ĠÐŀÑĦÐ¸":8765,"ĠÑĤÑĢÐµÐ½ÑĮÐ¾ÑĢ":8766,"ŀÐ¢":8767,"ĠÐ²Ð¸Ð´ÑıÑħ":8768,"ĠÐ½ÐµÑĤ":8769,"ĠÐ·Ð°Ð±ÐµÐ»ÑıÐ·Ð°":8770,"Ð¶ÑĥÐ²Ð°Ð°ÑĤ":8771,"ĠÐ´Ð¾Ð°ÑĵÐ°":8772,"ĠÑĥÑĢÐµÐ´Ð¸":8773,"ĠÐºÑĥÑĩÐµ":8774,"ĠÑģÐ¾Ð±ÑģÑĤÐ²ÐµÐ½":8775,"ĠÑģÐµÐ¿Ð°Ðº":8776,"Ð½ÑĤÐ¾":8777,"Ð´Ð°Ð²Ð°Ð½Ðµ":8778,"ĠÐ·Ð°ÑĤÐ²Ð°ÑĢÑı":8779,"ĠÐ¾Ð³ÑĢÐ¾Ð¼Ð½Ð¸":8780,"ĠÐ²Ð¸Ð¶Ð´Ð°Ñ":8781,"ĠÐ²Ð¸Ð¶Ð´Ð°ÑĤ":8782,"ĠÐ¥Ð°ÑĢÐ¸":8783,"ĠÐ¸Ð·Ð¿Ð¾Ð»Ð·Ð²Ð°Ð½Ð¸":8784,"ÐºÑĤÐ¸Ð²Ð½Ð°":8785,"ĠÐĴÐ¸Ð½Ð°Ð³Ð¸":8786,"ĠÐ¿ÑĢÐ¾Ð¼Ð¾ÑĨÐ":8787,"ĠÑģÑĤÐ°Ð½Ð´Ð°ÑĢÑĤÐ¸":8788,"ĠÑģÑħÐµÐ¼Ð°":8789,"Ð»ÐµÑĤÐ½Ð¸":8790,"ĠÐĺÐ³ÑĢÐ°":8791,"ĠÐºÐ¾ÑģÑĤ":8792,"Ġ43":8793,"ĠÑĤÐ¸Ð¿Ð¸":8794,"ĠÐ¿ÑĢÐ¾Ð²Ð¸Ð½":8795,"Ð¶Ð´ÐµÐ½Ð¸ÐµÑĤÐ¾":8796,"ĠÐºÐ¾Ð¼Ð¸ÑģÐ¸ÑıÑĤÐ°":8797,"ĠÐ¡Ð°Ð½":8798,"ĠÐ·ÐµÐ»ÐµÐ½ÑĩÑĥÑĨÐ¸":8799,"ĠÑģÐ²ÑĬÑĢÐ·Ð°Ð½Ð¾":8800,"ĠÐºÐ°Ð·Ð°Ñħ":8801,"ÐŁÑĢÐµÐ´":8802,"ĠÐ¿ÑĢÐ¾Ð¿ÑĥÑģÐ½Ð°":8803,"ĠÐĪÐ¾":8804,"ĤÑ£":8805,"ÑĤÑ£":8806,"ĠÐºÑĢÑĬÐ²Ð¾":8807,"ĠÐºÐ¾Ð¼Ð¿ÑĢÐ¾":8808,"ĠÐ·Ð²ÐµÐ·Ð´Ð¸":8809,"ĠÑģÐ½Ð¾":8810,"TV":8811,"ÑģÑĤÐ°Ð½Ð¾":8812,"85":8813,"Ð½Ð¶":8814,"ĠÐ¿ÑĢÐ¾Ð¼ÐµÐ½ÑıÑĤ":8815,"ÐºÐ¾Ð¸ÑĤÐ¾":8816,"eto":8817,"ĠÐ¿ÑĢÐµÐ²Ð¾Ð´":8818,"ĠÐ§ÐµÑģÑĤÐ¾":8819,"ĠÐĲÐ±Ðµ":8820,"ÑħÑĬÑĤ":8821,"ere":8822,"Ð¿ÑĤÐ¾":8823,"ĠTe":8824,"ĠÐ¼ÑĥÐ»ÑĤÐ¸":8825,"Ð¹ÑģÐºÐ¾":8826,"ĠÐ±Ð¾Ð»Ð½Ð¸ÑĨÐ°ÑĤÐ°":8827,"ÑģÑİ":8828,"ĠÐ½Ð°ÑĨÐ¸Ð¾Ð½Ð°Ð»Ð½Ð¾":8829,"ÑĤÐº":8830,"ÑĢÐ¸Ð°ÑĢ":8831,"ĠÐ¼ÐµÑģÑĤÐ½Ð¸":8832,".).":8833,"ÑģÐµÐ½Ð¾":8834,"ĠÐ¾ÑĤÐ³Ð¾ÑĢÐµ":8835,"ĠÐĲÐ²ÑĤÐ¾ÑĢ":8836,"ÑĬÑĢÐ¶Ð¸":8837,"ĠÐĶÑĬ":8838,"Ð±Ð¸Ð»":8839,"ĠÐ¢Ð°Ð":8840,"ĠÐ¸Ð·Ð±ÑĢÐ°Ð½":8841,"ÑĢÑĤÐ¾Ð²Ðµ":8842,"ĠÐºÐ°Ð½Ð´Ð¸Ð´Ð°ÑĤÐ¸":8843,"ĠÐ´ÐµÑĤÐ°Ð¹Ð»Ð¸":8844,"ĠÐºÑĢÐ¾":8845,"Ð±ÑıÑĤ":8846,"Ð¹Ð»Ð¾":8847,"))))":8848,"ĠÑħÐ»ÑıÐ±":8849,"ĠÐ¿ÑĢÐ¾Ð±Ð²Ð°":8850,"ĠÐķÐ»":8851,"ĠÑģÐ¿ÐµÑĨÐ¸Ð°Ð»ÐµÐ½":8852,"ĠÐ¸Ð½ÑĤÐµÐ³ÑĢÐ¸":8853,"ÑģÑĤÐ²ÐµÐ½Ð¾ÑģÑĤ":8854,"ĠÐµÑĦÐµÐºÑĤÐ¸Ð²Ð½Ð¾ÑģÑĤ":8855,"Ð»Ð½Ð¸ÐºÐ°":8856,"ÐĽÑĥ":8857,"ĠÐ°ÐºÑĨÐ¸Ð¸":8858,"Ð²Ð¸ÑģÐ¾ÐºÐ¾":8859,"ĠÑģÐµÑģÑĤÑĢÐ°":8860,"ĠÐ¸Ð½ÑģÑĤÐ¸ÑĤÑĥÑ":8861,"ĠÐ¸Ð½ÑģÑĤÐ¸ÑĤÑĥÑĤ":8862,"ĠÐ½ÐµÐ³Ð¾Ð²Ð°":8863,"89":8864,"ĠÐºÐ°Ð¼ÑĬÐº":8865,"ÑĢÐµÐ½Ð°ÑĤÐ°":8866,"ÑĢÐ¾ÑĨÐ¸":8867,"Ð²Ð¸ÑĨÐ¸":8868,"ĠÑģÐ¾ÑĨÐ¸Ð°Ð»Ð½Ð°ÑĤÐ°":8869,"ÐºÑĤÐ½Ð°":8870,"ĠÑĥÐ´Ð¾Ð±Ð½Ð¾":8871,"ĠÐ¿Ð¾Ð²ÑĤÐ°ÑĢÑı":8872,"ĠÑĢÐ°Ð·Ð±Ð¸ÑĢÐ°Ð¼":8873,"ena":8874,"ÑĬÑĤÑĢÐµ":8875,"ĠÑģÑĤÐµÐ½Ð°":8876,"ĠÐ´Ð¾Ð¿ÑĬÐ»Ð½ÐµÐ½Ð¸Ðµ":8877,"ĠÐ´ÑĢÑĥÐ¶ÐµÑģÑĤÐ²Ð¾ÑĤÐ¾":8878,"ĠÐ³Ð»ÑĥÐ¿Ð°":8879,"ĠÐ¿Ð¾ÑģÑĤÑĢÐ¾":8880,"ĠÐĥ":8881,"ĠÐ³Ð¾ÑģÐ¿Ð¾Ð´Ð¸Ð½":8882,"ĠÑģÐ¿ÐµÑĨÐ¸Ð°Ð»Ð¸ÑģÑĤ":8883,"ÑĩÑĥÐ²Ð°ÑļÐµ":8884,"ĠÐ³Ð¾Ð»ÐµÐ¼Ð¸Ñı":8885,"ĠÐļÐ°Ð¿Ð¸ÑĤÐ°":8886,"ĠÐ´ÑĬÐ»Ð³Ð¾ÑģÑĢÐ¾":8887,"Ð±Ð»Ð°":8888,"ĠÐ¶Ð¸Ð»Ð¸Ñī":8889,"ÐºÐ½Ð¾Ð²ÐµÐ½Ð¾":8890,"----------------":8891,"ĠÐ¡Ð²ÐµÑĤ":8892,"ÐºÐ¸ÑıÑĤ":8893,"»ÑıÑĤ":8894,"·ÐµÐ¼":8895,"ĠÐ¿Ð¾Ð´ÑħÐ¾Ð´ÑıÑīÐ°":8896,"ĠÐ±Ð¸Ð²ÑĪ":8897,"ĠÐ½Ð°ÑĨÐ¸Ð¾Ð½Ð°Ð»Ð½Ð°":8898,"ÐºÐ¾Ð²ÐµÑĤÐµ":8899,"ĠÑĥÐ´":8900,"Ð³Ð¾ÑĤÐ¾":8901,"ĠÐ¿ÑĢÐ¾ÐºÑĥÑĢÐ°ÑĤÑĥÑĢÐ°":8902,"ÑĢÐ¸Ð·Ð¸ÑĢÐ°":8903,"ĠÐ¾Ð¿ÑĢÐµÐ´ÐµÐ»ÐµÐ½Ð°":8904,"ĠÐ¿Ð¾ÐºÑĥ":8905,"ĠÑĥÑģÑĤÐ°ÑĤÐ°":8906,"ĠÐ¾ÑģÑĤÐ°Ð²ÐºÐ°":8907,"ĠÑĦÐ°Ð»Ð¸":8908,"ĠÐ¿Ð¾ÑģÑĤÑĬÐ¿":8909,"ĠÐĳÐ°Ð»":8910,"Ġby":8911,"ĠÐļÐ°ÐºÐ²Ð°":8912,"ĠÐĳÐ¸ÑĤÐ¾":8913,"ĠÑĢÐ°Ð·Ð¿Ð¾Ð»Ð¾Ð¶ÐµÐ½Ð¸":8914,"ĠÑģÑĤÑĢÑĥÐºÑĤÑĥÑĢÐ¸":8915,"ÑĩÐ½Ð¸Ð¾ÑĤ":8916,"µÐµ":8917,"ĠÑĢÐµÐ°ÐºÑĨÐ¸Ñı":8918,"ova":8919,"ĠÐºÐ¸Ð»Ð¾Ð¼ÐµÑĤÑĢÐ°":8920,"ĠÐ·Ð°Ð³Ð¸":8921,"ĠÐ¿ÑĢÐ¾ÑĤÐµÑģÑĤÐ¸ÑĢÐ°":8922,"ĠÐ¦Ð²ÐµÑĤÐ°Ð½Ð¾Ð²":8923,"ķÐĿÐĲ":8924,"ÑĪÑĤÐ¸Ð½Ð°":8925,"ĠÐ¿Ð¸ÑģÐ°ÑĤÐµÐ»":8926,"ĠÐ¿Ð¾ÑĤÐ²ÑĬÑĢÐ¶":8927,"Ð»Ð°Ð½Ð´Ð¸Ñı":8928,"Ð¿Ð¸Ñ":8929,"ĠÐ±ÑĬÐ´Ð°":8930,"ĠÐ´ÑĬÑĢÐ¶Ð°Ð²Ð½Ð°":8931,"Ð´Ð¾Ð²Ð°ÑĤÐµÐ»Ð½Ð¾":8932,"ĠÐ¿ÑĢÐµÐ¾Ð±":8933,"ÐºÐ¾Ð»ÐºÐ¾":8934,"ÑĤÐ»ÑıÐ²Ð°":8935,"Ð³Ð¾Ð»ÐµÐ¼Ð¸ÑıÑĤ":8936,"ĠÐ¼Ð°ÑģÐ°ÑĤÐ°":8937,"ĠÐ»Ð¸ÑģÑĤÐ°ÑĤÐ°":8938,"ĠÑĨÐ²ÐµÑĤÑı":8939,"ĠÑģÐ¸Ð½Ð°":8940,"ĠÐĶÐ¶Ð¸":8941,"ĠÐłÐ°Ð´Ð¾":8942,"ÑĢÐ¼Ð°ÑĤ":8943,"ĠÑģÐ¿Ð°Ð»":8944,"ĠÑĤÑĢÐ¸Ð¼ÐµÑģÐµ":8945,"ĠÐ´Ð¾ÑģÑĤÐ¸Ð³Ð½Ðµ":8946,".),":8947,"ĠÐ±Ð»Ð°":8948,"ail":8949,"ĠÐľÐ¸Ð½Ð¸ÑģÑĤÐµ":8950,"ĠÐĵÐ¾Ð»ÐµÐ¼Ð¸":8951,"News":8952,"Ð½Ð¸ÑĩÐµÑģÐºÐ¸":8953,"ĠÑģÑĬÑīÐ¸":8954,"°ÑĦ":8955,"ĠÑģÐº":8956,"ÑĢÐ¸ÑģÑĤ":8957,"ĠÐļÐ¾Ð»Ðµ":8958,"ÑĤÐ¾Ð³Ð°Ð²Ð°":8959,"ĠÐ°ÑĢÐ¾Ð¼Ð°ÑĤ":8960,"ĠÐ³Ð»Ð°Ð²Ð½Ð¸Ñı":8961,"Ð¤Ð¾":8962,"ĠÐĶÐ¸Ð¼Ð¸ÑĤÑĢÐ¾":8963,"ĠÐ²ÑĬÐ·Ð¿ÑĢÐ¸ÐµÐ¼Ð°":8964,"ĠÐŁÐ°ÑĤ":8965,"ĠÐºÑĢÐ°Ð»":8966,"Ð¿Ð¸ÑĤ":8967,"ĠÑĢÐ°Ð·Ð´ÐµÐ»Ð¸":8968,"ĠÑĥÐºÑĢÐµ":8969,"Ð´Ð¸ÑıÑĤÐ°":8970,"ĠÑģÐ²ÑĬÑĢÐ·Ð°Ð½":8971,"ĠÐĿÐ°ÑĢÐµ":8972,"ĠÐ´Ð¶Ð¾":8973,"ÑĬÑĢÐºÐ¾":8974,"ŀÐ¡Ð¢":8975,"ĠÑģÑĬÐ´ÑĬÑĢÐ¶Ð°Ð½Ð¸ÐµÑĤÐ¾":8976,"ĠÐ¾ÑĤÐ¾":8977,"ÑĬÑĢÐ¿Ð":8978,"ÑĤÐ°ÑĤÑĬÐº":8979,"ĠÐ°Ð½Ð¾":8980,"ĠÑģÑĤÑĢÐµÑģ":8981,"ĠÐĴÐ°ÑĪÐµÑĤÐ¾":8982,"ĠÐļÐ°Ð»Ð¸":8983,"ĠÐļÑĢÑĥ":8984,"Ð¼ÐµÑĢÑıÑĤ":8985,"ĠÐ»ÐµÐºÑĥÐ²Ð°":8986,"ĠÐ¾ÑĤÑĢÐµ":8987,"ĠÐ»Ð¸ÑĨÐ°ÑĤÐ°":8988,"ÑĬÐ´":8989,"ĠÐºÑĢÐ°ÑģÐ¾ÑĤÐ°":8990,"Ð³Ð¾Ð»ÐµÐ¼":8991,"ĠÐ³ÑĢÐ°Ð´Ð¾ÑĤ":8992,"Ð½ÐµÑģÐ°Ñ":8993,"Ð½ÐµÑģÐ°ÑĤ":8994,"ÑĤÐ²Ð°Ð½ÐµÑĤÐ¾":8995,"ĠÐºÐ¾ÑĢÐ°Ð±":8996,"ĠÐ½Ð°ÑĥÑĩÐ½Ð¸":8997,"ĠÐ¸Ð°ÐºÐ¾":8998,"ĠÐĿÐ°Ð¸":8999,"ĠÐ½ÑĥÐ¶Ð´Ð°Ðµ":9000,"Ð¿Ð°ÑĵÐ°":9001,"ĠÐ¿Ð¾ÑıÐ²ÑıÐ²Ð°":9002,"ĠÐĳÑĢÐ°Ð·Ð¸":9003,"ÑħÐ²ÑĬÑĢÐ»Ð":9004,"Ð²ÐµÑĢÐ·Ð":9005,"ĠÑĢÐ°Ð±Ð¾ÑĤÐ¸ÑĤÐµ":9006,"ĠÐ²ÑĢÐ°Ð±Ð¾":9007,"ĠÑģÐºÐµ":9008,"ĠÐ°Ð±Ð¾":9009,"ĠÐºÐ°Ð±Ð¸Ð½ÐµÑĤ":9010,"ĠÑģÐ¿Ð¾ÑģÐ¾":9011,"ĠÐ¼Ð°Ð¹ÐºÐ°ÑĤÐ°":9012,"Ð»ÑĤÐ°":9013,"ÑģÑĤÐ¾Ð¿Ð°":9014,"ĠÐ½ÐµÑĢÐ²":9015,"vo":9016,"ĠÐ¾Ð±Ð¸ÑĩÐ°ÑĤ":9017,"ĠÐºÐ°Ð¶ÐµÐ¼":9018,"ĠÐ½ÐµÐ¿Ð¾Ð·Ð½Ð°":9019,"ĠÐ°Ð²Ð°":9020,"ŀÐŁ":9021,"ĠÐºÑĥÑĩÐµÑĤÐ°":9022,"Ð³Ð¾Ð²Ð¸":9023,"ĠÐºÐ¾Ð½ÑģÑĤÐ°":9024,"Ġ@":9025,"ĠÐ¸Ð¼Ð¾ÑĤÐ°":9026,"ĠÐ±Ð¸Ð·Ð½Ð¸":9027,"ĠÐºÑĥÑĤÐ¸Ñı":9028,"ĠÐļÐ»Ñĥ":9029,"ĠÑģÑĬÐ¾ÑĤÐ²ÐµÑĤÑģÑĤÐ²Ð¸Ðµ":9030,"ĠÑģÑĤÑĥÐ´ÐµÐ½ÑĤ":9031,"Ð¼Ð¸Ð»Ð°":9032,"ĠÐĶÐ¾Ð±Ð°":9033,"ÑģÐºÐ¾Ð²Ð¾":9034,"ÑģÑıÐ²Ð°Ð½Ðµ":9035,"ĠÐ¾ÐºÐµ":9036,"ĠÐĿÐ°Ð¿ÑĢÐ°":9037,"ĠÐµÐ»Ð°":9038,"ĠÐ´Ð°Ð»":9039,"ĠÑģÐ¼ÑıÐ½Ð°":9040,"ĠÐ´Ð²Ð¸Ð³Ð°ÑĤÐµÐ»":9041,"ĠÐ¾ÑĤÐºÑĢÐ¸ÑĤÐ¸":9042,"Ð±ÑĢÐ¾Ð²Ð¾":9043,"ÑģÑĤÐ¾Ñ":9044,"che":9045,"ĠÐķÐ¹":9046,"ĠÐ¸ÑģÐºÐ»Ñĥ":9047,"ĠÐºÐ¾Ð½ÑģÑĤÐ¸ÑĤÑĥ":9048,"ĠÑĦÐ¸Ð½Ð°Ð½ÑģÐ¾Ð²Ð°":9049,"ĠÑģÑĤÐ°Ð´Ð¸Ð¾Ð½":9050,"ĠÐĶÐ¾Ð½Ð°":9051,"ÑĢÐµÑĤÐ°":9052,"ĠÐ¢Ð¾Ð´Ð¾ÑĢÐ¾Ð²":9053,"ĠÑģÐ¿Ð¾ÑĢÑĤÐ½Ð¸":9054,"ĠÑģÐ¸Ð³ÑĥÑĢÐ½Ð¾ÑģÑĤÑĤÐ°":9055,"ĠÐºÑĢÑĬÐ²ÑĤÐ°":9056,"ĠÑħÐ¸ÑĢÑĥ":9057,"ĠÐ¿Ð»Ð°Ð½Ð¸Ð½Ð°":9058,"ÑģÐ°Ð¼Ð¾":9059,"ĠÑĩÐ°ÑģÐ¾Ð²":9060,"PS":9061,"ĠÐ±Ð¸ÑĤÐºÐ°":9062,"ĠÐ¿Ð»Ð°Ð¶Ð°":9063,"ÑĢÐµÑīÐ°":9064,"ĠÑĤÑĥÑĢÐ½Ð¸ÑĢ":9065,"Ð»ÑıÐ½Ð°":9066,"Ð½Ð¾Ð²Ð°ÑĤÐ°":9067,"ĠÐ¾Ð±ÑīÐµÑģÑĤÐ²ÐµÐ½Ð¸":9068,"ĠÐ¿ÑĢÐµÑģÐ»ÐµÐ´":9069,"ĠÐ¶Ð¸Ð²":9070,"Ð½Ð°Ñħ":9071,"ĠÐ¯Ð²Ð½Ð¾":9072,"ĠÑģÑĩÑĥ":9073,"ÑģÑĤÑıÐ²Ð°":9074,"ĠÐļÐ¾Ð»ÐµÐ´Ð°":9075,"ĠÐ¿Ð°Ð»Ð°":9076,"Ð´Ð¾Ð³Ð¾ÑĢÐµÑĨ":9077,"ĠÑģÑĤÑĥÐ´ÐµÐ½ÑĤÐ¸ÑĤÐµ":9078,"ĠÐķÑģÑĤÐµ":9079,"ĠÐĶÐ¾Ð½":9080,"ood":9081,"ĠÑĥÑģÐµÑīÐ°Ð½Ðµ":9082,"ĠÐ´ÑĢÐ¶Ð°Ð²Ð°":9083,"ĠÐ¿Ð¾Ð´ÐºÑĢÐµÐ¿Ð°ÑĤÐ°":9084,"ĠÐ¸ÑģÐ¿ÑĢÐ°":9085,"ĠÑĤÑĬÑĢÐ¶Ðµ":9086,"ĠÐ¸Ð·Ð¸Ð³ÑĢÐ°":9087,"ĠÐķÐ²":9088,"ĠÐŁÑĢÐ¸ÑĩÐ¸Ð½Ð°ÑĤÐ°":9089,"ĠÐŁÑĬÑĢÐ²Ð¸ÑıÑĤ":9090,"ĠÐ·Ð°Ð¸Ð½ÑĤÐµ":9091,"ĠÐµÐ¿Ð":9092,"ĠÑĨÐµÑĢÐµÐ¼Ð¾":9093,"sh":9094,"ĠÐ¿Ð°Ð½Ð´ÐµÐ¼Ð¸ÑıÑĤÐ°":9095,"Ð¿Ð°ÑĤÐ¸":9096,"ĠÐĳÐ¾Ð¶Ðµ":9097,"ĠÑĤÑĥÑĢÐ½Ð¸ÑĢÐ°":9098,"ĠÐ¡Ð¡Ð":9099,"ĠÐ·Ð":9100,"ĠÑĢÐµÐ·Ð¾":9101,"ĠÐ¼Ð°ÑģÐºÐ¸":9102,"ĠÐŀÑĤÐ³Ð¾Ð²Ð¾ÑĢ":9103,"ĠÐ¿Ð»ÑİÑģ":9104,"ĠÑĢÐµÑĪÐ°":9105,"ĠÐŁÑĬÑĤ":9106,"ĠÐ¼Ð°ÐºÐµÐ´Ð¾Ð½ÑģÐºÐ¸":9107,"ÑĩÐµÐ½Ð°ÑĤÐ°":9108,"ĠÐ·Ð°ÐºÑĬ":9109,"ÑĤÐ»Ð°ÑĤÐ°":9110,"ĠÑģÐ¾ÑĨÐ¸Ð°Ð»Ð½Ð¾":9111,"ĠÑĤÐ°Ð½ÑĨ":9112,"Ð¿Ð°Ð»Ð¸":9113,"ĠÑĦÐ¸Ð½Ð°Ð»Ð°":9114,"ĠÐ·Ð½Ð°Ð½Ð¸Ñı":9115,"ÑĥÐ²Ð°ÑļÐµÑĤÐ¾":9116,"ÑģÑĤÐ¾ÑĤ":9117,"ĠÐ³Ð°ÑĢÐ°Ð½ÑĨÐ¸Ñı":9118,"Ð´Ð¾Ð":9119,"ĠÐŀÑģÐ¾Ð±ÐµÐ½Ð¾":9120,"ÑģÐµÐ²":9121,"ĠÐºÐ¾Ð½ÑĤÐµÐº":9122,"ĠÐ¿ÑĤÐ¸":9123,"ÑĢÐ´Ð¾Ð³Ð°Ð½":9124,"ĠÐķÐºÐ¸":9125,"ĠÑģÑĤÑĢÐ°ÑĤÐµÐ³Ð¸Ñı":9126,"Ð½ÐµÐ½ÑĤÐ¸":9127,"OL":9128,"ĠÑħÐ°ÑĢÑĤÐ¸Ñı":9129,"ĠÐºÐ¼ÐµÑĤÑĬÑĤ":9130,"ĠÐµÐ´Ð¸Ð½ÑģÑĤÐ²ÐµÐ½Ð°ÑĤÐ°":9131,"ĠÑĩÐ¾Ð²ÐµÐºÑĬÑĤ":9132,"ĠÐ´ÐµÐ½Ð¾Ð½Ð¾":9133,"ĠÑĢÐ°Ð·ÑĥÐ¼":9134,"ĠÐ¿Ð¾Ð¿ÑĢÐ°":9135,"ĠÐ¿ÑĢÐµÑģÑĤÐ¸":9136,"roid":9137,"ĠÐ¼Ð¾ÑĤÐ¾":9138,"ĠÑħÐ¾Ð´":9139,"ÑģÑĤÑĢÐ¸Ñı":9140,"Ð¼Ð±Ð¾Ð»":9141,"ĠÐ¿ÑĢÐµÐ·Ð¸Ð´ÐµÐ½ÑĤÑĬÑĤ":9142,"ĠÐ¸Ð·Ð´Ðµ":9143,"ĠÑĩÑĥÐ¶Ð´ÐµÑģÑĤÑĢÐ°Ð½":9144,"Ð¢Ð¸":9145,"ĠÐ½Ð¸ÐºÐ°ÐºÐ²Ð¾":9146,"oto":9147,"ĠÐŁÑĢÐµÐ¿Ð¾ÑĢÑĬ":9148,"me":9149,"ĠÐ¡ÑĢÐ±Ð¸":9150,"ĠÐºÐ¾Ð¼Ð¿ÐµÑĤÐµ":9151,"ĠÐ¿ÑĬÐ»Ð½Ð¸":9152,"ĠÐ¼Ð°ÑĢÐºÐ°ÑĤÐ°":9153,"ĠÐ²Ð¸ÑģÐ¾ÐºÐ¾ÐºÐ°ÑĩÐµ":9154,"ÑģÐµÑĢÐ¸Ð¾":9155,"ĠÑĦÐ°Ð¼Ð¸":9156,"uro":9157,"ĠÐ¿ÑĢÐµÑģÐºÐ¾":9158,"ĠÐ¿ÑĢÐ¸ÑıÑĤÐ½Ð¾":9159,"ĠÑģÑĬÐ¾ÑĤÐ²ÐµÑĤÐ½Ð¸ÑĤÐµ":9160,"ÑħÐ¾Ð´Ð½Ð¸":9161,"ĸÐĶÐ":9162,"ĠÐ´ÑıÐ»":9163,"ĠÑĤÑĢÐµÑĤÐ¾":9164,"ĠÐĴÐ¸Ñģ":9165,"ĠÑĢÑĥÑģÐºÐ¸ÑĤÐµ":9166,"ĠÑĢÐ¸ÑģÐºÐ°":9167,"ĠÑģÑĬÐ´ÑĬÑĢÐ¶Ð°ÑĤ":9168,"ĠÐ·Ð°Ð²ÑĢÑĬÑīÐ°":9169,"ĺÐ¢ÐķÐĽÐ":9170,"ĠÐ·Ð»Ð¾ÑĥÐ¿Ð¾ÑĤÑĢÐµ":9171,"ĠÑģÑĬÑģÑĤÐ°Ð²ÐºÐ¸":9172,"ĠÑģÐ½Ð°Ð±":9173,"ĠÐŁÑĢÐ¾Ð´Ð°Ð²Ð°":9174,"ĠÐ±ÑĢÐ°Ðº":9175,"ĠÐ¡ÐºÐ°":9176,"ĠÑĩÐ»ÐµÐ½Ð¾Ð²ÐµÑĤÐµ":9177,"ĠÐ¼ÑıÑĢÐºÐ°":9178,"ĠÑĩÐ¸ÑģÐ»Ð¾":9179,"ĠÐ´Ð¸Ð°Ð³Ð½Ð¾ÑģÑĤÐ¸":9180,"ĠÐ´Ð¸ÑĪÐ°":9181,"ĠÐ¼Ð¸Ð½Ð°Ð»Ð¾":9182,"ĠÐ´ÑĥÑħÐ°":9183,"Ð½Ð´Ñĥ":9184,"ĠÐ¦ÑĬÑĢÐº":9185,"................................":9186,"ĠÐºÐ¾Ð¼Ð¿ÐµÑĤÐµÐ½ÑĤ":9187,"ĠÐ³Ð»Ð°ÑģÑĥÐ²Ð°Ð½Ðµ":9188,"ĠÐ³Ð¾Ð´Ð¸ÑĪÐ½Ð°":9189,"ÐºÐ¾Ð²Ð¾":9190,"Ð»Ð¾Ð³Ð¸ÑĩÐ½Ð¾":9191,"ĠÐ½Ð°Ð¿ÑĢÐ°Ð²Ð¸ÑħÐ°":9192,"ķÐ§Ð":9193,"ĠÐ¾ÑģÑĥ":9194,"ÑĢÐ¾Ñı":9195,"ĠÐ´ÑĬÐ»ÑĬÐ³":9196,"ĠÐ²Ð·ÑĢÐ¸":9197,"ÑĦÐ¸ÐºÐ°ÑĨÐ¸Ñı":9198,"Ġod":9199,"ĠÐ½Ð°Ð²ÑĢÐµÐ¼Ðµ":9200,"ĠÐ¿Ð¾Ð²Ñı":9201,",,":9202,"ĠÐ¿Ð¾ÐºÑĢÐ¸Ð²Ð°":9203,"ĠÑģÑĬÐ´ÐµÐ±Ð½Ð°ÑĤÐ°":9204,"ĠÑĩÐ¸Ð¹ÑĤÐ¾":9205,"ĠÐ¡Ð»Ðµ":9206,"ĠÐ¿ÐµÑĤÐ¸":9207,"red":9208,"ĠÐ¿ÑĢÐ¸ÑĤÐµÑģÐ½ÑıÐ²Ð°":9209,"ĠÐ·Ð°Ð¾Ð±Ð¸":9210,"ĠÐ´ÐµÐ¿ÑĥÑĤÐ°ÑĤ":9211,"Ð´Ð°Ð»Ðµ":9212,"ĠÐŀÐ±ÐµÐ´Ð¸":9213,"ĠÐľÐµÑ":9214,"ĠÐºÐ¸ÑĤÐ°Ð¹":9215,"ÑīÐµÑģÑĤÐ²Ð¾":9216,"US":9217,"ÐºÐ°ÐºÐ¾":9218,"ĠÑģÑĤÑĬÐ¿ÐºÐ¸":9219,"ĠÑĢÐµÐ¿Ð¾":9220,"ĠÐ¡ÑĤÐ¾Ð»Ð¸":9221,"ÑģÑĤÐµÐ½Ð´Ð¸":9222,"ĠÐĲÐ½ÑĤÐ¸":9223,"ĠÐ²Ð¸Ð·Ð¸Ñı":9224,"Ð»Ð±Ð¾":9225,"ÑĢÐ°Ð":9226,"Ð·ÐµÑĢ":9227,"ķÐ¢":9228,"Ð¶Ð°Ð²Ð°Ð½Ðµ":9229,"ĠÐ¿Ð¸ÑĪÐ°ÑĤ":9230,"ĠÑģÑĬÐ¿ÑĢÑĥÐ³Ð°":9231,"ĠÐ¿ÐµÑĢÑģÐ¾Ð½Ð°Ð»":9232,"Ð¾Ð±ÑĢÐ°Ð·Ð½Ð¸":9233,"ĠÐ½Ð°ÑĥÐºÐ°":9234,"ĠÐµÐºÑģÐºÑĥ":9235,"ÑĤÐµÐ³":9236,"Ð²Ð¾Ð´Ð½Ð¸":9237,"ĠÐºÐ°Ð¶ÐµÑĤÐµ":9238,"ĠÑĢÐµÐ»Ð°":9239,"Ð²Ð³Ð":9240,"ĠÐ¼Ð¸Ð½Ðµ":9241,"Ð²ÐµÑľÐµ":9242,"ĠÐ¿ÑĢÐµÐ´Ð°Ð²Ð°Ð½ÐµÑĤÐ¾":9243,"ĠÐ´Ð¾Ð¼Ð°ÑĪÐ½Ð¸":9244,"Ġ2003":9245,"ĠÐ¸Ð·Ð³Ð»ÐµÐ¶Ð´Ð°Ñ":9246,"ĠÐ¸Ð·Ð³Ð»ÐµÐ¶Ð´Ð°ÑĤ":9247,"ĠÐ¿ÑĢÐ¾Ð´Ð°Ð²Ð°ÑĤ":9248,"ĠID":9249,"ĠÐ¿Ð¾Ð³ÑĢÐµ":9250,"ĠÐ´ÐµÑģÑĤÐ¸Ð½Ð°":9251,"ĠÐ¿ÑĢÐ¾Ð·ÑĢÐ°":9252,"ĠÐ³ÑĥÐ¼Ð¸":9253,"¸ÑģÑĤÐ¾":9254,"ĠÑĦÐ¾ÑĢÑĥÐ¼Ð°":9255,"ĠÑĤÐ°ÐºÑģÐ°":9256,"ĠÐ¿Ð¾Ð»Ð¾Ð¶ÐµÐ½Ð¸ÐµÑĤÐ¾":9257,"ĠÐ·Ð°Ð²ÐµÐ´ÐµÐ½Ð¸Ðµ":9258,"ĠÐ²ÑĢÐµÐ¼ÐµÐ½":9259,"ĠÐ¼Ð°Ð»ÐºÐ¾ÑĤÐ¾":9260,"ĠÐĿÐ°ÑĨÐ¸Ð¾Ð½Ð°Ð»Ð½Ð¸Ñı":9261,"ÑĩÐ¸ÑĨÐ¸":9262,"ĠÐ¿Ð¾Ð´ÑĩÐ¸":9263,"ĠÐ¡ÑĬÐ³Ð»Ð°":9264,"ĠÐ»Ð¸Ð´ÐµÑĢÐ¸":9265,"ĠÐ¢ÐłÐ":9266,"ĠÐĴÐ°ÑĪÐ°ÑĤÐ°":9267,"ÑĢÐµÐ²":9268,"ĠÐŁÐ¾Ð»Ñĥ":9269,"ĠÐ·Ð»Ðµ":9270,"ĠÑģÑĬÐ¾Ð±ÑīÐµÐ½Ð¸Ðµ":9271,"ĠÐ¾ÑĤÐ¿ÑĥÑģÐºÐ°":9272,"ĠÐ¿ÑĢÐµÐ´Ð¾ÑĤÐ²ÑĢÐ°ÑĤ":9273,"ube":9274,"ĠÐ¿Ð»Ð°Ð½Ð¾Ð²Ðµ":9275,"Ð¾Ð±ÑħÐ¾Ð´Ð¸":9276,"ĠÑĩÐ°Ð¹":9277,"Ð±ÐµÑĢ":9278,"ĠÐĿÐ°ÑĤÐ¸ÑģÐ½ÐµÑĤÐµ":9279,"ĠÐ¿ÑĢÐµÐ´Ð¿ÑĢÐ¸ÑıÑĤÐ¸Ñı":9280,"Ð³Ð¾Ð´Ð¸ÑĪÐ½Ð¸":9281,"ĠÐ¿Ð¾ÑģÑĢÐµÑī":9282,"ĠÑģÐµÑĢÐ¸Ð¾Ð·Ð½Ð°":9283,"ĠÑģÑĬÐµÐ´Ð¸":9284,"ĠÐ¸Ð½ÑģÑĤÑĢÑĥÐ¼ÐµÐ½ÑĤ":9285,"Ð¼Ð¸Ðµ":9286,"Ð½Ð¾Ð²ÐµÐ½Ð¸":9287,"ķÐ¦":9288,"ĠÐ¸Ð´Ð½Ð¸":9289,"ĠÐºÐ¾Ð»Ð¸ÑĩÐµÑģÑĤÐ²Ð°":9290,"Ð¡Ð»ÐµÐ´":9291,"ĠÐºÐ¾Ð½ÑĦÐ¸":9292,"Ð¶ÐµÐ½Ð¾":9293,"ĠÑħÐ»Ð°Ð´Ð¸":9294,"ÑļÐ°ÑĤÐ°":9295,"ÐºÐ¸Ð":9296,"ĠÐ¼Ð¾ÑģÑĤ":9297,"ĠÐ¸ÑģÐºÐ°Ð»":9298,"Ð±ÑĬÐ»Ð³Ð°":9299,"ĠÐĲÐ»Ð±Ð°":9300,"ĠÑģÐ»ÑĥÐ¶Ð±Ð¸":9301,"ĠÑģÑĬÐ¾Ð±ÑĢÐ°":9302,"ĠÑĤÐµÑħÐ½Ð¸Ñı":9303,"ĠÑĤÑĥÑĢÑģÐºÐ¸":9304,"ĠÐ¿Ð¾ÑģÐ»ÐµÐ´Ð²Ð°":9305,"ÐºÐ¾Ð½ÑģÑĤÑĢÑĥ":9306,"ĠÑĤÑĥÑĢÐ¸Ð·ÑĬÐ¼":9307,"port":9308,"ĠÑĪÑĥÐ¼":9309,"ĠÐ½ÐµÐ¸Ð·Ð²Ðµ":9310,"97":9311,"Ð²Ð»ÐµÑĤÐ²Ð¾":9312,"ÑĢÐ¾Ð¼Ð°":9313,"ĠÐ¸Ð½Ð¸ÑĨÐ¸Ð°ÑĤÐ¸Ð²Ð°":9314,"ĠÐ¾ÑĦÐ¾ÑĢÐ¼":9315,"ĠÐ·Ð°Ð»Ð°Ð³Ð°":9316,"ÑħÐ²Ð°ÑĤ":9317,"ĠÐ¿Ð¾ÐºÑĢÐ¸ÑĤÐ¸Ðµ":9318,"ĠÐ±ÑĬÐ»Ð³Ð°ÑĢÑģÐºÐ¾":9319,"ĠÐŁÐµÑĤÐºÐ¾Ð²":9320,"ĠÐ´ÐµÐ¹ÑģÑĤÐ²Ð¸ÑıÑĤÐ°":9321,"ĠÑģÐ¸Ð³ÑĥÑĢÐ½Ð¸":9322,"ĠÐľÐ°ÐºÑģÐ¸":9323,"ĠÐ¿Ð¾Ð½Ñĥ":9324,"ĠÐ¾Ð±ÑĢÐ°Ð·Ñĥ":9325,"ĠÐ¼ÐµÑĤÑĢÐ¾":9326,"ĠÐºÐ¾Ð°Ð»Ð¸ÑĨÐ¸Ñı":9327,"ĠÐĲÐ±":9328,"ĠÑĨÐµÐ½Ð½Ð¾ÑģÑĤÐ¸":9329,"ĠÐ¿Ð¾Ð²Ð¸ÑĪÐ°Ð²Ð°Ð½Ðµ":9330,"ĠÐķÐ´Ð¸":9331,"ĠÑĥÐ¼Ð¸ÑĢÐ°":9332,"ĠÐ¿Ð¾ÑģÑĤÐ¾Ð¸":9333,"ĠÐŁÐ°Ð·Ð°ÑĢÐ´Ð¶Ð¸Ðº":9334,"ĠÑģÑĤÐ¾ÑıÑĤ":9335,"ŀÐł":9336,"ĠÐµÐ¿Ð¸Ð·Ð¾":9337,"ĠÐ¾Ð±ÑĬÑĢÐºÐ°":9338,"ĠÐľÐµÑĤÐ¾Ð´Ð¸":9339,"Ġ2001":9340,"ĠÐ·Ð¾ÑĪÑĤÐ¾":9341,"ĠÐ¿Ð¾Ð¼":9342,"ĠÐºÐ¾ÑĢÐ¸ÑģÑĤÐµ":9343,"ĠÑĦÐ¸Ñ":9344,"ĠÐ·Ð°ÑĤÐ²Ð¾ÑĢÐ¸":9345,"Ð½Ð½Ð¸ÑĤÐµ":9346,"ĠÑĢÑĬÐºÐ°ÑĤÐ°":9347,"ĠÑĦÐ¸ÑĤ":9348,"ĠÐ²ÑħÐ¾Ð´":9349,"mail":9350,"ĠÐ¼Ð°Ð³Ð°Ð·Ð¸Ð½Ð°":9351,"ĠÐ¿Ð¾ÑģÐµÑīÐµÐ½Ð¸Ðµ":9352,"ĠÐ²Ð¸ÑĨÐµÐ¿ÑĢÐµ":9353,"ĠÑģÐ²ÐµÑĤÐ¾Ð²Ð½Ð°ÑĤÐ°":9354,"ĠÑģÐ¼Ñĥ":9355,"ĠÑĥÐºÐ°Ð·Ð°":9356,"ĠÐ¶Ð¸Ð²Ð¾ÑĤÐ½Ð¸ÑĤÐµ":9357,"ĠÐľÐ¸ÑħÐ°Ð¹":9358,"for":9359,"ĠÐļÐ¾Ð¹ÑĤÐ¾":9360,"ĠÐ¿Ð¾Ð´Ð°ÑĤÐ¾ÑĨÐ¸":9361,"ĠÐ±Ð¾Ð½":9362,"Ð±ÑĬÑĢÐºÐ°":9363,"ĠÐĲÐ»Ð¸":9364,"ĠÑĩÑĥÐ´Ð¾":9365,"ĠÑģÑĬÑħÑĢÐ°Ð½ÐµÐ½Ð¸Ðµ":9366,"ħÐ¾":9367,"ĠÐ·Ð´ÑĢÐ°Ð²ÐµÐ¾Ð¿Ð°Ð·Ð²Ð°Ð½ÐµÑĤÐ¾":9368,"Ð²Ð¾Ð»Ð½Ð¾":9369,"ĠÐ¸Ð·Ð¿":9370,"ĠÑģÐ¿ÐµÐºÑĤÐ°":9371,"ĠÐ¾ÑĤÐ»Ð¸ÑĩÐ½Ð¾":9372,"ĠÐµÐºÐ¾Ð½Ð¾":9373,"ĠÑĻÑĥÐ±Ð¾Ð²":9374,"ĠÐĿÑıÐºÐ¾Ð¹":9375,"ĠÐ²ÐµÑĩÐµÑĢÑĤÐ°":9376,"Ð´ÐµÐ½Ð¾Ð²":9377,"ĠMic":9378,"ĠÑĢÐµÑĨÐ¸":9379,"ĠÑģÐ²Ð¾Ð±Ð¾Ð´ÐµÐ½":9380,"ĠÐ¸Ð·Ð½Ðµ":9381,"Ð²Ð¸Ð¶":9382,"Ð¶ÐµÐ½Ð¸ÑıÑĤÐ°":9383,"ĠÐŀÐ¿Ð¸ÑģÐ°Ð½Ð¸Ðµ":9384,"Ð»Ð¾Ð·Ð¸ÑĤÐµ":9385,"ĠÐ´Ð¾Ð²ÐµÑĢÐ¸Ðµ":9386,"ava":9387,"ĠÐ¡ÑĤÐ¾ÑıÐ½Ð¾Ð²":9388,"ĠÐĵÐ»ÐµÐ´Ð°":9389,"ĠÑģÑĢÐ°Ð²Ð½Ð¸ÑĤÐµÐ»Ð½Ð¾":9390,"ĠÐ½Ð°ÑĤÐ°ÑĤÑĬÐº":9391,"ÑĩÐ°ÐºÐ°":9392,"ĠIII":9393,"ĠÑģÑĢÑıÐ´Ð°":9394,"ĠÑĢÐ°Ñģ":9395,"ĠÐ¿ÑĢÐ¸ÑħÐ¾Ð´Ð¸ÑĤÐµ":9396,"ĠÑĢÐ¾Ð¼Ð°Ð½ÑĤÐ¸":9397,"ĠÐ¿ÑĢÐµÑĥ":9398,"ÐĴÐĺÐĶÐķÐŀ":9399,"ĠÑĢÐµÑĦÐ¾ÑĢÐ¼Ð¸":9400,"________________":9401,"ĠÐ¾ÑĤÐ¼Ð":9402,"ĠÐ¸Ð·Ð»Ð¾Ð¶Ð±Ð°":9403,"ĠÐ¿ÑĢÐ¾ÑĩÐ¸ÑĤÐ°Ð½Ð¸Ñı":9404,"ĠÐµÐ½ÐµÑĢÐ³ÐµÑĤÐ¸":9405,"ÑĩÑĤÐ¸":9406,"ĠÐ¿ÑĢÐµÐ´Ð¿ÑĢÐ¸Ðµ":9407,"Ã©":9408,"Ð·Ð°ÑīÐ¸":9409,"ĠÐµÐ¼Ð¾ÑĨÐ¸Ð¸":9410,"ÑĢÑģÑĤÐ²Ð¾":9411,"ĠÐ¸Ð½Ð´ÑĥÑģÑĤÑĢÐ¸Ñı":9412,"Ð·Ð¼Ð¾ÑĤ":9413,"ĠÐºÐ¾Ð½ÐºÑĥÑĢÑģÐ°":9414,"ĠÐ¿ÑĢÐµÐ´ÑģÑĤÐ°Ð²Ð°":9415,"ĠÐ±ÑĬÑĢÐ·Ð¸":9416,"ĠÐ²ÑĬÐ·Ð½Ð°Ð³ÑĢÐ°":9417,"87":9418,"ĠÐºÐ¸Ð»Ð¾Ð³ÑĢÐ°":9419,"ĠÑħÑĢÐ¾Ð½Ð¸":9420,"ĠÐ©Ð¾Ð¼":9421,"ÑĮÐ":9422,"ĠÐ´Ð¾Ð¼Ð°ÐºÐ¸Ð½":9423,"ĠÐ¿ÑĢÐµÐ·Ðµ":9424,"ĠÐ²Ð°ÐºÑģÐ¸Ð½Ð°":9425,"ĠPh":9426,"ĠÐ°ÐºÑĤÑĢÐ¸":9427,"ĠÐ½Ð°ÑģÐ¸Ð»Ð¸Ðµ":9428,"Ð·Ð°Ð½ÑĤÐ¸":9429,"ÑĢÐ½Ð¸ÐºÐ°":9430,"Ð»Ð¾Ð³Ð¸ÑĩÐµÑģÐºÐ¸":9431,"Ð´ÐµÐ¹ÑģÑĤÐ²Ð¸ÐµÑĤÐ¾":9432,"ÑĪÐ¸Ð½Ð³ÑĤÐ¾Ð½":9433,"ĠÐºÑĢÐ°ÑģÐ¸Ð²Ð¸":9434,"cl":9435,"ĠÐ½Ð°Ð»Ð¸ÑĩÐ¸ÐµÑĤÐ¾":9436,"ĠÐ·Ð°ÑħÑĢÐ°Ð½Ð²Ð°":9437,"ÑĢÐµÐ¾":9438,"ĠÐłÐ£":9439,"Ð³Ð¾Ð²":9440,"ĠÐľÐ°Ð½ÑĩÐµ":9441,"ĠÑĺÐ°Ð·Ð¸Ðº":9442,"ĠÑĢÐµÑĪÐµ":9443,"ĠÑĥÑģÐ²Ð¾":9444,"ĠÑĥÑĩÐ¸Ð»Ð¸ÑīÐµÑĤÐ¾":9445,"ĠÐ¿Ð¾ÑģÑĤÐ°Ð½Ð¾Ð²":9446,"ĠÐ·ÐµÐ¼Ð¸":9447,"¸Ð½Ð¸":9448,"ĠÐ·Ð°Ð³":9449,"ĠÑģÐ¿Ð°Ð·Ð²Ð°":9450,"ĠÐ¿ÑĥÐ±Ð»Ð¸ÑĩÐ½Ð¾":9451,"ĠÐ¡ÐĽÐ":9452,"ĠÐ°ÐºÑĤÑĮÐ¾":9453,"ĠÐ¸Ð·Ð±Ñĥ":9454,"ĠÐĶÑĢÑĥÐ³":9455,"ĠÐºÐ¸ÑģÐµÐ»Ð¸Ð½Ð°":9456,"ĠÐ¿Ð¾Ð²Ð»Ð¸Ñı":9457,"Ð»Ð¾Ð²Ð¸ÑĤÐµ":9458,"ĠÐ½ÑıÐºÐ¾Ð³Ð¾":9459,"Ð»Ð³ÑĢÐ°Ð´":9460,"ĠÑĨÑĬÑĢÐºÐ²Ð°ÑĤÐ°":9461,"ÑģÐ½Ð¸ÑĨÐ¸":9462,"Ð¼Ð¾Ð²Ð°":9463,"ĠÐ¸Ð·ÑĤÑĬÐº":9464,"ĠÑģÐ²ÐµÑĤÐ»Ð¸Ð½Ð°ÑĤÐ°":9465,"Ð²ÑĬÑĢÑĪÐ¸":9466,"Ð¶Ð°Ð»Ð¸":9467,"ci":9468,"ÑĪÐ½Ð¾ÑģÑĤ":9469,"ĠÐ¸Ð·Ð³Ð°":9470,"ĠÐ¿Ð¾ÑĩÐ¸ÑĤÐ°":9471,"ĠÐºÐ¾Ð¼Ð°Ð½Ð´Ð¸":9472,"ĠÐ¡Ð¼Ð¾":9473,"ĺÐĵÐ":9474,"vi":9475,"ĠÐ³Ð¾Ð´Ð¸ÑĪÐ½Ð¸":9476,"ĠÐ¸Ð·Ð½Ð¾Ñģ":9477,"ĠÐµÐ»":9478,"ĠÐ¿Ð¾Ð²ÑĬÑĢÑħÐ½Ð¾ÑģÑĤ":9479,"ĠÐ¿Ð¾Ð·Ð½Ð°Ð²Ð°":9480,"ĠÐºÑĢÐ°ÑģÐ¸Ð²Ð°":9481,"ĠÐ»ÐµÐ³ÐµÐ½Ð´Ð°":9482,"ĠÐ¿ÑĢÐ¾Ð¿ÑĥÑģÐºÐ°":9483,"ĠÑĤÑĢÐ°Ð´Ð¸ÑĨÐ¸Ñı":9484,"ĠÐ½ÐµÐ³Ð¾Ð²Ð¾":9485,"ĠÐ±Ð°Ð½ÐºÐ°ÑĤÐ°":9486,"ĠÐ½Ð¸ÑģÐºÐ¸":9487,"ĠÐ·ÐµÐ»ÐµÐ½Ð¸":9488,"ĠÐŁÐ¾Ð½ÑıÐºÐ¾Ð³Ð°":9489,"ÑĢÑĩÐ¸":9490,"ĠÐµÑĦÐµÐºÑĤÐ¸Ð²Ð½Ð¾":9491,"ĠÐ¾ÑĤÑĩÐ°":9492,"ĠÐ·Ð°ÐºÑĥÑģÐºÐ°":9493,"ĠÐ¿ÑĢÐµÐºÑĢÐ°ÑĤ":9494,"ĠÐ¾ÑĤÐ±ÑĢÐ°Ð½Ð°ÑĤÐ°":9495,"ĠÐºÐ¾Ð¼Ð¸ÑĤÐµÑ":9496,"ĠÐºÐ¾Ð¼Ð¸ÑĤÐµÑĤ":9497,"ĠÐ¡ÐŀÐ":9498,"ĠÐķÐ¼Ð¸":9499,"ĠÐ²Ð°ÐºÑĨÐ¸":9500,"ÑĥÐ²Ð°Ð¼Ðµ":9501,"ĠÑģÑĤÐ°Ð½Ð°Ð»":9502,"ĠÐĴÑĩÐµÑĢÐ°":9503,"ĠÑģÑĤÐ°ÑıÑĤÐ°":9504,"ĠÐĶÐ¾Ð±ÑĢÐ¸Ñĩ":9505,"ĠÐ¶Ð¸Ð²Ð¾ÑĤÑĬÑĤ":9506,"ĠÐŀÐŁÐ":9507,"ĠÐ¿Ð¾ÑĤÐ¿Ð¸":9508,"ĠÑĥÐ¶":9509,"ĠÐ¸Ð½ÑĤÐµÐ»ÐµÐºÑĤÑĥ":9510,"Ð½Ð¾Ð²ÐµÐ½Ð°":9511,"ĠÐ¿Ð¾Ð´Ð³Ð¾ÑĤÐ¾Ð²":9512,"ĠÐ¿ÑĢÐ¾Ð¿Ð°Ð³Ð°":9513,"ĠÐŀÑĤÐºÐ°":9514,"ÑģÐ½Ð¸Ñı":9515,"ÑģÑĤÐ½Ð¸Ñı":9516,"ĠÐ¿ÑĢÐ¾ÑĨÐµÐ´ÑĥÑĢÐ°ÑĤÐ°":9517,"ĠÐ²Ð½Ð°ÑĤ":9518,"ĠÐ·ÐµÐ¼ÑĺÐ°ÑĤÐ°":9519,"ÑħÐ¾Ð²ÐµÑĤÐµ":9520,"ĠÑģÐ¾Ð±ÑģÑĤÐ²ÐµÐ½Ð¸ÑĤÐµ":9521,"ĠÐ¼Ð°ÑģÐ¾":9522,"ÐºÑĨÐ¸Ð¾":9523,"ĠÑģÑĬÐ´Ð±Ð°ÑĤÐ°":9524,"ĠÐ³ÑĢÐ°Ð½Ð¸ÑĨÐ¸ÑĤÐµ":9525,"ĠÑĦÐ¾Ð½Ð°":9526,"ĠÐ½Ð°Ð¿ÑĢÐ°Ð²Ð¸Ð»Ð¸":9527,"ĨÐĨ":9528,"ĠÐ¿Ð»Ð°Ð½Ð¸Ð½Ð°ÑĤÐ°":9529,"ĠÐ¸Ð·Ð¿Ð¸ÑĤÐ²Ð°":9530,"ĠÐ´Ð°Ð½ÑĬÐº":9531,"ÑĬÑĢÐ¿":9532,"ĠÐ³ÑĢÐ°Ð´Ð¸Ð½Ð¸":9533,"ĠÐ¾Ð¿ÑĢÐµÐ´ÐµÐ»ÑıÑĤ":9534,"ĠÐ¾Ð¿Ð¸ÑģÐ°Ð½Ð¸Ðµ":9535,"ĠÐĽÑĥÐºÐ°":9536,"ÑĤÑĥÑĢÐ°ÑĤÐ°":9537,"ĠÑĦÐ¸Ð½Ð°Ð½ÑģÐ¸ÑĢÐ°":9538,"ĠÑģÐ¾ÑĢÐ°Ð±Ð¾ÑĤÐºÐ°":9539,"ĠÑĥÑĩÐ¸ÑĤÐµÐ»Ð¸":9540,"ĠÐ½ÐµÐ³Ð¾Ð²":9541,"ĠÑĢÐµÐ°Ð³Ð¸ÑĢÐ°":9542,"ĠÐºÐ°ÐºÐ²Ð°ÑĤÐ¾":9543,"ĠÐ²ÑĤÐ¾ÑĢÐ½Ð¸Ðº":9544,"ĠÐ²ÐµÐ»Ð¾ÑģÐ¸Ð¿Ðµ":9545,"ĠÐ³ÑĢÐ°Ð´ÑģÐºÐ¸":9546,"ĠÐ¾ÑĤÐ¿Ðµ":9547,"ĠÐ½Ð°Ð¿Ð¸ÑĪÐ°":9548,"ĠÐĲÐ¹":9549,"ĠÑĢÐ°ÑģÑĤÐ¸":9550,"ĠÑģÐ¾ÑĨÐ¸Ð°Ð»Ð½Ð°":9551,"ĠÐ¾ÑģÑĤÐ²Ð°":9552,"ĠÐĴÐĲÐ":9553,"ĠHD":9554,"ĠÐ´Ð»ÑĬÐ¶Ð½Ð¾ÑģÑĤ":9555,"ĠÐŁÑĢÐ¾ÑĦÐµ":9556,"ÑĤÐµÐ¶":9557,"ĠÐ´Ð°Ð´ÐµÐ½Ð°":9558,"ĠÐ¾ÑĤÑģÑĬ":9559,"ĠÐ¿Ð¾Ð·Ð¸ÑĨÐ¸ÑıÑĤÐ°":9560,"ĠÐ¡ÑĬÑ":9561,"ÑģÐµÑĤÐ¸":9562,"ĺÐĿÐĺ":9563,"ĠÐ¿Ð¾Ð´Ð¿Ð¸":9564,"Ð·ÐµÐ¼":9565,"ĠÑģÑĬÐ·Ð´Ð°Ð´ÐµÐ½Ð°":9566,"ĠÐ¨Ð°Ð¼Ð¿Ð¸":9567,"65":9568,"ÑĢÑĦÐµ":9569,"ĠÑĢÐ¸ÑģÑĥ":9570,"ĠÐĳÐĿÐ¢":9571,"ĠÐ¿Ð¾Ð·Ð½Ð°Ñ":9572,"ĠÐ¿Ð¾Ð·Ð½Ð°ÑĤ":9573,"ĠÐ¿ÑĢÐµÐºÑĬ":9574,"ĠÑĢÐ°Ð²ÐµÐ½":9575,"ĠÐ½ÐµÐ´ÐµÐ»Ð°":9576,"ĠÐĽÑĬ":9577,"ÑģÐ¿ÐµÐºÑĤ":9578,"ear":9579,"ĠÐŁÐ¾Ð·Ð´ÑĢÐ°":9580,"ĤÐ½Ð¸Ðº":9581,"ÑĤÐ½Ð¸Ðº":9582,"Ð¿Ð½Ð¸":9583,"ĠÑĢÐµÐ·ÐµÑĢÐ²":9584,"ĠÐ½Ð°Ð¼ÐµÑĢÑıÑĤ":9585,"Ð³Ð¾Ð´Ð¸ÑĪÐ½Ð¸Ñı":9586,"ĠÐ¿ÑĢÐ°Ð·Ð½Ð¸ÑĨÐ¸":9587,"ÐĿÐĲ":9588,"ÑĪÐ²Ð°Ð½Ðµ":9589,"ĠÐ¿Ð¾ÑĩÐµÑĤÐ¾ÐºÐ¾ÑĤ":9590,"ĠÐĴÑĬÐ·Ð¼Ð¾Ð¶Ð½Ð¾":9591,"ĠÐ»Ð¸ÑĩÐ½Ð°":9592,"wit":9593,"ork":9594,"ĠÐľÐµÑĵÑĥ":9595,"ĠÐ¿Ð¸Ñı":9596,"ĠÐĴÐ¼ÐµÑģÑĤÐ¾":9597,"ime":9598,"ĠÐ½Ð°Ð´Ð·Ð¾":9599,"ĠÐ±Ð»Ð¸Ð·ÐºÐ¸ÑĤÐµ":9600,"ĠÐ¿Ð°ÑĢÐ°Ð»Ðµ":9601,"ĠÑĦÑĢÐ°Ð½ÑĨÑĥ":9602,"Ð»Ð¾Ð¶Ð°ÑĤ":9603,"ĠÐ½Ð°Ð¿Ð¾Ð¼Ð½Ñı":9604,"ĠÐ¿Ð¾Ð±Ð°":9605,"ĠÑĦÑĥÑĤÐ±Ð¾Ð»Ð¸ÑģÑĤ":9606,"ÑĢÐ½Ð¸ÑıÑĤ":9607,"ĠÐ¾ÐºÑĥ":9608,"ĠÐ¿ÑĢÐ¾ÑģÑĤÐ°":9609,"ĠÐ¿Ð¾ÑģÐ»Ñĥ":9610,"ĠÐ¾ÑĤÐºÑĢÐ¸Ñ":9611,"ĠÐ¾ÑĤÐºÑĢÐ¸ÑĤ":9612,"ĠÐºÐ°ÑĢÑĤÐ°ÑĤÐ°":9613,"ĠÐ±ÐµÐ·Ñĥ":9614,"ĠÑĤÐ¸ÑĤÑĥ":9615,"ĠÐ¿ÐµÑĢÑģÐ¾Ð½Ð°":9616,"ĠÐ¾Ð¿ÐµÑĢÐ°ÑĨÐ¸Ð¸":9617,"ĠÑĥÑĤÐ¾Ñĩ":9618,"ml":9619,"Ð»Ð¾Ð":9620,"ĠÐ¾Ð¿Ð°ÑģÐ½Ð¾":9621,"ĠÐ²Ð¸Ð´Ð¸ÑĪ":9622,"ĠÐĿÐ°ÑĢÐ¾Ð´Ð½Ð¾ÑĤÐ¾":9623,"ĠÐ½Ð°Ð¿Ð¸ÑĤÐºÐ¸":9624,"Ð²ÐµÑĢÑģÐ°":9625,"ĠÑĤÐµÐ»ÐµÑĦÐ¾Ð½Ð¸":9626,"Ð½Ð¸ÑħÐ°":9627,"ĠÐºÐ¾Ð½ÑĨÐµÐ½ÑĤÑĢÐ°":9628,"Ð¼ÑĥÐ½Ð¸":9629,"ĠÐ¡Ð¼Ðµ":9630,"¸ÑĢÐ°":9631,"ĠÐ¿ÑĢÐµÐ½Ðµ":9632,"ÐºÑĥÑģ":9633,"ĠÑĨÐµÐ»Ñĥ":9634,"ĠÑģÐ¿Ð¸ÑģÑĬÐºÐ°":9635,"ĠÐ¾ÑĢÐ°":9636,"Ð²Ð¼ÐµÑģÑĤÐ¸":9637,"ĠÑģÐ¿Ð¾Ð¼Ð½Ñı":9638,"ĠÐ¿ÑĢÐµÐ´ÑģÐµÐ´Ð°ÑĤÐµÐ»ÑıÑĤ":9639,"Ð½Ð´ÐµÑĢ":9640,"ĠÑģÑĤÐ¸Ð¼ÑĥÐ»Ð¸ÑĢÐ°":9641,"ĠÐ±Ð¾Ð³Ð°ÑĤÐ°":9642,"ĠÐŁÐ¾ÑĩÐ¸":9643,"ĠÑĤÐµÐºÑģÑĤÐ°":9644,"ĠÐ¿ÑĩÐµ":9645,"ĠÐĿÐ°ÑĢÐ¾":9646,"ĠÐ³ÑĢÐ°Ð¼Ð°":9647,"ĠÐ°Ð´Ð°Ð¿":9648,"ĠÐľÐ¸Ð»Ð°":9649,"ĠÐ°Ð¼ÐµÑĢÐ¸ÐºÐ°Ð½ÑģÐºÐ¸ÑĤÐµ":9650,"ĠÐ½Ð°ÑĩÐµÐ»Ð¾":9651,"ĠÐºÐ²Ð°Ð´":9652,"ĠÑģÐµÐ´Ð¼Ð¸ÑĨÐ°ÑĤÐ°":9653,"ÑĢÐ¸ÑĩÐ°":9654,"ĠÐ°Ð¼ÐµÑĢÐ¸ÐºÐ°Ð½ÑģÐºÐ°ÑĤÐ°":9655,"ĠÐ¿Ð¾Ð´ÑĢÐ¾Ð±Ð½Ð¾ÑģÑĤÐ¸":9656,"ÑģÐ¸Ð¾Ð½":9657,"ĠÐĶÐ¾Ð¼Ð°":9658,"Ð±Ð»Ð°Ð³Ð¾":9659,"ĠÐ¾Ð±ÑĢÐ°Ð±Ð¾ÑĤÐºÐ°":9660,"ĠÐķÐ´Ð²Ð°":9661,"ĠÐ´ÐµÐ¿ÑĢÐµ":9662,"Ð²Ð°ÑĺÑĤÐµ":9663,"ĠÑĢÑĬÐºÐ¾Ð²Ð¾Ð´ÑģÑĤÐ²Ð¾":9664,"rom":9665,"RO":9666,"ĠÐ¾Ð±ÐµÐ·Ð±Ðµ":9667,"ĠÑĥÑĤÐ¾ÑĩÐ½Ð¸":9668,"ĠÐ½Ñİ":9669,"ĠÐ±Ð»Ñı":9670,"ĠÐķÑĢÐ´Ð¾Ð³Ð°Ð½":9671,"Ð»Ð°Ð¹":9672,"Ð´ÐµÑļÐµ":9673,"Ð¿ÐµÑĢÑĤÐ¸ÑĤÐµ":9674,"ĠÐĺÐ»Ð¸Ñı":9675,"ĠÐ¶Ð¸Ð²Ð¸":9676,"ĠÑĥÐ²ÐµÐ»Ð¸ÑĩÐµÐ½Ð¸Ðµ":9677,"ĠiPhone":9678,"ĠÐ¸Ð·Ð¶Ð¸":9679,"ĠÐ¿Ð¾Ð³ÑĢÐµÑĪ":9680,"ĠÐļÐ¾Ð½ÑģÑĤÐ°Ð½ÑĤÐ¸Ð½":9681,"ĠÐĿÐ°ÑĩÐ°Ð»Ð¾":9682,"Ġ41":9683,"ĠÐľÐ¸ÑħÐ°Ð¸Ð»":9684,"2007":9685,"ķÐĹ":9686,"ĠÐ¿Ð¾Ð¿":9687,".;":9688,"ĠÐ¾Ð¿Ð¸ÑĤÐ²Ð°ÑĤ":9689,"Ð»Ð¸ÑĢÐ°Ð½Ð¸":9690,"Ð¹Ð¼Ñģ":9691,"ĠÑģÐ¼ÑıÑĤÐ°Ð¼":9692,"Ð³ÑĬÑĤ":9693,"ĠÑĤÐµÑģÑĤÐ¾Ð²Ðµ":9694,"ÑģÑĤÐµÐ½Ð´Ð¸Ð»":9695,"ĠÐ¿ÑĢÐ¾ÑĥÑĩÐ²Ð°Ð½Ð¸Ñı":9696,"ĠÑĩÐ¸ÑģÑĤ":9697,"Ð³Ð¾Ð²Ð¾ÑĢÐ¸":9698,"St":9699,"Ð»Ð¸ÑīÐµÑĤÐ¾":9700,"amsung":9701,"ĠÐ¸Ð·Ð´ÑĢÑĬ":9702,"ÐµÑĤ":9703,"ĠÐĺÐ¼Ð°Ð¼Ðµ":9704,"Ð¡Ð¾":9705,"ĠÐľÐ°Ð½Ð¾":9706,"ĠÑģÐ¼ÐµÐ½Ñı":9707,"ĠÑĩÐµÑĤÐ²ÑĬÑĢÑĤÑĬÐº":9708,"ĠÑĤÑĢÐ°Ð²Ð¼Ð":9709,"ĠÐºÐ°Ð½Ð°Ð»":9710,"ĠÐºÐ¾ÑĢÐ¸ÑģÑĤÐ¸":9711,"ĠÐºÐ°Ð¼Ð¿Ð°Ð½Ð¸ÑıÑĤÐ°":9712,"ĠÐ¸Ð½Ð´Ðµ":9713,"ick":9714,"ĠÐ¿ÑĢÐ¸ÑģÑĤÐ°Ð½Ð¸":9715,"ĠÐłÐ°Ð±Ð¾ÑĤ":9716,"ĠÐĲÐ":9717,"Ð¼ÐµÑĤÑĬÑĤ":9718,"ĠÐ¿Ð¾ÑģÑĤÐ°Ð²ÐµÐ½Ð¸":9719,"ĠÐ´ÑĬÐ»Ð³Ð°":9720,"ĠÐŀÐŀÐĿ":9721,"ĲÐĴÐĲ":9722,"ÑģÑĤÐ¸ÑĩÐ½Ð°":9723,"ĠÐĺÐ½Ð´Ð¸Ñı":9724,"ĠÐ¶Ð¸ÑĤÐµÐ»Ð¸ÑĤÐµ":9725,"Ð²Ð¸Ð»":9726,"ĠÑĥÐ²ÑĢÐµÐ¶Ð´Ð°Ð½Ð¸Ñı":9727,"ĠÐ°ÑĢÐ¼Ð¸":9728,"ĠÑĤÐµÑĢÐ¾ÑĢÐ¸ÑģÑĤÐ¸":9729,"ĠÐ½Ð°ÑģÑĤÐ°Ð½ÑıÐ²Ð°Ð½Ðµ":9730,"ĠÐµÑĤÐ½Ð¸":9731,"ĠÑĢÐ¾Ð¼Ð°Ð½":9732,"ÑģÐ»ÐµÐ´ÑĬÐº":9733,"ĠÐ¾ÑĤÑĢÐ°Ð·ÑıÐ²Ð°":9734,"ĠÐºÑĥÑĢ":9735,"ĠÐ¿ÑĢÐ°Ñħ":9736,"ĠÐ½Ð¸Ð²Ð½Ð°ÑĤÐ°":9737,"ĠÐºÐ¾Ð¼Ð¿Ð°Ð½Ð¸Ð¸ÑĤÐµ":9738,"ĠÐ¾Ð±Ð¸ÐºÐ¾":9739,"ĠÐ²Ð»Ñİ":9740,"ĠÐºÐ°Ð¶Ð°ÑĤ":9741,"ĠÐ¼Ð¸Ð½Ð¸ÑģÑĤÑĬÑĢÑĬÑĤ":9742,"ÑģÐ½Ð¾ÑģÑĤÑĤÐ°":9743,"ĠÑģÐ¿Ð¾ÑĢÑĤÐ¸":9744,"......":9745,"ĠÑģÐ¼ÐµÑĤÐºÐ¸":9746,"ĠÐ±Ð°Ð³Ð°":9747,"ĠÐ·Ð°Ð»Ð°ÑĤÐ°":9748,"ĠÐ·ÑĬÑĢ":9749,"ÑģÐºÐ²Ð¸":9750,"Ð»Ð¸ÑıÑĤ":9751,"ĠÑģÐ¾Ð²ÐµÑĤ":9752,"ĠÐ¼Ð¾Ð½ÑĤÐ°Ð¶":9753,"ĠÐ½ÐµÐ¾Ð±ÑħÐ¾Ð´Ð¸Ð¼Ð¸ÑĤÐµ":9754,"ĠÐµÐ´Ð¸Ð½ÑģÑĤÐ²ÐµÐ½Ð¸ÑıÑĤ":9755,"ĠÐ¾ÑĦÐµÑĢÑĤÐ¸":9756,"ĠÐļÐŀÐ":9757,"ĠÑģÑĬÐ¼Ð½ÐµÐ½Ð¸Ðµ":9758,"Ġ2002":9759,"ÑĢÐ°ÑĨÐ¸Ð¸":9760,"ĠÐ°ÑĤÐ¼Ð¾ÑģÑĦÐµÑĢÐ°":9761,"ÑģÑİÐ»":9762,"ĠÑģÐµÐ½Ð·Ð¾":9763,"ĠÑĥÐ±Ð¸Ð":9764,"ÑģÐ¸Ð»Ð²Ð°":9765,"ĠÑĢÐµÐ°Ð»Ð½Ð¾ÑģÑĤ":9766,"ĠÑĢÐ°Ð·Ð¿Ð¾Ð»Ð¾Ð¶ÐµÐ½Ð¸Ðµ":9767,"ĠâĨ":9768,"ĠÐ¿ÑĢÐ¾Ð²ÐµÐ¶Ð´Ð°Ð½Ðµ":9769,"ÑģÐ»Ð¾ÑĤÐ¾":9770,"ÑĤÑĬÑĢÐ°":9771,"Ð±Ð½Ð¾ÑĤÐ¾":9772,"ĠÐ³ÑĬÑĢÐ´Ð":9773,"ÑģÐ¸Ð°":9774,"ĠÐ½Ð°ÐµÐ¼Ð°":9775,"ĠÐ¸Ð·ÑĤÐ¸ÑĩÐ°":9776,"ĠÐ½Ð°Ð¿ÑĢÐ°Ð²ÐµÐ½Ð°":9777,"ĠÐ¾Ð´Ð±":9778,"ence":9779,"ĠÑĤÑĬÑĢÐ¿Ð":9780,"Ð·Ð»Ð¾":9781,"ĠÑĢÐ°Ð¼ÐºÐ°":9782,"ĠÐ¼Ð°ÑĤÐµÑĢÐ¸ÑĺÐ°":9783,"ĠÐłÐķÐ":9784,"ĠÑģÑĤÐ°Ð½Ð°Ð»Ð¾":9785,"ĠÑĩÐµÑĤÐµÐ½Ðµ":9786,"ĠÐ¼Ð¸Ð½Ð¸ÑģÑĤÑĬÑĢÐ°":9787,"Ð¹ÑģÐºÐ¸ÑıÑĤ":9788,"ĠÐ¾ÑĩÐµÑĢÑĤÐ°":9789,"Ð»Ð´Ð¾":9790,"ÑĦÐ¸ÑĨÐ¸Ð":9791,"ĠÐ¿ÑĢÐµÑĤÑģÑĤÐ°Ð²ÑĥÐ²Ð°":9792,"je":9793,"Ð´Ð¸ÑĺÐ°":9794,"ĠÐ´Ð¾ÑĺÐ´Ðµ":9795,"ĠÐ²Ð¸Ð»Ð°":9796,"ÐĽÐµ":9797,"ĠÐļÐ¾ÑģÐ¾Ð²Ð¾":9798,"ĠÐºÐ¾Ð¼Ð¿ÐµÐ½":9799,"ĠÐ±ÑĢÑĥ":9800,"Ð¼Ð°Ð¼":9801,"ĠÑģÐ¿Ð¾ÑĢÑĤÐ°":9802,"ÑħÐ¾ÑĤÐµÐ½":9803,"Ð¿Ð¾Ð¿ÑĥÐ»Ñı":9804,"ÑĤÐ¸Ð²Ð½Ð¸Ñı":9805,"ÑģÑĤÐµÐ½Ð°":9806,"ĠÐĺÐ·ÑĤÐ¾ÑĩÐ½Ð¸Ðº":9807,"ĠÐĸÐ°":9808,"ĠÐ·Ð»Ð°ÑĤÐ¾":9809,"ĠÑĢÐµÑĦÐ¾ÑĢÐ¼Ð°":9810,"ĠÐ¿Ð¾ÑģÑĤÐ°Ð²ÑıÑĤ":9811,"Ð»Ð¸ÑĤÐ°":9812,"ĠÐ¿Ð¸ÑĪÐ°":9813,"ĠÐ¿Ð»Ð¾Ð²Ð´Ð¸Ð²":9814,"ĠÐ½Ð¾Ð¼ÐµÑĢÐ°":9815,"Ð²Ð¾Ð´ÑģÑĤÐ²Ð¾ÑĤÐ¾":9816,"ĠÐĳÐ¾Ð¶":9817,"ĠÑĤÐµÐ¶ÐºÐ°":9818,"ĠÐ½ÐµÑĢÐµ":9819,"Ð²Ð°ÑļÐ°ÑĤÐ°":9820,"ĠÐ½Ð°ÑĪÐ¸Ð¾ÑĤ":9821,"ĠÐ²ÑĬÐ»Ð½Ð°":9822,"ķÐĿÐĺ":9823,"ĠÐ¾Ð±Ð":9824,"Ð½Ð³ÑĢÐ°Ð´":9825,"ĠÐĳÑĥÐ³Ð°":9826,"ĠÐĶÐ¶Ñĥ":9827,"++":9828,"ÑģÐ¾ÑĢÐ¸":9829,"Ð°ÑĢ":9830,"ÑģÐ½Ð¾Ð²Ð°":9831,"Ð»Ð¾Ð±Ð¾":9832,"Ð²ÐµÐ´ÐµÐ½Ð¸":9833,"la":9834,"ĠÑģÑĥÐ±ÑģÐ¸":9835,"ÐļÑĥ":9836,"Ð¿Ð¾Ð´Ð°":9837,"ĠÐ½ÑıÐ¼Ð°Ð¼Ðµ":9838,"ĠÐ´Ð¾Ð¿ÑĬÐ»Ð½Ð¸ÑĤÐµÐ»Ð½Ð°":9839,"ĠÐ¡Ð¸ÑģÑĤÐµ":9840,"int":9841,"ĠÐºÐ¾Ð¿":9842,"ĠÑģÐ¾ÑģÑĤÐ¾ÑĺÐ±Ð°":9843,"Ð·ÐºÐ¾":9844,"ĠÐĶÐ²Ðµ":9845,"ĠÐ¿ÐµÐ´Ð°":9846,"ĠÐĸÐ¸Ð²":9847,"ŀÐļ":9848,"ĠÐ±Ð¸Ð±Ð»Ð¸Ð¾ÑĤÐµÐºÐ°":9849,"ĠÐ¼Ð¾Ð·ÑĬÐºÐ°":9850,"ĠÐ¿ÑĢÐµÐ¼Ð¸Ð½Ð°Ð²Ð°":9851,"ĠÐ±Ð°Ð»ÐºÐ°":9852,"ĠÐ³ÐµÑĢÐ¾Ð¹":9853,"ÑģÐµÑĤÐµ":9854,"ĠÐ£ÑģÐ¿Ðµ":9855,"ĠÐ¸Ð·Ð¼Ð¸":9856,"ĠÐ²Ð´Ð¸Ð³Ð½Ð°":9857,"ÐºÐ¸Ð½":9858,"ĠÐ¿ÑĢÐ¸Ð¼Ð¸":9859,"Ð·Ð¾Ð½":9860,"ĠÐĵÐ°Ð±ÑĢÐ¾Ð²Ð¾":9861,"Ð´ÑĬÐ»Ð¶Ð¸ÑĤÐµ":9862,"ĠÑĤÐµÑĢÐµÐ½Ð°":9863,"ĠÐ¼Ð°Ð»ÑĨÐ¸":9864,"Ð²ÐµÐ½Ð°ÑĤÐ°":9865,"ĠÐ´Ð¸Ð·Ð°Ñĺ":9866,"ĠÐ´ÐµÑĦÐ¸ÑĨÐ¸":9867,"Ð»ÐµÐ½Ðµ":9868,"ĠÐ¿Ð¾Ð·Ð°":9869,"ĠÐĺÑģÑĤÐ°":9870,"ĠÐ·Ð°ÑģÐ½Ðµ":9871,"ĠÐ½Ð°Ð»Ð¸ÑĨÐµ":9872,"ĠÐ¡Ð¼ÑıÑĤÐ°":9873,"ÑĢÐ¸Ñħ":9874,"ÑĢÐµÐ½Ð¾ÑģÑĤ":9875,"iss":9876,"ĠÑģÐ²Ð¾Ð¹ÑģÑĤÐ²Ð°":9877,"ĠÑģÑĥÐ¼Ð°ÑĤÐ°":9878,"ĠÑģÑĬÐ±Ð¸ÑĢÐ°ÑĤ":9879,"Ġ700":9880,"ĠÐ¢Ð°Ð°":9881,"ĠÐ½Ð°ÑĨÐ¸Ð¾Ð½Ð°Ð»Ð½Ð¸":9882,"ĠInter":9883,"ĠÐ°ÑĢÑħÐµÐ¾":9884,"ĠÐ¿Ð¾Ð¼ÐµÑīÐµÐ½Ð¸Ñı":9885,"Ð¹ÑĤÐµÐ´":9886,"ĠÐºÑĢÐ°Ð¹Ð½Ð¾":9887,"ĠÑģÐ¾ÑģÐµ":9888,"ĠÐ¿ÑĢÐ¾Ð´Ð¾Ð»Ð¶Ð¸":9889,"ĠÐ¿ÑĢÐ¾ÑĦÐµÑģÐ¸Ð¾Ð½Ð°Ð»Ð½Ð¾":9890,"ĠÐ°ÐºÑĤÐ¸Ð²Ð½Ð¾ÑģÑĤÐ¸":9891,"ĠÐĿÐķÐ":9892,"Ð´Ð²Ð¸Ð¶":9893,"ÐºÐµÐ½Ð´":9894,"ÑģÑĤÑĢÐ¸ÑĤÐµ":9895,"ĠÐ°ÐºÐ°":9896,"Ð·Ð¸Ð´ÐµÐ½ÑĤÑĬÑĤ":9897,"ĠÐ¾Ð±ÑģÑĤÐ°Ð½Ð¾Ð²ÐºÐ°":9898,"ĠÐ§ÑĢÐµÐ·":9899,"ĠÐĴÐ°Ð¶Ð½Ð¾":9900,"ÑģÐµÐ½Ð°":9901,"ĠÐ¿ÐµÑĩÐ°Ð»Ð±Ð°":9902,"Â®":9903,"ĠÐ¾ÑĤÐ¼":9904,"nik":9905,"ĠÑħÐ¾ÑĢÐ¸Ð·Ð¾":9906,"ĠÐ½Ð°ÑĨÐ¸Ð¾Ð½Ð°Ð»Ð½Ð°ÑĤÐ°":9907,"ĠÐ¾ÑģÐ½Ð¾Ð²Ð½Ð°":9908,"µÑĢÐ¾":9909,"ĠÐ¡ÑĤÐ¾Ð¸":9910,"ĠÐĲÐ²ÑģÑĤÑĢÐ¸Ñı":9911,"ĠÐ¾ÑĤÑģÐµ":9912,"ĠÑģÐ¿Ð°Ð´":9913,"ĠÑģÐ¾Ð±ÑģÑĤÐ²ÐµÐ½Ð¸":9914,"ĠÐ±Ð»Ð°Ð³Ð¾Ð´Ð°ÑĢÑı":9915,"ĠÑĢÐµÐ·ÐµÑĢÐ²Ð°":9916,"ĠÐļÑĢÐ°ÑģÐ¸Ð¼Ð¸ÑĢ":9917,"ĳÐĲ":9918,"ĠÐ´ÐµÑģÐµÑĤÐ¸Ð»ÐµÑĤÐ¸Ñı":9919,"Ð¦":9920,"ĠÐĿÑĥ":9921,"ĠÐ´Ð¾Ð¿Ð¾Ð»Ð½Ð¸ÑĤÐµ":9922,"ÐĴÑģÐ¸":9923,"ĠÐĲÐ½Ð³ÐµÐ»Ð¾Ð²":9924,"ĠÐ¾Ð³ÑĢÐ¾Ð¼Ð½Ð¾":9925,"ĠÑģÑĬÑīÐµÑģÑĤÐ²Ð¾":9926,"Ð½Ð±ÑĥÐ»":9927,"ĠÑĩÐµÑģÑĤÐ¸":9928,"ĠÐłÐ°Ð·Ð¿Ð¾":9929,"ĠÐ¡ÑĤÐ°Ð²Ð°":9930,"ĠÐ½Ð°ÑģÑĤÑĢÐ¾Ð¹":9931,"ĠÐ¾ÑĤÐ´Ð°Ð»Ðµ":9932,"ĠÐłÐµÑĪÐµÐ½Ð¸Ðµ":9933,"ĠÐ¸Ð·ÑĢÐ°Ð·ÑıÐ²Ð°":9934,"ulgaria":9935,"ĠÐ·Ð°Ð±Ð»Ñĥ":9936,"ĠÐ½Ð°Ð²Ð¸ÑģÑĤÐ¸Ð½Ð°":9937,"ĠÐ°ÐºÑģÐµÑģÐ¾Ð°ÑĢÐ¸":9938,"ĠÐ»ÑİÐ±Ð¸Ð¼":9939,"ÑĨÐ°ÑĢÐ¾Ð²":9940,"ĠÐ¿ÑĢÐµÐ´Ð¸Ð·Ð²Ð¸ÐºÐ²Ð°":9941,"ĠÐ²ÑĬÐ½ÑĪÐ½Ð¸":9942,"ĠÐĴÐ¾Ð´Ðµ":9943,"ÑĪÑĤÐ²Ð¾":9944,"ĠÐ½Ð¾Ð²Ð¸Ð¾ÑĤ":9945,"ĠÐĴÑĬÐ½":9946,"ĠÐĹÐ°ÐºÐ¾Ð½":9947,"Ġ99":9948,"ĠÑģÑĬÑīÐµÑģÑĤÐ²ÑĥÐ²Ð°ÑĤ":9949,"ĠÑĥÑģÐ¿Ð¾ÐºÐ¾":9950,"ĠÐ·Ð°Ð»Ðµ":9951,"ĠÐ½Ð°ÑģÑĤÑĢÐ¾ÐµÐ½Ð¸Ðµ":9952,"ĠÑģÑĬÐºÑĢÐ°":9953,"ĠÑģÐµÐ¼Ð¸Ð½Ð°":9954,"ĠÐ¼Ð°ÑģÐºÐ°":9955,"ĠÐ±ÑĥÑĤÐ¾":9956,"ĠÑģÐ¿Ð¸ÑģÐ°Ð½Ð¸Ðµ":9957,"ĠÐ´ÐµÐ¼Ð¾ÐºÑĢÐ°ÑĤÐ¸":9958,"ĠÐĹÐ°ÑħÐ°":9959,"ĠÑĩÐ°ÑģÑĤÐ½Ð¸":9960,"Ð½Ð¸Ð½Ð°":9961,"ĠÐŀÐ±ÑĢÐ°":9962,"ĠÐ½Ð¸ÐºÐ¾Ð³Ð¾":9963,"ĠÑĤÐµÐ»ÐµÐ²Ð¸Ð·Ð¸Ð¾Ð½":9964,"ĠÑģÐºÑĢÐ¾":9965,"ĠÐ¼Ð°ÑħÐ°":9966,"ĠÐ¼Ð¾Ð¼Ð¸ÑĩÐµÑĤÐ°":9967,"ĠÐ¼Ð¾ÑĤÐ¾ÑĢ":9968,"ĠÐ²ÐµÐ»Ð°ÑĤ":9969,"ĠÐ½Ð°Ð³ÑĢÐ°Ð´Ð°ÑĤÐ°":9970,"ÑĩÐ¸Ð¼":9971,"ĠÐ½ÑĥÐ¶Ð´Ð¸":9972,"ĠÐºÐ°ÑĢÑĤÐ¸Ð½Ð°":9973,"ĠÐ¡ÑĬÐ²ÐµÑĤ":9974,"ĠÐµÑĦÐ¸ÐºÐ°":9975,"ÐķÐ²ÑĢÐ¾":9976,"ÑĢÐ¾Ð»":9977,"ĠÐŁÐ°Ð²ÐµÐ»":9978,"ĠÑģÑĤÐ°ÑĢÐ¾":9979,"ÐľÐĲ":9980,"ĠÐĲÐķÐ":9981,"Ð»Ð¸Ð¹":9982,"ĠÐ¿ÑĢÐ¾ÑĦÐµÑģÐ¸Ð¾Ð½Ð°Ð»Ð½Ð¸":9983,"Ð²Ð¸ÑıÑĤÐ°":9984,"ĠÐºÑĢÐµÐ¿Ð¾":9985,"ĠÐ¾ÑĤÐ·Ð¸":9986,"Ð±ÑıÐ²Ð°":9987,"ÑĢÐ¿Ð°":9988,"ĠÐ³ÑĢÐ°ÑĵÐ°Ð½Ð¸":9989,"ĠÐ°Ð²ÑĤÐ¾ÑĢÐ¸":9990,"ĠÐľÐ¾Ð´ÐµÐ»":9991,"ĠÐĴÐ°ÑĪÐ¸Ð½Ð³ÑĤÐ¾Ð½":9992,"ĠÐ¿ÑĢÐµÐ¿ÑĢÐ°":9993,"ĠÑĩÐ¸ÑģÑĤÐ¸":9994,"ĠÐļÐ°Ð»":9995,"ĠÑıÐ´Ðµ":9996,"ĠÐĴÐª":9997,"ĠÐ±ÑıÐ»Ð¾":9998,"Ð²ÐµÑĢÐ·Ð¸ÑĤÐµ":9999,"ĠÑģÑĬÐ·Ð´Ð°Ð´ÐµÐ½":10000,"ĠÑģÐ°Ð¹ÑĤÐ¾Ð²Ðµ":10001,"Ð»Ð³Ð¸":10002,"ÑģÑĬÑĨÐ¸":10003,"ÑĢÑĦÑİ":10004,"ĠÐĴÑĢÐ°ÑĨÐ°":10005,"ĠÐ¿ÑĢÐ¸Ð²Ð¸":10006,"ĲÐľ":10007,"ĠÐĿÐ¾Ð²":10008,"ĠÐ°ÐºÑĤÐ¸Ð²Ð½Ð¸":10009,"ĠÐºÐ°ÑĤÐµÐ³Ð¾ÑĢÐ¸Ð¸":10010,"ĠÐºÐ°Ð¼ÑĬÐ½Ð¸":10011,"Ð±Ð¸Ð²Ð°":10012,"ĠÐ²ÑĬÑĢÐ²":10013,"ÑĩÐµÐ½Ð¸ÑıÑĤÐ°":10014,"ĠÐ½Ð°Ð¿ÑĢÐ°Ð²ÐµÐ½Ð¾":10015,"ĠÐºÐ°ÑĢÐ°Ð½":10016,"ĠÐ¡ÑĢÐ±Ð¸ÑĺÐ°":10017,"ĠÐ¾ÑĤÐ´ÐµÐ»Ð½Ð¸ÑĤÐµ":10018,"ĠÐ¾Ð³ÑĬÐ½":10019,"news":10020,"ĠÐ¿Ð¾Ð´Ð³Ð¾ÑĤÐ²Ñı":10021,"ÑĥÐ¼Ð¸ÑĤÐµ":10022,"Ð½Ð´Ð°ÑĢÑĤ":10023,"ĠÑĥÐ²ÐµÐ»Ð¸ÑĩÐ°Ð²Ð°Ð½Ðµ":10024,"ĠÐļÐ¾Ð½ÑģÑĤÐ¸ÑĤÑĥ":10025,"ĠÐŁÑĢÐ¾Ð±Ð»ÐµÐ¼":10026,"ĠÐºÐ°ÑĤÐ°ÑģÑĤÑĢÐ¾ÑĦÐ°":10027,"ÑĨÐ¸Ð¾Ð½Ð½Ð¾ÑĤÐ¾":10028,"ĠÐ¿Ð¾Ð´Ð³Ð¾ÑĤÐ²Ð¸":10029,"ĠÐ¡Ð¸ÑĤÐµ":10030,"ĠÐ®Ð³Ð¾":10031,"ĠÐĴÑĤÐ¾ÑĢÐ¸":10032,"Ð»ÑĨÐ¸":10033,"µÐ²ÑĢÐ¾":10034,"ĠÐ¿Ð¾ÑıÐ²Ð°ÑĤÐ°":10035,"ĠÐ´ÐµÑĺ":10036,"Ð³Ð½ÐµÑĤÐµ":10037,"ĠÐ¿Ð»Ð°ÑīÐ°Ð½Ðµ":10038,"ĠÐ½Ð°Ð´Ð¿ÑĢÐµÐ²Ð°":10039,"ĠÐ²Ð¾Ðµ":10040,"ĠÑĢÐ°Ð·Ð¼ÐµÑĢÐ°":10041,"ĠÐ¿ÑĢÐµÑģÑĤÑĬÐ¿Ð»ÐµÐ½Ð¸Ðµ":10042,"ĠÐ¼Ð¸ÑģÐ»ÐµÐ½Ðµ":10043,"ĠÑĤÑĬÑĢÐ³":10044,"ÑĢÐµÐ»":10045,"ĠÑģÐ»ÑĬÐ½ÑĨÐµÑĤÐ¾":10046,"to":10047,"ĠÐĸÐ¾":10048,"Ð°Ð»ÐµÐ½":10049,"ĠÐ°Ð»Ñĥ":10050,"ÑĺÐ¾":10051,"ĠÐĺÐ·Ð²Ðµ":10052,"Ð²Ð°Ð¹":10053,"ĠÐ¿ÑĢÐµÐ´Ð°Ð²Ð°Ð½Ðµ":10054,"ÑĢÐ°Ð¹":10055,"īÐµÐ½":10056,"ĠÐ·Ð°Ñģ":10057,"ĠÐ½ÐµÐ´Ð²Ð¸Ð¶Ð¸Ð¼Ð¸":10058,"ĠÐ°Ð½ÑĤÐ¸Ð":10059,"Ð½Ð¾Ð³Ð¾":10060,"ĺÐļÐĲ":10061,"ĠÐ½ÐµÐ²ÑĬÐ·Ð¼Ð¾Ð¶Ð½Ð¾":10062,"ĠÐ»ÐµÑĩÐµÐ½Ð¸ÐµÑĤÐ¾":10063,"ĠÐ´Ð¸ÑĢÐµÐºÑĨÐ¸Ñı":10064,"ĠÐ¼Ð°ÑģÐ¾Ð²Ð¾":10065,"ĠÐ¾Ð±ÑĥÑĩÐµÐ½Ð¸ÐµÑĤÐ¾":10066,"ĠÑĢÐµÐ³Ð¸ÑģÑĤÑĢÐ¸ÑĢÐ°Ð½Ð¸":10067,"ĠÐĳÐ°Ð½ÑģÐºÐ¾":10068,"ĠÑĢÐ°Ð·Ð½Ð¾Ð¾Ð±ÑĢÐ°Ð·Ð¸Ð":10069,"ĠÐ¾ÑĤÐ½ÐµÐ¼Ð°":10070,"ĠÑĢÐ°Ð·Ð½Ð¾Ð¾Ð±ÑĢÐ°Ð·Ð¸Ðµ":10071,"ĠÐ´Ð½ÐµÐ²Ð½Ð¾":10072,"ĠÐ¸ÑģÑĤÐ¾ÑĢÐ¸Ð¸":10073,"ĠÑģÐ°ÐºÐ°Ð°ÑĤ":10074,"Ð´Ð±Ð":10075,"ĠAndroid":10076,"ĠÐĺÐ²Ð°Ð¹Ð»Ð¾":10077,"ÑģÐµÐ½Ð¸Ðµ":10078,"ĠÐ²ÑĬÐ¿ÑĢÐ¾ÑģÐ¸ÑĤÐµ":10079,"ĠÐ¦Ð²ÐµÑĤÐ°Ð½":10080,"ĠÐ½Ð¸ÑģÐºÐ°":10081,"ĠÐ²ÑĬÑĤÑĢÐµÑĪÐµÐ½":10082,"ÑīÐµÑĤÐµ":10083,"ĠÐ¡ÑĤÐ¾ÑıÐ½":10084,"¾ÐºÐ¾Ð»Ð¾":10085,"ĠÐ¿Ð¸ÑĪÑĥÐ²Ð°":10086,"Ð±Ð»Ð¸Ð·Ð¾":10087,"ĠÐ°ÐºÐ°Ð´ÐµÐ¼Ð¸":10088,"ĠÑĥÑģÐ¿ÐµÑħÐ°":10089,"ĠÐ½Ð¾ÑģÐ¸ÑĤÐµ":10090,"ĠÐŀÐ±ÑīÐ¾":10091,"ĠÐ²ÑıÑĤÑĬÑĢ":10092,"68":10093,"ĠÑģÑĬÐ´Ð¸Ñı":10094,"ĠÐ¿ÑĢÐ¾ÑĤÐµÐ":10095,"ĠÑıÐ±ÑĬÐ»":10096,"ÑģÐ¾Ðº":10097,"ĠÐ¼Ð¾Ð¼ÑĩÐµÑĤÐ°":10098,"ĠÐ¼ÐµÐ±ÐµÐ»Ð¸":10099,"ĠÐŁÑĢÐµÐ´ÑģÑĤÐ°":10100,"ĠÑĦÑĢÐµÐ½ÑģÐºÐ¸":10101,"ĠÐ½Ð°ÑĤÐ¸ÑģÐºÐ°":10102,"ĠÐºÐ°ÐºÑĬÐ²ÑĤÐ¾":10103,"Ð´Ð¸Ð¾ÑĤÐ¾":10104,"ĠÐ¿ÑĢÐµÐ´Ð»Ð¾Ð¶ÐµÐ½Ð¸ÐµÑĤÐ¾":10105,"ĠÑĪÐ¾ÑĦÑĮÐ¾":10106,"ĠÑĦÐ¾ÑĤÐ¾Ð³ÑĢÐ°ÑĦÐ":10107,"Ð¼Ð¾ÑĢÐ°":10108,"ĠÐŀÐ±Ðµ":10109,"Ð»Ð¸Ðº":10110,"ĠÐĶÐ°Ð½Ð¾":10111,"ĠÑģÑĤÑĢÐ°ÑĪÐ½Ð¾":10112,"ÑĩÑĥÐ²Ð°Ð°ÑĤ":10113,"ĠÐķÐĶÐ":10114,"ĠÐ¾Ð´Ð³Ð¾Ð²Ð¾ÑĢ":10115,"ĠÐ²ÐµÐ½ÑĤÐ¸":10116,"ĠÑģÐµÑĢÑĤÐ¸ÑĦÐ¸ÐºÐ°":10117,"ÑĤÑĢÐ¾Ð¿Ð¾Ð»Ð¸":10118,"ĠÐ½ÐµÑĢÐ°":10119,"ĠÐ¿ÑĢÐ¾ÑĦÐµÑģÐ¾ÑĢ":10120,"ĠÐ¸Ð·ÐºÐ°ÑĢÐ°":10121,"Ð´Ð¸ÑĢÐ°":10122,"ĠÐºÐ°ÑĤÐµÐ³Ð¾ÑĢÐ¸ÑĩÐ½Ð¾":10123,"Ð±Ð¸ÑĢÐ°Ð½Ðµ":10124,"ĠÑĦÐ¾ÑĤÐ¾Ð³ÑĢÐ°ÑĦÐ¸":10125,"ÑĤÐ»ÐµÑĤÐ¸":10126,"ÑİÑĤÑİ":10127,"Ð½Ð¾Ð¼Ð¸":10128,"ĠÑĢÐ¾Ð´":10129,"ĠÑĨÐµÐ½ÑĤÑĢÐ¾Ð²Ðµ":10130,"oth":10131,"ĠÐ¸Ð½ÑĤÐµÐ»Ð¸Ð³ÐµÐ½ÑĤ":10132,"Ġcom":10133,"ÐĿÐ¸Ðµ":10134,"ĠÐ¡ÐĲ":10135,"ĠÐ¸Ð·Ð²ÑĬÑĢÑĪÐ²Ð°ÑĤ":10136,"ĠÐ²Ð°ÑĪÐ¸Ð¾ÑĤ":10137,"ĠÐ¾Ð±Ð²":10138,"ĠÑģÐ¸Ð³Ð½Ð°Ð»Ð¸":10139,"ĠÐ¡Ð¸ÑĤÐ¸":10140,"Ð³Ð´Ð°":10141,"ĠÐ£Ð½Ð¸Ð²ÐµÑĢÑģÐ¸ÑĤÐµ":10142,"ĠÐ¿Ð¾Ð²ÑĢÐ·Ð°":10143,"Ð¼ÐµÐ½ÑĥÐ²Ð°":10144,"ĠÐ¡Ð»Ð°Ð²Ð¸":10145,"ĠÐºÑİ":10146,"ĠÐ½Ð°ÑģÑĤÑĬÐ¿":10147,"Ġ180":10148,"ŀÐ§Ð":10149,"ĠÐ´Ð¾Ð·Ð²Ð¾":10150,"Ð¿Ð»ÐµÐ½Ð¸Ðµ":10151,"ÑĤÐµÑĢÐ¸Ð½Ð°":10152,"Ð½Ð»":10153,"ĠÐ¾ÑĤÐºÑĢÐ¸ÐµÑĤÐµ":10154,"Ð·Ð°ÑīÐ¾ÑĤÐ¾":10155,"Ð³Ð¾Ð´Ð¸ÑĪÐ½Ð¾":10156,"ĠÑģÑĩÐµÑĤÐ¾":10157,"ÐºÐ»":10158,"ĠÐ¸ÑģÐºÑĢÐµ":10159,"ĠÐ»Ð¾Ð²":10160,"¸Ð¼":10161,"ĠÐ¾Ð±ÑıÐ´":10162,"ĠÐ¸Ð·Ð±ÑıÐ³Ð°":10163,"ĠÐĺÑģ":10164,"ital":10165,"IV":10166,"ÑĢÐ²Ð¸Ð·":10167,"ĠÐĲÐ½Ð³ÐµÐ»":10168,"Ð»Ð¾ÑĪÐºÐ¸":10169,"ĠÐ·Ð°Ð¸Ð½ÑĤÐµÑĢÐµ":10170,"Ð³ÑĢÐ¸ÑĤÐµ":10171,"ĠÐĮÐµ":10172,"ĠÐ¶Ð¸Ð²Ð¾ÑĤÐ¸":10173,"ÑĨÐµÐ²":10174,"Ð¶Ð´ÐµÐ½":10175,"ÐºÑĥÐ»Ð°":10176,"ĠÐŁÐ¾ÑĤÑĢÐµ":10177,"ÑĦÐµÑĢÐµÐ½":10178,"ĠÐ¿ÑĢÐµÐ´ÑĥÐ¿ÑĢÐµÐ´Ð¸":10179,"ĠÐ²Ð¸Ð¶":10180,"ĠÐ¾Ð±Ð¸ÑĩÐ°Ð¼":10181,"ĠÐ°ÑĤÐ°ÐºÐ°":10182,"Ġ64":10183,"ĠÐ¿ÑĢÐ¸Ð»Ð¾Ð¶Ð¸":10184,"ĠÐ½Ð°ÑĢÐ°ÑģÑĤÐ²Ð°":10185,"!?":10186,"ĠÑģÐ¸Ð¼Ð²Ð¾Ð»Ð¸":10187,"ĠÑĩÐµÑĢÐ²ÐµÐ½Ð¾":10188,"ĠÐŁÐµÐ½":10189,"ĠÑİÑĢÐ¸Ð´Ð¸":10190,"ĠÑģÐ»ÐµÐ´Ð½Ð¾ÑĤÐ¾":10191,"ĠÑĤÐµÑĢÐ°Ð¿Ð¸Ñı":10192,"ĠÐ·ÑĬÐ±Ð¸":10193,"ÑĤÐµÐ¾":10194,"ĠÑħÐ»Ð°":10195,"ĠÐ©Ð°":10196,"Ð³Ð²Ð°ÑĤ":10197,"ĠÐ½ÑıÐºÐ¾Ðµ":10198,"ĠÑĢÐ°ÑģÑĤÐµÐ½Ð¸Ñı":10199,"Ð´Ð¾Ð±ÑĢÐ¸ÑıÑĤ":10200,"Ġ57":10201,"ĠÐ½ÑıÐºÐ°Ðº":10202,"ĠÐ¿ÑĢÐ¸ÑģÑĬÑģÑĤÐ²Ð¸Ðµ":10203,"Ð½ÑıÐ²Ð°Ð¼":10204,"¿Ð¾":10205,"Ġ58":10206,"ĠÐĺÐ²Ð°Ð½Ð¾Ð²Ð°":10207,"ÑģÐ¸Ð¾":10208,"ÑĤÐ²Ð°ÑĤÐ°":10209,"ĠÐ¸Ð·Ð²Ð°Ð´Ð¸":10210,"ĠÐ¿ÐµÐ½ÑģÐ¸Ð¾":10211,"Ð´Ð½Ð¸ÑĨÐ¸":10212,"ĠÐ½ÑĥÐ¶Ð´Ð¸ÑĤÐµ":10213,"ĠÐ´Ð¸Ð¿Ð»Ð¾Ð¼Ð°ÑĤÐ¸":10214,"Ð©Ðµ":10215,"ĠÐºÐ¾Ð»ÐµÐ³Ð°":10216,"ÑĩÐ¸Ð½Ð¸":10217,"ĠÐ´ÑĬÑĢÐ¶Ð°ÑĤ":10218,"ĠÑĢÐ°ÑģÐ¿Ð¾":10219,"ÐºÐ°ÑĨÐ¸Ñı":10220,"ĠÑĤÑĢÐ°Ðµ":10221,"ong":10222,"ĠÐ¾Ð±Ð¶Ð°Ð»":10223,"The":10224,"ĠÑģÐµÐ»Ð°":10225,"ĠÐ¸Ð·Ð»Ð¸Ð·Ð°Ñ":10226,"ĠÐ¸Ð·Ð»Ð¸Ð·Ð°ÑĤ":10227,"ĠÐ´Ð°ÑĤÐ°ÑĤÐ°":10228,"Ð½Ð±Ðµ":10229,"ĠÐ¿ÑĢÐ¸Ð»Ð¾Ð¶ÐµÐ½Ð¸ÐµÑĤÐ¾":10230,"ĠÐ¿Ð»Ð°Ð½ÐµÑĤÐ°ÑĤÐ°":10231,"ĠÐµÐ»ÐµÐ¼ÐµÐ½ÑĤÐ°":10232,"ÑĤÐ±Ð¾Ð»":10233,"ĠÐºÐ¾Ð½ÑĦÐ»Ð¸ÐºÑĤ":10234,"ĠÑĤÐ°Ð¼Ñĥ":10235,"ĠÐľÑĬÐ¶":10236,"ĠÐ²Ð»Ð¾ÑĪÐ":10237,"ĠÐ¿ÑĢÐµÐ´ÑģÑĤÐ°Ð²ÐµÐ½Ð¸":10238,"Ð²Ð¸ÑģÐ¾ÐºÐ¸":10239,"ĠÑĤÐ°Ð¹Ð½Ð°":10240,"ĠÐ³Ð¾Ð²Ð¾ÑĢÑı":10241,"ĠÐ±Ð¾Ð¼Ð±Ð°":10242,"ĠÐ·Ð°Ð´Ð°Ð²Ð°":10243,"ĠÐ°ÑģÑĤÑĢÐ¾":10244,"ĠÐ²ÑıÑĢÐ°":10245,"ĠÐ±Ð»Ð¾ÐºÐ¸":10246,"ĠÐ¸Ð¼Ð°Ð»Ð°":10247,"ĠÑĢ":10248,"ĠÐ¼Ð¾Ð¶ÐµÐ±Ð¸":10249,"Ð½Ð¸Ð¾":10250,"ĠÐĽÑĥÐ¸":10251,"ĠÐ¡Ð¸Ð¼ÐµÐ¾Ð½":10252,"Ð²Ð¾Ð´ÑģÑĤÐ²Ð¾":10253,"ĠÐ¥Ð°ÑģÐºÐ¾Ð²Ð¾":10254,"ĠÐ¸ÑģÑĤÐ¸Ð½ÑģÐºÐ°":10255,"ĠÐ¶ÐµÑĢÑĤÐ²Ð°":10256,"Ð²Ð¸ÑĺÐ°":10257,"ĠÐ´Ð¾Ð±Ð¸Ð":10258,"Ġbe":10259,"ĠÑģÑĬÐ¾ÑĢÑĬÐ¶ÐµÐ½Ð¸Ñı":10260,"ĠÐ¸Ð¼Ð¿ÐµÑĢÐ¸Ñı":10261,"ĠÐ¡ÐľÐ":10262,"ĠÐ¿Ð¾Ð·Ð²Ð¾Ð»ÑıÐ²Ð°ÑĤ":10263,"ĠÐ½ÐµÐ´Ð¾ÑģÑĤÐ¸":10264,"ĠÐ¿Ð°ÑĢÐºÐ¾":10265,"ĠÐ°ÑĢÐµÑģÑĤÑĥÐ²Ð°":10266,"ĠÐ³Ð¾ÑĢÐ°":10267,"ÑĢÐ¸ÑģÑĤÐ°":10268,"ĠÐ´Ð¾Ð²Ð¾Ð»Ð½Ð¾":10269,"ĠÐ´ÑĢÐ¾Ð±":10270,"ķÐĻ":10271,"Ð´ÑĢÑĥÐ¶ÐµÐ½Ð¸Ðµ":10272,"ĠÐ´ÑĢÐ°Ð·":10273,"ĠÐ¿ÑĢÐ°ÑĪÐ°ÑļÐµ":10274,"ĠÐ´Ð¾Ð»Ð³Ð¾":10275,"ĠÐ¾ÑĤÐ³Ð¾Ð²Ð°ÑĢÑıÑĤ":10276,"ĠÐºÐ¾ÑĢÐ¾Ð½Ð°Ð²Ð¸ÑĢÑĥÑģÐ°":10277,"ĠÐ³ÑĬÐ²ÐºÐ°":10278,"ÑĤÐ¸Ð¿":10279,"ĠÐ°ÐºÐ°Ð´ÐµÐ¼Ð¸Ñı":10280,"ĠÐ¸Ð¼Ð¿ÐµÑĢÐ°":10281,"ĠÐ´Ð¾ÐºÑĤÐ¾ÑĢ":10282,"Ð¿ÐºÐ¸ÑĤÐµ":10283,"ari":10284,"ĠÐ¿ÑĢÐ¾ÑĨÐµÐ½ÑĤÐ¸":10285,"ĠÐ¾Ð±ÐµÐºÑĤÐ°":10286,"ĠÐ¿Ð¾Ð¼ÐµÑīÐµÐ½Ð¸Ðµ":10287,"ĠÐĴÐµÑĢÐ¾ÑıÑĤÐ½Ð¾":10288,"ÑħÐ°ÑĤÐ°":10289,"ĠÐ¾ÑĤÐ´ÐµÐ»Ñı":10290,"ĠÐ±Ð»Ð¾ÐºÐ°":10291,"ĠÑĦÑĢÐµÐ½":10292,"ĠHotel":10293,"ĠÐ¿ÑĢÐµÐ´Ð¾ÑģÑĤÐ°Ð²Ð¸":10294,"ĠÐĳÐ¸Ð·":10295,"ĠÐ¿ÑĥÐ±Ð»Ð¸ÐºÑĥÐ²Ð°Ð½Ð¾":10296,"67":10297,"ĠÑģÐ¸Ð½ÑĤÐµ":10298,"ĠÑģÐ¸Ð¼Ð¿Ð°":10299,"ĠÑĥÐ»Ð¸ÑĨÐ¸":10300,"ĠÐ¿Ð°ÑĢÑĩÐµ":10301,"ĠÐĵÐ¾ÑĢÐ°":10302,"ĠÐ³ÑĬÑĢ":10303,"ĠÐ¿ÑĢÐµÐ´Ð»Ð°Ð³Ð°Ð¼Ðµ":10304,"ÐºÐ¾Ð¼Ð¾ÑĤÐ¸Ð²":10305,"ĠÐĶÐ¾Ð½Ð°Ð»Ð´":10306,"ĠÐ´Ð¾Ð¶Ð¸":10307,"ÑģÐ½Ð¸Ðº":10308,"ĠÐ¸Ð´ÐµÐ¾":10309,"Ð²Ð°ÑĢÐ°":10310,"Ð¿Ð¾ÑģÐ»ÐµÐ´ÑģÑĤÐ²Ð¸Ðµ":10311,"ĠÑĢÐµÐºÐ°ÑĤÐ°":10312,"ĠÐºÑĥÐ»ÑĤÑĥÑĢÐ¸":10313,"ĠÐ¿Ð¾Ð´ÑĢÐ°Ð·":10314,"ĠÐ¶ÐµÑĢÑĤÐ²Ð¸":10315,"ĠÐ½ÐµÐ¾Ð±ÑħÐ¾Ð´Ð¸Ð¼Ð¾ÑģÑĤ":10316,"Ð³ÑĢÐ°ÑĦÑģÐºÐ¸":10317,"ĠÑģÐ²ÑĬÑĢÐ¶ÐµÑĤÐµ":10318,"ĠÑģÐµÐ´Ð°":10319,"ĠÐ¾Ð¿ÑĤÐ¸Ð¼Ð°":10320,"ĠÐ¡ÑĬÑİ":10321,"Ð½Ð´ÑĬÑĢ":10322,"ĠÑħÐ¾ÑĢÐ¼Ð":10323,"ĠÑģÑĬÐ³Ð»Ð°ÑģÐ¸Ðµ":10324,"ĠÐ³ÑĢÐ°Ð´Ð¾Ð½Ð°ÑĩÐ°":10325,"ĠÐ½Ð°ÑĪÐµ":10326,"ĠÐ½Ð¾ÑīÑĥÐ²ÐºÐ¸":10327,"ĠÐ¢ÑĢÐ°Ð½":10328,"ĠÐ¾Ð¿ÑĢÐµ":10329,"ĠÐ£ÑĩÐµ":10330,"ĠÑģÐ¿Ð°Ð»Ð½Ð¸":10331,"ĠÐ¾ÐºÑĢÑĬ":10332,"ana":10333,"ĠÐ½Ð¸ÐºÐ¾Ð³Ð°ÑĪ":10334,"ĠÐ°ÐºÑĤÑĥÐ°Ð»Ð¸":10335,"ĠÐ¨ÑĤÐ¾":10336,"ĠÐ²ÐµÑģÐµ":10337,"ĠÑĢÐ°Ð·Ð¼Ð¸":10338,"ĠÐ½ÐµÐ±ÐµÑĤÐ¾":10339,"ÐºÐ¾Ð½Ð¸":10340,"ĠÑģÐ¸Ð½Ð´Ð¸":10341,"ĠÐ¾Ð±ÑĢÐ°ÑĤÐ½Ð¾ÑĤÐ¾":10342,"ĠÐ´Ð»Ð°":10343,"ĠÐ²Ð¸Ð¶Ð´Ð°Ð¼Ðµ":10344,"ĠÑģÑĤÑĬÐºÐ»Ð¾":10345,"ĠÐ¸ÑģÐºÐ°Ð½Ðµ":10346,"ĠÐ¼Ð°ÑīÐ°Ð±":10347,"ĠÐºÐ¾Ð¾ÑĢÐ´Ð¸Ð½Ð°":10348,"Ð´Ð¸ÑĤÐµÐ»Ð¸ÑĤÐµ":10349,"Ð½Ð¸ÑĨÐ°ÑĤÐ°":10350,"Ð»Ð¾Ð¶ÐµÐ½Ð¸ÑĤÐµ":10351,"ĠÐ¼Ð°Ð·Ð½Ð¸Ð½Ð¸":10352,"ÑĪÑĬÐ½":10353,"ĠÐ¿ÑĢÐ¸Ð¼Ðµ":10354,"ÑģÑĤÐ½Ð¸ÑıÑĤ":10355,"ĠSk":10356,"ĠÑĢÐµÑĪÐ¸ÑĤÐµ":10357,"ĠÐ»Ð¾ÑĪÐ¸":10358,"Ð¿ÑĥÐ»":10359,"ĠÐ¼Ð¾Ð±Ð¸Ð»Ð½Ð¸":10360,"ÑĤÐ¸ÑĢÐ°Ð½Ðµ":10361,"ĠÑĩÑĥÐ²ÑģÑĤÐ²Ð¾ÑĤÐ¾":10362,"ĠÐ¡ÐµÐ¿Ð°Ðº":10363,"ĠÑĤÐ¸Ð¿Ð°":10364,"ĠÐĿÐ¯":10365,"ĠÐ¾Ð±ÑģÑĬÐ¶Ð´Ð°":10366,"ĠÐ¿Ð¾Ð´Ð¿Ð¸Ñģ":10367,"Ð°Ð»Ð½Ð¸ÑĤÐµ":10368,"ĠÐ´ÑĬÑĢÐ¶Ð°Ð²Ð½Ð¸ÑĤÐµ":10369,"ĠÑĥÐ±ÐµÐ´Ð¸":10370,"ĠÐ¿Ð¾Ð´ÐºÑĢÐµÐ¿ÑıÑĤ":10371,"ĠÐĺÐ·ÑĤÐ¾ÑĩÐ½Ð°":10372,"ĠÐ¾ÑĦÐ¸ÑĨÐ¸ÑĺÐ°":10373,"ĠÐŁÑĢÐ¾Ð²Ðµ":10374,"Ġ52":10375,"ĠÐ¸Ð¼Ð°Ñħ":10376,"ĠÐĹÐ°ÐºÐ¾Ð½Ð¾Ñ":10377,"ĠÐĹÐ°ÐºÐ¾Ð½Ð¾ÑĤ":10378,"ĠÐ½ÐµÐºÐ¾ÑĺÐ°":10379,"Ð±Ð¸Ð¹":10380,"ĠÐºÐ¾Ð½Ð³":10381,"ĠÐ±Ð°Ð»Ð°Ð½Ñģ":10382,"erc":10383,"Ð³Ð½Ð°ÑĤÐ°":10384,"ĠÐ¿Ð¾Ð´Ð¾Ð±ÑĢÑıÐ²Ð°":10385,"ĠÐ»ÑİÐ±Ð¸ÑĤÐµ":10386,"ĠÑģÐ´ÐµÐ»ÐºÐ°":10387,"ĠÐ¸Ð·ÑĤÐ¾Ðº":10388,"ĠÑģÐ»ÐµÐ´Ð½Ð°ÑĤÐ°":10389,"ĠÐ»ÐµÐ½ÑĤÐ°":10390,"ĠÐ½Ð°ÑĢÐ¾Ð´Ð½Ð¸":10391,"EC":10392,"ĠÐ¸Ð·Ð²ÑĬÑĢÑĪÐ²Ð°Ð½Ðµ":10393,"Ġmm":10394,"ÐµÐ¼Ð¾ÑģÑĤ":10395,"ĠÐ¿Ð¾Ð»Ð¸ÑĨÐ°Ð":10396,"MW":10397,"ĠÐ½Ð°ÑĤÑĢÑĥÐ¿Ð°":10398,"ors":10399,"Ð»Ð¾Ð¶ÐµÐ½Ð¸ÑıÑĤÐ°":10400,"ĠÐ²ÑĬÑĤÑĢÐµÑĪÐ½Ð¸ÑĤÐµ":10401,"ķÐ¢Ðķ":10402,"ĠÐ²ÐµÐ´Ð½Ð°ÑĪ":10403,"ĠÐ¿ÑĢÐµÐ´Ð¸Ð·Ð±Ð¾":10404,"ĠÐ´ÑĬÑĢÐ¶Ð°Ð²ÐµÐ½":10405,"ÐĽÐ°":10406,"ĠÐ¿Ð¾Ð´ÑĢÐ°":10407,"ĠÑģÐ°Ð½ÐºÑĨÐ¸Ð¸":10408,"ĠÑħÐ¾ÑĤÐµÐ»Ð¸":10409,"ĠÐ´Ð¾ÑģÑĤÑĬ":10410,"Ð¼Ð¾Ð¶Ðµ":10411,"ÐŁÑĥ":10412,"ĠÑĤÐµÐºÑģÑĤÐ¾Ð²Ðµ":10413,"Ð²Ð¸Ð½Ð¸":10414,"ĠÐ¿ÑĢÐ¾ÑĪÐ":10415,",...":10416,"¾ÑĨÐ½Ð°":10417,"ĠÐ¼Ð°ÑĩÐ¾Ð²Ðµ":10418,"ĠÐķÐ¼Ð¸Ð»":10419,"ĠÐĥÐ":10420,"ĠÐ¼ÐµÑħÐ°Ð½Ð¸Ð·ÑĬÐ¼":10421,"ĠÐ¿Ð¾ÑĩÐ¸Ð½Ð°":10422,"ĠÐĴÑĥ":10423,"¾Ð¾Ð":10424,"ĠÐĵÑĢÑĨÐ¸ÑĺÐ°":10425,"ĠÐĳÑĬÑĢÐ":10426,"ĠÐºÐ¾Ð½ÑĦÐµÑĢÐµÐ½ÑĨÐ¸Ñı":10427,"ĠÑĢÑĥÑģÐ½Ð°ÑĨÐ¸ÑĤÐµ":10428,"ĠÑĥÐ½Ð¸Ð²ÐµÑĢÑģÐ¸ÑĤÐµÑĤÐ°":10429,"ĠÐ³ÐµÐ¹":10430,"ĠÐ¿Ð°ÑĤÑĢÐ¸Ð¾":10431,"ĠÐ¿Ð¾Ð¼Ð¸":10432,"ĠÑĦÐ°ÐºÑĥÐ»ÑĤÐµÑ":10433,"ĠÑĦÐ°ÐºÑĥÐ»ÑĤÐµÑĤ":10434,"ĠÐ°Ð´ÐµÐºÐ²Ð°ÑĤ":10435,"ĠÑĤÑĢÑı":10436,"Ð±ÐµÐ´":10437,"ĠÑģÐ»ÑĥÐ¶Ð¸ÑĤÐµÐ»":10438,"ĠÐ¼Ð°Ð½Ð°ÑģÑĤÐ¸ÑĢ":10439,"ĠÑĬÐ³ÑĬÐ»":10440,"Ð»Ð¸ÑīÐ°":10441,"ĠÐ½Ð°Ð²Ð»Ð¸Ð·Ð°":10442,"ĠÑĢÐ°Ð·Ð¼Ðµ":10443,"ĠÐĽÐ¸Ð³Ð°":10444,"ĠÑĢÐ°Ð¶Ð´Ð°":10445,"ĠÐļÐµÐ¹":10446,"ign":10447,"ĠÐ²ÑıÑĢÐ²Ð°Ð¼":10448,"ĠÑģÐ¾Ð±ÑģÑĤÐ²ÐµÐ½Ð°":10449,"ÑĬÐºÐ¼Ð¾":10450,"ĠÑĩÐ¸ÐµÑĤÐ¾":10451,"ĠÐ²Ð»Ð°Ð´ÐµÐ":10452,"ĠÑĩÐ»ÐµÐ½ÐºÐ¸":10453,"ÐļÐ¸":10454,"ĠÐĳÐ¸ÑĤÐ¾Ð»Ð°":10455,"ĠÐ¾ÑģÐ²Ð¾Ð±Ð¾Ð¶Ð´Ð°":10456,"ĠÑģÐ¿ÑĢÐ°Ð²Ñı":10457,"ĪÐĲ":10458,"ĠÐ¸ÑģÑ":10459,"ĠPr":10460,"AD":10461,"ĠÑĢÐ°Ð±Ð¾ÑĤÐ¸Ð¼":10462,"ÐºÑĤÐ¾ÑĢÐ¾ÑĤ":10463,"ĠÐ½Ð°ÑĢÐ¸ÑĩÐ°ÑĤ":10464,"ĠÑģÑĬÑħÑĢÐ°Ð½ÑıÐ²Ð°":10465,"Ð¿Ð¾Ð»Ð¸ÑĤÐ¸":10466,"ĠÐ¼ÐµÐ´Ð¸ÑĨÐ¸Ð½ÑģÐºÐ°":10467,"ĠÑĢÐ°Ð·Ð±ÑĢÐ°Ñħ":10468,"ĠÑĦÐ¸Ð½Ð°Ð½ÑģÐ¾Ð²":10469,"ĠÐ¸Ð·ÑģÑĤÑĢÐµ":10470,"ĠÐĺÐ°":10471,"ĠÐ²ÑĬÑĢÐ½Ð°ÑĤ":10472,"ĠÐ¿Ð¾ÑĤÑĢÐµÐ±Ð½Ð¾":10473,"ĠÑģÐ¼ÑĬÑĢ":10474,"Ð½ÐµÑĨÑĬÑĤ":10475,"ÐĽÐ¾":10476,"ĠÐºÐ»Ð¸ÐµÐ½ÑĤÐ°":10477,"ĠÐ¼Ð¾Ð³ÑĬÐ»":10478,"ĠSamsung":10479,"ĠÐ¿ÑĢÐµÐ¿Ð¾ÑĢÐ°":10480,"ics":10481,"ĠÐŀÐºÐ¾Ð»Ð¾":10482,"Ð»ÐµÐ¹Ð±Ð¾":10483,"ĠÐ°ÑĦ":10484,"ĠÑĥÑĩÐ°Ñ":10485,"ĠÑĥÑĩÐ°ÑĤ":10486,"ÑģÐ½ÐµÐ½Ð¸Ñı":10487,"69":10488,"Ð²Ð°Ð¶Ð½Ð¸ÑĤÐµ":10489,"ĠÐ¿ÑĢÐ²Ð°ÑĤÐ°":10490,"ÑģÐ¸Ñģ":10491,"ĠÐ¿ÑĢÐµÑĤÐµÐ½":10492,"Ð¿ÐµÐ²":10493,"ĠÑĢÐµÐ¹":10494,"ĠÐ´ÐµÐ·Ð¸":10495,"ĿÐĺÐľÐ":10496,"Ð¾Ð±ÑĢÐ°ÑľÐ":10497,"\"...":10498,"ĠÑģÑĤÐ¾Ð¹Ð½Ð¾ÑģÑĤÑĤÐ°":10499,"Ð½Ð°Ñĺ":10500,"ĠÐ¿Ð¾Ð¿Ð°Ð´Ð°":10501,"Ð¼Ð¾Ð²ÐµÑĤÐµ":10502,"ĠÑĪÑĤÐµ":10503,"Ġ85":10504,"ÑĤÑĬÐ¼":10505,"ĠÐĺÐ¼Ð°ÑĪÐµ":10506,"ĠÐ¼Ð¸ÑģÐ»Ð¸ÑĪ":10507,"łÐŀÐ":10508,"Ð¿ÑĢÐ¾Ð´Ñĥ":10509,"ĠÐ¡Ð¸Ð»":10510,"ÑĥÐ²Ð°Ð¼":10511,"ĠÐ°Ð´ÑĢÐµ":10512,"ĠÐ½Ð°ÑĪÐ°":10513,"ĠÐĺÐ´ÐµÑıÑĤÐ°":10514,"ĠÐĶÐ²Ð°Ð¼Ð°ÑĤÐ°":10515,"ÑģÑĬÐ»Ð°":10516,"ĠÐ¼Ð°ÑĤÐµÑĢÐ¸Ð°":10517,"ational":10518,"ĠÐĲÑĤÐ°Ð½Ð°Ñģ":10519,"ĠÐ¿Ð¾Ð²ÐµÐ´ÐµÐ½Ð¸ÐµÑĤÐ¾":10520,"ĠÑĦÐ¾ÑĢÐ¼Ð°ÑĤ":10521,"ĠÐ´ÑĬÐ½Ð¾ÑĤÐ¾":10522,"¤ÐĲ":10523,"ĠÐ·Ð°Ð¿Ð¾ÑĩÐ½ÐµÑĤÐµ":10524,"ĠÑĩÐµÑĢÐ²ÐµÐ½":10525,"ĠÑģÑĬÐ¿ÑĢÑĥÐ³Ð°ÑĤÐ°":10526,"ĠÐºÑĢÐ°Ð":10527,"ĠÐºÐ¾ÑĢÐ¿":10528,"ĠÑĨÐµÐ»Ð¾ÑģÐ½Ð¾":10529,"Ð½ÐºÐ¾Ð²Ð°":10530,"ÐŁÑĢÐ°":10531,"ower":10532,"ĠÐ¿Ð¾Ð´Ð°Ð´Ðµ":10533,"ĠÐ¾ÑģÐ¸Ð³ÑĥÑĢÑıÐ²Ð°ÑĤ":10534,"ĠÐ¸Ð¼ÐµÐ½Ð°ÑĤÐ°":10535,"ļÐŁ":10536,"Ð»Ð³Ð¸Ñı":10537,"ĠÑĥÐ´Ð¾Ð²Ð»ÐµÑĤÐ²Ð¾":10538,"ĠÐ¿ÐµÑĪÐµ":10539,"ĠÑĢÐ°Ð·ÑĢÐµÑĪÐµÐ½Ð¸Ðµ":10540,"ĠAir":10541,"ĠÐ¸Ð·ÑĤÐµÐ³":10542,"Ġ''":10543,"ĠÑģÑĢÑĬÐ±":10544,"ĠÑģÐ»ÑĥÑĩÐ¸Ð»Ð¾":10545,"ĠÐºÐ¾ÑĪ":10546,"ĠÐ¿ÑĢÐµÐ´ÑģÑĤÐ°Ð²Ð»ÑıÐ²Ð°ÑĤ":10547,"ĠÐºÑĥÐ¿Ð°":10548,"ĠÑģÑĤÐ°ÑĢÐ°ÑĤÐ°":10549,"ĠÐ´ÑıÐ´Ð¾":10550,"ĠÑĤÑĢÐµÐ½Ð¸ÑĢÐ°":10551,"ĠÐĿÐ°Ð¸ÑģÑĤÐ¸Ð½Ð°":10552,"ĠÐµÐ»ÐµÐºÑĤÑĢÐ¸ÑĩÐµÑģÐºÐ¸":10553,"Ð½Ð°ÑĤÐ¾":10554,"ĠÐĲÐºÐ°Ð´Ðµ":10555,"ĠÐºÐ°Ð±Ð¸Ð½ÐµÑĤÐ°":10556,"ĠÐºÑĬÑģÐ¼ÐµÑĤ":10557,"ĠÑģÑĤÑĢÐ¾Ð¸ÑĤÐµÐ»ÑģÑĤÐ²Ð¾ÑĤÐ¾":10558,"ĠÐĺÐ»Ð¸ÐµÐ²":10559,"ÐĹÐ´ÑĢÐ°":10560,"ĠÐ³Ð¾Ð²Ð¾ÑĢÐµ":10561,"ĠÑĥÑĤÐ²":10562,"ĠÐ²ÑĬÑĤÑĢÐµÑĪÐ½Ð¾":10563,"ĠÑģÐ²ÑĬÑĢÐ·Ð²Ð°":10564,"ĠÐºÐ¾Ð¿Ð¸":10565,"ĠÐ¶Ð¸Ð²ÐµÐµÐ¼":10566,"ĠÐ¿Ð¾Ð´Ð½ÐµÑģÐµ":10567,"ĠÐµÐ´Ð½Ð¾ÑģÑĤÐ°":10568,"ĠÑĢÐ°Ð±Ð¾ÑĤÐ½Ð¾":10569,"Ð²ÐµÑĩ":10570,"ĠÐŀÐ±Ð¸ÐºÐ½Ð¾Ð²ÐµÐ½Ð¾":10571,"ĠÑĢÐµÐ°ÐºÑĨÐ¸Ð¸":10572,"ĠÐ¦ÐµÐ½Ð°ÑĤÐ°":10573,"ĠÑģÑĬÑģÑĤÐµÐ·Ð°Ð½Ð¸Ðµ":10574,"ĠÑĢÑĥÑģÐºÐ¸Ñı":10575,"ĠÐ¾Ð³ÑĢÐ°Ð½Ð¸ÑĩÐµÐ½Ð¸Ñı":10576,"Ġat":10577,"ĠÐ½Ð°Ñħ":10578,"ĠÐ§Ð»":10579,"ĠÐ¸Ð·Ð³Ð»ÐµÐ´":10580,"Ð½ÐµÐ»Ð°":10581,"ĠÐ¿ÑĢÐ¾Ð¿Ð¾":10582,"ĠÑĢÐ°Ð·Ð²Ð¸Ð²Ð°ÑĤ":10583,"ĠÐļÐ°Ð½Ð°Ð´Ð°":10584,"ĠÐ¿ÑĢÐ¾ÑģÑĤÐ¾ÑĢ":10585,"oom":10586,"ĠÐ¾ÑĤÐ±Ð¾ÑĢÐ¸":10587,"Ð´ÐºÐ°ÑĤÐ°":10588,"ĠÐļÐ°Ð·Ð²Ð°":10589,"Ġvo":10590,"ĠÐ»ÐµÐ³Ð»Ð¾":10591,"ļÐŀ":10592,"ÑĢÐ¾Ð²ÐºÐ¸":10593,"OM":10594,"ÐºÐ°Ð»Ñı":10595,"ĠÑģÐµÐ´Ð½Ð°":10596,"Ð¹Ð½Ð¸Ñı":10597,"ĠÐ¾ÑĤÐºÑĬ":10598,"ĠÑģÑĤÑĢÐµÐ¼Ðµ":10599,"ĠÐļÐ¾Ð¸":10600,"ĠÑģÑĬÐ³Ð»Ð°ÑģÐ¸":10601,"ĠÐ¾ÑĤÑĬ":10602,"ĠÐ²Ð°ÐºÐ°Ð½":10603,"ĠÐ¿ÑĢÐµÐ³Ð¾Ð²Ð¾ÑĢÐ¸ÑĤÐµ":10604,"ĠÐĺÑĢÐ°Ðº":10605,"ĠÐ¿ÑĢÐµÐ´ÑħÐ¾Ð´":10606,"ĠÑĤÐ²ÑĬÑĢÐ´Ð¾":10607,"ĠÐ¾Ð±ÑīÐµÑģÑĤÐ²ÐµÐ½Ð¾":10608,"\"!":10609,"ĠÐ¤Ð»Ð¾":10610,"ĠÑģÐ¾Ðº":10611,"Ð½Ð¸ÑĢÐ°Ð½Ðµ":10612,"ĠÐ²ÑĬÑĢÑĪÐ¸":10613,"ĠÐ¿Ð°Ð´Ð½Ðµ":10614,"ĠÐľÐ¸Ð½Ð¸ÑģÑĤÐµÑĢÑģÑĤÐ²Ð¾":10615,"ĠÐ²ÑĢ":10616,"ĠÐļÐĲÐ":10617,"ĠÐ½Ð°ÑĤÑĥÑĢÐ°":10618,"ĠÐ°Ð²Ð¸Ð¾":10619,"Ġ95":10620,"ĠÐ£Ð½Ð³Ð°ÑĢÐ¸Ñı":10621,"ĠÑıÐ¹ÑĨÐ°":10622,"ĠÐłÐ¾Ð½Ð°":10623,"łÐĲÐĿÐ":10624,"ĠÐĴÐ°ÑĪÐ¸ÑĤÐµ":10625,"ĠÐ¼Ð½ÐµÐ½Ð¸Ñı":10626,"ĠÐ±ÐµÐ»":10627,"ĠÐ³Ð¾ÑĢÐ´Ð¾":10628,"ÑģÐ¸ÑĺÐ°ÑĤÐ°":10629,"ĠUSB":10630,"Ð´Ð¸Ñģ":10631,"ĠÐ¾ÑĤÐºÑĢÐ°":10632,"ĠÑħÑĢÐ°Ð¼":10633,"ÐºÐ¾Ð²Ð¸ÑĤÐµ":10634,"ĠÐ¿ÐµÑĢÐ¸":10635,"ÐºÑĤÑĥÑĢÐ°ÑĤÐ°":10636,"ĺÐĽ":10637,"ĠÐĸÐ¸Ð²Ð¾ÑĤ":10638,"ĠÐ½Ð°Ð´ÑıÐ²Ð°Ð¼":10639,"Ð¹ÐµÑĢ":10640,"ĠÐ¾Ð±ÑīÐ°ÑĤÐ°":10641,"ĠÐ¿Ð¾Ð»ÐµÑĤ":10642,"ÑģÑĤÐ°Ð½ÑĨÐ¸Ñı":10643,"ĠÐ¸Ð½ÑĤÐµÑĢÐµÑģÐ½Ð°":10644,"¯Ð¢":10645,"ĠÐ¾Ð±Ð¸ÑĤÐ°":10646,"ĠÑģÐ¿Ð¾ÑĢ":10647,"ĠÐ¿ÑĢÐµÐ½Ð°":10648,"ÐºÐ¾Ð¹ÑĤÐ¾":10649,"¥Ð":10650,"ĠÐ´Ð¸ÑĺÐ°":10651,"ĠÐ´ÑĬÐ»Ð³":10652,"ĠÑģÑĬÑīÐµÐ²ÑĢÐµÐ¼ÐµÐ½Ð½Ð¾":10653,"ĠÐ¼Ð¸Ð½Ð¸ÑģÑĤÐµ":10654,"Ð¿ÑĢ":10655,"ĠÐĻ":10656,"ÐºÐ°Ð·Ð²Ð°Ð½Ðµ":10657,"ĠÐ¿Ð°Ð¼ÐµÑĤÑĤÐ°":10658,"ÑģÑĤÐ½Ð¾ÑĤÐ¾":10659,"ĠÐ»ÐµÐºÐ°ÑĢÐ¸ÑĤÐµ":10660,"ĠÑĢÐµÑĩÐ¸":10661,"ĠÐŀÐ»Ð¸Ð¼Ð¿Ð¸":10662,"ÑĢÐºÐµÐ»":10663,"ĠÐŁÐ¾ÑģÐµ":10664,"ĠÐ¿ÑĢÐ°ÐºÑĤÐ¸ÑĩÐµÑģÐºÐ¸":10665,"ĠÐĲÐ·Ð¸Ñı":10666,"ĠÐ¿ÑĢÐ¾Ð½Ð¸Ðº":10667,"ĠÐºÐ¾Ð½ÑĤÑĥ":10668,"Ð·Ð¸ÑĤÐµÐ»Ð½Ð¾":10669,"ĠÑĤÐ¸ÑĤÐ»Ð°ÑĤÐ°":10670,"Ġ54":10671,"ĠÐłÐ°Ð·Ð»Ð¸":10672,"ÑģÐ½Ð¸ÑĨÐ¸ÑĤÐµ":10673,"ĠÐ·Ð°ÐºÐ¾Ð½Ð¸ÑĤÐµ":10674,"ĠÐļÐ°Ð¼Ðµ":10675,"ĠÐ¸Ð·ÑħÐ¾Ð´":10676,"ĠÐ¾Ð¼ÑĢÐ°":10677,"ĠÐ¾ÑĤÐ²Ð¾ÑĢÐµÐ½Ð¸":10678,"ĠÐ´Ð¾Ð±ÑĢÐ¸ÑĤÐµ":10679,"ĠÐ±ÑĢÐ°ÑĤÑı":10680,"ĠÑĦÑĥÑĤÐ±Ð¾Ð»Ð¸ÑģÑĤÐ¸":10681,"ĠÐ¿Ð¾Ð¼ÐµÐ¶Ð´Ñĥ":10682,"ĠÐ¸ÑģÑĤÐ°ÐºÐ½Ð°":10683,"ĠÐ¾Ð±Ð·Ð°Ð²Ðµ":10684,"ĿÐķÐ¡":10685,"ĠÐĻÐ¾ÑĢÐ´Ð°Ð½":10686,"ĠÐºÐ¾Ð½ÐºÑĥÑĢÐµÐ½ÑĤ":10687,"ĠÐµÑĦÐ¸":10688,"ĠÐ¿Ð¸Ð»Ð¾":10689,"Ð½ÐµÐ½ÑĤÐ°":10690,"ÐĿÑıÐ¼Ð°":10691,"ĠÑĬ":10692,"ĠÐ½Ð°ÑıÑģÐ½Ð¾":10693,"ĠÐ¿ÑĢÐ¸Ð¼ÐµÑĢÐ½Ð¾":10694,"ÐºÐ¾Ð¼Ð¸":10695,"ÑĢÐ¼Ð°Ð»Ð½Ð¾":10696,"ĠÐĪÐ°Ñģ":10697,"ĠÐ²ÐµÐ»Ð¸ÐºÐ¾":10698,"ĠÐĳÑĢÐ°Ð²Ð¾":10699,"Ð¼ÐµÐ½ÑĤÐ¾ÑĤ":10700,"Ð³ÑĢ":10701,"ĠÐ¸Ð·Ð¼Ð¸ÑģÐ»Ð¸":10702,"ĠÐºÐ°ÑĢÐ°ÑĤ":10703,"ĠÐ²Ð»Ð°ÑģÑĤÐ¸ÑĤÐµ":10704,"ĠÑĤÑĢÐµÑĤÐ°ÑĤÐ°":10705,"ĠÐ¿ÑĢÐµÑģÐµ":10706,"ĠÑĢÐµÐ³Ð»Ð°":10707,"ĠÐ¡ÐĶÐ¡":10708,"Ð¼ÑĥÐ»Ð°":10709,"ĠÐ³Ð¸Ð³Ð°Ð½ÑĤ":10710,"ĠÑĥÑĩÐµÐ½Ð¸ÑĤÐµ":10711,"ĠÐ¾ÑħÐ»Ð°":10712,"ĠÐ¨Ð²ÐµÐ¹ÑĨÐ°":10713,"ĠÐ²ÑĬÐ»Ð½ÑĥÐ²Ð°":10714,"Ð´Ð½Ð¸Ðº":10715,"ĠÐ²Ð¸Ð¶ÑĤÐµ":10716,"ans":10717,"ĠÐ¿ÑĢÐ¾Ð±Ð»ÐµÐ¼ÑĬÑĤ":10718,"ĠÐºÑĢÐ°Ðº":10719,"ĠÑīÐ°ÑĤ":10720,"ĠÐ¸Ð½Ð´Ñĥ":10721,"ĠÐµÐºÑĢÐ°Ð½Ð°":10722,"Ð²ÑĬÑĢÐ¶Ðµ":10723,"ĠÐ°Ð¿Ð»Ð¸ÐºÐ°":10724,"ĠÑģÐ¼ÐµÐ":10725,"ĠÐ¡ÑĬÐ²ÐµÑĤÐ°":10726,"ĠÐ´ÐµÐ²Ð¾Ñĺ":10727,"ĠÐ¿Ð¾Ñĥ":10728,"ĠÐ³Ð»ÐµÐ´Ð°Ð¼Ðµ":10729,"ľÐŀ":10730,"Ð²Ð½Ð¸ÐºÐ°":10731,"Ð±ÐµÐ½Ð°":10732,"µÐ¹ÑģÐ±ÑĥÐº":10733,"ÐµÐ²ÑĢÐ¾":10734,"Ð¼ÐµÑĤÐµ":10735,"Ð»Ð¾Ð¶Ð±Ð°ÑĤÐ°":10736,"ĠÐķÐļ":10737,"ĠÐ¸Ð½ÑĤÐµÑĢÐµÑģÐµÐ½":10738,"ĠÑĦÑĢÐ¸":10739,"ĠÐĳÐµÑĢÐ»Ð¸Ð½":10740,"ĠÐ²ÑĬÐ·ÑģÑĤÐ°Ð½Ð¾Ð²Ð¸":10741,"Ð´ÐµÑĨ":10742,"ĠÐ¿Ð¾Ð´Ð¿Ð¾Ð¼Ð°Ð³Ð°Ð½Ðµ":10743,"ĠLe":10744,"ÑģÑĤÐ¸ÑĩÐµÐ½":10745,"ÐºÐ½Ð¾Ð²ÐµÐ½":10746,"ĠÐ±Ð°ÑĢ":10747,"ĠÐ²ÑĬÐ·Ð´ÐµÐ¹ÑģÑĤÐ²Ð¸Ðµ":10748,"ĠÐ©Ðķ":10749,"ĠÐ½ÐµÐ²ÑĬÐ·Ð¼Ð¾":10750,"ĠÑĦÐ¸ÑĤÐ½ÐµÑģ":10751,"ĠÐ±ÐµÐ·ÐºÑĢÐ°":10752,"ĠÐŁÐ°Ðº":10753,"Ð¼Ð¾ÑīÐ":10754,"ĠÐ³Ð»Ð°ÑģÑĥÐ²Ð°ÑĤ":10755,"ĠÐ¾Ð±Ð¾Ð±":10756,"ĠÐ»ÐµÑģÐµÐ½":10757,"ĠÐĺÑģÑĤÐ°Ð½Ð±ÑĥÐ»":10758,"ĠÐ¿Ð¾Ð»Ð¸ÑĤÐ¸ÐºÐ¸":10759,"ĠÐºÐ°Ð»Ð¾":10760,"ĠÑģÑĢÐ°Ð¼":10761,"ÐºÐ°ÑĤÐ¸":10762,"ĠÐ¿ÑĢÐ¾Ð´ÑĬÐ»Ð¶Ð°ÑĤ":10763,"ĠÐ¿Ð¾ÑĤÑĬ":10764,"ĠÑĩÐµÐºÐ°":10765,"Ð½Ð¸Ð»":10766,"Ð½Ð´ÑĬ":10767,"Ð¿ÑĢÑı":10768,"ÑĤÑĥÐº":10769,"Ġim":10770,"Ð²ÐµÐ·Ð´Ð°":10771,"ĠÐ¿Ð¾ÑģÑĤÑĬÐ¿Ð¸":10772,"ĠÐľÐ¸Ð½Ð¸ÑģÑĤÑĬÑĢ":10773,"ĠÑĤÑĢÐ¾ÑĪÐ":10774,"ÑģÑĦÐ°Ð»":10775,"ĠÐ¸Ð¼Ð°ÑħÐ°":10776,"ÑĢÐ½Ð¸ÑĨÐ°":10777,"ĠÐ¡Ð¡Ð¡Ðł":10778,"ĠÐ¿ÑĢÐµÑģÑĤÑĬÐ¿Ð»ÐµÐ½Ð¸Ñı":10779,"ĠÐĶÐ°Ð½Ð¸ÐµÐ»":10780,"Ð±Ð»Ñİ":10781,"ĠÐ²Ð¸Ð½Ð¾Ð²ÐµÐ½":10782,"ĠÐ¢Ð¾Ð¼Ð°":10783,"ĠÐ¾ÑĤÐºÐ»Ð¾":10784,"ÑĥÑ":10785,"witter":10786,"ĠÑĥÑĩ":10787,"ĠÐ´Ð¾ÐºÑĥÐ¼ÐµÐ½ÑĤÐ¸ÑĤÐµ":10788,"ĠÐ¿ÑĢÐ¸Ð¼ÐµÑĢÐ¸":10789,"ĠÐļÑĥÐ»":10790,"ĠÐ±Ð°Ð½ÐºÐ¸ÑĤÐµ":10791,"ÑģÑĤÐ²Ð¾Ð¼":10792,"ĠÑĦÐ¸ÑĢÐ¼Ð¸ÑĤÐµ":10793,"ĠÑģÑĥÐ±Ðµ":10794,"ame":10795,"94":10796,"ĠÐ»Ð°ÑĤÐ¸":10797,"Ð¼Ð°ÑĢÐ°":10798,"Ð¼Ð¸ÑģÐ»ÐµÐ½Ð¾":10799,"Ð¶ÐµÑģÑĤÐ²Ð¾ÑĤÐ¾":10800,"ÐĶÐ¾Ð±":10801,"ÑĢÐ¾Ñģ":10802,"ĠÐµÐºÑģÑĤÑĢÐµ":10803,"ĠÐĿÐµÐ·Ð°Ð²Ð¸ÑģÐ¸Ð¼Ð¾":10804,"ĠÐĹÐ°ÑĤÐ¾Ð°":10805,"Ð´Ð¾Ð²Ð¾Ð»":10806,"ĠÐ¼Ð½Ð¾Ð³Ð¾Ð±ÑĢÐ¾":10807,"ĠÐµÑģÐµÐ½ÑĤÐ°":10808,"ĠÐŁÐµÑĢÐ½Ð¸Ðº":10809,"ĠÐ¿ÑĢÐµÐ´Ð¸Ð¼ÑģÑĤÐ²Ð¾":10810,"Ð³Ð¸Ð½Ð°Ð»":10811,"ĠÐŀÐ¿ÑĢÐµÐ´Ðµ":10812,"ĠÑģÑĤÐ¾Ð»":10813,"Ð´Ð¾Ð±ÑĢÐ°ÑĤÐ°":10814,"°ÑľÐ":10815,"ĠÑĨÐµÐ»Ð¸ÑıÑĤ":10816,"ĠÑģÐ¾Ð±ÑģÑĤÐ²ÐµÐ½Ð°ÑĤÐ°":10817,"ĠÐ½ÐµÐ¼ÑģÐºÐ¸":10818,"ĠÐ½Ð¾Ð¼Ð¸Ð½Ð°":10819,"ĠÐ±Ð¸ÑĤÐºÐ°ÑĤÐ°":10820,"ĠEUR":10821,"ĠÑĤÑĬÑĢÑģÐ¸ÑĤÐµ":10822,"ĠÐ´ÐµÐ¿Ð¾Ð·Ð¸":10823,"Ð»Ð½Ð¸ÑĨÐ°":10824,"ĠÐ¾ÑĤÐ²Ðµ":10825,"Ð´Ð¸Ð½Ð³":10826,"ĠÐ¿ÑĢÐ¾ÑĦÐµÑģÐ¸Ð¾Ð½Ð°Ð»ÐµÐ½":10827,"ĠÐ²Ð¾Ð·ÑĢÐ°":10828,"Ð¹Ð½Ð¾ÑĤÐ¾":10829,"ĠÐ°Ð³ÑĢÐµÑģÐ¸":10830,"Ð»Ð½Ð¾ÑģÑĤÐ¸":10831,"ĠÐĳÐ¸Ð¾":10832,"Ð½ÐµÐ»Ð¸":10833,"ĠNews":10834,"Ð¿Ð¾Ð»Ñĥ":10835,"ĠÐ½Ð°ÑĥÐºÐ¸":10836,"ĠÑĦÐµÐ½Ð¾":10837,"ĠÑĤÐµÐ¼Ð¿ÐµÑĢÐ°ÑĤÑĥÑĢÐ¸":10838,"ĠÐĽÑĥÐ´Ð¾Ð³Ð¾ÑĢÐµÑĨ":10839,"ĠÐ½Ð°ÑģÑĤÑĬÐ¿Ð¸":10840,"ĠÐ·Ð°ÑģÑĤÑĢÐ°ÑħÐ¾Ð²Ð°":10841,"Ð»Ð¸Ð·Ð¼Ð°":10842,"ĠÐ°ÑĥÐ´Ð¸Ð¾":10843,"ĠÐ¢Ð¾Ð¿":10844,"ĠÐ½Ð°Ð¿ÑĢÐ°Ð²ÐµÐ½":10845,"ĠÐŁÑĢÐ¾Ð³ÑĢÐ°Ð¼Ð°ÑĤÐ°":10846,"ĠÑĢÐ¾ÐºÐ»Ñı":10847,"ĠÐ½Ð°ÑĥÑĩÐ½Ð¾":10848,"ĠÐļÐ°ÑĤÐµÐ³Ð¾":10849,"ĠÐ½Ð¾ÑģÐ¸ÑĤÐµÐ»":10850,"ĠÐ±Ð¸Ð²ÑĪÐ¸ÑıÑĤ":10851,"Ð´Ð±Ð°Ð»":10852,"uv":10853,"Ð¿ÐµÐ½Ð°":10854,"ªÐ¢":10855,"ĠÐ´ÑĢÑĥÐ¶ÐµÑģÑĤÐ²Ð°":10856,"ĠÐ¿ÑĢÐµÑĤÑģÐµÐ´Ð°ÑĤÐµÐ»Ð¾ÑĤ":10857,"ĠÐĴÐ·Ðµ":10858,"ĠÐ¿Ð¾ÑĢ":10859,"ÑĢÐ´ÐµÐ½":10860,"ĠÑĤÐ°Ð±Ð»Ð¸":10861,"92":10862,"ĠÐ¿ÑĢÐ¾Ð±Ð»Ðµ":10863,"ÑĦÐ¸ÑĨÐ¸ÑĢÐ°Ð½Ð¸":10864,"ĠÑģÑİ":10865,"ĠÐ·Ð°Ð¿Ð°Ð´":10866,"ĠÐĽÑİÐ±Ð¾Ð²":10867,"ÑĥÑĢÐ³":10868,"ĠÑģÑĤÐµÐ½Ð¸":10869,"ĠÐ°Ð¿Ð°ÑĢÐ°ÑĤ":10870,"\";":10871,"ĠÐ³Ð¾ÑģÑĤ":10872,"ĠÐļÑİÑģÑĤÐµÐ½Ð´Ð¸Ð»":10873,"ĠÐŁÐ°ÑĢÐ°":10874,"ĠÐ¿ÑĢÐ¾ÑĦÐµÑģÐ¸Ð¾Ð½Ð°Ð»Ð½Ð°":10875,"ĠÑģÑĤÐ¾ÑĢÐ¸":10876,"Ð¼Ð¸Ñ":10877,"ĠÐ·Ð°ÐºÐ¾Ð½Ð¾Ð´Ð°ÑĤÐµÐ»ÑģÑĤÐ²Ð¾":10878,"ĠÑĩÐµÑĤÐ°":10879,"ĠÐºÐ¾ÐºÐ¾":10880,"ĠÑĢÐ°Ð·Ð¾ÑĩÐ°ÑĢÐ¾Ð²Ð°":10881,"ĠÐ²ÑĢÐµÐ¼ÐµÐ½Ð½Ð¾":10882,"ĠÐ¿Ð¾Ð¼Ð°Ð»ÐºÑĥ":10883,"ÐºÑĤÐ¸ÐºÐ°":10884,"ĠÐĲÐ½Ð¾Ð½Ð¸Ð¼ÐµÐ½":10885,"84":10886,"ĠÐ¿Ð°ÑĢÐ¾":10887,"ĠÐ¾Ð±ÐµÐ·ÑīÐµÑĤÐµ":10888,"ĠÑĨÑĬÑĢÐºÐ¾":10889,"ĠÐ¼ÐµÑģÑĤÐ°ÑĤÐ°":10890,"ĠÐ¼ÐµÐ½Ð¸Ð´Ð¶ÑĬÑĢ":10891,"ÑĤÐ¸Ð²Ð¸ÑĤÐµ":10892,"Ġ66":10893,"ĠÑĥÐ¿ÑĢÐ°Ð¶Ð½ÐµÐ½Ð¸Ñı":10894,"ĠÐ¾Ð¿ÑĢÐ¾":10895,"ĠÐĳÐ¸Ð²":10896,"ÐºÑĥÐ²Ð°ÑļÐµ":10897,"ĠÐ³Ð¾ÑĤÐ¾Ð²Ð°":10898,"Ð³ÑĬÑĢ":10899,"ĠÐ·Ð½Ð°ÑĨÐ¸":10900,"ÐºÑĥÐ²Ð°Ð½Ðµ":10901,"ĠÐ¸Ð·Ð²ÐµÐ´Ð½ÑĬÐ¶":10902,"ĠÐĺÐ°ÐºÐ¾":10903,"ĠÐ¸Ð½ÑģÑĤÐ¸ÑĤÑĥÑĨÐ¸Ð¸ÑĤÐµ":10904,"ĠÐ½Ð°ÑĪÐ¸ÑıÑĤ":10905,"ĠÐ¿Ð¾ÐµÐ¼Ðµ":10906,"Ð½Ð½Ð¾ÑĤÐ¾":10907,"ĠÐŁÐ¾Ð¿Ð¾Ð²":10908,"ĠÑģÑĬÐ·Ð½Ð°Ð½Ð¸ÐµÑĤÐ¾":10909,"ĠÐ¿ÑĢÐ°Ð²Ð¸Ð»Ð¾":10910,"ĠÐ¸Ð½ÑĤÐµÑĢÐµÑģÐ¸ÑĤÐµ":10911,"ĠÐŁÐ°ÑĢÑĤÐ¸":10912,"ĠÐŀÐ±Ð°ÑĩÐµ":10913,"Ġ51":10914,"ĠÐºÐ°Ð¶ÐµÑĪ":10915,"ĠÐ»ÐµÐºÐ¸":10916,"ĠÑģÐ²ÐµÑĤÐ»Ð¾":10917,"ĠÐĲÐķÐ¦":10918,"ĠÐ¸Ð·Ð²ÑĬ":10919,"ĠÑĥÑģÐ»Ð¾Ð²Ð¸Ð":10920,"ĠÐ·Ð°ÐºÑĥÐ¿Ñĥ":10921,"ĠÐ¼ÑĬÐ¶Ð°":10922,"ĠÐ±Ð»Ð¾Ð³":10923,"ĠÑģÑĤÑĢÐ°Ð½Ð½Ð¾":10924,"ĠÐ°ÐºÑĤÐ¾":10925,"ĠÑģÐ²Ð°Ð»Ð¸":10926,"ĠÑĢÐ°Ð·Ð±Ð¸ÑĢÐ°Ð½Ðµ":10927,"ĠÐĿÐ¸ÐºÐ¾Ð³Ð°":10928,"ĠÐ¾ÑĤÐ¸Ð²Ð°ÑĤ":10929,"ĠÑĤÐ¾Ð½":10930,"ĠÑĤÑĢÐ¸Ð¼ÐµÑģÐµÑĩÐ¸Ðµ":10931,"ĠÐ¼Ð½Ð¾Ð·Ð¸Ð½ÑģÑĤÐ²Ð¾":10932,"ĠÑĥÑģÐ»Ð¾Ð²Ð¸Ðµ":10933,"ĠÐĶÐ°ÑĤÐ°":10934,"ĠÐ¼ÑİÑģÑİÐ»":10935,"ĠÐĿÐµÐ¾Ð±ÑħÐ¾Ð´Ð¸":10936,"ĠÐ¿ÑĢÐ¾ÑģÐ»ÐµÐ´":10937,"Ð·Ð¸ÑĢÐ°Ð½Ð¾":10938,"Ġgo":10939,"Ð³ÑĢÐ°Ð´Ð°ÑĤÐ°":10940,"ĠÐ£ÐŁÐ":10941,"ĠÑĢÐµÐ²Ð¸":10942,"ÑģÑĬÐ²ÑĬÑĢÑĪÐµÐ½":10943,"ĠÐ²Ð¿ÐµÑĩÐ°ÑĤÐ»ÑıÐ²Ð°":10944,"Ð±ÑĢÐ°Ð²Ð¸":10945,"ĠÑĥÐºÑĢÐ°Ð":10946,"ĠÐ·Ð²ÑĥÐº":10947,"ĠÑģÑĥÑħÐ¾":10948,"ĠÐĳÐ¸Ð»":10949,"ĠÑĢÐ°Ð·ÐºÑĢÐ¸Ð²Ð°":10950,"ĠÐ·Ð±Ð¾ÑĢÑĥÐ²Ð°":10951,"ĠÑĤÐµÐ¼Ð¿ÐµÑĢÐ°ÑĤÑĥÑĢÐ°ÑĤÐ°":10952,"ĠÑģÐ¸Ð¼Ð²Ð¾Ð»":10953,"ĠÑĦÐ¾Ð»ÐºÐ»Ð¾":10954,"Ð»ÑĦ":10955,"ĠÐ¼ÐµÑĤÑĢÐ¸":10956,"ĠÐ½Ð°ÑģÑĤÐ¾ÑıÑīÐ¸Ñı":10957,"ĠÐ¾Ð¼Ðµ":10958,"ĠÐ±Ð¸ÑĢÐ°":10959,"ĠÐŀÐ²Ð°Ð":10960,"ĠÐŁÐĲÐłÐ":10961,"Ð²ÑĥÐ´":10962,"ĠÐ¿ÑĢÐµÐ¼Ð¸ÐµÑĢÑĬÑĤ":10963,"ÐºÐ½Ðµ":10964,"ĠÐ¿ÑĢÐ¾Ð»ÐµÑĤÑĤÐ°":10965,"ÑģÑĤÑıÑĤ":10966,"ĠÐ´ÐµÐ¿ÑĥÑĤÐ°ÑĤÐ¸":10967,"ĠÐļÐ¾ÑĢÐµÑı":10968,"ĠÐŀÐ²Ð°Ð°":10969,"ĠÐ¿Ð¾Ð´Ð°Ð²Ð°":10970,"ĠÐ²Ð·ÐµÑĤÐ¾":10971,"Ð½Ñĭ":10972,"ĠÐ¼Ð¾ÑĢÑģÐºÐ¸":10973,"ĠÑħÐµÐ¼":10974,"Ð»Ð½Ð¸ÐºÐ¾ÑĤ":10975,"ĠÑĤÑĥÑĢÐ¸ÑģÑĤÐ¸ÑĩÐµÑģÐºÐ¸":10976,"ĠÐľÐ°Ñı":10977,"ux":10978,"ĠÐ·Ð´ÑĢÐ°Ð²Ð°":10979,"ĠÐŁÑĢÐ°Ð²Ð¾":10980,"ĠÐĶÑĥÐ½Ð°Ð²":10981,"ĠÑģÐ¸Ð»Ð¸ÑĤÐµ":10982,"ĠÐ¿ÑĬÑĢÐ":10983,"ĠÐ³Ð°Ð¼Ð°":10984,"ĠÐ¸Ð»ÑĺÐ°":10985,"ĠÐ¨Ð°Ð¼Ð¿Ð¸Ð¾Ð½":10986,"ĠÐ¿Ð¾ÑĢÐ°Ð½Ðµ":10987,"ĠÐĿÐ¸Ð½Ð¾Ð²Ð°":10988,"ĠÐ¿Ð°Ñĥ":10989,"ĠÐ¿ÑĢÐµÐ½ÐµÐ±ÑĢÐµ":10990,"ĠÐĿÐ¾Ð²Ð°ÑĤÐ°":10991,"ÑĢÑ£":10992,"ĠÐ¼ÑĬÐ»ÑĩÐ°":10993,"ĠÐ¿ÑĢÐ¾Ð´Ð°Ð¶Ð±Ð¸":10994,"ĠÐ¿Ð°Ð¼Ñĥ":10995,"ĠÑĢÐµÐ³ÑĥÐ»Ð¸ÑĢÐ°":10996,"ons":10997,"ĠÑħÐ²ÑĬÑĢÐ»Ð¸":10998,"ÑĤÐ¸Ð¾ÑĤ":10999,"Ð·ÐºÐ°":11000,"ĠÐ´Ð¸ÐµÑĤÐ°":11001,"ĠÐŀÑģÐ½Ð¾Ð²Ð½Ð°ÑĤÐ°":11002,"ĠÑģÐµÑĢÐ¸ÑıÑĤÐ°":11003,"ĠÐºÐ¾Ð´Ðµ":11004,"ĠÐ¡ÑĤÑĢÐ¾":11005,"ĠÐµÐ»ÐµÐºÑĤÑĢÐ¾Ð½Ð½Ð¸":11006,"ĠÐ¿ÐµÑĢÑĦÐµÐºÑĤÐ½Ð¾":11007,"ĠÐ¾Ð±ÑıÐ²Ð¸ÑħÐ°":11008,"ĠÑģÐµÐºÑĤÐ¾ÑĢÐ°":11009,"Ð¿Ð²Ð°ÑĤ":11010,"ĠÐĳÑĢÐ¸":11011,"Ð¼Ð¸ÑĤ":11012,"ĠÐ°Ð½Ð³":11013,"ĠÐµÐ¼Ð±":11014,"ĠÑģÐ²ÐµÑĤÐ¾Ð²Ð½Ð¾":11015,"ÑģÑĤÐ²Ð¸":11016,"ĠÑĥÐºÑĢÐ°Ð¸":11017,"Ð¼Ð°Ð»ÐºÐ¸":11018,"ĠÐ¡Ð¸Ð¼ÐµÐ¾Ð½Ð¾Ð²":11019,"ĠÐ³Ð»Ð°Ð²Ð¸":11020,"ĠÐ»Ð¸ÑģÑĤ":11021,"ĠÐŁÑĢÐµÐ´ÑģÐµÐ´Ð°ÑĤÐµÐ»":11022,"ĠÐ²Ð¾ÑĤ":11023,"ÑĨÐ¸ÑĢÐ°":11024,"ĠÐ¿Ð¾Ð»ÑĥÑĩÐ°Ð²Ð°Ð½Ðµ":11025,"Ð´Ð¾Ð°":11026,"ĠÐºÐ»Ð¾":11027,"ĠFl":11028,"ĠÑģÑĬÐ²Ð¼ÐµÑģÑĤÐ½Ð¾":11029,"ÑĢÑĨÐ¸ÑĤÐµ":11030,"ĠÐ±ÑĢÐ¾ÑĺÐ¾ÑĤ":11031,"ase":11032,"ĠÑģÐ¿Ð¾Ð¼ÐµÐ½Ð¸":11033,"ĠÑĩÐ¾Ð²ÐµÑĩÐµÑģÑĤÐ²Ð¾ÑĤÐ¾":11034,"ĠÑĤÐµÑĢÐ¼Ð¾":11035,"ĠÑĨÐµÐ½ÑĤÐ°ÑĢ":11036,"ĠÐ¸Ð·Ð¿Ð¾":11037,"bl":11038,"atch":11039,"ÐļÐ°ÐºÐ²Ð¾":11040,"ÑģÐµÑĤÐ¾":11041,"ĠÐ»Ð¸ÐºÐ²Ð¸":11042,"ĠÐºÐ°ÑĢÐ°ÐºÑĤÐµ":11043,"ĠÐ¾Ð¿Ð¸ÑĤÐ¸":11044,"ĠÐķÐ³Ð¸Ð¿ÐµÑĤ":11045,"ĠÐ²Ð¸ÑĤÐ°Ð¼Ð¸Ð½Ð¸":11046,"ĠÑĨÐµÐ»Ð¸Ð¾ÑĤ":11047,"ĠÑģÐ²Ð¾Ð±Ð¾Ð´Ð½Ð¸":11048,"ĠÐ¾ÑĦÐµÑĢÑĤÐ°":11049,"ĠÑĦÑĥÐ½ÐºÑĨÐ¸Ð¾Ð½Ð¸ÑĢÐ°":11050,"ĠÐ¦Ð°ÑĢ":11051,"Ð¿Ð¾ÑģÐ»Ðµ":11052,"ĠÐ§ÐµÑĢÐ½Ð¾Ð¼Ð¾":11053,"ĠÐĲÐ´Ð¼Ð¸Ð½Ð¸ÑģÑĤÑĢÐ°":11054,"Ð¸ÑģÑĤÐ¾":11055,"ĠÐļÐ¾Ð¼Ð¿Ð°Ð½Ð¸ÑıÑĤÐ°":11056,"ank":11057,"ĠÑĥÐ¿Ð¾ÑĤÑĢÐµÐ±Ð°ÑĤÐ°":11058,"ĠÐ¢ÐµÐ¾Ð´Ð¾":11059,"ĠÐłÐµÐ³Ð¸Ð¾Ð½Ð°":11060,"ĲÐĶ":11061,"ÑĢÐ²Ð°ÑĤÐ°":11062,"ĠÐĺÐ²Ð¾":11063,"ĠÐ¿ÑĢÐ¾Ð¼ÑıÐ½Ð°ÑĤÐ°":11064,"ĠÐ¿Ð¾ÑģÐ»ÐµÐ´Ð¸ÑĨÐ¸":11065,"Ð»Ð¾Ð²ÐµÑĤÐµ":11066,"ĠÑĥÐ²Ð°Ð¶ÐµÐ½Ð¸Ðµ":11067,"ĠÐ¿Ð¾Ð²ÑıÑĢÐ²Ð°":11068,"ĠÐŀÑĤÐºÑĢÐ¸":11069,"ĠÐĳÐªÐĽÐĵÐĲÐłÐĺÐ¯":11070,"Ð±Ð°Ð²Ð°":11071,"ĠÐ§ÐµÑĢÐ²Ðµ":11072,"Ġpr":11073,"ĠÑģÐ¾Ð¾Ð±ÑĢÐ°ÑľÐ":11074,"ĠÑĤÑĬÐ¼Ð½Ð¾":11075,"ĠÐ»Ð¸Ð±ÐµÑĢÐ°":11076,"ĠÑģÐ¼ÑĢÑĤ":11077,"ĠÐ¸Ð·ÑĢÐ°Ð±Ð¾ÑĤÐµÐ½Ð¸":11078,"Ð²Ð¾Ð¹":11079,"ĠÑĥÑģÐ¸Ð»Ð¸ÑıÑĤÐ°":11080,"ĠÐ°Ð³ÐµÐ½ÑĤ":11081,"ĠÐ´ÑĢÐ°Ð¼Ð°":11082,"ĠÐ¼ÐµÑģÑĤÐ½Ð°ÑĤÐ°":11083,"ĠÑĤÑĥÑĢÐ¸Ð·Ð¼Ð°":11084,"ĠÑĥÐ¼Ð°":11085,"ĠÐ¿Ð¾ÑģÑĤÑĢÐ°Ð´Ð°":11086,"ĠÐĿÐĲÐŁ":11087,"Ð»Ð½Ð¸ÑĨÐ¸":11088,"ĠÐĳÐµÐ»Ð³ÑĢÐ°Ð´":11089,"ĠÐĶÐ¾Ð¿ÑĬÐ»Ð½Ð¸ÑĤÐµ":11090,"ĺÐľ":11091,"ÐºÐ²Ð°ÑĤÐ°":11092,"Ð·Ð°ÑĨÐ¸ÑĺÐ°":11093,"ĠÐºÑĢÐ¸ÑģÑĤÐ°":11094,"========":11095,"ĠÐµÐ»ÐµÐ³Ð°Ð½ÑĤ":11096,"rosoft":11097,"Ð»Ð¸Ð²ÑĥÐ´":11098,"ÑĢÐ¾ÐµÐ½Ðµ":11099,"ÑĬÑĢÐ´Ð¶Ð°Ð»Ð¸":11100,"Ð¿Ð°Ð½":11101,"Ð½Ð°Ð¹ÑĤÐµÐ´":11102,"ĠÑĤÑĬÑĢÑģÐµÐ½ÐµÑĤÐ¾":11103,"ĠÐ½Ð°Ð½ÐµÑģÐµ":11104,"ĠÑģÐ»Ð°Ð²Ñı":11105,"ĠÐ¿Ð¾Ð»Ñı":11106,"ĠÐºÐ¾Ð¼ÑĥÐ½Ð¸ÐºÐ°ÑĨÐ¸Ñı":11107,"ĠÐĳÑĢÑĥ":11108,"Ð·ÑĬÑĤ":11109,"Ð»ÑıÐ·Ð¾ÑħÐ°":11110,"ÑĥÑĤ":11111,"ĠÐ¾ÑĢÐµ":11112,"ĠÐºÑĥÐ»ÑĤÑĥÑĢÐ½Ð¾":11113,"ĠÐ¡Ð¿ÐµÑĨÐ¸Ð°Ð»Ð¸":11114,"ĠÐ³Ð»Ð°ÑģÐ¾Ð²Ðµ":11115,"ĠÐ´Ð¾ÑĪÐ»Ð¸":11116,"ÑģÑĤÐ²Ð¸ÑıÑĤÐ°":11117,"ĠÑĤÑĢÐ°Ð¿Ðµ":11118,"ÑģÐ¾Ð":11119,"ĠÐĶÐ¾ÑģÐµÐ³Ð°":11120,"ĠÐ·Ð°ÑīÐ¸ÑĤÐ°Ð²Ð°":11121,"ĠÐ¼Ð¾Ð¹":11122,"Ġ53":11123,"ory":11124,"ĠÐ¸Ð´ÐµÐ°Ð»":11125,"ĠÑĥÑģÐ¿ÐµÐ°":11126,"ĠÐŀÐ²Ð¾Ñĺ":11127,"ĠÐĴÐ¸Ð´Ñı":11128,"ĠÐ¾ÑĦÐ¸ÑģÐ°":11129,"de":11130,"ĠÐ¾Ð¿Ð»Ð°ÐºÐ²Ð°":11131,"ĠÑģÑĬÐ±Ð¸ÑĤÐ¸ÑıÑĤÐ°":11132,"ĠÐ¿ÑĬÑĢÐ²Ð¾Ð½Ð°ÑĩÐ°Ð»Ð½Ð¾":11133,"ĠÑĤÐµÑĢÐ°ÑģÐ°":11134,"ĠÑĤÐ¾ÐºÐ¼Ñĥ":11135,"ĠÐĲÑĤÐ°Ð½Ð°ÑģÐ¾Ð²":11136,"ĠÐ¿Ð¾Ð»Ð¸ÑĨÐ°Ð¸":11137,"¡Ðĳ":11138,"ÑĩÐ»Ðµ":11139,"IL":11140,"ĠÐ¼ÐµÐ´Ð¸ÑĥÐ¼Ð¸":11141,"Ð¼Ð±Ð":11142,"ĠÑĤÑĢÑĬÐ³Ð½Ðµ":11143,"line":11144,"ĠÑģÑĬÐ¾ÑĤÐ²ÐµÑĤÐ½Ð°ÑĤÐ°":11145,"Ð½Ð°ÑģÑıÐ½Ðµ":11146,"ĠÑĢÐ°Ð·Ð±ÐµÑĢÐ°ÑĤ":11147,"Ġch":11148,"ĠÐ²ÑĢÐ°ÑľÐ":11149,"ĠÐ½ÐµÑĥÑģÐ¿Ðµ":11150,"ĠÐ³Ð¸Ð¼Ð½Ð°Ð·Ð¸Ñı":11151,"ĠÐ´ÑĬÑĢÐ¶Ð°Ð²Ð¸ÑĤÐµ":11152,"ĠÐ½Ð¸ÐºÐ°Ðº":11153,"ĲÐł":11154,"ĠÐ·Ð°Ð²Ð¾Ð´":11155,"ÐºÑĥÐ»Ð¸":11156,"ĠÐ·Ð°ÑĢÑı":11157,"ĠÐ¿Ð¾ÑĢÑĬÑĩÐ°":11158,"ĠÐ´Ð°Ð»Ð°":11159,"Ð·Ð°Ð½":11160,"ĠÐ¸Ð·Ð±ÐµÑĢÐµ":11161,"ĠÐŁÐµÐµÐ²ÑģÐºÐ¸":11162,"ÑĩÐ¾Ð²":11163,"ĠÐ´ÐµÐ¼Ð¾ÐºÑĢÐ°ÑĨÐ¸Ñı":11164,"Ġ68":11165,"ÑĩÐ¸ÑħÐ°":11166,"ĠÐ±ÑıÐ»Ð°":11167,"ÐºÑĢÐ°ÑģÐ¸":11168,"ĠÐĴÐ°ÑĪÐ¸Ñı":11169,"ÑħÐ¾Ð´ÑıÑī":11170,"93":11171,"µÐ´Ð¸Ð½":11172,"ĠÐ¿Ð¾Ð·Ð´ÑĢÐ°Ð²Ð¸":11173,"IM":11174,"ĠÑĤÐ¾ÐµÑģÑĤ":11175,"Ð½Ð¸ÑĨÐ¸ÑĺÐ°":11176,"ĠÐ¸Ð·Ð³ÑĢÐ°Ð´Ð¸":11177,"ÐºÐ¾Ðµ":11178,"ĠÐ²Ð»Ð°Ð´Ðµ":11179,"64":11180,"ÑģÐµÑĢ":11181,"ĠÑĢÐ°Ð·Ð¿Ð¾Ð·Ð½Ð°":11182,"ĠÐ¿ÐµÐµ":11183,"ĠÐŁÐ¾ÑģÐ»ÐµÐ´Ð½Ð°":11184,"ĠÑĥÐ¿ÑĢÐ°Ð²Ð»ÑıÐ²Ð°ÑīÐ¸ÑĤÐµ":11185,"ŀÐĿ":11186,"Ð²ÐµÑĤÐµÐ½":11187,"ĠÐ³Ð¾ÑģÐ¿Ð¾Ð´Ð°":11188,"ĠÐĺÐ·Ð¿ÑĢÐ°":11189,"ĠÐ¿Ð»Ð¾ÑīÐ¸":11190,"Ð´ÐµÑĢÐ°ÑĨÐ¸Ñı":11191,"ĠÑĢÐµÐºÐ¾Ð½ÑģÑĤÑĢÑĥ":11192,"ĠÐ½ÐµÑģÑĤÐ°":11193,"ĠÐ¿ÑĢÐ¾Ð¸Ð·Ð²Ð¾Ð´Ð¸":11194,"ÑĩÐµÑĪÐµ":11195,"ĠÐ´Ð¸Ð·Ð°Ð¹":11196,"ĠÐºÐ¾ÑģÑĤÑİ":11197,"ĠÐľÐ¸ÑĢÐ¾":11198,"ĠÐµÐ½ÐµÑĢÐ³Ð¸ÑĺÐ°":11199,"ĠÐ¾Ð±ÑīÐµÑģÑĤÐ²ÐµÐ½Ð°":11200,"ĠÐ¿Ð¾ÑĩÐ²Ð°":11201,"ĠÑĤÐµÐºÑĥ":11202,"ĠÐ¼Ð¾ÑĤÐ¸Ð²Ð°":11203,"Ð½ÑıÐ³":11204,"ĠÑģÐ»ÐµÐ´Ð¾":11205,"ĠÐ¡ÐºÐ¾ÑĢÐ¾":11206,"ÑĥÐ´":11207,"ĠÑĤÑĢÐµÑĤÐ¸Ñı":11208,"ĠÐ¿Ð¾Ð²ÑĬÑĢÑħÐ½Ð¾ÑģÑĤÑĤÐ°":11209,"ĠÑĢÐ°Ð·ÐºÐ¾":11210,"ĠÐ½ÐµÐ¿ÑĢÐ¾":11211,"ĠÐ¸Ð¼ÑĥÐ½Ð¸ÑĤÐµ":11212,"ÑĥÑģÑĤÐ¾Ð¹ÑĩÐ¸":11213,"ĠÑĪÐºÐ°":11214,"ĠÐ¿Ð°ÑĤÐµ":11215,"ĠÐ¿Ð¾Ð´Ð³Ð¾ÑĤÐ¾Ð²ÐºÐ°ÑĤÐ°":11216,"ĠÐŁÑĢÐ¾ÑĨÐµ":11217,"ĠÐ¿Ð°ÑĤÑĢÐ¸Ð°ÑĢ":11218,"ĠÐĶÐµÑģÐ¸":11219,"Ð¿ÑĢÑĬ":11220,"ĠÐ¶ÑĥÑĢÐ½Ð°Ð»Ð¸ÑģÑĤ":11221,"ĠÑĤÑĢÐ°Ð½ÑģÑĦÐµÑĢ":11222,"ĠÐ¸Ð·Ð»Ð°Ð³Ð°":11223,"Ð§":11224,"ĠÐ°Ð²ÑĤÐ¾ÑĢÐ°":11225,"ĠÐ´ÑĬÑĢÐ¶Ð°Ð²Ð½Ð°ÑĤÐ°":11226,"li":11227,"ĠÐ¸Ð·Ð´ÐµÐ»Ð¸Ñı":11228,"ĠÐ¿ÑĢÐµÐ¼Ð¸":11229,"ĠÐ¿ÑĢÐ¾Ð²ÐµÑĢÐºÐ¸":11230,"ĠÐłÐ°Ð´Ð¸Ð¾":11231,"ĠÑģÑĤÑĢÐµÐ¼Ð¸":11232,"ĠÐ¿Ð¾Ð»ÑĥÑĩÐ¸Ð»":11233,"Ð¿Ð¾Ð²Ð°":11234,"ĺÐ¡":11235,"Ð¼ÐµÐ½Ð¾Ð²Ð°":11236,"ĠÐ´Ð²Ð¾ÑĢÐ°":11237,"ĠÐ¥ÑĢÐ¸ÑģÑĤÐ¸":11238,"ĠÐ·Ð°ÐµÑĤÐ¾":11239,"ĠÑĤÑİÑĤÑİ":11240,"ÑģÑĤÐ¾ÑĢ":11241,"ĠÑĦÐ°ÑĢÐ¼Ð°":11242,"ĠÐ±Ð°Ð·Ð¸":11243,"ĠÑģÐ¿ÐµÑĨÐ¸ÑĺÐ°":11244,"ĠÐ¢Ð£":11245,"ĠÐ¿ÐµÑĤÐ½Ð°":11246,"ĠÐŁÐ¾Ð²ÐµÑľÐµ":11247,"ĠÐºÐ¾Ð¼Ð±Ð¸Ð½Ð¸ÑĢÐ°":11248,"ĠÑĩÐµÑĢÐ²ÐµÐ½Ð¸":11249,"ĠÑģÑĤÐ°Ð½Ð°ÑħÐ°":11250,"ÑĤÐ¾Ð²ÐµÑĤÐµ":11251,"ĠÐ²Ð¸ÑģÐ¾ÐºÐ¸ÑĤÐµ":11252,"ĠÑģÑĤÐ¸ÑħÐ¾":11253,"ÐºÑĬÐ»Ð°":11254,"ĠÐºÐ¾Ð½Ð²ÐµÐ½":11255,"ĠÑĢÐ°Ð·ÑģÐ»ÐµÐ´Ð²Ð°Ð½Ðµ":11256,"ĠÐ¿ÑĢÐ¸ÑĤÐµÐ¶Ð°":11257,"ĠÐ·Ð°Ð³ÑĢÐ¸":11258,"ĠÐ¾Ð±ÑģÑĤÐ¾ÑıÑĤÐµÐ»ÑģÑĤÐ²Ð°":11259,"ĠÑĩÐµÑĢÐ½Ð¸":11260,"Ð´ÐµÑĢ":11261,"ÑĢÑģÐºÐ¸Ð¾ÑĤ":11262,"ÑīÐµÐ½Ð¸ÑıÑĤÐ°":11263,"ĠÐ·Ð°Ð¿Ð°Ð·Ð²Ð°":11264,"Ð´ÑĬÐ»Ð³Ð¾":11265,"ĠÑĤÐ²Ð¾Ñı":11266,"ÑĩÐ°Ð¹Ð½Ð¾":11267,"ĠÐľÑİ":11268,"ĠÐ´Ð¾Ð¿ÑĬÐ»Ð²Ð°":11269,"ĠÐľÐµÐ´Ð¸ÑĨÐ¸":11270,"ĠÐľÐ¾Ð¼":11271,"ĠÐ§ÐµÑĤÐ¸":11272,"ÑĤÑĥÑĢÐ¸":11273,"ĠÐ½ÐµÐ²ÑĢÐ¾":11274,"ÑĢÑĬÐ½":11275,"ĠÐ¾ÑĤÑĤÐ°Ð¼":11276,"ĴÐŀ":11277,"ĠÐ¿ÑĢÐ²Ð¾":11278,"¸Ð¾Ð½":11279,"ĠÐ·Ð°ÑģÑıÐ³Ð°":11280,"ĠÐ¸Ð³ÑĢÐ°ÑĩÐ¸ÑĤÐµ":11281,"ĠÐ°Ð½Ðµ":11282,"ĠÐ¸ÑĤÐ°Ð»Ð¸Ð°Ð½":11283,"ĠÐ½Ð°ÑģÑĤÑĢÐ¾Ðµ":11284,"ĠÑĥÐ´Ð¾ÑģÑĤÐ¾Ð²Ðµ":11285,"ĠÐºÐ¾Ð¼Ð¿Ð¾Ð½ÐµÐ½ÑĤÐ¸":11286,"ĠÐ°Ð¼":11287,"ĠÑģÑĥÑĢÐ¾Ð²Ð¸":11288,"ĠÐŁÑĢÐ¾ÑĩÐµÑĤÐµ":11289,"ĠÑĤÑĢÑĥÐ´Ð¾":11290,"ĠÐ¿Ð¾Ð´Ð¿ÑĢÐ°":11291,"ÑĢÐ´Ð¸Ð¾":11292,"ĠÐŀÐ¡Ð":11293,"ĠÑģÑĬÐ¾Ð±ÑīÐµÐ½Ð¸Ñı":11294,"ĠÐ¸Ð·Ð³ÑĥÐ±Ð¸":11295,"ĠÐ»ÑıÑĤ":11296,"ĠÑĤÑĢÐµÐ½Ð¸ÑĢÐ¾Ð²ÐºÐ°":11297,"ÑĥÑĢÐ¸":11298,"ĠÐ·Ð°Ð´ÑĬÐ»Ð±Ð¾":11299,"ÑĩÐµÐ²Ð¾":11300,"ĠÐ¿Ð»Ð°ÑĤÑĦÐ¾ÑĢÐ¼Ð°ÑĤÐ°":11301,"ĠÐ¾ÑĤÐºÐ°Ð¶Ðµ":11302,"ĠÑģÐ¿Ð¸ÑģÐ°":11303,"ĠÐ½Ð°ÐºÐ°Ð·Ð°Ð½Ð¸Ðµ":11304,"ĠÐ¡Ð¸Ð³ÑĥÑĢÐ½Ð¾":11305,"ÑĢÐ¾Ð´ÐµÐ½":11306,"ĠÑĢÐ°Ð·Ð´ÐµÐ»Ñı":11307,"µÐ½ÑĤÐ¸ÑĢÐ°":11308,"ĠÐ¿ÑĢÐµÐ´ÑģÐµÐ´Ð°ÑĤÐµÐ»Ñı":11309,"Ð±ÐµÐ»Ðµ":11310,"ĠÐ±ÑĬÐ´ÐµÑĪ":11311,"ĠÑĤÐ¾Ð°Ð»ÐµÑĤÐ½Ð°":11312,"ĠÐĵÐµÐ¾ÑĢÐ³Ð¸ÐµÐ²Ð°":11313,"ÑģÐ¸Ð»Ð½Ð¾":11314,"ĠÐ¿ÑĥÐºÐ°":11315,"ĠÑĤÐµÑĢÐ¾ÑĢÐ¸":11316,"ĠÐ£ÐĿÐ":11317,"ĠÐ³Ð¾Ð»Ðµ":11318,"ĠÐ°Ð²ÑĤÐµÐ½":11319,"ÑĥÐ²Ð°Ð½Ðµ":11320,"ĠÐ¿Ð¾Ð²Ð¸ÑĪÐ¸":11321,"ĠÐ¸Ð·Ð½ÐµÑģÐµ":11322,"¾Ð´Ð²ÐµÑĤ":11323,"ÑĤÐ²Ð¾ÑĢ":11324,"ĠÐ¾Ð¿Ð¸ÑģÐ²Ð°":11325,"ĠÐ¿ÑĢÐ¾ÑģÑĤÑĢÐ°Ð½ÑģÑĤÐ²Ð¾ÑĤÐ¾":11326,"ĠÐºÐ¾Ð»ÐµÐºÑĨÐ¸Ñı":11327,"ÑģÑĤÐ°ÐµÐ½":11328,"ĠÐĴÐ¸Ð¶Ð´Ð°":11329,"Ð»ÐµÐ½Ð¾ÑĤÐ¾":11330,"ĠÐºÐ°Ð¼ÐµÑĢÐ¸":11331,"ĠÐ´Ð°Ð¼Ð°":11332,"oj":11333,"ĠÐĺÑģÑĥÑģ":11334,"¾ÐºÑģÐ¸":11335,"ĠÐ¾ÑĤÑģÑĤÐ¾":11336,"ĠÐ¿ÑĢÐµÑģÐºÐ¾Ð½ÑĦÐµÑĢÐµÐ½":11337,"ĠÐ´ÐµÐ½Ð¾Ð²Ð¸":11338,"ĠÐ¿ÑĢÐ°ÑĪÐ°ÑļÐ°":11339,"ĠÐ¿ÑĢÐ¾Ð´Ð°Ð¶Ð±Ð¸ÑĤÐµ":11340,"ĠÐ¥Ð¾Ð»Ð°Ð½Ð´Ð¸Ñı":11341,"ĠÐ¼Ð½Ð¾Ð·Ð¸Ð½Ð°":11342,"Ð²Ð¸ÑģÐ¾Ðº":11343,"¸Ð³ÑĢÐ°":11344,"Ð¿Ð¾Ð·Ð½Ð°":11345,"ĠÑĥÑģÐ»ÑĥÐ³Ð°ÑĤÐ°":11346,"ĠÐĿÐ°Ð¿Ð¸":11347,"ĠÑĢÐ°Ð·Ð±ÐµÑĢÐµÑĤÐµ":11348,"ĠÑģÐ¿Ð¾Ð´ÐµÐ»ÑıÑĤ":11349,"ĲÐĵÐ":11350,"ĠÐ²Ð¾Ð´Ð¸ÑĤÐµ":11351,"ĠÐµÑģÑĤÐµÑģÑĤÐ²ÐµÐ½":11352,"ĠApart":11353,"ĠÐ·Ð°ÑĢÐµÐ¶Ð´Ð°Ð½Ðµ":11354,"ĠÐºÐ°ÑĤÐµÐ³Ð¾ÑĢÐ¸ÑĩÐµÐ½":11355,"ÐµÑĤÐ°":11356,"ĠÑħÐ²ÑĬÑĢÐ»Ñı":11357,"ÐµÐ²Ð°":11358,"ĠÐ¿ÑĢÐ¸Ð¾ÑĢÐ¸ÑĤÐµÑ":11359,"ĠÐ¿ÑĢÐ¸Ð¾ÑĢÐ¸ÑĤÐµÑĤ":11360,"ĠÐ¿Ð¾ÑĩÑĥÐ²ÑģÑĤÐ²Ð°":11361,"Ð¿Ð°Ð»":11362,"ĠÑĥÑģÐµÑĤÐ¸":11363,"ĠÐµÐºÑģÐ¿Ð»Ð¾Ð°ÑĤÐ°ÑĨÐ¸Ñı":11364,"ĠÑģÑĤÐµÐ½Ð°ÑĤÐ°":11365,"Ð¶Ð°ÐµÐ¼Ð¸":11366,"ĠÑĦÐµÐ´ÐµÑĢÐ°":11367,"ĠÑĢÐ°Ð·Ð±Ð¸ÑĢÐ°ÑĤ":11368,"Ð²Ð½Ð¸ÑĨÐ°":11369,"ĠÐ²ÑĬÐ·Ð¿Ð°":11370,"ĠÐ¤Ð¾Ð½Ð´Ð°":11371,"ĠÐ°ÑģÐ¾ÑĨÐ¸Ð°ÑĨÐ¸Ñı":11372,"ĠÐĺÐ·Ð¾":11373,"ĠÑģÑĤÑĢ":11374,"ĠÐ´Ð¾Ð²Ð¾Ð»ÐµÐ½":11375,
[...]
