#version: 0.2 - Trained by `huggingface/tokenizers`
Ð ½
Ð½ Ð
Ĥ Ð
Ñ ĤÐ
Ñ Ģ
Ñ ģ
ÑĢ Ð
Ð ²
Ð ´
Ð »
Ð º
Ð ¿
Ð² Ð
Ð ¼
Ð½Ð °
Ðº Ð
Ð´ Ð
Ð» Ð
Ġ Ñģ
Ð ·
Ġ Ð¿
Ð¼ Ð
Ñ ı
Ñ ĥ
Ð½Ð ¸
ÑĤÐ °
Ñ Ĭ
ÑĤÐ ¾
Ġ Ð½Ð°
ÑĤÐ µ
ÑĢÐ °
Ð ±
Ð ³
Ñ ĩ
Ð· Ð
Ð²Ð °
Ð½Ð ¾
Ġ Ð´Ð
ĠÑģ Ð
ÑĢÐ µ
ÐºÐ °
ÐºÐ ¾
Ñĩ Ð
ĠÐ¿ Ð
Ð·Ð °
Ð½Ð µ
ÑĢÐ ¸
Ð³ Ð
Ġ Ñ
Ġ Ð²
¾ Ñ
Ð»Ð ¸
Ð± Ð
ÑĤÐ ¸
Ġ Ð·Ð°
ĠÐ¿Ð ¾
Ĩ Ð
Ñģ Ð
Ð ¶
Ð¿ Ð
ÑĢÐ ¾
Ð»Ð µ
ĠÐ´Ð °
Ñ ĨÐ
Ð¼Ð µ
¾Ñ Ĥ
Ð¼Ð °
ĠÑģÐ µ
Ġ Ð
ĠÐ ¸
ĠÐ ¾
ĠÐ µ
ī Ð
Ð²Ð ¸
Ð²Ð µ
ÑĩÐ µ
Ð ¹
Ð»Ð °
Ñ Ī
Ġ ÐºÐ¾
ÐºÐ ¸
Ð²Ð ¾
ÑĨÐ ¸
Ð³Ð ¾
Ð´Ð ¸
ĠÐ ¾ÑĤ
² Ð
Ð¶ Ð
Ġ Ð½Ðµ
Ñģ Ñ
Ñ ħ
ÑģÑ Ĥ
Ð¼Ð ¸
Ñ īÐ
Ð¼Ð ¾
Ð´Ð °
Ð´Ð µ
Ð»Ð ¾
Ġ ÐºÐ°
ÑĤÐ ²Ð
ĠÐ¿ ÑĢÐµ
ĠÐ °
Ġ Ð±Ð
Ħ Ð
ÑĪ Ð
ĠÐ´Ð ¾
Ð³Ð °
ĠÐ ¡
Ġ Ðº
Ŀ Ð
ĠÐ¸ Ð·
ĠÐ Ł
Ġ ÑĢÐ°
ÑģÐ ¸
Ġ Ð´
ĠÑģ ÑĬ
ĠÑ Ĥ
ļ Ð
ĺ Ð
Ġ Ñĥ
Ñģ ÑĤÐ²Ð
Ð½Ð¸ Ð
Ð·Ð ¸
Ð¿Ð ¾
. .
Ð½Ð¸ Ñı
ľ Ð
ĠÑģÐ ¸
ĠÑģÐ °
Ġ ÑĤÐ¾
ĠÐ¿ ÑĢÐ¾
Ð½Ð¸Ð µ
Ġ "
Ð¶Ð µ
Ð½Ð¸ ÑĤÐµ
Ġ Ð³Ð¾
ÑĩÐ °
¢ Ð
Ñģ ÐºÐ¸
ĠÐ Ĵ
ÑĩÐ ¸
Ġ 1
Ġ Ð¼
Ñģ ÑĤÐ°
Ġ Ð±
Ñħ Ð
ÑģÐ µ
Ġ Ð³
ĠÐ ĿÐ
Ġ ÑĩÐµ
ÑĢ Ñĥ
Ð½Ð° ÑĤÐ°
³ Ð
Ñģ ÑĤÐ¸
ĠÐ¿ ÑĢÐ¸
Ġ Ð¼Ð¾
ÑĬ ÑĢÐ
ĠÐ ĳ
ĠÐ´Ð µ
Ġ 2
Ñı Ñ
Ð³Ð ¸
ÑıÑ Ĥ
° ÑĤÐ°
ĠÐ Ķ
ÑĪÐ µ
Ð´Ð ¾
Ð¿Ð °
īÐ µ
º Ð
¸ ÑĤÐµ
ĠÑĢÐ° Ð·
Ġ ÑĤÐµ
ÑĬ Ñ
Ñģ ÐºÐ°
ł Ð
ÑĬ ÑĢ
Ð½ Ñı
Ñģ ÑĤÐ¾
Ð½ Ñ
ĠÐ Ĳ
Ġ ÑĢÐµ
Ġ Ð½Ð¾
ĠÐ ļÐ
Ð» Ñĥ
Ġ Ð²Ð¾
ĠÐ ľÐ
ÑĬÑ Ĥ
ĠÐŁ Ð
Ġ Ð¼Ðµ
ĠÐ ¢Ð
Ð±Ð ¾
Ð²Ð° Ñ
Ġ Ð¼Ð°
Ð±Ð ¸
ĠÐºÐ¾ Ð
Ð» Ñı
ĠÑ ħ
ĺÐ °
Ð¿Ð ¸
ĠÐ ĺ
Ð¿Ð µ
Ġ -
ÑĨÐ¸ Ñı
ĠÐ¾ Ð±
Ġ Ð¼Ð¸
ĠÑ īÐµ
ĠÐ ŀ
´ Ð
ĠÐ¡ Ð
Ġ Ð²Ð¸
ÑĨÐ¸ Ð
Ð²Ð° Ð½Ðµ
Ð»Ðµ Ð´
ĠÐ¿Ð °
ĠÐ² ÑĬ
Ġ ÑĤÐ°
ĠÑ ĦÐ
ĠÐĶ Ð
â Ģ
Ð±Ð µ
ĠÐ±Ð µ
Ġ âĢ
Ñ İ
ÑĤÐµ Ð»
¶ Ð
Ĺ Ð
ÑģÐ ¾
ÑīÐ ¾
ÑĢ ÑĬ
ĠâĢ ĵ
Ð½Ð¾ ÑģÑĤ
ÑģÐ °
ÑħÐ °
ÑĬ Ð»Ð
¼ Ð
µ ÑĤÐ¾
ÑģÑĤÐ²Ð ¾
ĠÐĴ Ð
ĠÐ¿ÑĢÐµ Ð´
ĠÐĳ Ð
Ð¶Ð ¸
Ñ ĦÐ
³Ð °
ĠÐ±Ð ¸
ĠÐ¸ Ð¼Ð°
ÑĢ Ñı
Ñ ĺÐ°
ĠÐ¾ ÑĤÐ
Ð²Ð°Ñ Ĥ
° Ñ
0 0
Ġ (
ĠÐºÐ° ÑĤÐ¾
Ðº Ñĥ
Ð½Ñ Ĥ
Ĳ Ð
Ġ Ð»Ð¸
ĠÑħ Ð
Ġ Ð½Ð¸
ķ Ð
Ð· Ð½Ð°
ĠÑģ Ñ
µ Ð½
Ð¼Ðµ Ð½
ĠÑģÑ Ĥ
Ð±Ð °
ĠÑģÐ ¾
ĠÐ ĹÐ
± Ð
Ġ Ð½Ñı
ĵ Ð
ĠÐºÐ¾Ð ¸
Ð³ ÑĢÐ°
ÑĢÐ ¼Ð
ĠÐ¿ ÑĢÐ°
ĠÑĤÐ¾ Ð²Ð°
° Ð»
°Ñ Ĥ
ĠÐ łÐ
.. .
Ġ Ð²Ðµ
Ľ Ð
¸ Ð
ĨÐ µ
ÑĢÐµ Ð´
Ð¶ Ð´Ð°
ĠÑģ ÑĤÐ°
ĠÐ¾ Ð´
ÑĢÐ¸ Ð
Ð½Ð¾ ÑĤÐ¾
ÑīÐ ¸
Ð¿ ÑĢÐ°
0 1
ÑĨÐ °
ŀ Ð
ĠÐºÐ° Ðº
Ñĥ Ð²Ð°
ÑīÐ °
ÑĢÐ¸ Ñı
ÑĢÐ° Ñ
ĠÐº ÑĬ
ĠÐ³Ð¾ Ð´Ð¸
ĠÑ Ī
ĠÐ¼Ð¾ Ð¶Ðµ
Ĥ Ñĥ
· Ð
ÑĬ Ð»
ĠÐ¿Ð¾ Ð´
ĠÐºÐ¾Ð¸ ÑĤÐ¾
ĠÐ ķ
ĠÐĹÐ °
ĠÐŁÐ ¾
Ð» ÐºÐ¾
ĠÐĿÐ °
Ð» Ñİ
Ð·Ð ¾
Ð½Ð ´Ð
Ð´ Ñĥ
Ñ ĺ
ĠÐ¸ Ð»Ð¸
ĠÐ¢Ð ¾
Ñģ ÑĤÐµ
ĠÐ¼ Ñĥ
ÑħÐ ¾
Ñģ Ð½Ð¾
Ðº Ñ
ÑīÐ µ
ĠÐµ Ð´
ÑĬÐ»Ð ³Ð°
Ñģ ÐºÐ¾
ÐºÐ° ÑĤÐ°
Ñĩ ÐºÐ¸
Ðº ÑĤÐ¸
ĠÐ¼ Ð½Ð¾
ÑĪÐ ¸
Ġ 3
¡ Ð
Ð»Ðµ Ð½
ºÐ °
ÑĢÐ¸ ÑĤÐµ
ĠÐ ¾Ñ
Ð·Ð µ
Ð¶Ð °
Ġ Ñĩ
ĠÐ ĵÐ
ĠÐ´ ÑĢÑĥ
Ñı ÑĤÐ°
ĠÐļÐ ¾
Ð½Ð¸Ðµ ÑĤÐ¾
¶Ð °
» Ð
Ġ ÑĩÐ°
ĠÑģ Ð»ÐµÐ´
ÑĢÐ° Ð½
ĠÑģÐ° Ð¼Ð¾
ĠÐļÐ °
ĠÑ ĨÐµ
ĠÐ¿Ð µ
ÑģÑĤÐ²Ð °
ÑĨÐ µ
ÑĢÐ ¾Ñ
Ġ Ð»Ðµ
ĠÐºÐ¾ Ð¹
ĠÐ± ÑĬ
ÐºÑ Ĥ
Ð¿ ÑĢÐµ
ĠÐ²ÑĬ Ð·
ÑĢÐµ Ð¼Ðµ
ĠÐľÐ °
³Ð ¾
" ,
ĠÑħÐ ¾
Ð½Ð¸ ÑĨÐ¸
Ð³ Ñĥ
ĠÐ½Ð° Ð¹
ĠÐ¼Ð½Ð¾ Ð³Ð¾
Ñĩ Ð½Ð¾
Ð² Ñı
ÑĬÑĢÐ ²Ð
Ġ Ñı
Ñ ĤÑĥ
ĠÐºÑĬ Ð¼
¾ Ð½
Ð»Ð¸ ÑĤÐµ
Ĵ Ð
Ġ Ð·
ĠÐ¸ Ð½
Ð´Ð¸ Ð½
ÑģÑĤÐ²Ð µ
Ġ Ð²Ð°
ĠÐ±Ð °
ĠÐ ¢
Ġ Ð³Ð¸
ĠÑģÑĤ ÑĢÐ°
ĠÐ³ ÑĢÐ°
¾ Ð½Ð°
ĠÑĦÐ ¸
Ð½ ÑģÐºÐ¸
ĠÐ ¥
ĠÐ² ÑģÐ¸
ÑĢÐ° ÑĤÐ°
ĠÐºÐ¾Ð¹ ÑĤÐ¾
Ð²Ð° ÑĤÐ°
ĠÐ±Ð ¾
¸ Ñı
Ķ Ð
Ð´Ðµ Ð½
ĠÐ ļ
ÑĢ Ñ
¾ Ð±
ÑģÐºÐ° ÑĤÐ°
Ġ ÑĤÐ¸
Ð½Ð¸ Ðº
Ð²Ðµ Ð½
ĠÐĿÐ µ
ĠÑģ Ð»Ñĥ
ĠÑĤ Ñı
ĠÑģ Ð¿Ð¾
Ñģ ÑĬ
Ġ Ð¶Ð¸
Ð± Ð²Ð°
ĠÐ ĽÐ
ÑĢÐ¼Ð °
ÑĢÐ°Ñ Ĥ
ĠÐ² ÑĢÐµÐ¼Ðµ
ÑĢÐ ²Ð
ÐºÐ µ
ĠÐ½Ñı Ð¼Ð°
ĠÐ´Ð ¸
Ð½Ðµ ÑĤÐ¾
ĠÐ¿ÑĢÐµ Ð·
Ð½ Ñĥ
ĠÐ±Ðµ Ð·
ÑĤÐ¸ ÑĤÐµ
Ł Ð
Ñĩ Ð½Ð¸
Ġ 4
ÑĢÑ Ĥ
ÑĢÑı Ð±Ð²Ð°
ÑĤÐ ²
Ġ Ð·Ð½Ð°
Ð» Ð½Ð¾
ĠÐº Ñĥ
ÑģÑĤÐ²Ð¾ ÑĤÐ¾
ĠÐºÐ¾Ð µÑĤÐ¾
ĠÐ¸ Ð¼
Ð¿ ÑĢÐ¾
Ġ2 01
ĠÑĥ Ñģ
ĠÐ¿ Ð»Ð°
Ð» Ð½Ð¸
¸ Ð·
ĠÐ ¤
Ġ 5
Ñ ī
ĠÑĢÐ° Ð±Ð¾
ÑĨÐ¸Ð ¸
ĠÐº ÑĢÐ°
ľÐ µ
ļÐ µ
Ðº ÑĤÐ¾
Ð²Ð°Ð½Ðµ ÑĤÐ¾
Ð²Ð¸ ÑĤÐµ
Ð¿ Ñĥ
ÑĩÐ ¾
e r
ÑĢ ÑĤÐ¸
ĠÐµ Ð´Ð¸Ð½
Ð´Ð¾ Ð±
ÑĬÑĢÐ ¶Ð°
Ð»Ð¸ Ð
§ Ð
Ñģ Ð»ÐµÐ´
ĠÑģ ÑĢÐµ
ĠÐºÐ¾ Ð¼
ĠÑĤ ÑĢÑıÐ±Ð²Ð°
ĠÑĪ Ð
Ð ¸Ð·
Ñı ÑĤÐ¾
" .
ĠÐ½Ðµ Ð³Ð¾
ĠÑģ Ð²Ð¾
ĠÐ½Ñı ÐºÐ¾
ĠÐ¿Ð¾ Ð²Ðµ
ĠÑĤÐ° ÐºÐ°
Ð ¾Ð±
Ð °ÑĤ
ÑĨÐ¸Ñı ÑĤÐ°
ĠÐ £
ĠÐ±ÑĬ Ð´Ðµ
Ð² ÑĢÐ¾
Ðº ÑĬ
ĠÐºÐ¾ ÑıÑĤÐ¾
Ñ Ĩ
ĠÑģ Ð²Ðµ
Ñĩ Ð½Ð°
Ð²Ðµ ÑĤÐµ
Ð¿ ÑĬÐ»
Ð½Ð¸Ñı Ñ
Ð½Ð¸ÑıÑ Ĥ
Ð² Ð½Ð¾
Ð»Ð° Ð³Ð°
ĠÑģÑĬ Ñģ
ÑĬ Ðº
Ðº Ð»Ñİ
ÑĪÐ °
ĠÑģ Ð¼Ðµ
¸Ð µ
i n
Ġ ÑĢÐ¾
ÑģÑĤ ÑĢÐ°
ÑīÐ¾ ÑĤÐ¾
ĠÐ¿ ÑĢÐ¾Ñ
Ð´Ð° Ñ
ÑĦÐ ¸
ĠÐ¿Ð ¸
Ð´Ð°Ñ Ĥ
ºÐ ¸
ĠÑĤ Ñĥ
ĠÐ³Ð¾Ð´Ð¸ Ð½Ð°
ĠÐĳ ÑĬÐ»Ð³Ð°
Ñģ Ñı
ĠÐ² ÑģÐµ
Ð»Ð° ÑĤÐ°
¦ Ð
Ġ 0
ĠÐ´ Ñĥ
ĠÐ¾Ñ īÐµ
ÑĢ ÑģÐºÐ¸
Ð¼ÐµÐ½ ÑĤÐ°
ºÐ ¾
Ð½Ð ´
Ġ S
µ Ñ
ĠÑ Ĩ
ĠÐ²ÑģÐ¸ ÑĩÐºÐ¸
Ðº Ð²Ð°
ĠÐ¥ Ð
ĠÐ¿ÑĢÐµ Ð´Ð¸
ĠÐ¾ ÑģÑĤÐ°
ĠÐĿÐ ¾
ĠÐ³Ð¾Ð´Ð¸ Ð½Ð¸
ĠÐĳÐ ¾
Ð¼Ð° ÑĤÐ°
ĠÐłÐ °
Ð´ Ð½Ð¾
Ð² ÑĤÐ¾
Ð± ÑĢÐ°
ĠÑĤÐ¾ Ð·Ð¸
Ġ1 9
ÑĩÐµ Ð½
Ð´Ð¸ ÑĤÐµ
° Ð½
Ð² ÑĬÑĢ
Ġ Ð¶Ðµ
ĠÐ±Ðµ ÑĪÐµ
ĠÐµÐ´ Ð½Ð°
ÑĢÐ ³Ð°
ĠÐ¿ ÑĬÑĢÐ²Ð
Ð³Ð µ
ÑĢÐµ Ð½
ĠÐ¸Ð½ ÑĤÐµ
ĠÑĦÐ ¾
a n
° Ð»Ð¸
Ð· Ð²Ð°
Ñ ĺÐ
ÑĤÐ²Ð ¾
ĠÑģ ÑĤÐ¾
ÑĢ Ð½Ð°
Ð ¸ÑĤÐµ
o n
Ð³Ð° ÑĤÐ¾
ÑĩÐµ ÑģÐºÐ¸
Ð½Ð¸Ñı ÑĤÐ°
Ð ĿÐ
Ð½Ð¾ Ð²
Ð´ ÑĢÐ°
Ðº Ñģ
ĠÐ½Ð° Ð¿ÑĢÐ°
ĠÐ¿ÑĢÐ° Ð²Ð¸
Ð½Ð º
ĠÐºÐ¾ Ð½
ĠÑ Ħ
ÑĤÐ° ÑĤÐ°
Ð»Ð¾ Ð¶Ðµ
ÐºÐ¸ ÑĤÐµ
ĠÐ´ÑĢÑĥ Ð³Ð¸
Ð² Ð½Ð¸
ĠÐ° ÐºÐ¾
Ð»Ð ·
ĠÐ³ Ð»Ð°
Ġ 6
Ð» Ð½Ð°
ĠÐ ĵ
ÑĢÐ° Ð·
ÑĨÐ¸ ÑĤÐµ
ÑĢÐ° Ð½Ðµ
Ð½Ð ³
Ð± Ð»Ð¸
ÑĦÐ µ
Ð»Ð¾ ÑĤÐ¾
ĠÐ²ÑĬ Ð²
Ð½Ñ ĦÐ
Ñĥ Ð»
ĠÐĳÑĬÐ»Ð³Ð° ÑĢÐ¸Ñı
ĠÐ¤ Ð
Ð´ Ð½Ð°
ĠÑ ĺÐ°
a r
Ð½Ðµ Ñģ
Į Ð
ĠÐĶÐ ¾
ÑĤÐµ Ð½
ĠÐľÐ ¸
Ð´ ÑĬÐ»Ð
2 01
ĠÐ²Ðµ ÑĩÐµ
ĠÐ·Ð° Ð¿Ð¾
Ð¶ Ð´Ñĥ
ĠÑ ľÐµ
ÑĩÐ¾ Ð²Ðµ
ĠÐ¢Ð¾ Ð²Ð°
Ñģ Ð½Ð°
e n
ĠÐŁ ÑĢÐµ
ÑĢÐ ´Ð
ÑĢÐ° Ð´Ð¸
ĠÐ¿Ð¾Ð²Ðµ ÑĩÐµ
ĠÐ¢Ð °
Ġ Ð²Ð
ĠÑĤÐ° Ð·Ð¸
Ġ ,
±Ð ¾
ĠÑĪ ÑĤÐ¾
Ñ Ħ
ĠÐ¿Ð¾ Ð»Ð¸
Ð»Ð¸ Ñı
Ġ Ð»
.. ..
ĠÑģ Ð¿Ðµ
ĠÑĩ Ñĥ
ĠÐĴÐ °
Ð»Ðµ Ð¼Ð¸
ĠÐ´Ðµ ÐºÐ°
ĠÐ½Ð° Ð´
ĳ Ð
Ð³ Ð½Ð°
ÑĨÐ °ÑĤÐ°
ĠÐ± ÑĬÐ»Ð³Ð°
ĠÐ´Ð¾ Ð±
Ð½Ð¾ÑģÑĤ ÑĤÐ°
Ðº ÑĢÐ°
Ð² ÑıÑĤ
ĠÑĤ ÑĢÐµ
ĠÐ §Ð
ĠÐ¢Ð µ
Ġ C
o r
ĠÐ¿ Ñĥ
Ġ A
µÑ Ĥ
ĠÑģÑĬ Ð¼
ĠÑģ Ñĥ
Ġ2 0
ĠÐ¡Ð µ
ÑģÑĤÐ¾ Ñı
ĮÐ ¾
ĠÐ² ÑĬÑĢ
ÑĢ ÑĤÐ°
Ġ ÑĩÐ¾Ð²Ðµ
ÑĤÐµÐ» Ð½Ð¾
2 0
ÑĢ Ð½Ð¾
ĠÑĤÐ¾ Ð¹
ĠÐºÐ°Ðº ÑĤÐ¾
ĠÐĴÐ ¸
Ð ¾ÑĤ
Ð µÑĤÐ¾
ÑĬ Ð½
ĠÐĺ Ð·
ÑĢ Ð½Ð¸
ĠÐ¸ ÑģÐºÐ°
µ Ð¼
ĠÑĤÑı Ñħ
Ð ¡
Ñĩ Ð²Ð°
¾Ñ ĦÐ
Ð³Ð° Ñ
»Ð ¸
ĠÐľÐ ¾
Ġ M
Ġ1 0
ĠÐ¿ ÑĬÑĤ
Ð² ÑĬÑĢÐ
Ð³Ð°Ñ Ĥ
ĠÐłÐ µ
ĠÑĢÐ°Ð· Ð»Ð¸
ĠÐĶÐ °
ĠÐ¾ ÐºÐ¾
ĠÑģ ÑĤÐµ
Ð¼Ð ¾Ñ
ĠÐ¿Ð¾ Ð»Ñĥ
Ð·Ð¸ ÑĢÐ°
Ġ ...
Ġ 7
ÑīÐ °ÑĤÐ°
Ð»Ð¾ Ð³Ð¸
ĠÐ¿ÑĢÐµÐ´ ÑģÑĤÐ°
ĠÑĤÐµ Ð·Ð¸
Ð¿Ð¾ Ð»Ð·
Ġ B
ÑĢÐ ³Ð
Ð °Ð»
Ñĩ ÐºÐ¾
Ð¹ ÑĤÐµ
Ñģ Ð»Ðµ
Ġ P
Ð² Ð½Ð°
ĠÑĦÐ °
ĠÐ¼Ðµ Ð¶Ð´Ñĥ
ÑĢÐ¸Ð ¾
ĠÐŁ ÑĢÐ¾
ĠÐ ľ
Ð³ Ð»Ðµ
Ð¼Ðµ Ñ
ĠÐ ¦Ð
µ Ð¼Ð°
e s
Ð¶ Ð½Ð¾
Ð¿ ÑĢÐ¸
±Ð °
Ġ Ð·Ðµ
ĠÐ± Ñı
Ð· Ð´Ð°
a t
a l
Ð´ Ð½Ð¸
ĠÐºÐ¾ Ð³Ð°ÑĤÐ¾
ĠÐ° Ð²ÑĤÐ¾
ÑĤÐ¸ ÑĢÐ°
ĠÐºÐ°Ðº Ð²Ð¾
Ð½Ð´Ð ¸
ÑĨÐ¸ ÑĺÐ°
Ð²Ð°Ñ ļÐµ
Ġ 8
ÑĢÐ¾ Ð²
ĠÑ ĨÐ
ĠÐ¾ ÑĢÐ³Ð°
ĠÐĴÐ µ
Ñģ Ð¿Ð¾
Ð¹ ÑģÐºÐ¸
ĠÐ¿ÑĢÐ¾ Ð¸Ð·
Ð Ĳ
ĠÐŁÐ °
Ð¼ÐµÑ Ĥ
µ Ð²
Ð¿ Ð»Ð°
ĠÑĩÐ° ÑģÑĤ
¶Ð ¸
Ð ŁÐ
Ð¼Ðµ ÑĢÐ¸
ĠÐµÐ´ Ð½Ð¾
Ð ļÐ
ĠÑģ ÑĢÐµÐ´
ĠÐ¾ÑĤ Ð½Ð¾
Ġ ÑĩÐ¸
ĠÑħÐ °
ĠÐ´Ðµ Ð¹
Ð²Ð¾ Ð´
ĠÐ´Ð¾ ÑģÑĤÐ°
Ñģ Ñĥ
ĠÐ¾ ÑģÐ½Ð¾
ĠÐ´ ÑĬÑĢÐ¶Ð°
¾ ÑĢÐ¼Ð°
ÑģÑĤÐ¸ ÑĤÐµ
ĠÐ ł
ÑģÑĤ ÑĬ
Ð¼Ðµ ÑĢ
ĠÐ ¨
ÑīÐ ¸ÑĤÐµ
ĠÐ½Ð¾ Ð²Ð¸
Ġ N
ĠÐ·Ð° ÑīÐ¾ÑĤÐ¾
Ð»Ð¾ Ð²
) .
·Ð °
Ñģ Ð½Ð¸
ĠÐŁ ÑĢÐ¸
Ð´Ð° ÑĤÐ°
) ,
Ð³ Ð»Ð°
Ð²Ðµ Ñ
Ð½ ÑĤÐ¸
ĠÐĲ ÐºÐ¾
ĠÐ¾ÑĤÐ º
Ð² Ð»Ðµ
ĠÐ¸ Ð½ÑĦÐ
Ñģ Ð»Ð°
Ð²Ð¾ ÑĢ
ÐºÐ° Ð·Ð°
Ġ Ð³Ð°
Ġ |
Ð ĶÐ
Ñĩ ÐºÐ°
Ġ ÑĢÑĬ
Ð²Ð¾ ÑĢÐ¸
Ðº ÑģÐ¸
µ ÑĢ
Ð¼ Ñĥ
Ġ 9
Ñı Ð²Ð°
ÑĤÐ ºÐ°
ĠÐ¸Ð· Ð¿Ð¾Ð»Ð·
ĠÐ½Ð° ÑĩÐ¸
ÑģÑĤ ÑĢÐ¾
ĠÐ¡ ÑĬ
Ī Ð
Ð¼Ðµ Ð½ÑĤ
Ð² ÑĢÐ¸
ĠÐ¾ Ð¿Ð¸
ÑģÐµ Ð½
ĠÐ» Ð²
Ġ I
Ð»Ð¾ Ð²Ð¸
ĠÐ¾ÑĢÐ³Ð° Ð½Ð¸
µ Ð»
Ġ T
! !
Ð½Ð¸Ð ¾ÑĤ
ĠÑħÐ¾ ÑĢÐ°
ĠÐ¾ Ð±Ðµ
Ð»Ñı Ð²Ð°
ĠÐ¼ Ñı
ĠÑģÐ»Ñĥ ÑĩÐ°
Ð»Ð° Ð³Ð¾
Ġ2 00
Ð²ÐµÑ Ĥ
Ð½Ð´Ð °
Ð±Ð¸ ÑĢÐ°
Ġ /
i t
Ð½Ð¸ Ð¼Ð°
ÑĨÐ¸Ð ¾Ð½Ð°
ĠÐ¿ÑĢÐ¾ Ð±
ÑĤÐ²Ð °
Ñħ Ð¼Ðµ
ÑģÐ¸ Ñı
¾ÑĤ ÑĢÐµ
Ð ¢Ð
Ðº ÑĢÐ¸
Ð¼Ð¸ ÑĤÐµ
ĠÐ¿Ð¾ ÑģÐ»ÐµÐ´
ĠÐŀ Ñ
s t
ĠÐ¡Ð °
ĠÐŀÑ Ĥ
ĠÐ¸ Ð³ÑĢÐ°
Ð ¡Ð
Ð Ł
ÑħÐ¾ Ð´
ĠÑħÐ ¸
ÐºÐ¾ Ð½Ð¾
Ñħ Ñĥ
ĠÑĤÐµ Ñħ
ĠÐĵÐ µ
ÑģÐ¸ Ð
Ð²Ð ¾ÑĤ
ĠÑĤ ÑĢÐ¸
Ð½Ð¸ÑĨÐ¸ ÑĤÐµ
ĠÐĳÐ µ
ĠÐ¾ Ð±Ð¸
ĠÑģ ÑĤÐ¸
Ñī Ñĥ
Ð»Ð¸ Ð·Ð°
ĠÐ²ÑĬÐ· Ð¼Ð¾
Ġ1 5
¶Ð µ
ĠÐºÐ° ÐºÐ¾
±Ð ¸
ÑĢÐ° Ð½Ð¸
ĠÐĿÐ ¸
ÑģÐºÐ¾ ÑĤÐ¾
ĠÐ½Ð° Ñģ
ÑĢÐ¼Ð ¸
ĠÐ ķÐ
ĠÐľÐ µ
ĠÐķ Ð²ÑĢÐ¾
¾Ñ ĨÐ
Ð½Ðµ Ð½
ĠÑĦ Ñĥ
Ð²Ðµ Ð´Ðµ
ĠÐ´ Ð²Ð°
ĠÑģ Ð¼
Ġ Ð³Ðµ
ÑĢÐ° Ð±Ð¾
ĠÑģÑĬ ÑīÐ¾
ĠÐ¡Ð ¸
ĠÐ¼Ñı ÑģÑĤÐ¾
Ð´ Ð¼Ð¸
Ġ ÐºÐ¸
Ð±Ð ¾ÑĤ
Ð´Ð° Ð²Ð°
Ð¿ÑĢÐµ Ð´Ðµ
Ð µÐ¼
ĠÐł Ñĥ
ĠÐ¿Ð¾Ð»Ð¸ ÑĤÐ¸
ĠÑģÐµ Ð³Ð°
ĸ Ð
ĠÐĶÐ µ
Ð ľÐ
Ð¹ ÐºÐ¸
ÑĺÐ °ÑĤÐ°
»Ð °
ĠÐ´Ðµ Ð½
ĠÑģÐ¸ ÑģÑĤÐµ
Ġ D
ĠÐ¾ÑĤÐ ³Ð¾
Ð¶Ð ¸ÑĤÐµ
ÑģÐ¸ ÑĤÐµ
¿ Ð
ĠÐ¾Ð± Ñı
ĠÐ¼Ðµ ÑģÐµ
ÑĤÐ¸ Ð²
Ð²Ð¾ ÑĤÐ¾
Ðº ÑĢÐµ
Ð½Ð¸ ÐºÐ°
Ð½Ðµ Ð½Ð¸Ðµ
Ð² ÐºÐ°
Ġ G
Ð½Ð ºÐ°
ÑĦÐ ¾
·Ð ¸
ĠÐ½Ðµ ÑīÐ¾
© Ð
ĠÑĥ Ð¿ÑĢÐ°
Ð½Ð¾ Ð²Ðµ
ĠÑĥ ÑĩÐ°
ÑĢÐµ Ñģ
Ġ1 2
ÑĩÐ° Ð²Ð°
Ð´Ð¸ Ð
ĠÐ·Ð° Ð
ÐºÑĥ Ð²Ð°
ºÐ °ÑĤÐ°
Ð» Ð½Ð°ÑĤÐ°
ĠÐ²ÑĬ Ð¿ÑĢÐ¾
b g
ĠÐĵÐ ¾
¾Ñ ĺ
ĠÐ¿ÑĢÐ¾ Ð
ĠÐ¸ ÑģÑĤÐ¾
ĠÐ· Ð´ÑĢÐ°
ĠÐ²ÑģÐµ ÐºÐ¸
ÑĢÐ²Ð °
ĠÐ¾ Ñģ
ĠÐ¼Ð¾ Ð³Ð°ÑĤ
ÑĪÐ ¸ÑĤÐµ
Ð łÐ
Ð¼Ð¸ Ð½Ð°
Ð ĳÐ
ĠÑĨ Ñı
ĠÐ¾ Ð±Ð°
¾ÑĦÐ ¸Ñı
Ð´ ÑĬÑĢÐ¶Ð°
00 0
ÑĩÐµ Ð½Ð¸Ðµ
Ð»Ð ¾Ñ
ĠÐµ Ð»Ðµ
o m
ÐºÐµ Ð´Ð¾
i c
ĠÐ½Ð°Ð¿ÑĢÐ° Ð²Ð¸
ĠÐĳÐ °
ĠÑĤ ÑĬ
ĠÐ¿ÑĢÐ¾ Ð´ÑĬÐ»Ð
ĠÐ± Ñĥ
Ð´Ðµ Ð»
ÐºÐ»Ñİ ÑĩÐ¸
ÑĪÐµ Ð½Ð¸Ðµ
l e
ÑĤÐ° Ñ
Ġ ÑĢÐ¸
ÑĨÐ¸Ð ¾Ð½
Ð ĴÐ
ĠÐ¿ÑĢÐ¾Ð µ
ÑĨÐ¸Ð °Ð»
ĠÐºÐ° Ð·Ð°
Ð ĺ
ÑĢÐ ´
Ðº Ð»Ð°
ĠÐµ Ð²ÑĢÐ¾
ÑĤÐ¸ Ð
Ð½Ñı Ð²Ð°
Ġ1 8
ÑĤÐµ Ð»Ð¸
ĠÑģÑĬ Ð·Ð´Ð°
ÑĤÐ² ÑĬÑĢÐ
ĠÐ´ ÑĬÐ»Ð
ĠÑģÑĢÐµ ÑīÑĥ
ĠÐ±ÑĬ Ð´Ð°ÑĤ
¾Ñ ħ
ĠÐ² Ð»Ð°
ĠÐ¶Ð¸ Ð²Ð¾ÑĤ
ĠÐ² ÑĢÑĬ
ÑĢÐµ ÑĪ
ĠÐĶÐ ¸
ĠÐ Ŀ
ÑĤÐ°Ñ Ĥ
ĠÐ¾ÐºÐ¾ Ð»Ð¾
ĠÐ²ÑĬÑĢ ÑħÑĥ
ĠÐºÑĬ Ð´Ðµ
ĠÐ¿ÑĢÐ¾Ñ ĨÐµ
Ġ Ð»Ð°
Ð³ Ð½Ðµ
ĠÑĤÐ¾ Ð
ĠÐĴÐ ¾
ĦÐ µ
Ĥ ÑĬ
Ñ ĤÑĬ
Ð½Ð ²Ð
ÑĢÐ¸Ð µ
ĠÐ³ ÑĢÑĥ
ÑĤÐ¾ Ð²Ð°
Ġ1 1
Ġ R
a m
Ġ ÑĢÑĥ
Ð» ÑĬ
ĠÐ½Ð°ÑĩÐ¸ Ð½
ĠÐ² ÑģÑı
ĠÐ¡ Ð»ÐµÐ´
ĠÐ²ÑģÐ¸ ÑĩÐºÐ¾
ĠÐ¿Ð¾ ÐºÐ°
ĠÐ²Ð¸ ÑģÐ¾
Ð¹ Ð½Ð°
Ð ŀ
ĠÐ ¹
ĠÐ¿ ÑĬ
ÑħÐ ¸
ÑĤÐ¸ Ñı
ĠÐ¸Ð½ÑĦÐ ¾ÑĢÐ¼Ð°
ĠÑ İ
ĠÑĢÐ°Ð±Ð¾ ÑĤÐ°
ÑģÑĤ ÑĤÐ°
ĠÑĦÐ¸ Ð½Ð°
Ġ L
ĠÐ² ÑĤÐ¾
Ð» Ð½Ð¸ÑĤÐµ
Ġ s
Ð± Ñĥ
Ð¿ Ð»Ðµ
ĠÐ¡ Ð¿Ð¾
Ġ F
ÑĢÐ¸ ÑģÑĤÐ¸
Ġ E
ĠÐ¿ÑĢÐ¾ Ð´Ñĥ
r o
ĠÐ¾Ð±Ð° ÑĩÐµ
e l
ĠÑĤÐ¾Ð °
ÐºÐ¾ Ð²
´Ð µ
ĦÐ ¸
ĠÐº Ð»Ð°
ĠÑĢÐ°Ð±Ð¾ ÑĤÐ¸
ĠÑĩÐ¾Ð²Ðµ Ðº
ĠÐ³Ð¾ Ð»Ñı
ÑħÐ¾ Ð´Ð¸
Ð µÐ½
ĠÐ¢Ð¾ Ð¹
ĠÐ½ÑıÐºÐ¾ Ð»ÐºÐ¾
. ,
ĠÐ¿Ð¾ ÑģÑĤÐ°
ÐºÐ° ÑĤÐ¾
ĠÐłÐ° Ð·
ĠÑĢÐ°Ð· Ð²Ð¸
ĠÐ´ Ð²Ðµ
ÑĩÐ° Ñ
Ð»ÐºÐ¾ Ð²Ð°
Ð¼ Ð²ÑĢÐ¸
Ġ t
ÑĢÐ¾ Ð´
ÑĢÐ ºÐ°
ÑĩÐ°Ñ Ĥ
Ð½Ð¾ Ð²Ð°
ĠÐ¼ ÑĬ
ÑģÑĤ ÑĢÐ¸
Ð½Ð¸ ÑĺÐ°
ĠÐºÐ¾Ð¼ Ð¿Ð°
ĠÑĤÐµ Ð»Ðµ
Ð² Ñĥ
Ð¿Ð¸ ÑģÐ°
r e
Ð¹ Ð½
Ñĩ Ð½Ð¸ÑĤÐµ
ĠÐ´Ð° Ð½
Ĥ ÑĢÐ°
Ñ ĤÑĢÐ°
µ ÑģÑĤÐ¸
ĠÐ¡Ð ¾ÑĦÐ¸Ñı
ĠÑģÑĤÑĢÐ° Ð½Ð°
Ð±Ð ¸ÑĤÐµ
ÐºÑĤÐ¾ ÑĢ
ĠÐŀ Ð±
ĠÐº ÑĢÐ¸
ĠÑĤ ÑĢÑĥ
Ð· ÑĥÐ»
·Ð ¾
ĠÑĨÐ ¸
Ġ Ð½Ñĥ
ÑģÐºÐ¸ ÑĤÐµ
Ðº ÑĤÐ°
ĠÐ¼Ð¸ Ð½Ð¸
ĠÐ¼Ð° Ð»
- -
ĠÐ Ľ
_ _
ĠÐ¸Ð· Ð±Ð¾
Ġ Ð»Ñİ
ĠÐ¼Ð° Ð¹
ĠÐ´Ð¾ ÑĢÐ¸
ĠÐ¸Ð· Ð¿ÑĬÐ»
Ð² ÑĢÐµ
ĠÐ¿ÑĢÐ¸ Ð
ĠÑ īÐ
ÑĢÐµ Ð·
° ÑĢÐ¸
ÑĪÐµ Ð½
Ġ H
Ð¼ÐµÐ½ ÑĤÐ¸
ĠÐ Ĺ
ÐºÑ ĤÑĥ
Ġ1 4
Ð´Ð¸ ÑĪ
ĠÑĥ ÑĩÐµ
ĠÐ´Ð° Ð»Ð¸
ÑĢÐ ¾ÑĤ
Ðº Ð²Ð¸
Ġ1 3
ĠÐ¿Ñĥ Ð±Ð»Ð¸
ĠÐ¼Ð° Ð»ÐºÐ¾
ĠÐ¡ ÑĤÐ°
¾ Ð½Ð¸
Ð¿Ð¸ ÑĤÐ°
Ð² Ð½Ð¸ÑĤÐµ
ĠÐ¾ Ð¿ÑĢÐµÐ´Ðµ
Ð´ Ð²Ð°
ĠÐ²Ð ·Ð
Ð¼Ð° ÑĤÐ¸
ĠÑĥ ÑĩÐ¸
ÐºÐ¾ Ð³Ð°
ĠÐ¸ Ð¼Ðµ
ĠÑģÑĤÐ° Ð²Ð°
ĠÑħÐ¾ ÑĢÐ°ÑĤÐ°
Ñĩ Ñĥ
ĠÐ±Ñı ÑħÐ°
ĠÐ¿Ð¾ Ð´Ð¾Ð±
ĠÐĴ ÑĬ
Ð½Ð° Ð»Ð¸
ÑģÑĤÐ²Ð ¸Ðµ
Ġ1 6
ĠÐ° Ð·
ĠÑģ Ð¿Ð°
ÑĢÐ° Ð½Ð°
¾ÑĨÐ ¸Ð
ĠÐ¸Ð·Ð¿Ð¾Ð»Ð· Ð²Ð°
Ġ p
ĠÑĢÐ° Ð±Ð¾ÑĤ
Ð´Ðµ Ð
Ð¼ Ð½Ð¾
Ñ ĮÐ¾
Ð½Ð° Ñ
ĠÐ±ÑĬÐ»Ð³Ð° ÑĢÑģÐºÐ¸
ĠÐĺ Ð¼Ð°
ÑģÐµ Ð´Ð°
ĠÐ¿Ð° Ðº
e t
ĠÑĤÐ¾ Ð»ÐºÐ¾Ð²Ð°
ĠÐŁÐ µ
Ð³Ð° ÑĤÐ°
ĠÐ±Ð¸ Ð»
Ð½Ð¸ Ð¼
ÑĢÐ ºÐ¸
ĠÑĥÑģ Ð¿Ðµ
Ñ ľÐ
Ð· Ð½Ð¸
ļÐ µÑĤÐ¾
ÑĢÐ¸Ñı ÑĤÐ°
a c
ĠÐ·Ð½Ð° Ð
ĠÑĨÐµ Ð½ÑĤ
ĠÐ²Ð¸ Ð´
ĲÐ ¢Ð
1 9
Ð´Ðµ Ð½Ð¸
Ġ d
ÑĬ Ð¼
ĠÐ¾Ð± ÑīÐ¸
Ġ m
ĠÐ½Ð° Ñĺ
ĠÐº ÑĢÑĬ
ĠÑĢÐµ Ð·ÑĥÐ»
ĠÐ¼Ðµ Ð½
1 0
Ñģ Ð»Ñĥ
ÐºÐ¾ Ð¹
Ð½Ð°Ñ Ĥ
ÑĪÐ °ÑĤÐ°
ĠÐ¿Ð¾ Ð
Ð»Ðµ Ð´Ð°
ÑĤÐ ºÐ¸
Ñģ ÑĤÐ²
ĠÑģÐ¾ Ð±
ĠÐ¸Ð¼Ð° Ñ
ĠÐ¸Ð¼Ð°Ñ Ĥ
Ñı Ð²Ð¸
Ð¼Ðµ Ð½Ð¸
Ĥ Ð½Ð¸
Ñ ĤÐ½Ð¸
ĠÐ¨ Ð
ĠÑĢÐµ Ð³Ð¸
ĠÐ ©Ð
ĠÐ¼Ð¸ Ñģ
o l
Ð»Ðµ Ð¼
a s
ĠÐ± ÑĢÐ¾
Ð ¾Ð½
i s
ÑĢÐµ Ð´Ð¸
Ð¼Ð¾Ñ ī
ĠÐĽÐ ¸
ĠÑģÑĬ Ð¾Ð±
Ð·Ð¾ Ð²Ð°
¾ ÑĤÐ¾
ÑĤÐ¸Ð µ
ĠÐ± Ð»Ð¸
ĠÐ·Ð°Ð µ
Ñģ Ðº
ĠÐºÐ¾ Ð»ÐºÐ¾
Ð½Ðµ ÑĤÐµ
Ð² Ð½Ð°ÑĤÐ°
ĠÐ ĸÐ
ĠÐ¿ÑĢÐ¾ Ð³ÑĢÐ°
ĠÐ½Ð° Ñĥ
ÑģÐ¸ Ð³Ñĥ
ÑĩÐ¸ ÑĤÐµ
Ġ1 7
ÑĤÐ »Ð¸
ĠÐ¾ÑĤÐº ÑĢÐ¸
ĠÐļÐ ¸
Ð½ ÑĤÐµ
Ð¼ÐµÐ½ Ð½Ð¾
Ð¼ÐµÑĢÐ¸ ÐºÐ°
ÑģÑĤÑĬ Ð¿
ÑģÐ¾ Ð±Ðµ
ĠÑģ Ð²ÑĬÑĢÐ
h e
Ġ3 0
Ð½Ð¾ ÑģÑĤÐ¸
ĠÐ·Ð½Ð°Ð µ
ÑĢÐ°Ñ ĤÑĥ
ĠÐ ¯
ĠÐ´Ð¾ Ð¼Ð°
¼Ð µ
ĠÑģÐ»ÐµÐ´ Ð²Ð°
ÑĢÐ º
ÑģÑĤ ÑĬÑĢ
Ĥ Ð½Ð¾
Ñ ĤÐ½Ð¾
ĠÐ³ÑĢÐ° Ð´
ĠÐºÐ¾ Ñĺ
ĠÐµ ÐºÑģ
Ð ¢
ÑĤÐ¾ ÑĢ
Ñĥ Ð¼
ĠÐºÐ¾ Ð»Ðµ
ÑĢÐ° Ðº
ĠÐ¼Ð¸ Ð½Ð°
Ð¶Ð´Ð° Ð½Ðµ
Ð ĹÐ
Ð³Ð° Ð²Ð°
Ð¼Ð¸ Ñģ
ĠÐº Ð½Ð¸
ÐºÑĬ Ð²
ÑĩÐµ ÑĤÐ°
ĠÑģÐ¸ Ð³Ñĥ
ĠÐ¿ÑĢÐ¾ ÑģÑĤÐ¾
ĠÐ¸Ð· Ð²Ðµ
ĠÐºÐ¾ Ð½ÑĤ
ÑģÑĤÐ²Ðµ Ð½Ð¾
ĠÐ¿ÑĢÐ¾ Ð²Ðµ
ĠÑĤÐ° Ð¼
ÐºÐ° ÑĢ
ÑĢÐ³Ð ¸
ĠÐ¼ Ð»Ð°
ĠÐ½Ð° Ð
Ġ V
ÑĥÐ²Ð° Ð°ÑĤ
ĠÐ¼Ðµ Ð´Ð¸
o t
ĠÑĢÐ°Ð· Ð¿Ð¾
Ð³ Ð»ÐµÐ´
ÐºÐ¾Ð½Ð¾ Ð¼Ð¸
ĠÑĢÐ°Ð·Ð»Ð¸ ÑĩÐ½Ð¸
i l
Ð´Ð ³Ð¾
Ð½Ð¾ Ð²Ð¸
ĠÐ¢ Ñĥ
ÑģÑĤ ÑĢÑĥ
ĠÑĤÑĥ Ðº
Ð¶ Ð½Ð¾ÑģÑĤ
ĠÐ§Ð µ
ĠÑĦÐ¸Ð½Ð° Ð½
ĠÐ´Ð¸ ÑĢÐµ
ĠÐĿ Ñı
ĠÐ¼Ð¸ Ð»Ð¸Ð
ĠÐ¿Ð¾ ÑĩÐ¸
ĠÐłÐ ¾
ĠÐ¿ÑĢÐ¸ ÑĩÐ¸
ĠÐľÐ° ÐºÐµÐ´Ð¾
ĠÐ½Ðµ Ñı
ĠÐ¿ÑĢÐµÐ´ Ð»Ð°Ð³Ð°
ĠÐ¿Ð° Ð·Ð°
ĠÑĤ ÑĬÑĢÐ
ÑĨÐ¸Ð ¸ÑĤÐµ
ĠÐ¿Ð¾ ÑģÐ¾
ĠÐ¶Ð¸ Ð²Ð¾
ĠÑĢÐµ Ð
ĠÐ¾Ð± Ð»Ð°
Ð¼Ð¸ ÑĢÐ°
Ð½Ð° Ð»
Ĥ ÑĢÐ¸
Ñ ĤÑĢÐ¸
ĠÑĩ ÑĢÐµÐ·
Ð½ ÑĤÐ°
Ð Ĵ
ĠÐºÑĬÐ´Ðµ ÑĤÐ¾
ĠÐ´Ð¾Ð± ÑĢÐµ
Ġ W
Ġ :
Ġ .
¾Ñħ Ð
Ð²Ð° Ð¼
ÑģÑĤÐ¸ Ð½Ð°
ĠÐ½Ð° ÑĩÐ°
ĠÐ½Ðµ Ð
Ð²Ð° Ð½
ÐºÐ¾ Ñ
ĠÐ¿Ð¾ Ð½Ðµ
ĠÐ± Ð»Ð°Ð³Ð¾
ĠÐ¿Ð° ÑĢÑĤÐ¸
ÐºÐ¾Ñ Ĥ
ÑĩÐ° ÐºÐ²Ð°
ĠÑĤ ÑĢÐ°
ĠÐ¿Ð° ÑĢÐ¸
ĠÑģÐµ Ð¼Ðµ
ĠÐ¿Ð ¾ÑĤÑĢÐµ
ĠÑĦÐ¸ Ð»
ÑĤÐµ ÑĢÐ¸Ð
ĠÐ´ Ð²Ð¸
Ð» ÐºÑĥ
ĠÐ²ÑģÑı ÐºÐ°
ĠÐ ĺÐ
ĠÐ½ÑıÐºÐ¾ Ð
Ð ĽÐ
ĲÐ ĿÐ
ĠÐļÐ° Ðº
ĠÐ¼Ð¾ Ð¼ÐµÐ½ÑĤÐ°
ĠÐŁ ÑĢÐµÐ´
ĠÐ½Ð° Ð¼Ð°
ÑģÐ¾ Ð²
ĠÐ¥Ð °
ĠÑĥ Ð²Ðµ
Ð¼ Ñı
ĠÐ¼Ð¸ Ð½Ñĥ
ĠÐ¾ Ð¿
Ð½Ð ºÐ¾
e d
ĠÐ¡Ð¿Ð¾ ÑĢÐµÐ´
Ñģ Ð¿Ðµ
ĠÐºÐ° Ð·Ð²Ð°
±Ð µ
ĠÐ¡Ð ĲÐ
ĠÑĤ ÑĬÑĢ
ĠÐ·Ð° ÑĢÐ°Ð´Ð¸
Ġ ÑĤÐ²ÑĬÑĢÐ
Ð¶Ð °ÑĤ
Ð²Ð¸ ÑģÐ¸
ĠÐ¿ÑĢÐ° Ð²Ð¾
Ġ n
ÑĩÐµ ÑĤÐ¾
ĠÑģÐ¾Ð± ÑģÑĤÐ²Ðµ
Ð½Ð ºÐ¸
ķÐ łÐ
ÑĩÐµ Ð½Ð¸
Ð»Ðµ Ð½Ð¸Ðµ
ĠÐĳÐ ¸
Ð»Ð¾ Ð¶Ð¸
ĠÐ¾Ð± ÑīÐµ
ĠÐ´ Ð½Ð¸
ĠÐ´Ð¾ Ð³Ð¾
ÑĢÐ¾ ÑıÑĤ
ĠÐĳ Ñĥ
1 2
ÑĤÑĥ Ð
ĠÑģÑĤÑĢÐ° Ð½Ð¸
ĠÐ¿Ð¾ Ð·
ĠÑĨÐµ Ð»
ĠÐµÐ»Ðµ ÐºÑĤ
ĠÐ³Ð¾ Ð»ÐµÐ¼Ð¸
ĠÐ²Ð¾ Ð´Ð°
ķÐ ĿÐ
ĠÐ±Ð¸ Ð´Ðµ
Ġ Ð»Ñĥ
Ð¶ Ð½Ð¸
ÑĤÐ ºÐ¾
Ð½Ñ ĮÐ¾
ĠÐ³ ÑĢ
Ð½ ÑģÐºÐ°
ĠÐŁÑĢÐµ Ð·
Ð¿Ðµ ÑĢÐ°
Ð²Ðµ ÑĢ
ĠÐ¿Ð¾ ÑģÐµ
Ð²Ð¸ Ñı
Ġ Ð½Ð¸Ðµ
Ð»Ðµ Ñ
ĠÐºÐ¾ Ð¼ÐµÐ½ÑĤÐ°
ĠN o
ĠÐ° ÐºÑĤÐ¸
Ġ2 5
Ð½Ð° Ð³Ð¸
ĠÑģ Ð»Ð°
ĠÐ¿ ÑĬÐº
ĠÐºÐ¾ Ð½Ðº
Ð½ ÑģÐºÐ°ÑĤÐ°
ÑĤÐ »Ð
Ð¼Ð¾ Ð±Ð¸
Ð´ Ð½Ðµ
ÑģÑĤÐ¸ ÑĤÑĥ
ĠÐ½Ðµ Ð¾Ð±
Ļ Ð
ĠÑģÑĬ Ð
ĠÑĩÐ° ÑģÐ°
ÑĤÐ¾ Ñ
ĠÐ·Ð° Ð¿Ð°
ĠÐ¿Ðµ ÑĢÐ¸Ð¾
ÑĤÐ¾Ñ Ĥ
ÑīÐ¸ Ñı
ĠÐ½ÑıÐºÐ¾Ð ¸
Ĥ ÑĢÐ¾
Ñ ĤÑĢÐ¾
ĠÐºÑĥ Ð»
ÐºÐ¾ Ð½
Ð³Ð µÐ½
Ð»ÐµÑ Ĥ
ĠÐ¸ Ð·Ð¾
Ñĩ Ð½Ð°ÑĤÐ°
ĠÑģÐ¿Ð¾ ÑĢÐµÐ´
ÑĪ ÑĤÐµ
ĠÐ¼ Ð»
Ð»Ðµ Ð½Ð¾
Ð¶ Ñĥ
ÑĩÐ¸ ÑĤÐ°
ĠÑģÐµ Ð±Ðµ
Ð³Ð»Ðµ Ð¶Ð´Ð°
ĠÐ´Ð¾ Ð¿ÑĬÐ»
µ Ð½Ð¸
Ðº ÑĨÐ¸Ñı
Ð»Ð¾Ð¶Ðµ Ð½Ð¸Ðµ
ĠÐ² ÐºÐ»Ñİ
ÑĩÐµ Ð²
ĠÐ´ Ð½ÐµÑģ
Ð °ÑĢÐ¸
ĠÐ´Ðµ ÑĨÐ°
ÑĪ Ð½Ð¾
ĠÐ± ÑĬÑĢÐ
o u
r a
Ġ Ð»Ð¾
ĠÑģ ÐºÐ¾
Ð¼Ð¸ Ð
ÐºÐ»ÑİÑĩÐ¸ ÑĤÐµÐ»Ð½Ð¾
2 1
Ð¼Ð ¾ÑĤ
Ð½ ÑĨÐ¸
Ð½Ð ³Ð
ĠÑģÐ ¾ÑĨÐ¸Ð
ĠÑģ Ð¿Ð¸
ĠÐ¢Ð° ÐºÐ°
Ð¶Ðµ Ð½Ð¸Ðµ
ĠÐ¿Ð¾ Ð´Ð°
ĠÐķÐ²ÑĢÐ¾ Ð¿Ð°
ĠÐ¿ÑĬ ÑĤÐ¸
¸Ð °
ĠÐ¾Ð± ÑĢÐ°
ĠÐ½Ñı ÐºÐ°
ĠÐ¾ ÑģÐ¸Ð³Ñĥ
ÑĢ ÑĬÑĤ
ÑĤÐ¾ Ð
ÑĤÐ¾ Ð²
ĠÐ½ÑıÐºÐ¾ Ð¹
ĠÐ²ÑĢÑĬ Ð·
ĠÐ¶Ð¸ Ð²Ðµ
ÑĤÐµÐ» Ð½Ð¸
Ð´Ðµ Ð½ÑĤ
ĠÑħ Ñĥ
ºÐ ¸ÑĤÐµ
ĺÐ ¢Ð
ÑĦÐ °
ĠÐ¸Ð½ÑĦÐ¾ÑĢÐ¼Ð° ÑĨÐ¸Ñı
ÑĢÐ ²
ĠÐ½Ð¸ ÑīÐ¾
ĠÐ½Ðµ ÐºÐ¾
ĠÐ½Ðµ Ð·Ð°
ÑĩÐµ ÑģÐºÐ°
ÑĢÐ¾ Ð
Ð ķ
Ð² ÑĬ
. "
Ĥ ÑĢÑĥ
Ñ ĤÑĢÑĥ
ĠÐ´Ð¾ ÐºÐ°ÑĤÐ¾
Ð½ ÑĥÐ²Ð°
Ð²Ð ¾Ñĺ
ÐĿÐ °
ĠÐ¿Ð¾ Ð±Ðµ
ĠÑĩÑĥ Ð²
ÑģÑĤÐ° Ð²
1 1
ÐºÐ¸ Ð²Ð°
Ðº ÑģÐ°
ĠÑģÐµ Ð´Ð¼Ð¸
Ð»Ðµ Ð½Ð¸
ĠÐ³ Ð»ÐµÐ´Ð°
Ð¹ Ð½Ð¾
ĠÐ¾ÑģÑĤÐ° Ð½Ð°
Ð¼ Ð¿Ð¸
Ð¿Ðµ Ð½
c h
ĠÐµ Ð½Ðµ
Ð·Ð µÐ½
ĠÐ¿Ð¾ ÑģÑĤÐ¸
ĠÐ½Ð° ÑĨÐ¸Ð¾Ð½Ð°
ĠÐ¡Ð ¾
ĠÐµ ÑĦÐµ
Ð¿ ÑĢÐµÐ´
ĠÐļ Ñĥ
Ð ĳ
ĠÐ¿Ð¾ ÑģÐ»Ðµ
ĠÑĦÐ µ
ĠÐ´Ð° Ð²Ð°
ĠÐ¸ ÐºÐ¾Ð½Ð¾Ð¼Ð¸
ĠÐ¸Ð· Ð²ÑĬÑĢ
ĠÑģÐ²Ðµ ÑĤÐ°
ĠÐ¦Ð µ
Ð¼ Ð¿Ð°
ĠÐ·Ð°Ð¿Ð¾ ÑĩÐ½Ð°
ĠÐ¿ÑĢÐ¾Ñ ĦÐµ
ĠÑģÐ¸ÑģÑĤÐµ Ð¼Ð°
ĠÑĥ Ð½Ð¸
ĠÐ¾Ñ ĦÐ¸
Ð´Ðµ Ð»Ð¸
ĠÐ¥Ð ¾
ĠÐ¾ÑĢÐ³Ð°Ð½Ð¸ Ð·Ð°
ĠÐ ®
ĠÑģÑĬ ÑīÐµ
3 0
ĠÐºÐ¾ ÑĺÐ°
Ġ O
ĠÐ¾Ñ ĨÐµ
Ð Ķ
Ð´Ðµ Ð½Ð°
ÑĤÐ¾ ÑĢÐ¸
Ð ļ
ĠÐ¿Ð¾ Ñĩ
ĵÐ °
ÐŁÐ ¾
Ñģ Ð»Ð¾
ĠÐ ¦
ĠÐ²Ð¸ Ð¶Ð´Ð°
ĠÐ½ÐµÐ¾Ð± ÑħÐ¾Ð´Ð¸
ĠÐ¸ Ð½Ð²Ð
ÑģÐ °ÑĤÐ°
ĠÐ¾ ÑģÐ¾Ð±Ðµ
ÑĤÐ ±Ð¾
ÑģÑĤÐµ Ð½
ĠÐ·Ðµ Ð¼
ĠÐ·Ð° ÑīÐ¸
Ð¿ Ñı
Ð²Ðµ Ð½Ð¸
ĠÐ·Ð° Ð´
ĠÐºÑĥÐ» ÑĤÑĥ
Ð´Ð¾ Ð²Ðµ
ĠÐ±Ð¸ Ð»Ð¾
Ġ i
ÑĢÐ° Ð·Ð¸
ĠÐ¾ Ð¿Ð°
Ġ1 00
ĠÐ¸ Ð´Ðµ
ĠÑĤÐ¾ ÑĩÐ½Ð¾
Ð³Ð¾ Ð´Ð¸ÑĪ
Ð» Ð½Ð¸Ñı
Ð» ÑıÑĤ
Ð½Ð ³Ð°
Ð½ÑģÐºÐ¸ ÑĤÐµ
Ð¹ Ð½Ð¸
ĠÐ²ÑĬÐ¿ÑĢÐ¾ Ñģ
ĠÑģÑĬÐ ¾
° ÑĢ
ĠÑģÑĤÐ° Ð½Ð°
ĠÑĤ ÑĢÐ°Ð½
ĠÑģÑĤÑĢÐ° Ð½Ð°ÑĤÐ°
ĠÑģÑĤ ÑĢÑĥ
Ð¿ÑĢÐµ ÐºÐ¸
ÑģÑĤ Ð½Ð¸
ĠÑģÐ²Ð¾ Ð¸ÑĤÐµ
Ĥ ÑĬÑĢ
Ñ ĤÑĬÑĢ
ĠÐĿÐ Ĳ
¡Ð ¢Ð
ĠÐ¾ÑĤÐ½Ð¾ Ð²Ð¾
ĠÐ¢ Ñı
ĠÐ¿ÑĢÐ¾Ð± Ð»ÐµÐ¼Ð¸
ĠÐ²ÑĬÐ· ÑĢÐ°
ĠÑĪÐ °
ÑĢÐ »Ð°
Ð½Ð¸ ÑĢÐ°
ĠÑĪÐ µ
Ġ2 4
Ñģ ÐºÐ²Ð°
ĠÐĽÐ ¾
ĠÑģÑĤ Ñĥ
ÑĨÐ µÑĤÐ¾
ĠÐ´Ðµ ÑĤÐµ
ÑĢÑı Ð²Ð°
ŀÐ ĴÐ
ĠÐºÐ¾ Ð³Ð°
ĠÐ°Ð²ÑĤÐ¾ Ð¼Ð¾Ð±Ð¸
ĠÐ¿Ð¾ Ð·Ð¸
ĠÐºÐ¾Ð½ÑĤ ÑĢÐ¾
ÑģÐºÐ¸ Ñı
Ð½Ðµ Ñ
ĠÐ¾ÑĤÐ ºÐ°
h t
ÑĢÐ ºÐ¾
Ġ2 1
Ñģ Ð²Ð°
ĠÐ² Ð½Ð¸Ð¼Ð°
5 0
Ġ [
Ð· Ð²Ð°ÑĤ
Ñ ľÐµ
ĠÐ¿Ð¾Ð´ ÐºÑĢÐµ
Ð½Ð¾ Ð»Ð¾Ð³Ð¸
ĠÐ±Ð¸ Ð»Ð¸
ĠÐ´ÑĢÑĥ Ð³Ð°
ĠÐ¸ Ð·Ð¸
Ð²Ð»Ðµ Ð½Ð¸Ðµ
ĠÑĤÑĬ Ð¹
ĠÐľÐ¾ Ð¶Ðµ
ĠÐ¿ ÑĬÐ»
Ð· Ð²Ð¸
* *
ĠÐ¸Ð½ÑĤÐµ ÑĢÐµ
Ġ o
ļÐ °
ĠÐ´ÑĢÑĥ Ð³
ĠÐ¸Ð· Ð´Ð°
Ġ b
Ñĥ Ð
ĠÑĤÐ° ÐºÐ¸Ð²Ð°
ĠÑĥÑģ Ð»Ð¾Ð²Ð¸
i on
ĠÑħ ÑĢÐ°
ĠÐ½Ð° Ð¼Ðµ
ĠÐºÑĢÐ° Ñı
ĠÐ¸ ÑģÑĤÐ¸
ĠÐºÐ° ÑĩÐµ
ĠÐ¿Ð¾ Ñģ
ÑľÐ ¸
Ð¿ Ð»Ð¸
ĠÐ¾ Ð²Ð°
Ð µÐ²
ĠÐĿÐ° Ð¹
Ð²Ð¸ Ð´
Ð¶ Ð½Ð°
Ð»Ðµ Ð½Ð°
ĠÐ´Ð¾ Ð±Ð°
µÐ½ ÑĤÐ¸
Ð¼ Ð½Ð¸
ÑĢÐµ Ð½Ð¸
ĠÐ¸ Ñģ
ĲÐ łÐ
ĠÐ±Ð¸ Ð·
Ð» ÐºÐ°
Ð²Ñı Ð²Ð°
ĠÐ¿Ð¾ Ð»Ðµ
ĠÐ¿ÑĢÐ¸ Ñı
¤ Ð
ĠÑĥÑĩÐ¸ Ð»Ð¸
ĠÐ·Ð° ÑīÐ¾
ĠÐ¼Ðµ ÑģÑĤÐ°
ĠÐ¶Ðµ Ð»Ð°
ĠÑĥÑģ Ð»Ñĥ
ĠÐ¾ Ð³
ĠÐ¾ ÑĤÐ¸
Ð¹ Ð
Ð·Ð¸ ÐºÐ°
ĠÐ¿ÑĢÐ¾ Ð´Ð°
ÑĢÐ° Ð´
Ð½ÐµÑ Ĥ
ĠÐ´Ð¾Ð± ÑĢÐ¾
ĠÐ¿Ð¾Ð»Ñĥ ÑĩÐ¸
Ð½Ðµ ÑģÐµ
ĠÐ¿Ð¾ Ð·Ð½Ð°
ĠÐĿÐ¸ ÐºÐ¾
Ð´Ð¾ ÑģÑĤÐ°
Ĥ Ð½Ð°
Ñ ĤÐ½Ð°
Ð²Ð¸ Ð
ÑĪ Ð½Ð¸
Ġ2 2
Ð·Ð¸ Ñı
ĠÐ²ÑĬÐ·Ð¼Ð¾ Ð¶Ð½Ð¾
ÑĢÐµ Ð½Ð¸Ðµ
Ð³Ð¾ Ð»Ñı
ĠÐĵÐ °
ĠÐ·Ð°Ðµ Ð´Ð½Ð¾
i a
Ð»Ð ¾ÑĤ
ÑĪÐµ Ð½Ð¸Ñı
Ð²Ð° Ð»Ð¸
ĠÐ¤Ð ¸
Ġ c
ĠÐĽÐ µ
ĠÐ¾ Ð±Ð¾
Ġ ÑĤÐ²Ð¾
ĠÐ¿ÑĢÐµ Ñ
Ð½Ð ·Ð¸
ĠÑĦÑĥ Ð½Ðº
.... ....
Ð ¥
Ð²Ð¾ Ð´Ð¸
ĠÐ¾Ð± Ñĥ
Ð¿Ðµ Ð¹ÑģÐºÐ¸
ĠÐ¿ÑĢÐµÑ Ĥ
ĠÐ¡ÐĲÐ ©
w w
ĠÐŁÐ łÐ
ĠÐ ĻÐ
Ð¿Ð °ÑĤÐ°
Ġ 000
Ð¶Ðµ Ð½
ĠÐ³Ð¾ Ð²Ð¾ÑĢÐ¸
Ð² Ð»ÑıÐ²Ð°
ĠÐ¿ÑĢÐ° ÐºÑĤÐ¸
i d
Ð²Ð ³
ÑĢ ÑģÐºÐ°ÑĤÐ°
ÑĢ ÑģÐºÐ°
ĠÐ¾ÑĤÐ ´Ð
ÐĹÐ °
Ð´Ð¸ Ð²
ĠÑĪÐ ¸
in g
ĠÐ¶Ð¸Ð²Ð¾ ÑĤÐ°
ĠÐ²Ð¸ Ð½Ð°Ð³Ð¸
ÑĢÐ´Ð ¸
ĺÐ ¯
ĠÐŁ ÑĬÑĢÐ²Ð
ĠÐ½Ðµ Ð¼Ð°
Ð³ ÑĢÐ¸
ÑĤÐµÐ» ÑģÑĤÐ²Ð¾
ÑģÑĤÐ²Ð °ÑĤÐ°
ĠÐ´Ð¾ ÐºÑĥ
Ð¼ Ð½Ð°
a d
Ð¿ Ð»Ð¾
ÑģÑĤÐµ ÑĢ
o v
¡Ð ļÐ
ĠÐ¸Ð· Ð¿ÑĢÐ°
ĠÐ¿ÑĢÐ¾Ð¸Ð· Ð²Ð¾Ð´
ĠÐ¿Ð¾ ÑĢÐ°Ð´Ð¸
ĠÐ¿ÑĢÐ¾ ÑĤÐµ
Ð½Ðµ Ð½Ð°
ÑĪ ÐºÐ¸
ĠÐ·Ð½Ð° ÑĩÐ¸
Ġ5 0
ĠÑģÐ²Ð¾ Ð±Ð¾
±Ð °ÑĤÐ°
Ð· ÑĬÐ¼
ĠÑĢÐ°Ð· Ð±Ð¸ÑĢÐ°
en t
ĠÐ©Ð µ
ĠÐºÑĢÐ° Ð¹
o o
Ð²Ðµ Ð´
ĠÐ½Ð° Ð»Ð¸
ÑģÐµ Ñ
ÑĺÐ µ
µ Ð¼Ðµ
ĠÐ¿ÑĢÐµ Ð¿Ð¾
ĠÐ¿ÑĢÐ¸ ÑģÑĬ
ÑĤÐ²Ð µÑĤ
ÑģÐµ Ð³Ð°
ĠÐ¾ÑģÐ½Ð¾ Ð²Ð°
ĠÐ´Ð° Ð´Ðµ
ĠÑĩÐµ ÑģÑĤÐ¾
ÑĦÐ¸ ÐºÐ°
Ð»Ð¾Ð² Ð´Ð¸Ð²
ÑĤÐµÐ» Ð½Ð°
ĠÐ·Ð° Ð´ÑĬÐ»Ð
ÑĢÐ° ÑĤÐ¸
ĠÐ½Ð¸ ÐºÐ°
ĠÑģ Ð½Ð¸Ð¼
ĠÐ´ ÑĬ
ĠÐ° Ðº
ĠÑģÑĬ Ð²ÐµÑĤ
ĠÐ·Ð° Ð±ÑĢÐ°
ĠÐ¸Ð½Ð²Ð µÑģÑĤÐ¸
ĠÐ² Ñı
Ð²Ð° Ð¼Ðµ
Ð³Ð»Ðµ Ð´Ð°
ĠÐ¾ ÑĩÐ°ÐºÐ²Ð°
u s
ÑĨÐ¸ ÑĺÐ°ÑĤÐ°
ĠÐ´Ðµ ÑĨÐ°ÑĤÐ°
ĠÐ¡ ÑĤÐ¾
Ð¼ ÑĬ
¾Ñ Ħ
ÑĬÑĢ Ñ
ÑĢÐ¸ ÑĤÐ°
ÑĬÑĢÑ Ĥ
ÑĢÐ ³
ĠÐº Ð»Ð¸
ĠÐ¢Ð ¸
ÑĢ Ð½Ð¾ÑģÑĤ
ĠÐ´ÑĢÑĥ Ð³Ð¾
ĠÑģ Ð²Ð¸
ĠÐ¿Ð¾ Ð¼Ð¾Ñī
ĠÐ²ÑĢÐµÐ¼Ðµ ÑĤÐ¾
Ñģ Ð½Ðµ
Ð³ÑĢÐ° Ð½Ð¸
ĠÐĴ ÑģÐ¸
ÑĤÐ° Ð¹
ĠÐ½Ðµ ÑīÐ°
ĠÑģÐ¸ ÑĤÐµ
ÑģÑĤÑĢÐ¾ Ð¹
ÐºÐ¾ Ð²Ð°
ĠÐ³ ÑĢÐ¸
Ð¼Ð ±Ð¸
ĠÐ³ÑĢÐ° Ð¶Ð´Ð°
ĠÐ¼ ÑĢÐµ
ĠÐľ Ð½Ð¾
ĠÐ¼Ð¾Ð¶Ðµ ÑĤÐµ
ĠÐ±Ð¸ Ð»Ð°
Ð¼Ð¸ Ñı
Ð±Ð¾ Ð²
ĠÐºÐ¾ Ð»Ð¸
ĠÐ½Ð¸ ÑĤÐ¾
Ð² ÐºÐ¸
ĠÐ¿Ð¾Ð· Ð²Ð¾
Ð¿ ÑĤÐµ
ĠÐĲ Ð·
ĠÐŀ Ñģ
Ð·Ð° ÑĤÐ°
i v
Ġ K
ÑĪÐ¸ Ñı
ĠÑģ Ð»Ð¾
ĠÑĤÐ¾ Ð³Ð°Ð²Ð°
ÑĤÐ¾Ð °
ĠÐ¾ ÑĤÐ²Ð¾
ĠÐ¾ÑĤÐ ±Ð¾
ĠÐĳÐ¾ ÑĢÐ¸
ÑĨÐ¸Ð ¾
ĠÐ¼Ð° ÑĤÐµÑĢÐ¸Ð
ĠÐ´Ð°Ð½ Ð½Ð¸
ÑģÐµÑ Ĥ
ĠÐºÐ° ÑĤÐµ
ĠÐ·Ð° Ð²ÑĬÑĢ
Ð· Ð¼Ð°
ĠÑģÑĬ Ð±Ð¸
ÑĢ ÑıÑĤ
ÑīÐ µÑĤÐ¾
ĠÐ¿Ð¾ Ð´Ð³Ð¾
ĠÑĥ ÑģÑĤÐ°
ÑĢÐ¸ ÑģÑĤÐ¾
Ñĥ ÑģÑĤ
ÑĢÐ° Ð»
ĠÐĵÐµ Ð
ÑĪ ÑĤÐ¸
ĠÐľÐ°ÐºÐµÐ´Ð¾ Ð½Ð¸ÑĺÐ°
ĠÑģÑĬ ÑģÑĤÐ¾Ñı
ĠÐ¿ÑĢÐ¾Ð´Ñĥ ÐºÑĤÐ¸
ĠÐ¿ÑĢÐ¾Ð± Ð»ÐµÐ¼
ĠÐ² ÑĬÑĤ
Ð½Ðµ Ð²
ĠÐĵÐµÐ ¾
ĠÑģÐ²Ð¾ Ñı
ĠÐ¿ÑĢÐ¾Ð´ÑĬÐ»Ð ¶Ð°
ÑĤÐµ Ð»Ð¸ÑĤÐµ
Ġ2 3
ĠÐ¼Ð¸Ð½Ñĥ ÑĤÐ¸
ĠÐ¸Ð· Ð³ÑĢÐ°
Ñĩ ÐºÐ°ÑĤÐ°
ĠÑģÐ²ÑĬÑĢÐ ·Ð°
ÑģÐµÐ´Ð° ÑĤÐµÐ»
ĠÐ¾ÑģÐ¾Ð±Ðµ Ð½Ð¾
ĠÑģÐµ Ð·Ð¾
ĠÐ¿Ð¾ÑģÐ»ÐµÐ´ Ð½Ð¸ÑĤÐµ
Ñ ļÐµ
ÑĢÐ¸Ð ¸
ĠÐº Ð»Ñĥ
2 00
ĠÐ° Ð¼ÐµÑĢÐ¸ÐºÐ°
Ð¿Ð ¾ÑĤÑĢÐµ
ĠÐŁÐ µÑĤ
Ð±Ð °ÑĤÐ°
ĠÐ¾ ÑģÑĬ
Ð¶Ð ¾
ĠÐ´ÐµÐ¹ ÑģÑĤÐ²Ð
µ ÑĤÐ¸
Ð½ÑģÐºÐ¸ Ñı
Ð¿ ÐºÐ°
ĠÐĽÐ °
ÑģÑĤÐ¾ Ð
ĠÐĴÐµ Ð»Ð¸
ÑĢÐ°Ðº ÑĤÐµ
Ð½Ð¾ Ñ
ĠÑģ ÐºÐ°
Ð¶ Ð´Ðµ
Ð½Ð¾Ñ Ĥ
ĠÐĶÐ¸ Ð¼Ð¸
ÑģÑĤÐ²Ðµ Ð½Ð¸
ĠÑĤÑĬÑĢÐ ³Ð¾
ĠÐ·Ð° ÑıÐ²Ð¸
Ð»Ð¸ ÑĢÐ°
? ?
ÑģÐ¸Ð ¾Ð½Ð°
ÑĪ ÐºÐ°
Ñı Ð²Ð°Ð½Ðµ
ĵ Ñĥ
Ð²Ðµ ÑĤÐ¾
µÐ½ ÑĤÐ°
ĠÐ½Ð°Ð ¸
Ð±Ðµ ÑĢÐµ
ÑĨÐ¸Ð °Ð»Ð¸
ĠÑģÐµÐ¼Ðµ Ð¹
ĠÑģÑĤÐ° Ð½Ðµ
ĠÐ¿ÑĢÐµÐ´Ð¸ Ð·Ð²Ð¸
Ð²Ð¾ Ð»
ĠÑģÐ¿Ðµ ÑĨÐ¸Ð°Ð»
Ð¶Ð °ÑĤÐ°
ĠÑĥÐ²Ðµ Ð»Ð¸
Ð´Ð¼Ð¸ Ð½Ð¸
ĠÐ¿Ðµ ÑĢ
ĠÑģÐ¾ÑĨÐ¸Ð °Ð»
ÑĢÐµ Ð½Ð°
Ġ k
ĠÐ½Ð¾ Ð²
ÐļÐ °
ĠÐ¿Ð¾ Ð¼Ð¾
ĠÐºÐ¾Ð½ ÑĨÐµ
ĠÐ¿ÑĬÑĢÐ²Ð ¸
ĠÐ¾Ð±ÑĢÐ° Ð·Ð¾Ð²Ð°
ĠÐ¼ÐµÑģÐµ ÑĨÐ°
ĠÐ° Ð»
ÑĢÐ²Ð µ
ĠÑĤ ÑĢÑĬ
Ð ĵÐ
ÑĢÐ¾ÑıÑĤ Ð½Ð¾
ĠÐ¿ÑĢÐµ Ð·Ð¸
ĠÐļÐ¾ Ð³Ð°ÑĤÐ¾
a g
Ð»Ðµ Ð·Ðµ
ĠÐ´Ðµ Ð¼Ð¾
Ð³Ð¾ Ð»ÐµÐ¼Ð¸
Ð»Ð¸Ð µ
ĠÑģ ÑĢÐ°
Ð¼ Ð¿
Ð±Ðµ Ð½
ĠÐ½Ð°ÑĩÐ° Ð»Ð¾ÑĤÐ¾
ĠÐ¼Ð½Ð¾ Ð³Ñĥ
g t
Ð»Ð¾Ñ ĪÐ
Ð»ÐºÐ¾ ÑĤÐ¾
Ġ201 9
ÑĩÐµ Ð»Ð¸
Ð¿ÑĢÐ¸ Ð¼ÐµÑĢ
ĠÑģ Ð¿
ĠÑĥ Ð±Ð¸
ĠÑĩÐµ ÑĤÐ¸
ÑĢÐ¼Ð °ÑĤÐ°
ĠÑģÑĬ Ð´
ĠÐ½ÐµÐ ¾
ĠÐ²ÑĬÐ·Ð¼Ð¾ Ð¶Ð½Ð¾ÑģÑĤ
ĠÐµ ÐºÐ¸
¾Ñ Ī
ĠÐŁÐ ¸
ĠÐ»Ðµ Ð²Ð°
ĠÐ° Ð´
ÐļÐ ¾
ĠÑĤÐµÑħ Ð½Ð¾Ð»Ð¾Ð³Ð¸
ĠÐĴ ÑģÐµ
ĠÐ¿ÑĢÐ¾ ÑĤÐ¸Ð²
ĠÑĢÑĬ ÐºÐ¾
Ð´Ð¼Ð¸Ð½Ð¸ ÑģÑĤÑĢÐ°
Ð¶ Ð±Ð°
ĠÐ½Ð¾ Ð²Ð¾
ĠÑģÐºÐ¾ ÑĢÐ¾
Ð¿Ðµ ÑĢ
Ð»Ð¾ Ð³
ĠÐ´ÑĢÑĥÐ³Ð¸ ÑĤÐµ
Ġ e
ÑĢÐ¸ ÑĺÐ°
ĠÐĿÑı Ð¼Ð°
ĠÐ¾ Ð¿ÐµÑĢÐ°
ÑĤÑĥÐ °
ĠÐ¿Ð¾ Ð²
ĠÑĤÑĢÐµ Ð±Ð°
Ð² ÑĬÐ½
¶Ð ¸ÑĤÐµ
ĠÐ½Ð° Ð¼Ð¸ÑĢÐ°
ĠÐºÐ¾Ð¼ Ñĥ
ÑģÐµ Ð¼
0 5
ĠÑģ Ð¿ÑĢÐ°
ĠÐłÑĥ ÑģÐ¸Ñı
ĠÑı ÑģÐ½Ð¾
ÐºÐ° Ð·Ð²Ð°
ĠÐ·Ð° Ð³Ñĥ
ĠÑģ Ð²ÑıÑĤ
ĠÐ·Ð°Ð¿Ð¾ Ñĩ
ĠÑģÐ»ÑĥÑĩÐ° Ð¹
ÑģÑĤÐ²Ð µÐ½
ĠÐ° ÑĢ
ĠÐ¿Ð¾ Ð²Ð¸
Ð· Ð½Ð¾
ĠÐºÐ¾ Ð¼Ð¸
ĠÐłÐ ¸
ÑĤÐ ºÐ°ÑĤÐ°
Ð²Ð°Ñ ļÐµÑĤÐ¾
ĠÑĤÐµ Ðº
ŀÐ łÐ
ÐºÑĬ Ð´Ðµ
Ġ U
ĠÐ¡Ð° Ð¼Ð¾
ĠÑģÐ²Ðµ ÑĤÐ¾
ĠÑģÑĬÐ¾ ÑĤÐ²ÐµÑĤ
Ð³ ÑĢÐµ
ĠÑģÐ° Ð¹
an d
µ ÑĤÐµ
ĠÐ·Ð° ÑĤÐ²Ð¾
1 8
0 7
Ð½Ð¸Ð ¸
Ð½Ðµ Ð½Ð¸Ñı
ĠÐ¿ÑĢÐ¾ Ð¼ÐµÐ½Ð¸
Ñĩ Ð½Ð¾ÑģÑĤ
ĠÐļÐ° ÑĤÐ¾
Ð¼ÐµÐ½ ÑĤÐ¸ÑĢÐ°
Ðº Ð»Ð¾
ĠÐ»Ð¸ ÑĨÐµ
ĠÑīÐ °
0 3
Ð¼Ð° Ð³Ð°
Ð½Ð° ÑģÑı
Ð²Ðµ ÑĤÐ°
Ð¿ÑĬÐ» Ð½Ð¾
Ð´ ÑĬ
ÑĤÐµ Ð½Ð¸
ÑģÑĤ Ð½Ð¾
Ð½Ð´Ð µ
Ð² ÑģÐºÐ¸
ĠÐº ÑĢÐµ
ĠÐ¿ÑĢÐ¸Ð µÐ¼Ð°
ĠÐ¿ÑĢÐ¾ ÑĤÐ¸
ÐºÐ¾ Ð
ÑĤÐ¸ Ð½
ÑĢÐ ¶Ð°
ĠÐ³ÑĢÑĥ Ð¿Ð°
ÑĤÐ¾ ÑĤÐ¾
Ð·Ð¸ Ðº
ĠÑĢÐµ ÑĪÐµÐ½Ð¸Ðµ
ĠÐķÐ ¡
ĠÐ½Ð° ÑĢÐµ
ÑģÑĤÐ² ÑĥÐ²Ð°
ĠÐ¿ÑĢÐµ Ð´Ð°
ĠÐ³ Ñĥ
Ð½Ðµ Ð½Ð¸
0 6
ÑģÑĤÐ¸ Ð
Ð´ÐµÐ ¾
ÑĤÐ¸ ÐµÑĤÐ¾
Ñĩ Ð½Ð¸Ñı
ÑģÑĤÐ° Ð½
Ð¶Ð° Ð²Ð°
Ñģ ÑıÑĤ
u n
ĠÐĲ Ð»Ðµ
ĠÐ¿ÑĢÐµÐ´ Ð¿Ð¾
Ð´Ðµ Ð¹
ĠÐ²Ðµ Ð»Ð¸
ÑģÑĤ ÑĢÐ°Ð½
ĠÐ½Ðµ Ð¿Ð¾
ĠÐ¿Ð¾Ñĩ ÑĤÐ¸
ĠÑģÑĬ Ð´ÑĬÑĢÐ¶Ð°
¾ÑĦÐ ¸
Ĥ ÑĢÐµ
Ñ ĤÑĢÐµ
ĠÐĻÐ ¾
ÑĪÐµ ÑĤÐ¾
ĠÑĢÐ° Ð¼
ĠÐ¾ÑĤÐ ´Ðµ
ÑĢÐ° Ð½Ð¾
ĠÐ¿ Ð»Ð¾
ÑĢÑĬ ÑīÐ°
°Ñ ĺ
Ð± Ð½Ð¾
ĠÐµÐ»ÐµÐºÑĤ ÑĢÐ¾
ĠÑģÐµ ÑĢÐ¸Ð¾
Ð¼Ðµ Ð½Ð°
ĠÐ´ Ð²ÐµÑĤÐµ
ÑĪ ÑĤÐ¾
ĠÐŁ Ñĥ
ĠÐºÐ° Ð½Ð´Ð¸
ĠÐ¿ÑĢÐ¸ Ð·Ð½Ð°
Ð»Ð° Ð½
ĠÐ¼Ð¾ Ð¼ÐµÐ½ÑĤ
ĠÐ½Ñĥ Ð¶Ð´Ð°
ÑĢ Ð½Ð°ÑĤÐ°
0 2
ĠÐ²Ð° Ñģ
ÑĢ Ñģ
__ __
ÑģÑĤÐ²Ðµ Ð½Ð°
ĠÑģÑĬ Ð²
Ð½Ð¾ Ñģ
ĠÑģÐ¼ ÑıÑĤÐ°
ĠÐ´ ÑĢÐµ
ĠÐ¾ÑĤÐ ¿
ÑĢÐ´Ð °
ĠÐ¾Ð± Ð²Ð¸
ĠÐľÐ½Ð¾ Ð³Ð¾
ĠÐ¼ÐµÑģÐµ ÑĨ
Ð» ÑĬÐ½
ĠÐ¿Ð¸ ÑĪÐµ
ķÐ ¢Ð
ĠÐ¿ÑĢÐµÐ´ÑģÑĤÐ° Ð²Ð¸
Ġ Ð·Ð¾
ĠÐ¾ÑĤÐ³Ð¾ Ð²Ð¾ÑĢ
ĠÐ±Ð»Ð¸ Ð·Ð¾
ĠÐ¸Ð· ÐºÑĥ
ĠÐ·Ð° Ð¿Ð»Ð°
Ð» Ð½Ð¾ÑĤÐ¾
0 4
ĠÐ´Ð¸ Ñģ
ĠÐºÐ° Ð¶Ðµ
ĺÐ ĿÐ
ĠÐ´Ðµ Ñ
0 9
ĠÐ´ÐµÑ Ĥ
ĠÐ½Ð° ÑģÐµ
ĠÐºÐ¾Ð½Ðº Ñĥ
ĠâĢ ¢
ĠÐ¿Ð¾Ð´ ÑħÐ¾Ð´
Ġ v
ÑĢÐ¼Ð °Ð»
ĠÐ£ Ð
-- --
ĠÐ¸Ð½ ÑģÑĤÐ¸ÑĤÑĥ
ĠÑĨÐµ Ð½Ð°
Ð¼Ð° Ð½
ĠÐ¿Ð¾ÑĤÑĢÐµ Ð±Ð¸ÑĤÐµ
Ð½Ð¸ ÑĨÐ°
ĠÐ´Ð¾ Ð±Ð¸
ÑģÑĤÐ¸Ð µ
Ð´ Ñı
ĠÐ¿Ðµ Ñ
ĠÐ¿ÐµÑ Ĥ
ĠÐ± Ñİ
ÑĢÐ ±Ð°
ÑĢÐ¸ ÑĤÐ¾
u l
ÑĢÐ¾ Ðº
Ð²Ðµ Ð½Ð°
ĠÐºÐ¾Ð¼ÐµÐ½ÑĤÐ° ÑĢ
ÑĢ ÑĤÐ¾
Ð¿Ð° ÑĢÑĤÐ°
ĠÐ¼Ð¾ Ð´Ðµ
Ð²Ð¸ÑģÐ¸ Ð¼Ð¾
ĠÐ½Ð° ÑĪÐ¸ÑĤÐµ
ĠÐ²ÑĢÑĬÐ· ÐºÐ°
ĠÐŀ ÑĤÐ
ÑĨÐ¸Ð °
ĠÐĳ Ð»Ð°Ð³Ð¾
ĠÐ²Ð¸ Ð´Ð¸
ĠÐ²Ð¾ Ð´Ð¸
ĠÐ½Ð° Ð³ÑĢÐ°
ĠÐ±Ð¸Ð· Ð½ÐµÑģ
ĠÐŁ ÑĢÐ°
ĠÑģ Ð»Ðµ
ĠÑĦÑĥ ÑĤÐ±Ð¾
ĠÐ¼Ð» Ð½
Ġ19 9
ĠÐĶ ÑĢÑĥ
ĠÑĢÐµ Ð°Ð»
ÑĢÐ¾ Ð²Ð°
ĠÑģÐ¸ ÑĤÑĥÐ°
0 8
ÑĢ Ð½Ð¸ÑĤÐµ
ÑģÑĤÐ¾Ð ¸
Ġ201 8
ĠÑģ Ð³ÑĢÐ°
ĠÐ° Ð¼Ð°
ĠÐŁ Ð»Ð¾Ð²Ð´Ð¸Ð²
ĠÑģÑĢÐµÐ´ ÑģÑĤÐ²Ð°
Ð´Ð¾ Ð²Ð°
ĠÑģÑĤ ÑĢÐ¾
ĠÐ §
ĠÑĥÑģÐ»Ñĥ Ð³Ð¸
Ð £
Ð²Ð ¼Ðµ
ÑĤÐ ¼Ð
Ð¿Ð ¸ÑĤÐµ
ĠÐĶÐ ¾Ð±
¿Ð °
ĠÐ¿ÑĢÐ¾ÑĦÐµ ÑģÐ¸Ð¾Ð½Ð°
ĠÐ¿Ð¾ Ð»Ð·
ĠÐ¼Ð¸Ð½Ð¸ ÑģÑĤÑĬÑĢ
ĠÐºÐ°ÑĤÐµ Ð³Ð¾
ĠÐ¿Ð ¾ÑĤ
ĠÐ³Ð¾Ð»Ñı Ð¼Ð°
i m
ĠÐ¸Ð· Ð³Ð»ÐµÐ¶Ð´Ð°
Ð´Ðµ Ð»Ñı
ĠÐ´ Ð²Ð¾
Ð´Ð¸Ð ¾
ĠÐ¿Ð¾ Ð»Ð¾Ð²Ð¸
ĠÐ´Ð¾ÑģÑĤÐ° ÑĤÑĬ
1 5
ĠÐºÐ¾ ÑĢÐ¸
ĠÐ» ÑĬ
ĠÐ»Ð¸ ÑĨÐ°
Ð¼Ð° Ð»ÐºÐ¾
ÑĢÐ ºÐ
ĠÐ½Ð¾ Ð²Ð°
ĠÐĵÐµ ÑĢÐ¼Ð°
ÑĪ Ð½Ð°
ĠÐ·Ð°Ð¿Ð¾ ÑĩÐ²Ð°
ÑĢÐ¾ ÑĤÐ¾
ÑĤÐ¾ Ñĩ
ÐºÐ° ÑĢÐ°
ĠÑĢÐµ ÑĪÐ¸
ĠÐ´Ð¾ Ð»Ð°
Ð¶Ð´Ð° Ñ
Ð¶Ð´Ð°Ñ Ĥ
ĠÐºÐ¾Ð¼ Ð¿Ð»Ðµ
ĠÐ¿ ÑĢÑĬ
ĠÐ²ÑĬ Ð½
ĠÐ½Ð° Ð±
ĠÑĢÐµ Ð¶Ð¸
i g
ĠÐ° Ð´Ð¼Ð¸Ð½Ð¸ÑģÑĤÑĢÐ°
ÑģÐ ¾ÑĤ
¶Ð °ÑĤ
ĠÐ¢Ð¾ Ð·Ð¸
ĺÐ ¾ÑĤ
Ġ &
Ñħ Ð²ÑĬÑĢÐ
Ð²Ð¾ Ð±Ð¾
Ð»Ð ±Ð°
ÑģÐ¸ Ð»
Ð²Ð ¾Ñ
ĠÐ¿ÑĢÐ¸ ÑĤÐµ
ĠÐ´ Ð½Ðµ
ĠÐ¡Ðµ Ð³Ð°
Ð¶ ÐºÐ°
ĲÐ ĴÐ
i r
ĠÐ·Ð° ÐºÐ¾
ĠÑģÐ¿Ðµ ÑĨÐ¸Ð°Ð»Ð¸
ĠÐŀÑģ Ð²ÐµÐ½
ĠÐ¿ÐµÑĢÐ¸Ð¾ Ð´
ĠÐ¼Ñĥ Ð·Ð¸ÐºÐ°
ÑĩÐµ ÑĤÐµ
ĠÐ·Ð° Ð±Ð¾
Ð½Ñ Ħ
ĠÐľÐ¸ Ð½Ð¸
Ð· Ð¼Ð¾
Ñģ ÑĬÑ
Ð½Ð´Ð ¾
ÑĢÐ ±Ð¸
ĠÐ²Ð¸ÑģÐ¾ ÐºÐ¾
ĠÐ¸Ð½ÑĤÐµ ÑĢÐµÑģ
Ð»Ð¸ Ð½Ð°
Ð´Ð ¶Ð
Ġ20 20
ĠÐ¿ÑĢÐ¾Ðµ ÐºÑĤÐ¸
Ġ2 6
Ð¿Ð¸ Ñģ
ĠÐĴ Ð»Ð°
Ð´Ð¸ Ð½Ð°
ĠÐ½Ð°Ð¸ ÑģÑĤÐ¸Ð½Ð°
ĠÑĢÐ°Ð±Ð¾ ÑĤÐ°ÑĤÐ°
ĠÐ¾ Ð·Ð½Ð°
ĠÐ¸Ð¼Ðµ ÑĤÐ¾
ÑĢÐ ºÐ°ÑĤÐ°
Ð» ÑĬÑĤ
ĠÐ¸Ð· ÑģÐ»ÐµÐ´
Ġ2 7
ÐºÐ¸ Ñı
Ðº Ð½Ð¾Ð²Ðµ
ĠÐ¾Ñģ Ð²ÐµÐ½
/ /
ÑĬ ÑĢÐ°
!! !
ĠÐ±Ð»Ð°Ð³Ð¾ Ð´Ð°
Ð¹ Ð´Ðµ
ĠÐ¿ÑĢÐ¾Ðµ ÐºÑĤ
Ð¶Ð´Ð° Ð½ÐµÑĤÐ¾
ĠÑĤÐµÐ»Ðµ Ð²Ð¸
ÑĩÐµ ÑģÑĤÐ²Ð¾
Ġ2 8
Ð ¾Ð½Ð°
ĠÐ¿ÑĢÐ° Ð²ÑıÑĤ
ĠÐ¥ ÑĢÐ¸ÑģÑĤÐ¾
ÑīÐ °ÑĤ
ĠÑĢÐµÐ·ÑĥÐ» ÑĤÐ°
ĠÑĢÐµÐ·ÑĥÐ» ÑĤÐ°ÑĤ
ĠÐ·Ð° Ð´Ð°
ĠÐ´Ð ¸Ð°
Ð¿ÑĤÐµ Ð¼Ð²ÑĢÐ¸
ĠÐ¿Ð° ÑĢÐ»Ð°
Ñĥ Ð²Ð°ÑļÐµ
ĠÑĢÐµÐ °
Ð¿Ðµ Ð¹
ÑģÐ¸ ÑĢÐ°
ĠÐ¾Ð³ ÑĢÐ¾
ĲÐ ĽÐ
ĠÐ± Ð»Ð¾
ĠÑĩÐµÑĤÐ¸ ÑĢÐ¸
u t
ĠÐ·Ð°ÑīÐ¸ ÑĤÐ°
ĠÐ¿ Ð»Ð¾Ñ
Ð´Ð¾Ð± ÑĢÐµ
ĠÐ½Ð° ÑĢÐ¾
ĠÐ´Ñĥ ÑĪÐ¸
ĠÐ¾ Ð³ÑĢÐ°Ð½Ð¸
ĠÐ·Ð° Ð±Ðµ
ī Ð½Ð¾ÑģÑĤ
¸Ð ¾
Ġ f
Ġ J
ĠÑĨÑı Ð»Ð°ÑĤÐ°
ĠÐ¡ ÐºÐ¾
Ð»Ðµ Ð²
¸ Ð½
ĠÑĥ Ð»Ð¸
u r
ĠÐ´Ð¾Ð¿ÑĬÐ» Ð½Ð¸ÑĤÐµ
Ð²Ð¸Ð µ
Ð´Ð ¾ÑĤ
ĠÐ¿Ð° ÑĢÑĤ
Ð³Ð° Ð·Ð¸
Ð¼ Ð¿Ðµ
¾ÑħÐ °
ĠÐ½Ð¸ Ð²Ð¾
Ð¿Ñĥ Ð±Ð»Ð¸
ÑģÑĤÐ²Ð °ÑĤ
ĠÐ±ÑĬÑĢÐ ·Ð¾
Ð¼Ð¸ ÑĢ
ĠÑģÐ»Ñĥ ÑĩÐ¸
ĠÐ ĪÐ
ĠÐ²Ð¸ Ð
ÑĢÐ°Ñ ļÐµ
ĠÐ° Ð½ÑĤÐ¸
ĠÐ¸Ð¼Ð° ÑĪÐµ
ÑģÐ¸ ÑıÑĤÐ°
ÑĢÐ¸Ð °
Ð»Ð¸ ÑģÑĤÐ¸
Ð¼Ñı Ð½Ð°
Ð± Ð½Ð¸
ÐĿÐ µ
ĠÐ½Ð° ÑĢÑĥ
Ð½Ðµ ÑĢÐ°
ÑĬÑĢÐ º
ĠÐ¾ÑĤÐ½Ð¾ ÑĪÐµÐ½Ð¸Ðµ
ĠÐ¿ÑĢÐµ Ð´Ð¾ÑģÑĤÐ°
ĠÐµÐºÑģ Ð¿Ðµ
ĠÑĥ Ð´Ð°
ĠÐº Ð²Ð°
Ġ201 7
ÑĪÐ °ÑĤ
Ðº ÑĢÐ¾
ĠÑĥ Ð¿Ð¾ÑĤÑĢÐµ
Ð²Ð°Ñ ī
ĠÐ½Ð¸ ÐºÐ¾Ð³Ð°
e c
ĠÐ¾Ð±Ð¸ ÑĩÐ°
Ð² ÑĢ
Ð½Ðµ ÑĢ
ÑĢÐ°Ñ ĺ
ĠÐ¿Ð¾Ð²Ðµ ÑľÐµ
ĠÐ¶Ð¸Ð²Ðµ Ð
ĠÐ´ ÑĬÑĢÐ²Ð
ĠÐ³ÑĢÐ° Ð´Ð°
ĠÐ´ÑĬÐ»Ð ³Ð¾
Ġ !
ĠÑģÑĬ Ð³Ð»Ð°
e w
Ð¿Ñĥ ÑģÐºÐ°
ĠÐºÐ°Ðº Ð²Ð¸
Ð²Ð° ÑĤÐµ
ÑĬ Ð¶
t p
Ðº Ð»Ñĥ
ĠÐ¸Ð·Ð¸ ÑģÐºÐ²Ð°
ĠÑģ ÑĨÐµ
¸Ð ¸
1 6
ĠÐµ ÑģÑĤÐµ
Ñĥ Ñģ
ĠÐ¸Ð¼Ð° Ð¼Ðµ
ĠÑħÐ° ÑĢÐ°ÐºÑĤÐµ
ÑĩÐµ ÑĢÐ°
o s
a k
Ð³ Ð»Ð¾
ĠÐµÑĦÐµ ÐºÑĤÐ¸
ĠÐº Ð»Ð¸Ð
ĠÐļÐ°Ðº Ð²Ð¾
ĠÐ¿Ð¾ ÐºÑĢÐ¸
ÑģÑĬÑ īÐ½Ð¾ÑģÑĤ
ĠÐ± ÑĢÐ°
Ñĩ Ð²Ð°Ð½Ðµ
ĠÐĽ Ñĥ
ĠÑĩÐ° ÑģÑĤÐ¸
Ð»Ñı Ð·Ð°
Ð½Ð¾ Ð²Ð¾
ĠÐ¼Ð¾ Ð³Ð°
e m
ĠÑĢÐ°Ð·Ð²Ð¸ ÑĤÐ¸Ðµ
Ð §Ð
Ð²Ð° ÑĢÐ¸
Ġ +
c om
ĠÐĺ Ð²Ð°
ĠÑĢÐµ Ð´
ĠÐ´Ð¸ Ð·Ð°
ÑĩÐµ ÑģÐºÐ°ÑĤÐ°
ÑĪ Ð²Ð°
Ð¶ Ð±Ð¸
ĠÐ¿ÑĢÐ¸ ÑĢÐ¾
ÑīÐ° Ð½Ðµ
ÑĩÐµ Ð½Ð°
µ Ð»Ð¸
ĠÐĶ Ñĥ
ĠÑĩ Ð»
ÐºÐ° Ñ
ĠÐ¸Ð· ÐºÐ»ÑİÑĩÐ¸ÑĤÐµÐ»Ð½Ð¾
ĠÐ»Ðµ ÑģÐ½Ð¾
ĠÐº Ð¼
ĠÑģÐ¸ Ð»Ð°
ĠÑģÐ¿ ÑĢÑı
ĠÐ¿ ÑĢÐ²Ð
ÑĢÐ°ÑĤÑĥ ÑĢÐ°
ĠÑģÑĤÐ¾ Ð¹
ĠÐµ Ð´ÐµÐ½
ĠÐ²Ð¸Ð´ Ñı
a v
ÑģÐºÐ¸ Ð¾ÑĤ
ĠÑĪÐ ¾
ÑĢ Ð½ÐµÑĤ
Ð³Ð½Ð° Ñ
Ð³Ð½Ð°Ñ Ĥ
ĠÑĢÐ° ÑģÑĤÐµ
u m
ŀÐ ¢Ð
ĠÐ¶Ðµ Ð½Ð°
ĠÑĢÐµÐ °Ð»Ð¸
ht tp
ĠÐ³Ð° ÑĢÐ°Ð½
: //
ĠÐ¿Ð¾ ÑĢÑĬ
ÑĢÐ¸ Ð½
ĠÐ¿Ð¾ ÐºÐ°Ð·Ð°
Ð´ÐµÐ½ ÑĤÐ¸
Ð ľ
ÐºÐ°Ñ Ĥ
ĠÑĦÐ¾ ÑĢÐ¼Ð°
1 7
ĠÐ»Ð¸ Ð¿
Ð¹ Ð½Ð°ÑĤÐ°
ĠÐ² ÐºÑĥ
Ð´Ðµ ÑĤÐµ
ĠÐ·Ð½Ð° Ð¼
ĠÑĤ ÑĢÐ°Ð´Ð¸
Ð²Ð°Ñ ĺ
ÑĢÐ ¼
ĠÑĢÐ°Ð· Ð³Ð¾
ĠÐ´Ð¾ ÑģÑĤÐ¸
Ðº Ð²Ð¾
Ð´Ð ±Ð°
Ñģ ÑĥÐ²Ð°
ĠÐ¿ÑĢÐ¾ Ð¼Ðµ
Ð²Ð° Ð»
µ Ð¹
ĠÐ½Ð° ÑģÐ¾
ĠÐ¿ÑĢÐ° Ð·
Ð½Ðµ Ð½Ð¸ÐµÑĤÐ¾
ĠÐ¾ÑĤÐ »Ð¸
ĠÐ½Ð° Ð¿ÑĬÐ»Ð½Ð¾
Ð² Ð½Ð¾ÑĤÐ¾
ĠÑĨÐµ Ð»Ð¸
Ñģ Ð¿Ð°
ĠÐ¾Ð¿Ð¸ Ñ
ĠÐ¾Ð¿Ð¸Ñ Ĥ
ĠÐ¿ÑĢÐµ Ð¼Ð¸Ð
Ñĩ Ð½Ð¾ÑĤÐ¾
ĠÐļ ÑĢÐ°
Ð½Ð »Ð°
ĠI n
Ð¿Ð¾ Ð·Ð¸
ĠÑģÐ¿Ð¾ ÑĢÑĤ
ĠÐµ ÑĤÐ°
Ð¼Ð ±
Ð»Ð¸ ÑĩÐ°
Ð¢Ð ¾
ķÐ ĽÐ
Ð²Ð¸ ÑģÐ¾
Ð²ÐµÑĢ ÑģÐ¸ÑĤÐµ
ĠÐ¿ÑĬÑĢÐ²Ð ¾
ÑĪ Ð½Ð¸ÑĤÐµ
ĠÑģÑĢÐµ ÑīÐ°
ĠÐ¾Ð± ÑīÐ¾
ĠÑģÐ¸Ð³Ñĥ ÑĢÐ½Ð¾ÑģÑĤ
Ñħ Ð²Ð°
ĠÐ·Ð° Ð±Ð°
ķÐ ĶÐ
ĠÑĤÐ° ÐºÑĬÐ²
Ġ4 0
Ð¶Ðµ Ð½Ð¸ÐµÑĤÐ¾
ĠÐŀÐ± ÑīÐ¸
2 4
ÑĤÐ¸ Ð²Ð½Ð¸
ĠÐ¼ÑĬ Ð¶
ĠÐĴÐ° ÑĢÐ½Ð°
ķÐłÐ ĳ
ĠÐ¿ÑĢÐ¾Ð³ÑĢÐ° Ð¼Ð°
Ġ0 8
Ð¿Ðµ ÑĩÐ°
Ð¼Ð° Ñ
´Ð ¸
ĠÐĽ Ñİ
Ð¿ÑĢÐ¸ Ð»
ĠÐ¿ÑĢÐµÐ´ Ð¿
µ Ð½Ð°
ĠÐ²Ð¸Ð µ
Ġ Ð¶Ð°
Ð»Ð¾ Ð²Ð°
ĠÐ¼ÐµÐ´Ð¸ ÑĨÐ¸
Ð² Ð½Ð¸Ñı
Ð²Ðµ ÑĤÐ¸
ÑĦÐ ¾Ð½
ĠÐ¿ÑĥÐ±Ð»Ð¸ ÐºÑĥÐ²Ð°
ÑĪÐ° Ð²Ð°
ĠÐµÐ½Ðµ ÑĢÐ³Ð
ĠÐ½Ð¾ ÑģÐ¸
ĠÐ§Ð °
ÑĩÐµÑģÐºÐ¸ ÑĤÐµ
ĠÐ»Ðµ ÐºÐ°ÑĢ
Ð¿ÑĢÐ° Ð²Ð¸
ÑĤÐµÐ» ÑģÑĤÐ²Ð¾ÑĤÐ¾
ĠÑģÑĬ Ð±ÑĢÐ°
ĠÐ¿Ð»Ð° Ð½Ð¸
Ðº ÑĨÐ¸Ð¸
ĠÐ¿ÑĢÐ¾ ÐºÑĥ
ĠÐļÐ¾ Ð½
ĠÐĺ Ð½ÑĤÐµ
Ð²Ð¾ Ð´Ð¸ÑĤÐµ
Ġ g
ÑĩÐµ ÑģÐºÐ¾
o w
ĠÐĹÐ Ĳ
Ð ¤Ð
ĠÑģÐ²Ð¾ ÑıÑĤÐ°
¸Ð µÑĤÐ¾
ĠÐ¼Ð° ÑĪÐ¸
ĠÐĳÐ¾ÑĢÐ¸ ÑģÐ¾Ð²
ĠÐ½Ð° Ð¿ÑĢÐ¸Ð¼ÐµÑĢ
ĠÑĤÐ²ÑĬÑĢÐ ´Ðµ
i k
ĠÐ´Ðµ ÑģÐµ
Ð½Ñı Ð²Ð°ÑĤ
ĠÐ¿ÑĢÐµÐ´ÑģÑĤÐ° Ð²Ñı
µ Ð
ĠÐ¾Ð±Ñı Ð²Ð¸
ĠÑģÐ»Ñĥ Ð¶Ð¸ÑĤÐµ
Ð»Ð¸ ÑĺÐ°
2 5
ĠÑĦÐ¸ Ð·Ð¸
ĠÑĤÐµÑħ Ð½Ð¸
Ġ2 9
a y
Ð¼Ð¾Ñ ĨÐ
ĠÐ»Ð¸ Ð´Ðµ
ĠÐ¾ÑĤÐ ±Ðµ
Ñħ ÑĤÐµ
Ð¼Ð°Ñ Ĥ
201 9
ĠÑĦÐ¸Ð½Ð°Ð½ ÑģÐ¾
ĠÑģÐ° ÐºÐ°
ĠÐ´Ðµ Ð»
ÑīÐµ Ð½Ð¸Ðµ
Ġ Ð¶
Ð¿ÑĥÐ±Ð»Ð¸ ÐºÐ°
ÐºÐ° Ð·
Ð»Ð¸ Ð½
Ð ŀÐ
ĠÐ±Ð¾ Ð»Ð½Ð¸
ĠÐ¾Ð·Ð½Ð° ÑĩÐ°Ð²Ð°
ĠÐŁÐ¾ Ð´
ĠÐ´Ð¾ÑģÑĤÐ°ÑĤÑĬ ÑĩÐ½Ð¾
ĠÑģÐ¼Ðµ ÑĤÐºÐ°
ÑĤÐ¸ Ð½Ð°
ÑģÐºÐ¾ ÑĢÐ¾
Ð·Ð¸ ÑĤÐµ
ĠÐ»Ñİ Ð±Ð¾Ð²
ĠÐ° ÐºÑĤ
Ð´Ð ¶
ĠÐ¼Ð° Ð³Ð°Ð·Ð¸
ÑĪ ÐºÐ¾
ĠÐºÐ° ÑĢÑĤÐ¸
Ñı Ð½
Ġ ÐºÐµ
ĠÑĥÐ¿ÑĢÐ° Ð²Ð»ÐµÐ½Ð¸Ðµ
ĠÐµ Ðº
Ð²Ð° ÑĢÑı
ĠÐ½ÐµÐ¾Ð±ÑħÐ¾Ð´Ð¸ Ð¼Ð¾
ĠÐ¾ÑĤÐ´Ð °
1 4
ÑĩÐºÐ¸ ÑĤÐµ
ÑģÐ¾ Ð²Ðµ
ĠÑģÐ° Ð¼Ð¸
ĠÐ¾ ÑĩÐµ
ĠÐ¸Ð· Ð¼Ðµ
ĠÐºÐ¾Ð»ÐºÐ¾ ÑĤÐ¾
Ð³ Ð»Ð¸
1 3
ĠÐ¿Ð¾ Ð³Ð»ÐµÐ´
ĺÐ¢Ð ķ
ĠÑħÐ¸ Ð»Ñı
o d
ĠÐĵÐ ķÐłÐĳ
ĠÐĺ Ð²Ð°Ð½
Ġ201 6
ĠÐ¿ÑĢÐµÐ·Ð¸ Ð´ÐµÐ½ÑĤ
ĠÑĤÐ¾ Ñĺ
a p
Ð²Ðµ ÑĩÐµ
Ñ ĵÐ
ÑĤÐ¾ Ð½
ĠÐ½Ð° ÑģÑĤÐ°
ĠÐ¿Ð¸ ÑģÐ°
ÐºÑĤÐ¾ Ð¼Ð²ÑĢÐ¸
ĠÐ¸ Ð½Ð´Ð¸
ĠÐ´Ð¾ Ð²Ðµ
Ð» ÐºÐ¸
Ð½Ñı Ð²Ð°Ð½Ðµ
Ġ Ð»Ñı
ĠÐľ Ñĥ
) )
ĠÐ¾ Ð²Ð¾Ñĺ
ĠÑĩ Ð»ÐµÐ½
Ñħ ÑĢÐ°
ÐºÐ¾Ð ¸
ĠÐºÐ¾ Ð¼ÐµÐ½ÑĤÐ¸ÑĢÐ°
ĠÑģÑĬ ÑĢ
ĠÐ´ Ñı
ĲÐ¢Ð Ĳ
ĠÐ±Ð¸ Ð²
ÑĪÐµ Ð½Ð¸ÐµÑĤÐ¾
Ð± ÑĢÐ¸
ĠÐ¸Ð¼Ð° ÑĤÐµ
ÑĤÐ²Ð ¸
ĠÐ½Ð° ÑģÑĤÐ¾Ñı
ĠÐ¼Ðµ Ñ
Ð½Ð ºÐ°ÑĤÐ°
Ġ X
ÑģÑĬ Ðº
Ð½Ðµ ÑĢÐ¸
ĠÐŁÑĢÐµ Ð´Ð¸
Ð½Ðµ ÑĨ
ĠÐ²ÑĬÑĤ ÑĢÐµÑĪ
ĠÑģÐµÐ´Ð¼Ð¸ ÑĨÐ°
ĠÑģÐµ Ð¿ÑĤÐµÐ¼Ð²ÑĢÐ¸
ĠÑģÐµ Ð»Ð¾
ĠÑĤÐµ ÑĢÐ¸ÑĤÐ¾
Ð½Ñ Ĩ
ĠÐ¿ ÑģÐ¸
ĠÐ´ÑĬÑĢÐ¶Ð° Ð²Ð°
ĠÐ¤Ð ¾
Ð»Ðµ Ð¼Ð°
ĠÐ³ ÑĢÐµÑĪ
ĠÑĥÑģÐ»Ð¾Ð²Ð¸ Ñı
Ð½ Ð½Ð¾
Ð² Ð½Ð¾ÑģÑĤ
ÑĦÐ¸ ÑĨÐ¸
Ð± Ð½Ð°
ĠÐ¿Ð¾Ð»Ñĥ ÑĩÐ°Ð²Ð°
ĠÐķ Ð´Ð¸Ð½
ĠÐ½Ð° ÑĪÐ°ÑĤÐ°
Ð µÑĤÐµ
ĠÐĿÐ¸ÐºÐ¾ Ð»Ð°
ÐľÐ °
ĠÐ¼Ð° ÑĢÑĤ
Ð´Ð¾ Ð±Ð¸
ÑģÑĤ Ð½Ð°
ĠÐ²Ð·Ð µÐ¼Ð°
ĠÐ±ÑĢÐ¾ Ð¹
ÑĢÐ²Ð ¸
ÑĩÐ° Ð²Ð°ÑĤ
Ð´ Ð½Ð¸ÑĤÐµ
ĠÐµ Ð·Ð¸Ðº
ÑĢÐ¸ Ð½Ð°
ĠÑĥÑģ Ð¿Ñı
ĠÑģÑĬÐ¾Ð± ÑīÐ¸
ĠÐ´ÑĬÑĢÐ¶Ð° Ð²Ð°ÑĤÐ°
Ñģ ÑĥÐ»
Ð´ ÑıÑĤ
ĠÑģÑĤ ÑĢÐµ
ĠÐ´Ð¾ ÑģÑĤÑĬÐ¿
°Ð» ÐºÐ°
ĠÐ±Ð¸ Ð
Ð» Ð½Ð¾ÑģÑĤ
Ð²Ðµ Ð½Ð¾
Ð¿Ñĥ ÑģÐ½Ð°
Ġ http
Ð´Ðµ Ð½Ð¾
ĠÐ²Ðµ Ðº
ĠÐ»Ð¸ ÑĩÐ½Ð¾
ÑģÑĤ Ð½Ð¸ÑĤÐµ
ĠÑģÑĬÐ² ÑģÐµÐ¼
ĠÐ¸Ð·Ð±Ð¾ ÑĢ
ĠÐ½Ð° ÑĢÐ¾Ð´
Ð´Ðµ Ð½Ð¸Ðµ
ĠÑĥ Ð´Ð¾
ĠÐ¼Ð¸Ñģ Ð»Ð¸
t er
ĠÐ¿ÑĢÐµÐ´Ð¸Ð·Ð²Ð¸ ÐºÐ°
Ð³Ð° Ð½
ĠÐ½Ðµ Ñĥ
µ Ð¼Ð¸
ĠÑĥ ÑģÐµ
ĠÐ¾Ð±Ðµ Ð·
ĠÐºÐ¾Ð µ
¡Ð Ł
ĠÐ²ÑĬ Ð¿ÑĢÐµÐºÐ¸
ĠÑģÑĬÑģÑĤÐ¾Ñı Ð½Ð¸Ðµ
Ð²Ð¾Ð´Ð¸ ÑĤÐµÐ»
Ð½ÑĦÐ µ
ĠÐ² Ð»Ð¸Ð·Ð°
ĠÐ¿Ð¾Ð´ Ð´
ÑĤÐµ Ð»Ñı
Ð´ ÑĢÐ¸
Ð½Ð° ÑĢÐ¾
ÑģÑĤÑĢÐ¾ Ð
Ñ ľ
ĠÐ½Ð° Ð²
ĠÑĥ ÑĪÑĤÐµ
ÑĢÐ ¿Ð
ĠÐº ÑĢÐµÐ´Ð¸
ĠÐ¸Ð· Ð±
ŀÐ ĶÐ
ĠÐ·Ð° ÑĤÐ¾Ð²Ð°
ĠÑĤÑĢÑĥ Ð´Ð½Ð¾
ÐºÑĬ ÑģÐ½Ð¾
e b
ĠÑ Ŀ
Ð½Ð° ÑĩÐµ
Ð¼ ÑĬÑĤ
ÑģÑĤÐ²Ð° Ð½Ðµ
ĠÐ² ÑĢÐ°ÑĤÐ°
Ġo f
ĠÐ¿ÑĢÐ¾ÑĤÐ¸ Ð²Ð¾
ĠÐĴÑģÐ¸ ÑĩÐºÐ¸
ĠÐ¾ÑģÑĤÐ° Ð²Ð°
Ð¿Ð° Ð´Ð°
ĠÐ¢Ñĥ ÑĢ
ĠÐ¤ ÑĢÐ°Ð½
ĠÐ¡ ÑĤÐµ
ĠÐ¼Ð¾ Ð´ÐµÐ»
ĠÐ· Ð²Ñĥ
ĠÐĿÐ ĲÐ
ĠÐ½Ðµ Ð´Ð¾
Ð½Ð¸Ðº ÑĬÑĤ
ŀÐ ĽÐ
ÑıÑ ī
ÑĢÑı Ð²Ð°Ð½Ðµ
ŀÐ ĿÐ
ĠÑģÐ»ÑĥÑĩÐ° Ð
ĠÐ¸Ð· Ð²ÑĬÐ½
ĠÐ¿Ð¾ Ð¿Ñĥ
Ð´Ð¸ Ñı
Ð»Ðµ Ð½Ð¸ÐµÑĤÐ¾
ĠÐ¾ÑĢÐ³Ð°Ð½Ð¸ Ð·Ð¸ÑĢÐ°
Ð¼ Ð½Ñı
ĠS t
ĠÐ³Ð¾Ð»Ñı Ð¼
ĠÐ¿ÑĢÐ¾Ð´ÑĬÐ»Ð¶Ð° Ð²Ð°
ĠÐ²Ð¾ ÐµÐ½
ÑģÑĤÐ¾ Ð¹
ÐºÑĤ Ð½Ð¾
ÑĤÐ¸ Ð½Ð³
ÑĢÐ¾ Ð½Ð°
ĠÐ¢Ð° Ð·Ð¸
ĠÑģÐ»ÑĥÑĩÐ°Ð ¸
o p
ĠÐ½Ð° Ð¼ÐµÑĢÐ¸
ĠÑĥ ÑģÑĤÑĢÐ¾Ð¹
ÑģÑĤÐµ Ð·Ð°
ĠÐŀ ÑīÐµ
ĠÐ½Ð°Ð± Ð»Ñİ
ĠÐº Ð»Ðµ
ÑĢÐµ Ð
ĠÐ¿Ð° Ñ
Ð²Ñı Ð²Ð°Ð½Ðµ
ĠÐ±Ð¾ Ð»Ðµ
ĠÐ¼Ð¾ ÑĢÐµ
Ð½Ñĥ Ð°ÑĢÐ¸
ĠÐ¸Ð· Ð»Ð¸Ð·Ð°
ĠÐ´Ð¾ ÐºÐ°Ð·Ð°
Ð µÐ»
łÐ ĲÐ
ĠÑģÐ¸ Ð»Ð¸
ĠÑĤÑĢÐ°Ð½ ÑģÐ¿Ð¾
Ġ Ð»Ð¾ÑĪÐ
ĠÐ¿ÑĢÐ¾ÑĨÐµ Ñģ
Ñĩ Ð²Ð°ÑĤ
ĠÐ´Ñĥ Ð¼Ð¸
ĠÐ¶Ð¸Ð²ÐµÐ µ
ĠÐ¾Ð²Ð° Ð
ĠÐ¾Ð²Ð°Ð °
ĠÐ»Ñİ Ð±Ð¸
Ð³Ð¾ ÑĢÐµ
ĠÑģÑĤÐ° Ð½Ð´Ð°
ĠÐ½Ð° Ð¿Ð¾
Ð´ ÑĢÑĥ
ĠÐ´Ð¾Ð³Ð¾ Ð²Ð¾ÑĢ
ĠÐ´ ÑĢ
ĠÑĤÐ°ÐºÐ° Ð²Ð°
ĠÑģ Ð²Ð¾Ñ
Ð¥ Ð
ĠÑģÑĤ ÑĬ
Ñĥ Ð°Ð»
ĠÐ¿ÑĬÑĢÐ²Ð °ÑĤÐ°
ĠÐ¿Ð° ÑĨÐ¸Ð
ĠÐ° Ð³ÐµÐ½
ĠÐ²ÑĬÐ· Ð´Ñĥ
ĠÐ²ÐºÐ»Ñİ ÑĩÐ²Ð°
ĠÑħÑĥ Ð±Ð°
ĠÐĿÐ° ÑĨÐ¸Ð¾Ð½Ð°
ĠÐ¼Ðµ ÑĢÐºÐ¸
ĠÐ¼Ð¾Ð¶Ðµ Ð¼
ĠÐ¿Ð¸ Ñģ
ĠÐ¾ÑĤÐ ºÐ¾
ĠÐ¿Ð° ÑĢÐ°
ĠÐķ ÑĤÐ¾
ĠÐ¼Ðµ ÑĤÐ°
ĠÑģÐ²ÑĬÑĢÐ·Ð° Ð½Ð¸
ÑĩÐ¸ Ð½Ð°
ÑģÐ¸Ð ¸
ĠÐ¤Ð °
Ð´Ðµ Ð¶
ĠÐ´Ð¸ÑĢÐµ ÐºÑĤÐ¾ÑĢ
ĠÑģÑĬ ÑīÐ¾ÑĤÐ¾
ĠÐĿÐ ¸Ðµ
ĠÐ¸Ð·Ð±Ð¾ ÑĢÐ¸
ĠÑĢÐ¾ Ð´Ð¸ÑĤÐµ
ĠÐ´Ñĥ Ð¼Ð°
a b
Ñĺ ÑľÐ¸
ÑĪÐ ¾
ÑĤÐ¾ Ðº
ÑĤÐµÐ» ÑģÑĤÐ²Ð°
ĠÑģÐ²Ðµ ÑĤÐ»Ð¸
Ð½Ð»Ð° Ð¹Ð½
ÑĢÐ ¿
ĠÐĵÐµÑĢÐ¼Ð° Ð½Ð¸Ñı
ĠÐµÐ´ Ð²Ð°
ĠÐ¸Ð¼Ð° Ð¼
ĠÐ´Ð° Ð»Ðµ
ĠÐ¶Ðµ Ð½Ð¸
ÑĩÐµ Ð½Ð¾
ĠÐ²Ð¾ Ð´Ðµ
ĠÐ° Ð±
Ð ĵ
ĠÐ¼Ð° ÐºÐµÐ´Ð¾
ĠÐ²ÑĬÐ· ÑģÑĤÐ°
ĠÐ´ÐµÐ¹ Ð½Ð¾ÑģÑĤ
ĠÐ¡ Ñĥ
ĠÐºÐ°Ðº Ð²Ð°
ĠÐ´ ÑĢÐ¶Ð°
ÑĩÐµ Ð½Ð¸ÐµÑĤÐ¾
Ð¿Ð° Ð´Ð½Ð°
ÑĢÐ°Ð· Ñĥ
ÐµÐ¼ Ð²ÑĢÐ¸
ĠÑģÑĤÐ° ÑĤÐ¸
ÑģÑĤÐ¾ Ð²Ðµ
ĠÐ½Ð¸ ÐºÐ¾Ð¹
ĠÐ° Ð¿ÑĢÐ¸Ð»
ĠÐ¿ÑĢÐ¾Ð´ÑĬÐ»Ð ¶Ð¸
ĠÐ¿Ð¾ÐºÐ° Ð·Ð²Ð°
ĠÐ¼ÐµÑ ĵÑĥ
Ġt he
ĠÐ²Ðµ Ð´Ð½Ð°
ĠÐ¸ÑģÐºÐ° Ñ
ĠÐ¸ÑģÐºÐ°Ñ Ĥ
ÑĪ Ð½Ð°ÑĤÐ°
ĠÐ¿Ð¾ ÑģÑĤÐ¾Ñı
Ð»Ð¾Ð¶Ðµ Ð½Ð¸ÐµÑĤÐ¾
ĠÐ·Ð° Ð¼Ðµ
ĠÑĩÐ¾Ð²Ðµ ÐºÐ°
ĠÐ¸ÑģÑĤÐ¾ ÑĢÐ¸Ñı
ĠÐ¿Ð»Ð° Ð½
ĠÑİ Ð½Ð¸
ÑħÐ ¸ÑĤÐµ
ĠÑĨÑı Ð»Ð¾
Ð½Ð° ÑĢÐ¾Ð´
ķÐ Ŀ
Ð½ ÑģÐºÐ¾
¸Ð ¾ÑĤ
ĠÑĢÑĬ ÐºÐ°
ĠÐ¸ Ð´Ð²Ð°
ĠÑģ Ð¿ÑĢÐµ
ĠÑĢÐ°Ð¼ ÐºÐ¸ÑĤÐµ
ĠÐ²ÑĬÐ¿ÑĢÐ¾ ÑģÐ¸
ĠÐ¿Ð°ÑĢÑĤ Ð½ÑĮÐ¾
ĠÐ¾ÑĦÐ¸ ÑĨÐ¸Ð°Ð»
ÑĢÐ¾Ð ¸
Ð´Ð¸Ð ¸
ĠÐ¿ÑĢÐµ Ð¼Ð¸Ð½Ð°
ĠÐ³ Ð»Ñĥ
Ð¶Ðµ ÑĤÐµ
ĠÐ¿Ð°Ñ Ĥ
Ð± ÑĢÐ¾
ĠÐ¸Ð· ÑĢÐ°Ð±Ð¾
o g
ĠÐ½Ð¾ ÑĢÐ¼Ð°Ð»
ĠÑĨÐµÐ½ÑĤ ÑĬÑĢ
Ð»Ñı Ð²Ð°ÑĤ
Ð¿ ÐºÐ¸
ÐºÐµ Ð¼Ð²ÑĢÐ¸
ĠÐ·Ð° ÐºÐ¾Ð½Ð¾
ĠÑĨÐµ Ð»Ð¸Ñı
ĠÐ¿Ð¾ Ñı
ĠÑĢÐ°Ð·Ð¿Ð¾ Ð»Ð°Ð³Ð°
ĠÐ·Ð° Ð½Ð¸Ð¼Ð°
ĠÐ·Ð° ÐºÑĥ
ĠÐ¾Ð±Ð¸ ÐºÐ½Ð¾Ð²Ðµ
ĠÐ¸ Ð¼Ð¾
ĠÐ¸ Ð¼ÐµÐ½Ð½Ð¾
ÑĩÐµ Ð½Ð¸Ñı
Ð¹ Ð½Ð¸ÑĤÐµ
ĠÐ¿ÑĢÐµÐ´ Ð²Ð¸
ĠÐĵÐµÐ¾ ÑĢÐ³Ð¸
ĠÐ´Ð¾Ð»Ð° ÑĢÐ°
o c
ĠÐµÐ²ÑĢÐ¾ Ð¿ÐµÐ¹ÑģÐºÐ¸
ĠÐºÐ¾ Ð¼Ð±Ð¸
ĠÑģÑĢÐµ Ð´Ð°
Ġ6 0
ĠÑĩÐµ ÑĤÐ²
ÑĢÐ³Ð° Ñģ
µ Ð½Ð¸Ðµ
ĠÐŁ Ð»Ð°
ĠÑĦÐ¾ ÑĤÐ¾
Ð»Ð¸Ð ¾
ĠÑĥÐ½Ð¸ Ð²ÐµÑĢÑģÐ¸ÑĤÐµ
ĠÑĢÑĬ ÑĨÐµ
Ð¶Ðµ Ð½Ð¸Ñı
ĠÐ¾ ÐºÑĤÐ¾Ð¼Ð²ÑĢÐ¸
ĠÐ²Ð½Ð¸Ð¼Ð° Ð½Ð¸Ðµ
µ Ð´Ð¸
ĠÐ¸Ð½ ÑģÑĤÑĢÑĥ
ÑĤÐ¸ ÑĨÐ¸
ĠÐ¸ÑģÑĤÐ¾ ÑĢÐ¸
ĠÐĲÐ»Ðµ ÐºÑģÐ°
ĠÑģÑĬ Ñİ
ÑĢ Ð½Ð¸Ñı
ĠÐº Ð²
es t
4 0
ĠÐ¼Ðµ ÑĤÐ¾
Ð»Ð¾Ð¶Ðµ Ð½Ð¸Ñı
ÑģÑ ĦÐ
ĠÐ½ÐµÐ³Ð¾ Ð²Ð°ÑĤÐ°
2 2
ĠÐ¾Ð±Ð»Ð° ÑģÑĤ
ĠÐĹÐ° ÑĤÐ¾Ð²Ð°
ĠÐ½Ð° Ð¿Ð¸
¸ Ð»
ĠÐ·Ð° ÐºÐ¾Ð½
ĠÐ¿ÑĢÐ¸ Ð½ÑĨÐ¸
Ð± ÑĬÑĢÐ
Ġ Ð¶Ñĥ
Ð²Ð¸ ÑıÑĤ
ĠÑģÐ¼ ÑĬÑĢÑĤ
ĠÑģÑĤÑĢÐ¾ Ð¸ÑĤÐµ
ĠÐµ Ð´Ð¸
or t
ĠÑģ Ð»ÑĬÐ½
ĠÐ± ÑĢÐµ
Ð³Ð° Ð½Ðµ
ĠÐºÐ¾ ÑĢÐµ
Ġ201 4
ÑĤÐ¸ Ð²Ð°
Ð¹ Ð»
ĠÑĦÐ¾ ÑĢÐ¼Ð¸
Ġ w
Ð¹ ÐºÐ°
ĠÐ±Ð»Ð¸ Ð·
ĠÐ¼Ð¸Ð»Ð¸Ð ¾Ð½Ð°
ĠÐ¿ÑĢÐµÐ´ Ð²Ð¸Ð´
ÑīÐ° Ð²Ð°
Ð½ ÑĬÐ¶
Ð± ÑĢÐµ
ÐºÐ¾ Ñĺ
ĠÐ¤Ð µ
ĠÑĢÐµ ÐºÐ»Ð°
ĠÐºÑĢÐ° ÑģÐ¸
ĠÐ¿ÑĬÑĢÐ²Ð ¸Ñı
ĠÑĢÐ¾ Ð»Ñı
ĠÑģÑĬ ÑģÑĤÐµÐ·Ð°
ĠÐ¿Ð° Ð¼ÐµÑĤ
ĠÐ¿ÑĢÐµ Ð²ÑĬÑĢ
ĠÐºÐ° Ð¶Ð°
Ġ '
Ġ0 9
ĠÑĥÑĩÐ° ÑģÑĤ
20 20
ĠÐ¿ÑĢÐµ ÐºÑĢÐ°
Ñı Ð»Ð¾
ĠÐ½Ðµ ÑīÐ°ÑĤÐ°
ĠÐ¾Ð± Ð»Ðµ
ĠÐºÐ¾Ð¼Ð¿Ð° Ð½Ð¸ÑıÑĤÐ°
Ðº ÑĢÐ°ÑĤ
ĠÑĥ Ð±Ðµ
ĠÐ¼Ð° ÐºÑģÐ¸
Ñģ Ð½Ð¾ÑģÑĤ
ĠÐºÐ¾ Ð¶Ð°ÑĤÐ°
ĠÐºÑĥ Ð¿
ĠÐĹ Ð½Ð°
Ð»Ñı Ð²Ð°Ð½Ðµ
ĠÐ¾ÑĤÐ³Ð¾ Ð²Ð¾ÑĢÐ¸
ĠÐ¿Ð¾ Ð¼Ðµ
ÑģÑĤÐ° ÑĤÐ°
ar t
ĠÐ¸Ð· Ð³Ð¾
Ġ201 5
ĠÐºÐ»Ð° ÑģÐ¸
ĠÐ²Ð»Ð° ÑģÑĤ
ĠÐ¿Ð¾Ð»Ð¸ÑĤÐ¸ ÐºÐ°
ĠÐ´ ÑĬÑĢÐ
Ġ #
? !
ĠÐ½Ð° ÑĢÐ¸
ÑģÑĤ ÑĢÐµ
Ð´Ð¾ Ð²Ð¸
ÑģÐ¾ Ð±
ÑĺÐ° Ð²Ð¸
ww w
ĠÐ´Ð¾ ÑģÐµÐ³Ð°
¸ Ð»Ð¸
ĠÐłÐµ Ð¹
ĠÑİ Ð»Ð¸
Ð´ ÑĢÐ¾
ĠÐ·Ð° Ð¼
Ñģ ÐºÑĥ
ÑĤÐµÐ» ÑıÑĤ
ÑģÐ»Ð° Ð²
ĠÐ· Ð²Ðµ
ĠÑĤÐ¾ ÑĩÐºÐ¸
Ġ Ð·Ð¸
ĠÐ¸Ð· Ð±Ð¸ÑĢÐ°
ĠÐ½Ð¾ Ð²Ð°ÑĤÐ°
ĠÑĥ Ð¼Ðµ
ĠÑģÐ¿Ðµ ÑĩÐµÐ»Ð¸
ĠÐ½Ð° Ð¿ÑĢÐµÐ´
ĠÐ¸Ð½ÑĤÐµ ÑĢÐ½ÐµÑĤ
ÑĪÐ¸ ÑıÑĤ
ĠÐ´ÐµÑĤÐµ ÑĤÐ¾
ĠÑĢÐ°Ð·Ð»Ð¸ ÐºÐ°
ĠÐ¾ÑĤÐ ²
Ð²Ð³ ÑĥÑģÑĤ
Ð³ Ð½Ð¾
ÑĢÐ° Ð¼
Ñģ ÑĬÑĤ
Ð²ÑĢÐµ Ð¼ÐµÐ½
ĠÑĪÐ° Ð¼Ð¿Ð¸
. )
ĠÐ²Ð¸ Ð´ÐµÐ¾
201 7
ĠÐ¿ÑĢÐ¾ Ð²ÐµÐ´Ðµ
ĠÑĤÐ¸ Ð¿
ĠÐ¼Ð¾ Ð¼
ĠÐºÐ¾Ð¼ Ð¿
ĠÐ·Ð½Ð° ÑĩÐµÐ½Ð¸Ðµ
ĠÐµ Ð²
ĠÐ¿ÑĢÐ¾ÑĨÐµ Ð´Ñĥ
µ Ð½Ðµ
ĠÑīÐ ¾
ĠÐ¾Ð¿Ð¸ ÑĤÐ°
Ġ â
ĲÐ ļÐ
= =
ÑĤÐ° Ð½Ð°
ĠÐºÐ¾Ð½Ðº ÑĢÐµ
ĠÐ° Ð½Ð°Ð»Ð¸
201 8
ĠÐ¿ÑĢÐ¸ÑĩÐ¸ Ð½Ð°
Ð¼Ð¸Ñģ Ð»Ð¸
ÐºÑĤÐ¾ ÑĢÐ¸
ĠÐ¿Ð° ÑĢ
ĠÐºÐ° ÑĤÐ°
Ð¼Ðµ ÑĢÐ°
ĠÐĹ Ð´ÑĢÐ°
ĠÐ¿Ð¾Ð²ÐµÑĩÐµ ÑĤÐ¾
ĠÐ¿Ð¾Ð ¸
ÑĨÐµ Ð¿
ĠÑħÐ¸Ð»Ñı Ð´Ð¸
Ñģ Ð½ÑıÐ²Ð°
Ð²Ð° Ð½Ð¸Ñı
ĠÐºÐ° Ñĺ
r i
Ð¹ ÐºÐ¾
Ð¿ ÑĢÑĥ
ĠÐºÐ° Ð´Ðµ
ĠÐ¿ÑĬÑĢÐ²Ð ¸ÑĤÐµ
ĠÑĤÐ¾ ÑĩÐºÐ°
Ð±Ð¾ ÑĢ
Ð³Ð¸ ÑĤÐµ
ĠÐ¿ÑĢÐµÐ´ÑģÑĤÐ° Ð²Ð¸ÑĤÐµ
ĠÐ¿ÑĢÐ¾Ð¸Ð·Ð²Ð¾Ð´ ÑģÑĤÐ²Ð¾
Ġ l
ĠÐ´ ÑĢÐ°
ĠÑģÐ²Ð¾ ÐµÑĤÐ¾
ĠÐµÐ½Ðµ ÑĢÐ³Ð¸
ĠÐ³ÑĢÑĥ Ð¿Ð¸
ÑĨÐ¸Ð¾Ð½ Ð½Ð¸
» Ñı
Ð¶ Ð½Ð¸ÑĤÐµ
ĠÐĹÐ° ÑīÐ¾
ĠÐ¡ Ð»Ð°
Ġ in
Ð· Ð²Ð°Ð½Ðµ
Ð½Ð³ Ð»Ð¸
ĠÑĢÐ° Ð¹Ð
ĠÑĤÐµ Ð¶
ĠÐ³ Ð»Ð¾
ĠÐ»Ñĥ ÑĵÐ
Ð¶Ðµ ÑģÑĤÐ²Ð¾
ÑģÑĤÐ²Ð ¸ÐµÑĤÐ¾
ĠÑĨÐµÐ½ÑĤ ÑĢÐ°
ÑĤÐ¸ Ð²Ð½Ð¾
ÑĩÐµ Ð²Ð°
Ð¼Ð¸ Ð½Ð¸
ĠÐĴÐ ¸Ðµ
Ð½Ðµ ÑģÐ°
ĠÐºÐ° Ð¿Ð°
ĠÑĥ Ð
ĠÐĳÐµ Ð·
ĠÐ¸Ð· Ð¿Ð¸
ĠÐ¼Ðµ ÑģÑĤÐ¾
ĠÐ·Ð° Ñı
2 3
ÑĩÐ° Ð²Ð°Ð½Ðµ
Ð¿ÑĢÐ¾ ÑģÑĤÑĢÐ°
ĠÑĤÐµ Ð¼Ð¿Ðµ
ĠÑģÑĬ Ð´Ðµ
ĠÐ¿ÑĢÐµÐ¿Ð¾ ÑĢÑĬ
ĠÐ¿ÑĢÐ¾ Ñĥ
ÑĤÐ¸ ÐºÐ°
ÑĬ Ð³
ĠÑħ ÑĢÐ°Ð½Ð°
µ ÑĤÐ°
ĠÑĥÐ¿ÑĢÐ° Ð²Ð»ÑıÐ²Ð°
ĠÑģÐµÐ·Ð¾ Ð½
Ð»Ð¸ Ð²Ð¾
ĠÐĴÑĬ Ð¿ÑĢÐµÐºÐ¸
ĠÐ¿Ð¾Ð´ Ð´ÑĬÑĢÐ¶Ð°
ĠÐ½Ð¾ ÐµÐ¼Ð²ÑĢÐ¸
ÑīÐ¸ ÑıÑĤ
ĠÐ½Ðµ ÐºÐ°
ĠÑĦÐ µÐ²
Ð½Ð´Ð ¸Ñı
ÑĤÐ¸ Ð²Ð¸
ĠÑģÑĤÐ¾ Ð»Ð¸
ÐºÑĤÑĥ ÑĢÐ°
ĠÑģ Ð²Ð°
ĠÐĲ Ð¼ÐµÑĢÐ¸ÐºÐ°
ĠÐ²Ð° Ð¶Ð½Ð¾
ĠÐĳÐ ¡ÐŁ
Ð½ ÑĨÐ¸ÑĤÐµ
ĠÑĦÐ¸Ð» Ð¼
¾ Ð
¾ÑĨÐ ¸
ĠÑĦÐ¸Ð½Ð°Ð½ ÑģÐ¸
ĠÐ¾ Ð½Ð»Ð°Ð¹Ð½
µÐ² ÑģÐºÐ¸
ĠÐ²ÑģÑı ÐºÐ¾
ĠÐºÐ¾ Ð»Ð°
ĠÐ¡ÐºÐ¾ Ð¿
ĠÐ¿Ð¾ Ð¼Ð°Ð³Ð°
ĠÐ± ÑĢÐ¾Ñ
Ð½ÑĤ ÑĢÐ°
ÑĢÑĥ Ð°ÑĢÐ¸
ĠÐ½Ð° Ð¿Ð¸ÑģÐ°
īÐ °
ĠÐ¾ ÑĩÐ¸
Ð´Ð¾ Ð»Ð
Ð¼Ð¾ ÑĤÐ¾
Ðº ÑĬÑĤ
ĠÑĤ ÑĢÐ¾
ÐºÐ¾ Ð²Ð¸
Ð· ÑĢÐ°
ĠÐĺ ÑĤÐ°
ĠÐ²ÑĬÐ·ÑĢÐ° ÑģÑĤ
ĠÑĢÐµ Ð´Ð°
ĠÐ´ Ð²Ñĥ
ĠÑĤÐ¾ Ð¿
ÑĢÐ »Ð¸
ĠÑĩÐ° Ñģ
ĠÐ¿ÑĢÐµ Ð²
Ð´ Ð½Ð°ÑĤÐ°
ĠÐ¿Ð ¾Ñ
ĠÐ¥Ð ¸
ĠÑĢÐµ Ð³Ñĥ
ĠÑĢÐ°Ð· ÑĢÐµ
ĠÐ´ÑĬÑĢÐ¶Ð° Ð²Ð¸
Ð»Ð¾ Ð²Ðµ
ĠÑĤÑı Ð»Ð¾ÑĤÐ¾
u b
Ð´ Ð²Ð¸
ĠÐ¨Ð °
ĠÐ² ÑĩÐµÑĢÐ°
Ð³Ð¸ Ð½Ð°
ĠÑĥÑĩÐ° ÑģÑĤÐ²Ð°
ĠÐ·Ð´ÑĢÐ° Ð²Ðµ
ĠÐ´Ðµ ÐºÐµÐ¼Ð²ÑĢÐ¸
ĠÐ¾Ð±ÑīÐ¸ Ð½Ð°
Ĥ ÑĬÑĤ
Ñ ĤÑĬÑĤ
ĠÐ¿Ð¾ Ð´Ð
ÑĤÐ¾ ÑĢÐ¸ÑĤÐµ
ĠÑĥÑĩÐ° ÑģÑĤÐ¸Ðµ
ĠÑĤÑĬÑĢ ÑģÐµ
ĠÐºÐ¸ Ð»Ð¾
Ġ z
ĠÑĢÐ°Ð· Ð¼ÐµÑĢ
ÑĤÐ ¿
¾ ÑĢÐ¼Ð¸
ĠÑĢÐ°Ð±Ð¾ÑĤ ÑıÑĤ
Ñ £
ĠÐĳÑĥ ÑĢÐ³Ð°Ñģ
Ð»Ðµ ÑĤÐ¸
ĠÐ±Ðµ Ð·Ð¾
ÑĩÐ¸ Ð
Ĥ Ñı
ĠÐ´Ð°Ð½ ÑĬ
Ġ *
Ñ ĤÑı
ĠÐºÐ° Ð¼Ð¿Ð°
ĠÑĤÐµ Ð±
ĠÐ¿ÑĢÐ¾ ÑģÑĤÑĢÐ°Ð½
ĠÑĤÐµ Ð¼Ð°
âĢ ĵ
Ð¶ ÑĥÐ²Ð°
ĠÐ¾ÑģÑĤÐ°Ð½Ð° Ð»Ð¸ÑĤÐµ
ĠÐĳÐ»Ð°Ð³Ð¾ Ð´Ð°
Ġ a
ĠÐ¸Ð· Ð±ÑĢÐ°
Ð²Ñı Ð½Ðµ
Ð² Ð»Ð°
Ð»Ð¾ Ð¶Ð¸ÑĤÐµ
ÑĤÐ¸ Ð²ÐµÐ½
ĠÐ´Ð¾ ÐºÐ¾
ĠÐºÐ¾Ð¼Ð¿Ð° Ð½Ð¸Ñı
ÑĢÐ¸Ð µÐ¼Ð°
ÑĢÐµ Ð½Ð¾
ĠÐ² Ð»Ð¸Ñı
ĠÑĤÐ¸ Ð
ÑĢÐ ·
ĠÐ¼Ð°Ð» ÐºÐ¸
ĠÑĢÐµ Ð·Ðµ
ĠÐºÐ¾ Ð³Ð¾
ÐºÑĥ Ð»
ÑĢÐ¾ Ð²Ð¸
ĠÑģÑĬÑİ Ð·
¾ÑħÐ ¾
¡ÐļÐ Ĳ
ĠÐ¸Ð· ÑĢÐ°
ĠÐ² Ð¿ÐµÑĩÐ°
ĠÐ¿Ð°ÑĢÐ»Ð° Ð¼ÐµÐ½ÑĤÐ°
ĠÐ»Ðµ ÐºÐ°
ĠÐ´ÑĬÐ»Ð ¶Ð¸
ÑĬ Ð´Ðµ
ĠÐĴÐµÐ»Ð¸ ÐºÐ¾
ĠÐ¿ÑĢÐ¾ Ð¼ÑıÐ½Ð°
ĠÑģÐ²Ð¾ Ð
Ð½Ðµ Ð¼
ĠÐ¿ÑĢÐ¾Ðµ ÐºÑĤÐ°
Ð¿Ð°ÑĢÑĤÐ° Ð¼ÐµÐ½ÑĤ
ĠÐĲ Ð²ÑĤÐ¾
ĠÐļÐ° ÐºÑĤÐ¾
ĠÑĢÐµ Ð´Ð¾
ĠÐ¸ÑģÑĤÐ¾ ÑĢÐ¸ÑıÑĤÐ°
ÑĤÐµ Ð³Ð¸
ÑĨÐ ¾
ĠÑĢÐ°Ð· ÑĢÐ°Ð±Ð¾
ÑĢÐ¸ ÑĢÐ°
ĠÐ¸Ð· Ð½ÐµÐ½Ð°
Ð³ÑĢÐ° ÑĦ
Ð»Ð¾Ð³Ð¸ Ñı
ĠÐ¸Ð·Ð¿Ð¾Ð»Ð· Ð²Ð°ÑĤ
ĠÐ·Ð°Ð±Ðµ Ð»Ðµ
ÑĤÐ° Ð¼
ĠÐ²Ðµ ÑĢÐ¾ÑıÑĤÐ½Ð¾
ĠÐ¿ÑĢÐ¾Ñ ĦÐ¸
ÐłÐ °
µÐ½ ÑĤÐ¸ÑĤÐµ
ÑĢÐ´Ð µ
ĠÐ¾ÑĤÐ ¿Ð°
ĠÑĢÐµÐ³Ð¸ ÑģÑĤÑĢÐ¸
e v
ÑĪÐµ Ð½Ð¸
Ð °Ð½
Ġ19 8
ĠÑĤÐ¸Ð µ
Ð¼ ÑģÐºÐ¸
ĠÐºÐ¾Ð½ ÑĤÐ°
ĠÑĢÐ°Ð· ÐºÑĢÐ¸
ĠÐ³ ÑĬÑĢÐ
ĠÑĤÐµ ÑĢÐ°
4 5
Ġ ?
es s
ĠÐ·Ð° Ð¿Ð¸
Ð»Ð° Ñ
ĠÐ¸Ð·Ð¿ÑĬÐ» Ð½Ð¸ÑĤÐµ
3 5
Ñģ Ð½Ð°ÑĤÐ°
ĠÑģÑĬ ÑģÑĤÐ°
ĠÐ¿ Ð»Ðµ
ÐĿÐ ¾
ĠÑĩ Ð»Ðµ
Ð»Ð°Ñ Ĥ
ÑĢÐ¾ Ð²Ðµ
ĠÐ´Ñĥ Ð¼Ð¸ÑĤÐµ
ÑģÑĬ Ð½
ÑģÑĤÐ²Ðµ Ð½Ð°ÑĤÐ°
ÑĢÐ´Ð ¾
ĠÐ¼Ð¾ Ð¼Ð¸
Ð½Ðµ ÑĤÐ°
2 6
Ð½ ÑıÑĤ
ĺÐ ļÐ
ÑĢÑģÐºÐ¸ ÑĤÐµ
ĠÐ¿Ð¾Ð·Ð²Ð¾ Ð»ÑıÐ²Ð°
ĠÐºÐ°Ðº ÑĬ
ĠÐ¢Ðµ Ð·Ð¸
ĠÐºÐ° ÑĢÐ°
Ñģ Ð½Ð¸ÑĤÐµ
Ð»Ð° ÑĨÐ¸Ñı
ÑĢÐ¸ Ð»
ĠÑ ī
ĠÑĪÐ °Ð½
ĠÐ¿Ð»Ð° ÑīÐ°
ĠÐ¾Ð± ÑĢÐ°ÑĤ
ĠÐĲÐ»ÐµÐºÑģÐ° Ð½Ð´
Ð»Ð¸ Ð·Ð¸ÑĢÐ°
ĠÐ¡ÐºÐ¾Ð¿ ÑĺÐµ
Ð ¸Ð½
ĠÐ¿ÑĢÐ¸Ñı ÑĤÐµÐ»
ĠÐ¸ Ð½Ð´
Ð´Ð ¶Ðµ
ĠÐ¢ÑĥÑĢ ÑĨÐ¸Ñı
Ġ3 1
ŀÐ ľÐ
ĠÐ´Ð¾Ð± ÑĢÐ¸
Ð´Ðµ Ð¼
ĠÐ¿Ð° ÑĢÐ¸ÑĤÐµ
ĠÐ¾ÑĤÐºÐ¾ Ð»ÐºÐ¾ÑĤÐ¾
ĠÑĩÑĥÐ² ÑģÑĤÐ²Ð°
c e
Ð´ ÐºÐ°
ĠÐ¾Ð±Ñı ÑģÐ½Ð¸
2 7
ĠÐ¼Ð° ÑģÐ°
Ðº Ð½Ð°
ĠÐłÐµ Ð¿ÑĥÐ±Ð»Ð¸ÐºÐ°
ĠÐ¿ÑĬÑĤ Ñı
ĠÑģÑĢÐ° Ð²
ĠÑģÐ»Ñĥ ÑĩÐ²Ð°
ÑĢÐ¾ Ð±
ÑĤÐ¾ ÑĢÐ°
ĠÑĤÐµ Ð¼Ð°ÑĤÐ°
Ð½Ð³Ð µ
ĠÐ¾Ñ ħ
ĴÐ ł
ĠÐ³ ÑĢÐ°Ñ
9 9
ĠÐµÐ´ Ð½Ð¸
ÑĤÐ ºÐ¸ÑĤÐµ
ÑĤÐ¾ Ð²Ð¸
ĠÐ½Ðµ Ð¸Ð·
ĠÐ¿Ð°Ð·Ð° ÑĢ
ĠÐ³Ð¾Ð´Ð¸ Ð½Ð°ÑĤÐ°
ĠÐµ Ð¿Ð¸
Ð·Ð° ÑĨÐ¸Ñı
ĠÐ½Ð¾ Ñī
Ð °ÑĤÐ°
ĠÐ¿Ð¾ ÑĢÐ°
ĠÐ² ÐºÐ»ÑİÑĩÐ¸ÑĤÐµÐ»Ð½Ð¾
ĠÐ¾Ð± Ñī
ĠÐ±Ñı Ñħ
ĠÐ²Ð ¼Ðµ
ĠÐ¼Ð¾ Ð±Ð¸
ĠÐ¿ÑĢÐ¸ Ð¼ÐµÑĢ
ĠÑģÑĬÑīÐµ ÑģÑĤÐ²ÑĥÐ²Ð°
¨ Ð
ĠÑģÐ»ÑĥÑĩÐ° Ñı
ĠÐĶ Ð½ÐµÑģ
Ð²Ð¸ ÑĢÑĥ
ĠÐ° Ð½Ð°
ĠÐºÐ¾ ÑĢÐ¾Ð½Ð°
ĠÐºÐ¾Ð½ÑĤÑĢÐ¾ Ð»
l t
ĠÐ¼Ð° Ð³Ð¸
ĠÑĢÐµ Ð¼Ð¾
ĠÐ¿ÑĢÐµÐ´ ÑģÐµÐ´Ð°ÑĤÐµÐ»
Ðº Ð²Ð°ÑĤ
ĠÐľÐ¸Ð½Ð¸ ÑģÑĤÐµÑĢ
ÑģÑĤ Ð½Ð¸Ðº
ĠÐ¿ÑĬÐ» Ð½Ð¾
ĠÐľÐµ Ð¶Ð´Ñĥ
2 8
µ Ð¼Ð¾
ÑĢÑĥ Ð²Ð°
ÑĤÐ¾ Ð²Ðµ
ĠÐ¾Ð±ÑĢÐ°Ð·Ð¾Ð²Ð° Ð½Ð¸Ðµ
ĠÐ²Ñı ÑĢÐ²Ð°
ĠÐºÐ½Ð¸ Ð³Ð°
ÑĩÐµ ÑģÑĤÐ¾
ĠÐºÐ¾Ð¼Ð¿Ð° Ð½Ð¸Ð¸
ĠÐ¾ÑģÑĬ ÑīÐµ
ĠÐ´Ð¾ÐºÑĥ Ð¼ÐµÐ½ÑĤÐ¸
ÑĪ Ð½Ð¸Ñı
Ð¿Ð¾ Ð»Ð¸
at ion
Ð¼Ð¸ Ð½
ĠÐ° Ð²Ð³ÑĥÑģÑĤ
ĠÑģÐ° Ð¼
ĠÐ´Ðµ Ð»Ð¾
ĠÐ¿Ð»Ð° Ñ
Ð´ Ð½ÑĬÐ¶
ĠÐ¿Ð¾Ð´ÑħÐ¾Ð´ Ñı
ĠÐ¿Ð»Ð°Ñ Ĥ
ĠÐ´ Ð²Ð°ÑĤÐ°
ÑĢÐ »Ð
ĠÐ¿ÑĢÐµ ÐºÐ°
ĠÐ¸Ð· Ð»ÐµÐ·Ðµ
ĠÐ·Ð°Ð¿Ð¾ Ð·Ð½Ð°
ĠÐºÐ¾Ð¼Ð¿ Ñİ
ĠÐ½Ð¾ Ð²Ð¸ÑĤÐµ
Ġ201 3
ĠÐ¿Ð¾ Ð²ÑĤÐ¾
Ð½Ð ºÐ
Ð¼Ð¸Ñģ ÑĬÐ»
ĠÐ¼Ð¾ ÑĢÐ°
ĠÑĨÐµ Ð½Ð°ÑĤÐ°
ĠÑģÑĬ ÑģÑĤÐ°Ð²
ÑĢÐ°ÑĤÑĥ ÑĢÐ°ÑĤÐ°
Ð½ÑģÐºÐ¸ ÑıÑĤ
ĠÑģÐ½Ð¸Ð¼ ÐºÐ¸
ĠÐ½Ð° Ð²Ð¸
Ð¼Ð ±Ð°
ĠÐ¿ÑĢÐµ ÐºÑĥ
Ñ ļÐ°
ĠÐ²Ð¾ Ð¹Ð½Ð°
Ðº Ð»Ð¸
Ðº ÑĨÐ¸ÑıÑĤÐ°
ĠÐĶÐ Ĳ
ĠÐ³Ð¾ ÑĢÐµ
ÑĬÑĢ Ð½Ð°
ĠÐ½Ð° Ð»Ð°Ð³Ð°
ĠÐ³Ð¾ ÑģÐ¿Ð¾
ĠÑĤÐµÑħ Ð½Ð¸ÑĤÐµ
ĠÐ»Ð¸ ÑĨÐµÑĤÐ¾
Ð½ÑģÐºÐ¸ Ð¾ÑĤ
ĠÐ¼Ð¸ ÑģÐ»Ðµ
ÑĩÐµÑģÐºÐ¸ Ñı
ĠÐŀ Ð´
ÐºÐ° Ð´Ðµ
ĠÐºÐ° Ð¿Ð¸ÑĤÐ°
Ðº ÑģÐµ
ĠÐ¿Ð¾Ð¼Ð¾ Ð³Ð½Ðµ
ÑĢ ÑģÐºÐ¾ÑĤÐ¾
Ð»Ð¾Ñ Ī
ĠÐ²ÐµÐ´Ð½Ð° Ð³Ð°
Ñı Ð²Ð°ÑĤ
ĠÑĥ Ð¼
ĠÑģÐ¸ Ð³Ð½Ð°
Ð ¦Ð
ÑĦÐ ¾ÑĢÐ¼Ð°
ĠÑĥ Ð»
Ð² ÐºÐ°ÑĤÐ°
Ð´Ð¸ ÑĨÐ°
ĠÐ¿Ð µÐ½
ĠÐ¸Ð· ÐºÐ»Ñİ
Ð¿ ÑĬÑĤ
ĠÑĥÐ¿Ð¾ÑĤÑĢÐµ Ð±Ð°
Ð½Ñı ÑĤÐ°
Ð»Ð¾Ð¶Ðµ Ð½Ð¸
ÑĤÐ »Ð°
ĠÑģÑĤÐµ Ð¿ÐµÐ½
ĠÐŀ ÑģÐ½Ð¾
ÐĶÐ ¾
ĠÐ²ÑĤÐ¾ ÑĢÐ¸
ĠÐ¿Ð¾ ÑĢÐµÐ´
ĠÐ· Ð»Ð¾
ĠÐ´Ð¾ Ð¹Ð´Ðµ
Ð³ÑĢÐ° ÑĦÐ
Ð¶Ðµ Ð»Ð°
Ð» ÑģÐºÐ¸
u p
ĠÐ´Ð¾ Ð±ÑĢÐ°
ĠÐ¿ÑĢÐ¸ Ð»Ð°Ð³Ð°
Ð»Ð¾Ð¶Ðµ Ð½
ĠÐ¶Ñĥ ÑĢÐ½Ð°
ĠÑı Ð½ÑĥÐ°ÑĢÐ¸
ĠÐ¿Ð¾ Ð½Ñı
ĠÑħÑĢÐ° Ð½Ð¸ÑĤÐµ
ĠÑĦÐµÐ² ÑĢÑĥÐ°ÑĢÐ¸
Ð²Ð¾ ÑĢÐ¸ÑĤÐµ
ĠÐ² ÑģÑĬÑīÐ½Ð¾ÑģÑĤ
Ð½Ð´Ð µÐ½
ÑĢÑĥ Ð¿
ĠÐłÐµÐ¹ ÑĤÐ¸Ð½Ð³
ĠÑĩÐµ ÑĤÐµ
Ð½Ðµ Ð½Ð¾
ĠÐ² ÑĢÐ°
Ð½ ÑĬÑĤ
ĠÑħÐ¾ ÑĤÐµÐ»
ĠÐ¿ÑĢÐ° Ð²Ð°
ÑĪ ÑĤÐ°
ĠÐ»Ð¸ ÑĤÐµ
ĠÐº Ð»Ñİ
ĠÐ½Ðµ Ð²Ðµ
ÑĨÐ¸Ð ¾Ð½Ð¸
ĠÐ¾ÑĤÐ½Ð¾ ÑģÐ½Ð¾
6 0
ĠÐĸÐ µ
Ġ5 00
Ð½ ÑģÐºÐ¾ÑĤÐ¾
ĠÐĹÐ° ÑīÐ¾ÑĤÐ¾
Ð¶ Ð½Ð¾ÑģÑĤÑĤÐ°
Ġ201 2
ĠÐ¸Ð· ÑĩÐµ
ĠÑĢÐ°Ð· Ð±Ð¸
ÑĤÐµ Ð»ÐµÐ½
ĠÐ¸Ð¼ Ñĥ
Ð± ÑīÐ¾
ĠÐķÐ²ÑĢÐ¾ Ð¿ÐµÐ¹ÑģÐºÐ¸
ĠÐ¼ÑıÑģÑĤÐ¾ ÑĤÐ¾
ĠÑĤÐ° Ð
Ð²Ðµ Ð¶Ð´Ð°
ĠÑĢÐµÐ·ÑĥÐ»ÑĤÐ° ÑĤÐ¸
Ð½Ñ İ
Ġ h
Ðº ÑĬÐ»
ĠÐ¿Ð¾ Ð»Ð
ĠÐĿÐ¾ Ð²Ð¸
ĠÐ¡ ÑĢÐµÐ´
ĠÐŁÐ¾ ÑģÐ»ÐµÐ´
ĠÐºÐ»Ð° Ñģ
ĠÑĥÑĩÐ¸Ð»Ð¸ ÑīÐµ
ÑĩÐ¸Ð µ
ĠÐ´Ðµ Ð½Ð°
ĠÑģÑĤÐ¾Ð¹ Ð½Ð¾ÑģÑĤ
ĠÐ¼Ð° ÑĤÐµ
ĠÐ¼Ð°ÐºÑģÐ¸ Ð¼Ð°
ĠÐ³ÑĢÐ°Ð¶Ð´Ð° Ð½Ð¸
ĠÐµÐ½ÐµÑĢÐ³Ð ¸Ñı
ĠÐĸÐ ¸
ĠÐ·Ð° Ð²Ð¸
ĠÑģ Ñı
ĠÐ´ÑĬÐ»Ð ±Ð¾
Ð¶ ÑĤÐµ
ÑĢÐ° Ð½ÐµÑĤÐ¾
Ð±ÐµÑĢÐµ ÑĤÐµ
ÑĤÐ² Ñı
Ð Ĺ
ÑĢÐ¼Ð ¾
ĠÐ²Ð·Ð µÐ¼Ðµ
2 9
ÑĢ ÑģÐ¸
ĠÐ¸ Ð³ÑĢÐ¸
ÑĤÐ²Ð° ÑĢÑı
ĠÐ·Ð°Ð³Ñĥ Ð±Ð¸
ĠÑĨÐµ Ð½Ð¸
ĠÐ¾ ÑĢÐ¸
ĠÑĩÐ° ÐºÐ°
Ðĺ Ð·
Ĥ ÑĢÐ¾Ð²
ĠÐļÐ¸ ÑĤÐ°Ð¹
ĠÐ¿ÑĢÐµ Ð²Ð¾
ĠÐ½ÐµÐ³Ð¾ Ð²Ð¸ÑĤÐµ
ĠÑĤÑĬÑĢ ÑģÐ¸
Ġ8 0
Ð»Ð¸ ÑģÑĤ
ĠÑĥ ÑģÐ¸
ĠÐ¿Ð¾Ð±Ðµ Ð´Ð¸
ĠÐĶ Ð¶Ðµ
Ñ ĤÑĢÐ¾Ð²
ĠÐ´ÐµÐ¼Ð¾ ÐºÑĢÐ°
ĠÑģ ÑĢÐ¾Ðº
ĠÐ½Ð° ÑĢÐ°
ĠÐ¿Ð¾Ð´ÐºÑĢÐµ Ð¿Ð°
ÑĢ ÑģÐºÐ¾
ĠÐ±Ð¸Ð ¾
ĠÐ¢ ÑĢÑıÐ±Ð²Ð°
ĠÐĳÐ¾ Ð³
Ð´Ðµ ÐºÐ°
° Ð»ÐµÐ½
ĠÐĪÐ °
ew s
ĠÐĺ Ð»Ð¸
Ð½Ð ºÐ¸ÑĤÐµ
ĠÐ¾Ñģ Ð²Ð¾Ð±Ð¾
ĠÐ¼Ð° ÐºÐ°ÑĢ
ŀÐ ¡Ð
er s
ĠÐ¾Ð±Ðµ ÐºÑĤÐ¸
ĠÐ½Ð° ÐºÐ°Ð·Ð°
ĠÐ¿Ð¾ Ð´Ð¾
ÐºÑĤ ÑĬÑĤ
ĠÑģÐ¸ Ð»Ð½Ð¾
ĠÐ·Ð° ÑģÐ»Ñĥ
ĠÐĲ Ð½
ĠÐ½Ð¾Ð²Ð¸ Ñı
ĠÐ¸Ð³ÑĢÐ° Ð
ĠÑĦÐ¾ ÑĢÑĥ
Ð² Ð½Ð¸ÑıÑĤ
Ð½Ð¸ ÑĨÐ¸Ð°
ĠÐ½Ðµ Ð¿ÑĢÐµ
ĠÑĤÐµÐ»Ðµ ÑĦÐ¾Ð½
ĠÐ¸ÑģÐºÐ° Ð¼
Ġ3 5
Ñĩ ÑĥÐ²Ð°
ĠÐºÐ¾Ð½ ÑģÑĥÐ»
ĠÐ±Ð° Ð·Ð°
ÑģÑĤÐ¾ Ñĺ
Ð²Ð³ ÑĢÐ°Ð´
ĠÐ¾ ÑĩÐ¸ÑĤÐµ
ÐŁ ÑĢÐ¾
ĠÐ¿Ð¾Ð´Ð¾Ð± Ð½Ð¸
ĠÐºÐ¾Ð¼Ñĥ Ð½Ð¸
ĠÑĢÐµÐ³Ð¸ Ð¾Ð½Ð°
ĠÑĦÐ¸ ÑĢÐ¼Ð°
a z
ĠÑĥ Ð´Ð¾Ð±
µ ÑĢÐ°
ĠÐµ Ð¶Ðµ
ĠÐ³Ð¾ ÑĢÐ¸
ĠÐ¿ÑĢÐ¸ Ð´Ð¾Ð±Ð¸
ĠÑģÐµ ÐºÑģ
ĠÐ·Ðµ Ð¼Ðµ
ÑĢÑģÐºÐ¸ Ñı
ÑĢÐ¸ Ð¹
Ð½ ÑģÑĤÐ²Ð¾
ĠÑĤÑĥ ÑĢÐ¸ÑģÑĤÐ¸
Ð½Ð ¶Ðµ
ĠÐ¼Ðµ Ñĩ
Ðº ÑĢÑĬ
ĠÐ³Ð»Ð° Ð²Ð°
ĠÐ·Ð°Ð´ÑĬÐ»Ð ¶Ð¸ÑĤÐµ
Ð» Ð²
ĠÐ·Ð° Ð²ÐµÐ´Ðµ
ĠÐ¿ÑĢÐ¾Ð³ÑĢÐ° Ð¼Ð¸
Ð½Ðµ ÑĤÐ¸
ĠÐ¸ Ð´ÐµÐ
ÑĪ Ð½Ð¾ÑĤÐ¾
Ð½ Ð½Ð¸
ĠÐ¡Ðµ Ð²Ðµ
Ð½ÑĦÐµ ÑĢÐµÐ½
Ñģ Ð¿Ð¸
ÑħÐ° Ð½Ð¸
ĠÐ¾ÑĤÐ±Ð¾ ÑĢ
ķÐ ļÐ
ÐºÐ¾ Ð»Ð°
ĠÑĤÐ°Ð °
ĠÐ¿Ð°Ð·Ð° ÑĢÐ°
ĠÐ¡ ÑĤÑĢÐ°
Ġ Ð½
ĠÐ¼Ð°Ð¹ ÐºÐ°
ĠÐ¶Ð¸ Ð»Ð¸
ĠÐº Ð¼ÐµÑĤ
Ð· Ð´ÑĢÐ°
ÑĢÐ¸ Ð¼
ĠÐºÑĥ Ñħ
ĠÐ´Ðµ ÑĤÐ¾
Ð» ÐºÐ°ÑĤÐ°
ĶÐ ¡
ĠÐ²ÑĬÐ¿ÑĢÐ¾ ÑģÐ°
ĠÐľÐ °Ð»
ĠÐ´Ð²Ð° Ð¼Ð°ÑĤÐ°
ĿÐ ŀ
ĠÐ¿Ð¾ ÑĤÐµÐ½
ĠÐ¡ Ð²Ðµ
ĠÐ± ÑĢÐ°ÑĤ
ĠÐ¸Ð· Ñı
ĠÐ±ÑĬÐ»Ð³Ð°ÑĢÑģÐºÐ¸ ÑĤÐµ
ÐºÐ¾ Ð²Ðµ
Ġ Ð¶Ð¸ÑĤÐµ
ĠÐ¿ÑĢÐ°ÐºÑĤÐ¸ ÐºÐ°
ĠÐ´Ñĥ ÑħÐ¾
ĠÐ¢ ÑĢÐµ
Ġ9 0
ĠÐ¼ÑĢÐµ Ð¶Ð°
ĠÑĤÐ° ÐºÐ¾Ð²Ð°
ĠÐĵ Ð»Ð°
ÑĤÐµÐ» Ð½Ð°ÑĤÐ°
ĠÐ·Ð´ÑĢÐ° Ð²
ĠÐ¸Ð³ÑĢÐ°Ð µ
ĠÐ¼Ð°ÑĤÐµÑĢÐ¸Ð °Ð»
ĠÐ¸Ð· ÑĤÐ¾Ñĩ
ĠÐºÐ°Ð½Ð´Ð¸ Ð´Ð°ÑĤ
ĠÐ²Ð¼Ðµ ÑģÑĤÐ¾
Ð¿Ð° Ñ
ĠÐ² Ð´Ð¸
ÑģÑĤ Ñĥ
ĠÐ¿ÑĢÐµÐ´ Ð²Ð°ÑĢÐ¸
ĠÐ¿Ð¾ ÐºÐ¾
ĠÑĢÐ°Ð· Ð¿ÑĢÐ¾ÑģÑĤÑĢÐ°
oo k
ĠÐµ Ð¼Ð¾ÑĨÐ
ÑĢ ÑĨÐ¸
ĠÑħÐ° ÑĢÐµÑģ
it e
ĠÐ¼Ð¸Ð½Ð° Ð»Ð°ÑĤÐ°
Ð²Ð¸ ÑĨÐ°
ÑĨ ÑıÐ»Ð¾
ĠÑģ Ð»Ð¸
ÑĢÐ ·Ð
o b
ĠÐ² ÑĢÐµ
ÑĩÐµ ÑģÑĤÐ²Ð¾ÑĤÐ¾
ĠÑĢÐ°Ð· Ð½Ð¾
ĠÐ¿ÑĥÐ±Ð»Ð¸ ÐºÐ°
ĠÑĢÐµ ÑĪÐµÐ½Ð¸Ñı
ÑĨÐ¸Ð¾ Ð½ÐµÐ½
Ð³Ð¾ Ð´Ð¸
ÐºÐµ Ñ
ÑģÑĤÐ²Ðµ Ð½Ð¸ÑĤÐµ
ĠÐ½ÑıÐ¼Ð° Ñ
ĠÐ½ÑıÐ¼Ð°Ñ Ĥ
ĠÑĢÐ°Ð±Ð¾ ÑĤÐµ
ĠÐ¼Ð¸Ð»Ð¸Ð ¾Ð½Ð¸
ĺÐ ļ
ĠÐ¿ÑĢÐµÐ´ÑģÑĤÐ° Ð²Ð»ÑıÐ²Ð°
ÐºÐµÑ Ĥ
ÐĶÐ °
¸Ðµ Ð²
ĠÐ¡ Ð¿Ðµ
ÑĩÐµ ÑĢÑĤÐ°
Ð´ ÐºÐ¾
ĠÐ³ÑĢÐ° Ð´Ð¸
ĠÐ±Ðµ Ð±Ðµ
Ġ201 1
ĠÐºÐ¾ Ð»Ð¾
ĠÑĥ Ð½Ð¸ÐºÐ°
ÑĨÐ¸Ð¾Ð½ Ð½Ð°
ĠÐ½Ð¸ Ð²
ÑĩÐµ ÑĤÐ°ÑĤÐ°
ĠÐ¿ÑĢÐµ Ð
ĠÑģÑĤÐ° Ð±Ð¸
ĠÐ²Ð¾ Ð´Ð¾
ÑģÑĤÐ¾Ð¹ ÑĩÐ¸
ĠÐ¼Ð°ÑĤÐµÑĢÐ¸Ð °Ð»Ð¸
ĠÐ¢Ð¾ Ð³Ð°Ð²Ð°
201 6
ĠÐ¿Ð¾ Ð²Ð¾Ð´
ĠÐ¼Ð° Ñĩ
Ð ł
ĠÐ¢ ÑĬÑĢ
ĠÐ· Ð»Ð°
Ð¿Ð° Ð´
ĠÑĢÐ°Ð· Ð±ÑĢÐ°
ĠÑģÑĤÑĢÐ° ÑĤÐµÐ³Ð¸
ĠÑģÐ¸ÑģÑĤÐµ Ð¼Ð¸
ĺÐ ķ
ĠÐ½Ðµ Ð³Ð°
ĠÐºÐ¾ ÑĢÐ°
ĠÑĩÐ¸ ÑĤÐ°
ĠÐ¼Ð¸Ñģ Ð»Ñı
ĠÑĢÐµ ÑĩÐµ
ĠÐºÐ»Ñĥ Ð±
ĠÐĴÑģÐµ ÐºÐ¸
ĠÐ·Ð°Ð´ÑĬÐ»Ð ¶Ðµ
ĠÑĤÑĢÐ°Ð½ÑģÐ¿Ð¾ ÑĢÑĤ
ĠÐ²Ð¾ Ð
ĠÑĩÑĥ Ð¶
ĠÑĨ ÑĬÑĢÐº
Ð»Ð¾ Ð½
ĠÐĲ Ð²
I I
ÑħÐ ¾ÑĤ
ĠÐ±ÐµÐ· Ð¿Ð»Ð°
ĠÐ¾ÑģÑĤÐ° Ð²Ð¸
ĠÑĢÐ¾ Ð´Ð¸
ÑĢÐ ³Ð¾
ĠÐ³ ÑĬ
ÑĢÐ²Ð °ÑĤ
ĠÐĵÐ¾ ÑģÐ¿Ð¾
ĠÐĲ Ð½Ð´
ĠÑĤÑĥ ÑĢÐ¸
ĠÑĪÐ¸ ÑĢÐ¾
ÑĤÐµÐ» Ð½Ð¸ÑĤÐµ
ÑĢÐ¾Ñ ĦÐ
ĠÑģÐ²Ðµ Ñ
ĠÑģÐ²ÐµÑ Ĥ
ĠÐ¼ Ð½ÐµÐ½Ð¸Ðµ
ÑĤÐµ Ð½Ð°
Ð¾Ð± ÑĢÐ°Ð·
Ġ ÑĢÑı
ÑģÐ»Ñĥ Ð¶
ÑīÐµ Ð½Ð¸Ñı
ĠÐ¸Ð· ÑĢÐ°Ð·
Ð»Ð¾ Ð¶
ĠÐ²Ðµ ÑĢ
ĠÐ¢ ÑĢÐ¸
Ðº ÑģÐ¾
ĠÐ¾Ð±Ð»Ð° ÑģÑĤÑĤÐ°
ĠÐ¾Ð¿ÑĢÐµÐ´Ðµ Ð»Ñı
ĠÐ° Ð½Ð³Ð»Ð¸
ĠÐ¿ÑĢÐ¾ Ð´Ð°Ð²Ð°
ĠÐ²Ð° ÐºÑģÐ¸
ĠÐ¢ ÑĢÐ°
ĠÐ¶Ðµ Ð½Ð¸ÑĤÐµ
ĠÐ¾Ð± ÑĢÐ°Ð·
ÑģÐ¾ Ð»Ñİ
ĠÐ²Ð¸ Ð´Ð¸ÑĤÐµ
Ð» Ð½Ð¸ÑıÑĤ
4 4
Ġ7 0
Ð¼Ð¸ ÑģÐ»Ðµ
ÑĢÐµ ÑĨ
ĠÐ¿ÑĢÐ¸ ÑģÑĤÐ¸
ÑĤÐ¸ ÑĩÐ½Ð¸
ĠÑģÑĨÐµ Ð½Ð°
ÐºÑĢÐ° Ñı
........ ........
¾Ñ Ĩ
Ġ Ð¼Ð¾Ñī
ĠÑģ ÐºÑĬ
ĠÑģÐ¿ÑĢÑı Ð¼Ð¾
Ġ Ð¼Ð¾Ñ
ĠÐ´Ð¾ Ð¼
ĠÐºÐ¾Ð¼Ð¸ ÑģÐ¸Ñı
ĠÐŁ ÑĢÐ¾Ñ
ĠÐ¿ÑĢÐ¾Ð´Ñĥ ÐºÑĤ
ĠÑĨ Ð²ÑıÑĤ
ÐĴÐ ¸
ĠS p
ÑĤÑĥ ÑĢÐ°
ĠÐ¾Ð± ÑģÑĬ
ĠÑģÑĬ Ð¶Ð°
ĠÐ·Ð° ÑģÑĤÑĢÐ°
ĠÑģÑĬ Ð²ÑĢÐµÐ¼ÐµÐ½
ĠÐ³Ð»Ð° Ð²Ð°ÑĤÐ°
ĠÐ¾ ÐºÐ°
Ġ 01
Ð¿Ð¾ Ð²Ðµ
ĠÐ¼Ð¾Ð¶Ðµ ÑĪ
ĠÐ¸Ð¼Ð° Ð»Ð¾
ÑĤÐµ Ð²
ĠÐµÑĦÐµ ÐºÑĤ
ĠÐ¸Ð½Ð´Ð¸ Ð²Ð¸
¾ Ð±Ð¸
ĠÐ¢Ñĥ Ðº
ÑĢÐ¼ Ñĥ
Ñ Į
Ġ and
ĠÐ»Ð¾ ÐºÐ°
Ð´Ð¾Ð± ÑĢÐ¸
ĠÐ¾Ð±Ð¾ ÑĢÑĥ
ĠÐ³Ð¾ ÑģÑĤÐ¸
Ð¼Ðµ ÑĤÐ°
ĠÐ´ Ð»ÑĬ
ĠÑģÐ¾ Ð
ĠÐĽÐ µÐ²ÑģÐºÐ¸
ĠÑĥÑģÐ¿Ðµ Ñħ
ÑĪÐ° Ð²Ð°Ð½Ðµ
ĿÐ Ĳ
Ð Ľ
ĠÐ²Ð¸ ÑĢÑĥ
ĠÐ±Ð¸ Ð´Ð°ÑĤ
ĠÐ´Ð¾Ð± ÑĬÑĢ
ÑĬÑĢ ÑĨÐ¸Ñı
ÑľÐ °
ĠÑĨÐ µÐ½
ĠÐ¿Ð¾ ÑĤÐ²ÑĬÑĢÐ
ĠÐ¸Ð¼Ð° Ð°ÑĤ
ĠÐ° ÑĤÐ°
ĠÐµÐ´Ð¸Ð½ ÑģÑĤÐ²ÐµÐ½Ð¾
ĠÑĤÑĢÐµ ÑĤÐ¸
ĠÐ»Ðµ ÐºÐ¾
ĠÐ¢ ÑĢÑĬ
ĠÑĤÐµ Ð°ÑĤ
ĠÐ¿Ð¾ Ð»Ð¾Ð¶ÐµÐ½Ð¸Ðµ
Ġ0 7
ĠÐ²ÐµÑĩÐµ ÑĢ
in e
¾ Ð¿Ð°
Ð² ÑĢÐµÐ¼Ðµ
Ð²ÑĢÐµ Ð¼ÐµÐ½Ð½Ð¾
am p
ĠÐ¸Ð· ÑĨÑıÐ»Ð¾
ĠÐµÐ»ÐµÐºÑĤ ÑĢÐ¸
ĺÐ °ÑĤÐ°
ĠÐ¾ÐºÐ¾ Ð»Ñĥ
ĠÐ¿Ð¾Ð¿Ñĥ Ð»Ñı
ĠÐ½Ð° Ð¿ÑĢÐµ
ÑĢÑĤÐ¸ ÑĢÐ°
ÑģÑĤÐ²Ðµ Ð½Ð¾ÑĤÐ¾
ĠÐ³ÑĢÐ°Ñ ĵÐ°
ĠÐ¸ Ð½ÑĦ
Ð²Ð¾ Ð
Ð´Ð ±Ð°ÑĤÐ°
ĺÐ ĶÐ
Ð»Ðµ Ð¹
ĠÐ¿Ð°ÑĢÑĤÐ¸ Ñı
ĠÑģ Ð¼Ð¸ÑģÑĬÐ»
ĠÐ±ÑĬÐ»Ð³Ð° ÑĢÑģÐºÐ°ÑĤÐ°
ĠÐ½ÑıÐ¼Ð° ÑĪÐµ
ĠÐ»Ðµ ÑĩÐµÐ½Ð¸Ðµ
ĠÐ¾ Ð´Ð
ĠÐļÐ¾ Ð¹
ĠÑģ Ð²ÑĬÑĢ
ĠÐ¾Ð¿ ÑĤÐ¸
ĠÐºÐ° ÑĢÐ¸Ðµ
ĠÐºÐ¾ÑĢÐ¾Ð½Ð° Ð²Ð¸ÑĢÑĥ
ĠÐĿÐµ Ð³Ð¾
ÐºÐ¾ Ð½Ð°
ĠÑģÑĤÐ¾ Ð¿Ð°
ĠÑģÐ°Ð¹ ÑĤÐ°
ÑģÑ ĮÐ¾
ĠÐ½ÐµÐºÐ¾ Ð»ÐºÑĥ
ĠÐ·Ð° ÑĢÐ°
ĠÑģÑĥ ÑĤÑĢÐ¸
ĠÐ¿Ð¾Ð»Ð¸ÑĤÐ¸ ÑĩÐµÑģÐºÐ¸
ĠÐ¿ÐµÑĢ ÑģÐ¾
Ð¿Ð¸ÑģÐ° Ð½Ð¸Ðµ
ĠÐ´Ð¾ ÐºÐ»Ð°
ÑĢ ÑģÐ°
ÑĢÐ¾Ð µ
o st
ĠÑģÐ²Ð¾ Ð¹
ĠÑĤÑĬÑĢÐ³Ð¾ Ð²
Ð½ÐºÐ¾ Ð²
ĺÐ §Ð
Ð²Ð»Ðµ Ð½Ð¸ÐµÑĤÐ¾
ĠÑģÑĤÑĢÑĥ Ð²Ð°
ĠÐ¿Ð¾Ð·Ð¸ ÑĨÐ¸Ñı
Ð»Ðµ Ð·
ĠÐ¾Ð¿Ð¸ ÑģÐ°
ĠÐ±ÐµÐ·Ð¾ Ð¿Ð°
ĠÐ¿ÑĢÐ¸ÑĩÐ¸ Ð½Ð¸
ĠÐĺ Ð½
µÑ Ħ
Ġ201 0
ĠÐ¿ÑĢÐ¸Ñı ÑĤÐµÐ»Ð¸
ĠÐ¿ÑĢÐ°Ð²Ð¸ ÑĤÐµÐ»ÑģÑĤÐ²Ð¾ÑĤÐ¾
Ð²Ñı Ð²Ð°ÑĤ
ĠÑģÑĬ Ð¿ÑĢÑĥ
Ð²Ð°Ñ ļÐ°
ĠÐ¼Ðµ ÑĤÑĢÐ°
ÐºÐ° ÑĪ
ÐºÐ¾ ÑĤÐ¾
Ñĥ Ð¼Ð°
ĠÐºÐ°Ð½Ð´Ð¸ Ð´Ð°
Ð Ŀ
Ð³Ð¸ Ð
ĠÑĢÑĬÐºÐ¾ Ð²Ð¾Ð´
ĠÐ¡Ð ¢Ð
Ð¹ Ð¾Ð½
Ð µÐ¼Ð¸
ĠÐ´Ð²Ð° Ð¼Ð°
Ð»Ð¸Ð °
ĠÐ¿ÑĢÐ¸ Ð³Ð¾
ĲÐ¢Ð ŀ
Ð½Ð° Ð»Ð°
ĠÐ¼Ð¾ Ð´ÐµÐ»Ð¸
ÑĢÐ¸ ÐºÐ°
ÑĢÐ ºÐ¸ÑĤÐµ
ĠÐ·Ð° ÑģÐµ
ĠÐ²ÑĬÐ·ÑģÑĤÐ° Ð½Ð¾
Ġ: )
ÑĪ ÐºÐ°ÑĤÐ°
ĠÐ²Ð·Ð µ
ĠÐĶÐ¸Ð¼Ð¸ ÑĤÑĢÐ¾Ð²
Ġ3 00
ĠÐ¸Ð· Ð²Ð¸
Ĥ ÑĬÐº
Ñ ĤÑĬÐº
ÑĢ ÑĤÐµ
Ð½Ð³Ð° Ð¶Ð¸
ĠÐ¤ÑĢÐ°Ð½ ÑĨÐ¸Ñı
Ð±Ð¸ Ð
ķÐ ľÐ
Ð¶ Ð½Ð¾ÑĤÐ¾
Ð·Ð¸ ÑĢÐ°ÑĤ
3 6
e x
Ð½Ð²Ð °
ĠÐ²Ðµ ÑľÐµ
ÑħÐ¾ Ð´Ð¸ÑĤÐµ
ĠÑģÑĬ ÑīÐ¸Ñı
ĠÐ¾ Ð¿ÑĢÐ°
____ ____
Ð²Ð¾ ÑĢÐ°
ĠÐ¢Ð¾ Ð´Ð¾
ĠÐ¸Ð½ ÑģÑĤÐ°
ĠÐ´ÐµÐ¹ÑģÑĤÐ²Ð ¸Ñı
ĠÑĢÐµ ÐºÐ¾
ĠÐ¼Ð»Ð° Ð´Ð¸
ĠÐ¿ÑĢÐµÐ´ Ñĥ
ĠÐºÑĥ Ð¿Ð¸
" :
ĠÐ° ÐºÑĤÑĥ
ĠÐ¼Ðµ ÑģÑĤ
ĠÐŀ ÑģÑĤÐ°
Ð»Ðµ ÑĤÐ°
ĠT he
Ð¹ÑģÐºÐ¸ Ñı
ĠÑħ ÑĢÐ°Ð½Ð¸
ĠÑģ Ð²
ĠÐ¿ÑĢÐµÐ´ÑģÑĤÐ°Ð²Ð¸ÑĤÐµ Ð»Ð¸
ĠÑģÑĤÐ¾ Ð
ÑģÐ¾ Ð²Ð¾
ÑĢÐµ ÑĤÐµ
Ð»Ðµ Ð²Ð°
ĠÐ¿ÑĢÐ¾Ñ ĨÐ
Ñı Ð½Ð°
ĠÐ¾ÑĤÐ³Ð¾ Ð²Ð°ÑĢÑı
ĠÐ½Ð° ÑģÐ»ÐµÐ´
Ġ20 21
ÑĩÐ° Ð»Ð¾
ÐľÐ ¾
ĠÐ½ÐµÐ·Ð° Ð²Ð¸ÑģÐ¸Ð¼Ð¾
ĲÐ ĹÐ
ÑĤÐ¸Ð ¸
ĠÐ¸Ð·Ð¾ Ð±ÑīÐ¾
ĠÐĺ ÑģÑĤÐ¾
ĠÑĤÐ¸ Ñı
ĠÐ° Ð»Ð
ÑĪÐµ Ð½Ð°
ÑģÐ¸ ÑĺÐ°
ĠÐ¼ÐµÐ¶Ð´Ñĥ Ð½Ð°ÑĢÐ¾
ĠÐ° Ñĥ
Ð¼Ð ±Ð¾
ĠÐºÑĥÐ»ÑĤÑĥ ÑĢÐ°
Ð·Ð¸ ÑĢÐ°Ð½Ðµ
Ð´ ÑĬÑĤ
ÑĢÐ° Ð½Ð¸ÑĤÐµ
Ð¿ ÑıÑĤ
ÑģÑĤÑĬ Ð¿Ð»Ðµ
ĠÐ¾ÑģÑĤÐ° Ð½Ðµ
ĠÐ¶Ðµ ÑĢ
ÑĢÐ° Ð°ÑĤ
ĠÐ½Ð°ÑĢÐ¸ ÑĩÐ°
ĠÐ³Ð¾ Ð»
ĠÐ¼Ð° ÑĩÐ°
o f
ĠÑģÐ¸ÑģÑĤÐµ Ð¼Ð°ÑĤÐ°
ÑĢÐ° Ð½ÑĤ
ÑĤÐ¸ Ð²Ð½Ð°
ÑĩÑĥ Ð²
ĠÐĺ ÑģÐºÐ°
ĠÐ² Ð»ÐµÐ·Ðµ
ĠÐľÐ° Ð¹
Ð²Ð ¼Ð
ĠÐĵ ÑĬÑĢÑĨÐ¸Ñı
Ð´ÐµÐ½ ÑĤÐ°
ĠÐ¾ Ð½Ð°
Ð²Ð° Ð½Ð¸
Ġs e
ĠÐ²Ð¾ Ð´Ð°ÑĤÐ°
ĠÐ¸ Ð½Ð¸ÑĨÐ¸Ð°
ÑĢÐ° ÑĨÐ¸Ñı
Ð·Ð¸ÑĢÐ° Ð½Ð¸
ĠÐ¿Ð¾ Ð¼Ð°
ĠÐ³ÑĢÑĥ Ð¿Ð°ÑĤÐ°
ĠÐ·Ð´ÑĢÐ° Ð²Ð¾
ĠÐ½ÐµÐ³Ð¾ Ð²Ð¾ÑĤÐ¾
ÑģÑ ĦÐµ
ĠÐ´Ð¾Ð¼Ð° ÐºÐ¸
ĠÐºÐ»Ð¸Ð µÐ½ÑĤÐ¸
ĠÐ¼Ðµ ÑħÐ°Ð½Ð¸
ĠÐ¼ÐµÑģÐµ ÑĨÐ¸
ĠÐ´Ð¾ Ð´ÐµÐºÐ°
ĠÐĳÐ¾ Ð¹ÐºÐ¾
ÑĬÑĢÐ ¶Ð°ÑĤ
Ñģ ÑĤÐ»Ð¸
ĠÐ¿Ð¾Ð¸ ÑģÐºÐ°
ŁÐ ¡
ĠÐºÑĢÐ¸ ÑĤÐ¸
ĠÐºÐ¾ Ð¼Ð°
Ð´ ÑĥÐ²Ð°
Ð´Ð ¾ÑħÐ°
ĠÐºÐ¾ Ð¶Ð°
ĠÐ¿Ð¾ÑģÐ¾ ÑĩÐ¸
ÑĪÐ °Ñ
ĠÐ¼Ð° ÑģÐ»Ð¾
ĠÐ¾Ð± ÑĢÐ°Ð±Ð¾
ĠÑĤÑĢÐµ Ð½Ð¸
ĠÑĢÐ°Ð·Ð²Ð¸ ÑĤÐ¸ÐµÑĤÐ¾
ĠÑĢÐµ ÑģÑĤÐ¾
ĠÐļÐ° ÑĢÐ°
ĠÐ³ Ð»ÐµÐ´
ÐľÐ ¸
ĠÐ³Ðµ ÑĢÐ¼Ð°
ĠÑĤÑĥ ÑĢÐ½Ð¸
°Ð½ ÑĤÐ°
Ð¼Ð° Ñħ
Ð» ÑģÑĤÐ²Ð¾
ĠÑģÐ¸ Ð¼
·Ð° Ð
Ð¼Ð½Ð¾ Ð³Ð¾
ĠÑĩÐµ ÑĢÐ²Ðµ
ĠÐ¾Ð±Ð¸ÐºÐ½Ð¾Ð²Ðµ Ð½Ð¾
ĠÐ¿Ðµ ÑĩÐ°
Ð¿Ð° Ðº
ĠÐĲ Ð»
ĠÑĤÐµÐ»ÐµÐ²Ð¸ Ð·Ð¸
Ñģ Ð»Ð¸
.. ...
5 5
on e
ĠÐ¸Ð· Ð²Ð°
ĠÐ·Ð° Ð²Ð¸ÑģÐ¸
ĠÐ´Ð¾ Ð²Ð¾
ÐºÐ¾Ð³Ð° ÑĪ
3 3
Ġd a
ĠÑģÐ¿Ð¾ ÐºÐ¾Ð¹
ÑĩÐµ Ð½Ð¸ÑĤÐµ
ĠÐ± ÑĢ
ĠÐºÐ° Ð±Ð¸
ĠÐ´Ðµ Ð¿Ñĥ
ÑģÑĤÑĬ Ð¿Ð¸
ĠÐĴÑģÐ¸ ÑĩÐºÐ¾
---- ----
ĠÐ¿ÑĢÐ°Ð²Ð¸ ÑĤÐµÐ»ÑģÑĤÐ²Ð¾
ĠÑģÐ¿Ð¸ ÑĢÐ°
ÑĢÐ¼Ð µ
20 21
¸ Ð½ÑĤÐµ
Ð»Ðµ Ð
ÐºÐ ³
7 8
ĠÐ½ÑıÐºÐ° ÐºÐ²Ð°
ĠÐĹÐ° Ð¿Ð¾
ĠÐ¿Ð¾ Ð³Ð¾
ĠÐ¿ÑĢÐµ Ð³Ð¾
ĠÐ½Ð° ÑĤÐ¸
ĠÑģÐµ ÐºÐ¾Ñĺ
i st
el l
ŀÐ Ķ
Ġ st
Ð¼Ð¾ Ð²
ĠÐ´Ð²Ð¸ Ð³Ð°
ĠÐ´Ð° Ð²Ð°ÑĤ
k a
ÑĪÐµ Ð²
ĠÐĿÐ¾ Ð²Ð°
ÑĢÐµ Ð½Ð¸Ñı
Ð»Ð ³Ð
ĠÐ¾ ÑĢÑĬ
ª ÐłÐ
ĠÐºÑĥÐ¿ ÑĥÐ²Ð°
ĠÐ½Ð°ÑĩÐ¸ Ð½Ð°
Ð ľÐµ
ĠÐ´ÐµÐ¹ Ð½Ð¾ÑģÑĤÐ¸
i f
ĠÐ¸Ð½ÑĤÐµ ÑĢÐ²
ĠÐ´Ð²Ð¸ Ð¶ÐµÐ½Ð¸Ðµ
¾ Ð´Ð¾
Ð´ ÐºÐ¸
ÑĢÐ¸Ð° Ð½ÑĤ
·Ð°Ð ¸
Ð²Ðµ Ð½ÑĤ
ĠÑģÐ¸Ð³Ñĥ ÑĢÐ½Ð¾
ĠÐĺÑĤÐ° Ð»Ð¸Ñı
ĠÐĳÐ °Ð»ÐºÐ°
Ð²Ð° Ð½Ð°
ĠÑĩ ÑĥÐ²Ð°
ĠÐºÐ° ÑĦÐµ
4 8
ÑĤÐ¸ ÑıÑĤÐ°
ĠÐ¿Ð¾ ÑıÐ²Ð¸
ĠÐ¿ÑĢÐ¾Ð¸Ð· Ð²Ð¾Ð´Ð¸ÑĤÐµ
ĠÑģ Ð¼Ð°
¾ Ð¿
ĠA p
ĠÐ¾Ð¿Ð¸ ÑĤÐ²Ð°
ÑģÑĤÐ¸ ÐµÑĤÐ¾
Ð¾Ð± ÑĢÐ°
ĠÑĨÐµÐ½ÑĤ ÑĬÑĢÐ°
Ð¼Ð¸ ÑĪ
ĺÐ ĽÐ
ĠÑĦÐ¸ ÑĢÐ¼Ð¸
ĠÐ·Ð°Ð¿Ð¾Ñĩ Ð½Ðµ
Ð²ÑĬ Ð·
ĠÐºÐ¾Ð¼Ñĥ Ð½Ð¸ÐºÐ°
ĠÐ° Ð½Ð³Ð°Ð¶Ð¸
Ð³ÑĢÐ° ÑĦÐ¸
ĠÐ¿ÑĢÐ¾Ð³ÑĢÐ° Ð¼Ð°ÑĤÐ°
ĠÑĢÑĥ ÑģÐºÐ¸
ĠÐ²ÑĬÐ·Ð¼Ð¾Ð¶Ð½Ð¾ ÑģÑĤÐ¸
ĠÐĵ ÑĢÐ°
ĠÐ¾ Ð´Ð³Ð¾
ĠÑĨÑı Ð»Ð¾ÑĤÐ¾
ĠÐĶÐ¸Ð¼Ð¸ ÑĤÑĬÑĢ
ĠÐ³Ð»Ð¾ Ð±Ð°
ĠÐ·ÐµÐ¼ ÑĺÐ
Ð´Ð¾ Ð²Ð¾
ĠÐ¿ÑģÐ¸ ÑħÐ¾
ĠÑģÐ¸ Ð½
ĠÐ²Ð ·Ð°Ð¸
ĠÐºÐ°ÑĤÐµÐ³Ð¾ ÑĢÐ¸
ĠÑĥÐ½Ð¸Ð²ÐµÑĢÑģÐ¸ÑĤÐµ Ñ
ĠÑĥÐ½Ð¸Ð²ÐµÑĢÑģÐ¸ÑĤÐµÑ Ĥ
ĠÐĿÐ ķ
ĠÐµ ÐºÐ¾
ĠÑģÑĬÐ·Ð´Ð° Ð²Ð°
Ð»Ð° Ð´Ð¸
ĠÐŀÐ±ÑīÐ¸ Ð½Ð°
ĠÐĶ Ð¶Ð¾
ĠR e
ĺÐ ľÐ
ĠÐ±Ð¸Ð´Ðµ ÑĺÑľÐ¸
ĠÐ±ÑĢÐ¾Ñ ĺ
ĠÐ½Ð¾ Ð¼ÐµÑĢ
ĠÐ¿ÑĬÑĢÐ²Ð ¾ÑĤÐ¾
ÑģÑĤÐ² Ñĥ
ŀÐ Ĵ
ĠÐ½Ð°Ñĥ ÑĩÐ¸
Ġ Y
ĠÐľÐ¸ ÑħÐ°
ĠÐŀ ÐŀÐ
ĠÐ¾ Ð²Ð¸Ðµ
ĠÐĺÐ²Ð° Ð½Ð¾Ð²
ĠÐ·Ð°Ð²ÑĬÑĢ ÑĪÐ¸
ĠÐ¸Ð½ÑĦÐ ¾ÑĢÐ¼Ð¸
ĠA n
Ð½ Ð½Ð°
ĠÐ¾Ð±Ñĥ ÑĩÐµÐ½Ð¸Ðµ
ĠÐ°Ð²ÑĤÐ¾ Ð¼Ð°ÑĤÐ¸
ĠÐ¿Ð¾Ð´ Ð¿Ð¾
Ð·Ð¸ ÑĢÐ°Ð½
ĠÐ³Ð¾Ð»Ñı Ð¼Ð¾
Ð¡Ð µ
ĠÐ§Ð ¾
ĠÐºÐ¸ ÑģÐµ
ĠÑģÑĤ ÑĢÐ°Ð½
Ð½Ð¾ Ð²ÐµÑĤÐµ
ĠÐ´Ð¸ Ð¿Ð»Ð¾
ĠÐ¸Ð· Ð±Ðµ
ÐłÐ µ
ĠÑģÐµÐ´Ð¼Ð¸ ÑĨÐ¸
ÑĢÑı Ð²Ð°ÑĤ
ĠÐĶÐ °Ð»Ð¸
¿Ð ¸
ĠÐ°Ð²ÑĤÐ¾Ð¼Ð¾Ð±Ð¸ Ð»Ð¸
al l
Ð±Ð¾ ÑĤÐ°
ĠÐĶÐ¾ ÑĢÐ¸
ÑĪÐµ Ð½Ð¾
ĠÐ¸Ð½Ð´ ÑĥÑģÑĤ
ĠÐĴÐ»Ð° Ð´Ð¸
ĠÐ§ Ñĥ
ĠÐ¸Ð¼Ð° ÑĪ
ÑĢÐµ ÑģÐ°
ĠÐ¢Ð¾ Ð
ĠÐ³ ÑĢÐ¾
ÐºÐ° Ð½
ĠÐ¼Ð¸Ð½Ð¸ ÑģÑĤÐµÑĢ
Ð´Ð¾ Ð²
¾Ð½Ð° ÑĩÐ°
ĠÐ³Ð»Ð° ÑģÑĥÐ²Ð°
Ġt o
ĠÐ½ÑıÐºÐ° ÐºÑĬÐ²
Ð´Ð ¶Ð¸
ĠÐºÑĢÑĬ Ð³
ĠC h
Ð¿ÑĢÐ¸ ÑıÑĤ
201 5
ĠÐ¼Ð¸Ð½Ñĥ ÑĤÐ°
Ð»ÐºÐ¾ ÑħÐ¾
ĠÐ¾ÑĢÐ³Ð°Ð½Ð¸Ð·Ð° ÑĨÐ¸Ð¸
ĠÐ´Ðµ Ð½Ñı
ĠÑģÑĤÐ¸ Ð»
ĠÑħ ÑĢÐ¸ÑģÑĤÐ¸
° Ð
ĠÐºÐ°ÐºÑĬ Ð²
ĠÑģÐ¿Ð¾ Ð´ÐµÐ»Ñı
ĠÐ¿ÑĢÐ¾Ñ Ħ
ĠÐµÐ²ÑĢÐ¾ Ð¿ÐµÐ¹
ĠÑĩÑĥ Ð´Ðµ
3 8
ĠÐ¾ÑĤÐ¿ Ñĥ
ĠÐ¸Ð¼Ð¾ ÑĤÐ¸
ĠÐ¾ÑģÐ½Ð¾ Ð²Ð½Ð¸ÑĤÐµ
ÑĢÐ ¶Ð¸
Ð ķÐ
Ġ4 5
ÑĨÐµ Ð½ÑĤ
ĠÑĨ Ð²ÐµÑĤ
ĠÐµÐ¶Ðµ Ð´Ð½Ðµ
ĠÐĳ ÑĢÐ°
Ñĺ Ð·Ð¸
ĠÐľÐ¸Ð½Ð¸ÑģÑĤÐµÑĢ ÑģÑĤÐ²Ð¾ÑĤÐ¾
ĠÑģÑĤÑĢÐ° Ñħ
% .
ĠÐ´Ð¸Ð·Ð° Ð¹Ð½
3 7
Ð»Ðµ Ð¶Ð¸
ĠÐ±ÑĬÐ»Ð³Ð° ÑĢÐ¸
ĠÑĦÐ µÑģÑĤÐ¸
ĠÐ·ÐµÐ¼ ÑıÑĤÐ°
Ð· ÑĬ
Ð ¸Ð»Ð¸
ĠÐ¶ÐµÐ»Ð° Ð½Ð¸Ðµ
ĠÑĢÐµ ÑģÑĥ
ĠÐºÐ½Ð¸ Ð³Ð¸
Ð´Ð¶Ð µÑĤ
Ð µÐ´Ð¸
ĠÐ²Ð¸ Ð½Ð¾
ĠÐ°Ð²ÑĤÐ¾Ð¼Ð¾Ð±Ð¸ Ð»
ĠÐ² ÑĢÐ°ÑĤÐ¸
Ð½Ð ·Ð
ĠÑĪÐµ ÑģÑĤ
ĠÐ¼Ð¸Ð»Ð¸Ð °
łÐ ŀ
ĠÑģÐµÐ¼ÐµÐ¹ ÑģÑĤÐ²Ð¾
ĠÐ±ÑĬÐ»Ð³Ð°ÑĢÑģÐºÐ¸ Ñı
ĠÐ² ÑĢÐµÐ´
Ð½Ð¾ ÑģÐ½Ð¾
u d
ĠÑģÑĤÐ¸ Ð³Ð½Ð°
ĠÐ³ÑĢÐ° Ð½Ð¸
Ñĥ Ð¼Ð¸
ÑĤÐ²Ð °ÑĤ
I D
ĠÐ¸ÑģÐºÐ° ÑĤÐµ
ĠÐ°ÐºÑĤÐ¸ Ð²Ð½Ð¾
ÑģÐ ¾ÑĨÐ¸Ð
µ ÑĪ
ÐĳÐ ¾
ĲÐ ¢
Ð¿Ð¸ Ñı
ÐºÑĤÐ¾ ÑĢÐ°
ĿÐ ĺ
ÑĢÐ¸Ð °Ð»
ĠÑĢÐµÐ¶Ð¸ Ð¼
ĠÐ³Ð°ÑĢÐ°Ð½ ÑĤÐ¸ÑĢÐ°
ĠÐ¾ÑĤÐ ±
ĠÐ½Ð° ÑĪÐ¸Ñı
Ð½Ð° ÑĢ
ĠÐ¿ÑĢÐµÐ´ Ð¿Ð°
9 0
ĠÐļ Ð»Ð¸
ĠÐ¿Ð¾Ð±Ðµ Ð´Ð°
ĺÐ ĴÐ
!! !!
ÑĢ ÑģÐµ
ĠÐ¸Ð·Ð¿ÑĬÐ» Ð½ÐµÐ½Ð¸Ðµ
ĠÐ¿ ÑĢÑı
ÑĢ ÑĤÑĥ
ĠÐ²Ð° ÑĪÐ¸ÑĤÐµ
ĠÐ±Ð° Ð½ÐºÐ°
Ġ Z
Ð¢Ð °
Ð»Ðµ Ð½Ð¸Ñı
ĠÐ¸Ð· Ð´
Ð½Ð° Ð·Ð½Ð°
ĠÑĤÐµÑħÐ½Ð¾Ð»Ð¾Ð³Ð¸ Ð
ÑĢÐ°Ð·Ñĥ Ð¼Ðµ
E R
ĠÐ° ÑĢÐ¾
ĠÐ¾ÑĨÐµ Ð½ÐºÐ°
Ð² Ð´Ð°
ĠÐ¸Ð½Ð´Ð¸Ð²Ð¸ Ð´Ñĥ
ÑĢÐ¸ Ð´
ĠÑģÐµÐ·Ð¾ Ð½Ð°
ĠÐĴÐ ľÐ
ĠÑĤÐµÑħÐ½Ð¾Ð»Ð¾Ð³Ð¸Ð ¸
ĠÐ¿Ð¾Ð´ ÑĩÐµÑĢÑĤÐ°
ĠÐ´ÐµÐ¹ ÑģÑĤÐ²Ð°
Ð¼Ð¸ ÑıÑĤÐ°
ĠÑģÐ¿ÐµÑĨÐ¸Ð°Ð» Ð½Ð¾
Ð¼ÐµÐ½ ÑĤÐ¸ÑĤÐµ
ĠÐ²ÑĬÑĤ ÑĢÐµ
Ġ200 9
ĠÐ¾ÑĢÐ³Ð°Ð½Ð¸Ð·Ð° ÑĨÐ¸Ñı
ĠÐ¿ÐµÑĢÐ¸Ð¾ Ð´Ð°
ĠÑģÑĤÐ¸ Ð³Ð°
ĠÐ¿ÑĢÐµ Ð¶Ð¸
ĠÑģÑĤÐ¾ Ð¼Ð°
Ð²Ð¾ Ð»Ñİ
ĠÑħÑĥ Ð´Ð¾
ĠÑĢÐ°Ð· ÑĪÐ¸
ÑĢÐ¸ ÑĨÐ°
Ð³ÑĢÐ° Ð´
ĠB l
ĠÐ²ÑģÐ¸ÑĩÐºÐ¸ ÑĤÐµ
ĠÐ²Ð ·Ð¸
Ð¼Ð¸ ÑĢÐ°ÑĤ
ĠÐŀ Ð²Ð°
Ñģ ÑĢÐ¾
Ð ¾Ð¿Ð°
c t
iv e
ĠÑĢÐµ ÑĨÐµÐ¿
ĠÐ¿ÑĢÐµÐ¼Ð¸Ð µÑĢ
ĠÑĤÑĢÑıÐ±Ð²Ð° Ð»Ð¾
ÑģÑĤÐ¸ ÑĢÐ°
ĠÐ¾Ñ ĦÐ
ÑģÐ¾ Ð²Ð¸
Ð´ Ð²Ð°ÑĤ
ª ÐĽÐ
ĠÐ²Ð° ÑĪÐ°ÑĤÐ°
ÑĩÐµ ÑģÐºÐ¾ÑĤÐ¾
ĠÐķ Ð´Ð½Ð°
ÑĬÑ Ĩ
Ð²Ð° ÑĪ
ĠÑĤÑĢÑıÐ±Ð²Ð° ÑĪÐµ
ĠÐ³ ÑĢÐµ
ÑĨÐ¸Ð¾Ð½ Ð½Ð¾
° ÐºÐ¾
ĠÐĵÐµÐ¾ ÑĢÐ³Ð
ĠÐļ ÑĢÐ¸
Ġ Ð»Ð¾Ð³Ð¸
Ð²Ð°Ñĺ ÑľÐ¸
ĠÐ¦Ð ¡ÐļÐĲ
ÑĢÐµ Ð²Ð°
ĠÐ¾Ð±Ðµ Ð´Ð¸
ĠÐ±ÑĢÐ¾ Ñı
ĠÑĢÐµ Ð»Ð¸
ÑĪÐµ Ð½Ð¸ÑıÑĤÐ°
ĠÐĵ ÑĢÐ¸
m a
Ð· Ñĥ
at a
ĠÑĤÐµ Ð
Ð¼ ÑĬÐº
ĠÐºÐ°ÐºÐ²Ð¾ ÑĤÐ¾
ĠÐ·Ð° Ð»Ð°
Ġn a
ĠÐ»Ð¸ Ð³Ð°
ÑĤÐ²Ð µ
Ð´Ð¾ ÑģÑĤ
ĠÐºÑĬ ÑīÐ°
ÑĤÐ° ÑĨÐ¸Ñı
Ð½Ðµ Ð·Ð¸
Ð´Ð¾Ð± ÑĢÐ¸ÑĤÐµ
ĠÑĨÑı Ð»
Ĥ Ð½Ð¸ÑĤÐµ
Ð»Ðµ ÐºÑĤ
ĠÐľÐ ĴÐł
ÑĤÐ° ÑĢ
Ñ ĤÐ½Ð¸ÑĤÐµ
ĠÐ¾Ð± ÑģÐ»ÑĥÐ¶
ĠÐ¾ ÐºÐ°Ð·Ð°
ĠÑģ ÐºÑĢÐ¸
ĠÐ±Ð° ÑīÐ°
ĠÑĨÐ¸ Ð³Ð°
ÑĢ Ð½Ðµ
8 0
ĠÐĿÐ° Ð´
Ð¹ Ñ
Ð¹Ñ Ĥ
Ð½Ð ³Ð¾
ĠÐºÐ¾Ð¼Ð±Ð¸ Ð½Ð°
4 6
ĠÐŁÐ¾ Ð»Ð¸
ĠÐ¾ÑģÐ¸Ð³Ñĥ ÑĢÑıÐ²Ð°
ĠÐ·Ðµ Ð»ÐµÐ½
ĠÑĤÐ²ÑĬÑĢÐ ´Ð¸
ĠÐĴÑĬ Ð²
ĠÑģÐ»ÑĥÐ¶Ð¸ÑĤÐµ Ð»Ð¸
ĠÐ¾Ð´ Ð»Ñĥ
i p
ĠÐĿÐ¸ÐºÐ¾Ð»Ð° Ð¹
Ð½Ð´Ð ¾Ð½
Ð´Ð ¶Ð°
ÑħÐ µ
ar d
ĠÐ§Ð ¸
ĠÐ½Ð° Ð·Ð½Ð°
Ð³Ð¸ ÑģÑĤÑĢÐ¸
ĠÐ±Ð¸ Ð»Ðµ
ĠÐ´Ð¾ Ð²ÐµÐ´Ðµ
Ð³Ðµ Ð½ÑĤ
ĠÑĢÐ°Ð· ÑģÐ»ÐµÐ´
ļÐ °ÑĤÐ°
ĠÐ°Ð± ÑģÐ¾Ð»Ñİ
ĠÐ´ÐµÐ¹ ÑģÑĤÐ²Ð¸Ðµ
ĠÑģÐµÐ¼ÐµÐ¹ ÑģÑĤÐ²Ð¾ÑĤÐ¾
ĠÐºÐ¾Ð½ ÑģÑĥ
ĠÐ¼ÑĬ Ð¶Ðµ
ĠÐ¿Ð¾ÑģÑĤÐ° Ð²Ñı
t h
ĠÐłÑĥ ÑģÐµ
ĠÐ¼Ñĥ Ð·Ðµ
ĠÐ¸ ÑĤÐ°
ĠÐ³Ð¾Ð»ÐµÐ¼Ð¸ ÑĤÐµ
Ð¹ Ð¼
ĠÐ¼Ð» ÑĢÐ´
ĠÑĤÐµÐ ¾
Ð²Ðµ ÑĨ
ĠÐĳÐ¾ Ð¶Ð¸
Ð½Ð ·Ð¾
ÑĢÐ ¶
ĠÐ¿ÑĢÐ¾Ð¸Ð· Ð²ÐµÐ´Ðµ
ĠÐ¸Ð´Ðµ Ñı
ÑģÐ¿Ðµ ÐºÑĤÐ¸
ĠÐ¸Ð· Ð´Ð¸
Ð °ÐºÐ¾
i e
ĠÐ»Ð¸ Ð½Ð¸Ñı
ĠÐ¸Ð· Ð»ÑĬ
µ Ð±
ĠÐŀ Ð¢
Ð· Ð²Ð°Ð½ÐµÑĤÐ¾
ĠÐ¸ Ð´ÐµÐ½ÑĤÐ¸
ĠÐºÐ°ÑĩÐµ ÑģÑĤÐ²Ð¾
ĠÑģÐ ¾ÑĦ
ĠÐ± ÑĢÐ¸ÑĤÐ°
¸ ÑıÑĤÐ°
Ð°Ð» Ð½Ð¾
ÑĢÐ° Ð½Ð°ÑĤÐ°
ĠÐ¼Ñĥ ÑģÐºÑĥ
Ð´ÑĬ Ñħ
Ð¶ Ð½Ð°ÑĤÐ°
ĠÑģÑĬ ÑĤÑĢÑĥ
ĠÐ·Ð°Ð±Ð¾ Ð»ÑıÐ²Ð°
ĠÐłÐ°Ð· Ð±Ð¸ÑĢÐ°
ĠÐ·Ð½Ð° ÑıÑĤ
ĠÐ ı
ĽÐ ĲÐ
ĠÑĨÐµ Ð½Ð¸ÑĤÐµ
ĠÐ²ÑĬ Ð»
ĠÐ²Ð° ÑĢÐ¸Ð°Ð½ÑĤ
ĠÑģ Ð´ÐµÐ»
Ðĳ ÑĬÐ»Ð³Ð°
ĠÐ»ÑĥÑĵÐ µ
Ð½Ð° ÑĤÐ¸
ĠÐ¿ÑĢÐµ Ñģ
ĠÐ¾ÑĤ ÑģÑĤÑĢÐ°
ĠÐ±Ð»Ð°Ð³Ð¾Ð´Ð° ÑĢÐµÐ½Ð¸Ðµ
ĠÐ¿Ð ¸Ðµ
Ð´Ð¾ Ð»Ñĥ
ĠÐ²Ð¸ÑģÐ¾ ÐºÐ°
ÑĤÐ¾ ÑĨÐ¸
ÑĢÐ²Ð µÐ½
ĠÐ·Ð° Ð´ÑĬÑĢÐ¶Ð°
ĠÐ³Ð¾ Ð²Ð¾
il l
Ð·Ðµ Ð½Ð¸
ĠÐļÐ¾ Ð¼ÐµÐ½ÑĤÐ°
ĠÐĵ ÑĢÑĥ
ĠÑĤÐ¾ Ñı
ĠÑģÐ¿Ð¾ Ð´ÐµÐ»Ð¸
ĠÐ¿Ð¾Ð»Ð¾Ð²Ð¸ Ð½Ð°
Ð»Ñı Ð¼
ĠÑħ ÑĢÐ°Ð½Ðµ
ĠÑģ ÑĦÐµ
ĠÐ¦ Ð²ÐµÑĤÐ°
ĠÑĤÐµÐº ÑģÑĤ
ĠÐ½Ð° Ð»Ð¾Ð¶Ð¸
ĠÐ° ÑĢÐµ
ÑĤÐµ Ð»Ð°
ĠÑĨ Ð²ÐµÑĤÐ¾
Ð²Ð»Ðµ Ð½Ð¸Ñı
ÑĢÐ¾ Ð½Ð¸
ĠÑĨÐµÐ» ÑĤÐ°
ĠÐ·Ð° Ð²ÑĢ
3 9
ĠÐ¿ÑĢÐµÐ´ Ð»Ð¾Ð¶Ð¸
! "
¶Ðµ Ð½Ð¸Ðµ
ÑĬÑĢÐ²Ð ¸
ÑĬÑĢÐ²Ð °
ĠÐĴ ÑĤÐ¾
ĠÐ¸ Ð½Ð°ÑĩÐµ
ĠÐºÐ¾ Ñģ
ĠÑĥ Ð²Ð°
ĠÐ´Ð¸ÑĢÐµ ÐºÑĤÐ½Ð¾
3 4
ĠÐļ ÑĬÐ¼
ÐĳÐ µ
ĠÑ ĺ
ĠÐºÑĢÐ¸ Ð·Ð°
ĠÑģÐ¿Ð¾ Ð¼ÐµÐ½Ð°
ĠÐļÐ µ
ĠÑĦÐ° ÐºÑĤÐ¸
ĠÐ²Ð¸ Ð´Ð¾Ð²Ðµ
201 3
ĠÑĢÐµ Ð´Ð¸ÑĨÐ°
ĠÐ²ÑĤÐ¾ ÑĢÐ°ÑĤÐ°
Ð²Ð° ÑĪÐµ
Ð±Ðµ Ð»Ð¸
Ð» Ð´
ĠÑĤÑĢÑĥ Ð´
Ð±Ðµ Ð´Ð¸
ĠÐ¿ÑĢÐ¾ Ð´Ð¾Ð»Ð
ĠÐ²Ð¸ ÑĤÐ°
ŀÐ ĵÐ
Ð´Ðµ Ð²
ĠÑģÑĢÐµ Ð´Ð°ÑĤÐ°
ĠÐľÐ° ÑĢÐ¸Ñı
Ð²ÑĬÑĢ Ñħ
g le
ĠÑģÑĢÐ°Ð² Ð½ÐµÐ½Ð¸Ðµ
ĠÐ´Ðµ Ð½Ðµ
Ð³Ð¾ ÑĢÐ°
ĠÐ³Ð¾Ð²Ð¾ÑĢÐ¸ Ð¼
ĠÐ²Ðµ ÑīÐµ
ĠÑĨÐµ Ð»Ð¾
ĠÐ´Ð ¾ÑħÐ¾
Ġ200 8
ĠÐµ Ð¼Ð¸
¾Ñ ĪÐ
Ð¼Ð¿ ÑĤÐ¾
ĠÐ¾Ð± ÑĺÐ°
ĠÐ¸Ð·Ð²ÑĬÑĢ ÑĪÐ²Ð°
ÑĢ Ð½Ð¾ÑĤÐ¾
Ð¼ÐµÑĤ ÑĢÐ¸
Ð´Ðµ Ð½Ð¸Ñı
ĠÑĤÑĢÐµ Ð½ÑĮÐ¾
ĠÐºÐ»Ð° ÑģÐ°
ĠÐ¸Ð½ÑģÑĤÐ¸ÑĤÑĥ ÑĨÐ¸Ð¸
ĠÐ·Ð°ÐºÐ¾ Ð½Ð°
Ð¢Ð µ
ĠÐ·Ð° ÑģÐµÐ´Ð°
Ð²Ðµ Ð¹
ÑĢÐ¾ Ð½
ÑĢÐ´ Ð¶Ð¸
Ð± Ð»Ð¸Ð¾
ĠÐ½Ðµ ÑĺÐ·Ð¸
Ð± Ð½Ð°ÑĤÐ°
Ġ Â
ĠÑģÐµ ÐºÑĤÐ¾ÑĢ
ĠÑģÑĬ ÑīÐ°ÑĤÐ°
Ð¼Ð° Ð½Ð¸
ĠÐ¾ÑĤÐ±Ð¾ ÑĢÐ°
Ð³Ð¾Ð»Ñı Ð¼Ð°
ĠÐ¿Ð»Ð¾Ñ ī
ĠÑģÐ»Ñĥ ÑĪÐ°
ÑĦÐ¾ ÑĢÐ¼Ð¸
ĠÐ ĸ
ĠÐ°Ð´ ÑĢÐµÑģ
ĠÐ¿Ð¾ÑģÑĤÐ¸ Ð³Ð½Ð°
ĠÑģÐµ ÐºÑĢÐµ
ĠÐ½ÐµÐºÐ¾ Ð
ĠÐ¿Ð¾ Ð»Ð¾Ð¶Ð¸ÑĤÐµ
ĠÐ¸Ð· ÑĩÐ¸
ĠÑĤÐµÑĢÐ¸ÑĤÐ¾ ÑĢÐ¸ÑıÑĤÐ°
201 4
ĠÐ±ÑĬÐ»Ð³Ð° ÑĢÐ¸ÑĤÐµ
ĠÐ±Ðµ Ð
ĠÐºÐ½Ð¸ Ð³Ð°ÑĤÐ°
Ð ĸÐ
ÑħÐ²ÑĬÑĢÐ »Ñı
ÑĢÐ³Ð° Ð½Ð¸
ĠÐŁÐ¾ Ð»
ĠÐ¿Ñĥ ÑģÐ½Ð°
ĠÐ¿Ð¾ÑģÑĤÐ¾Ñı Ð½Ð½Ð¾
ĠÐºÐ° ÑĢÑĤÐ°
an t
Ð»Ð¾ Ð½Ð°
ĠÐ¼Ð°Ð» ÐºÐ°
ÐŁÐ °
ĠÐĺÐ ĹÐ
ĠÐ¾ÑĤÐ´Ð µÐ»
ĠÐ°ÑĢ ÑħÐ¸ÑĤÐµ
Ġn e
ĠÐĳÐ ĿÐ
ÑħÐ¾ Ð´Ð°
ĠÐ²Ð¸Ð´Ð¸ Ð¼
ÑĢÐ ±Ð
Ð¼Ðµ ÑĤÐ¸
Ð¿ Ð»Ð°ÑĤÐ°
ĠÐ¼ÑĢÐµ Ð¶Ð¸
ĠÐ£ ÐºÑĢÐ°
ĠÐ´Ð° Ð¶Ðµ
Ð¿Ð¾ Ð»
n a
ĠÑģÑĤÐ¾Ð ¸
ĠÑĺ Ñĥ
ĠÐ½Ð° ÑĪÐµÑĤÐ¾
ĠÐ½Ð°Ð¿ÑĢÐ° Ð²ÑıÑĤ
ÐºÐµ ÑĤÐ¸
ĠÐ· ÑĬ
Ð µÐ¼Ð¾
4 7
ÑĩÐ¸ Ð½Ð°ÑĤÐ°
ĠÐ¢Ð° Ð¼
ĠÐ´ÑĢÑĥ Ð¶Ðµ
ĠÐ¿ÑĢÐ°Ð²Ð¸ Ð»Ð°
A N
ĠÐ¸ Ð½Ð¾Ð²Ð°
ĠÐ¸Ð·Ð±Ð¾ ÑĢÐ¸ÑĤÐµ
ĠÐ³ ÑĢÑĬ
ĠÑĢÐ°Ð·Ð²Ð¸ Ð²Ð°
ĠÐ¿ÑĢÐ¾ÐºÑĥ ÑĢÐ¾
ÑĢÐ ±Ð°ÑĤÐ°
ĠÐ·Ð° ÑĤÐ¾Ð°
ĠÐ¨Ð ¸
ĠÐ½Ð¾Ð²Ð¸ Ð½Ð¸
ÑĥÐ ¸
Ð´Ð¸ ÑĨÐ¸
ĠÐ¸Ð´ÐµÐ ¸
ĠÐ°ÐºÑĤÐ¸ Ð²Ð¸
ĠÐ¸ Ð¼Ð¾ÑĤ
Ð¼ Ð½Ð¸ÑĤÐµ
ĠÐ´Ð¾ ÐºÐ°
ĠÑĤÑı Ð»Ð¾
ĠÑģÐ¿Ðµ ÑĨÐ¸
Ð³Ð¾ Ð²Ðµ
in d
ĠÑĥ ÐºÑĢÐ°
Ð¶Ðµ Ð½Ð¸
ĠÐ¿Ð¾ Ð¶Ð°
ĠÑĩÐ¸ ÑģÑĤÐ¾
Ļ Ñĥ
ÑĢÐ°Ñ ľÐ
ĠÐ¡ÑĤÐ° ÑĢÐ°
ĠÐ²ÑĬ Ð²Ðµ
Ð³Ð° ÑĪ
Ð³Ð¾Ð»ÐµÐ¼Ð¸ ÑĤÐµ
Ñı Ñħ
ĠÐµ Ð»Ð¸
Ñı Ð²Ð°Ð½ÐµÑĤÐ¾
ĠÑģÑĬ ÑģÐµ
ĠÐļÐ¾ Ð¼Ð¸
ĠÐ¾ Ð¿Ð¾
ĠÐ´Ð¾Ð±Ð° Ð²Ð¸
ĠÐµÐºÐ¸ Ð¿Ð°
ĠÑģÐ»ÐµÐ´ Ð½Ð¸ÑĤÐµ
ĠÐķÐ²ÑĢÐ¾ Ð¿ÐµÐ¹
Ġ0 2
Ð¿ÑĢÐµ Ð´Ð¸
ĠÑģÑĤÑĢÑĥ ÐºÑĤÑĥ
ĠÐ·Ð° ÑħÐ°
Ġ0 6
ĠÐĶ ÑĬÑĢÐ¶Ð°
ÑģÑĤÐ° Ð²Ð¸
ĠÐ¾ ÑĩÐ°
ĠÐ±ÐµÐ °
ĠÑģÐ°Ð¹ Ñ
ĠÑģÐ°Ð¹Ñ Ĥ
ĠÐ¸Ð·Ð²ÑĬÑĢ ÑĪ
a st
ĠÐ° ÑĢÐ¼Ð
ĠÐ¿Ð¾ Ð¿Ð¸ÑĤÐ°
ĠÐ¾Ð¿ÑĢÐµÐ´Ðµ Ð»ÐµÐ½Ð¸
ĠÐ·Ð° Ð²Ð¸ÑģÐ¸Ð¼Ð¾
ĠÑĢÐµ ÑĪÐµÐ½Ð¸ÐµÑĤÐ¾
ĠÐ¾ Ð»Ð¸
ĠÐ¿Ð¸ ÑĤÐ°
µ ÑģÑĤ
Ñģ Ð½ÐµÑĤÐµ
ĠÑģÑĬ Ð´Ð¸
ĠÐĲÐ»ÐµÐºÑģÐ°Ð½Ð´ ÑĬÑĢ
ĠÐ¼Ðµ Ð½Ðµ
Ð´Ðµ Ð½Ð¸ÑĤÐµ
ĠÑħÐ µ
ĠÐºÐ°ÑĩÐµ ÑģÑĤÐ²Ð¾ÑĤÐ¾
ĠÐ½Ð¾ ÑĢÐ¼Ð°
ĠÑĢÐ¾Ð´Ð¸ÑĤÐµ Ð»Ð¸ÑĤÐµ
Ð·Ð° Ð´
ĠÐ´ÑĬ ÑīÐµ
Ð¹ ÑģÐºÐ°
Ð·Ð¼Ð¾ Ð¶Ð½Ð¾
ĠÑĥ ÑĤÑĢÐµ
ĠÑģÑĬÐ±Ð¸ ÑĤÐ¸Ñı
Ð ¤
Ð³Ð° Ð½ÑĤ
Ñģ Ð±Ñĥ
ĠÐ¸Ð·Ð´Ð° Ð½Ð¸Ðµ
4 9
ÑĤÐ¼Ð ¾
ĠÑģ Ð±
Ð¶Ð±Ð¸ Ð½Ð°
ĠÐ¸Ð· ÑĤÐµ
ĠÐĴÐµ ÑĩÐµ
ĠÐ¿Ð¾ Ð²ÑĬÑĢÑħ
ÑĤÐ »
ĠÐ¿Ð° Ð´Ð½Ð°
ĠÐ±Ð° ÑĢÐ°
ĠÐ¼Ð¸ Ð½Ð¸Ð¼Ð°
ħ Ð
ĠÐ·Ð°Ð±Ð¾Ð»ÑıÐ²Ð° Ð½Ð¸Ñı
ĠÑĥÑģ Ð¼Ð¸
ÑĢ ÑĪÐ¸
ĠÐ½Ðµ Ð¹
% ,
Ð»Ñı Ð·Ð²Ð°
ĠÐ¾ÑģÑĬÑīÐµ ÑģÑĤÐ²
ĠÐ´ÐµÐ¼Ð¾ Ð½
Ġ19 7
ĠÐ¿Ð¾ÑģÐ¾ ÐºÐ°
ĠÐ¡Ð ķ
ĠÑģÐµ ÐºÑĥ
ĠÐ¿ÑĬÑĢÐ²Ð µÐ½
ĠÐ½Ð° ÑģÐ¸
Ð¿Ðµ Ð½Ð¸
ĠÐ½Ð¾Ð²Ð¸ Ð½Ð°
Ñĥ Ð¼ÐµÐ½
ĠÐº Ð²Ð°Ð»Ð¸
Ð²Ð¸ Ð½
Ð´Ð° Ð¼
Ð½Ñĥ Ð²Ð°ÑļÐµ
ĠÐ¿ÑĢÐ¾ Ð³Ð½Ð¾
ĠÐ¸Ð½ÑĤÐµÑĢÐ² Ñİ
ÐºÐ¾ Ð»Ð¾
ĠÑĤÐ¾ Ðº
ĠÐ³Ð¾ ÑĤÐ¾Ð²
ĠÐ¸Ð´Ðµ ÑıÑĤÐ°
ĠÑĦ ÑĢÐµ
ĠÐ¿Ð¾ ÑģÐ»Ð°
Ġ3 6
ÑĢ ÑĪ
ĠÐ½Ðµ ÑĪÑĤÐ¾
ĠÐ³Ð»Ð° ÑģÑĥ
ĠÐŁÐµÑĤ ÑĬÑĢ
ĠÐ¢ÑĢÑĬ Ð¼Ð¿
ĠÐ¿ÑĢÐ¸ ÐµÐ¼
ĠÐ° Ð»ÐºÐ¾ÑħÐ¾
ĠÐ±Ð¸ ÑħÐ°
Ð¹ÑģÐºÐ¸ ÑĤÐµ
ĠÐ¼Ð¾ Ð»Ð¸
ĠÑģÑĬÐ¶Ð° Ð»ÐµÐ½Ð¸Ðµ
ÐºÑĬ ÑģÐ½Ð°
ĺÐ łÐ
ĠÐ¿Ð»Ð° Ð½Ð¸ÑĢÐ°
ÑĢÐ ·Ð°
ĠÐ³ÑĢÐ° Ð´Ð¸Ð½Ð°
O V
ĠÐµÐºÐ¸ Ð¿
ĠÐ¿ÑĢÐ¸ Ð²Ð»Ðµ
ĠÑı Ð²Ð½Ð¾
Ð·Ð¾ Ð²
201 2
ĠÐ·Ð½Ð°ÑĩÐ¸ ÑĤÐµÐ»Ð½Ð¾
ĠÑĩÑĥ Ð¶Ð±Ð¸Ð½Ð°
ÑıÐ²Ð° Ð¼
ĠÐ±Ð¾Ð»Ð½Ð¸ ÑĨÐ°
ĠÑĦ ÑĢÐ°
Ð» Ð½Ð¸Ðº
ĠÐ¿Ð¾Ð¼Ð¾Ñī ÑĤÐ°
ĠÐ¾ÑĢÑĬ Ð¶Ð¸
ĠÐŀ Ñħ
ĠÐ¿ÑĢÐ¾Ð¸Ð·Ð²Ð¾Ð´ ÑģÑĤÐ²Ð¾ÑĤÐ¾
ĠÐ¸Ð·Ð¾ Ð±ÑĢÐ°
3 1
ĠÐĲ Ð¼Ð°
ĠÐ¼Ð»Ð° Ð´Ð¸ÑĤÐµ
ÐºÑĢÐ° Ð¹
ĠÑĢÐ°Ð¹Ð ¾Ð½Ð°
ĠÐ½Ð° ÑĤÐ¿
ĠÐ¡ Ð¿Ð°
ĠÐ· Ð±Ð¾
Ñ ļÐµÑĤÐ¾
ĠÐŀ Ð±Ð¸
ĠÐºÑĢÑĬ Ð²
ĠÐ¿Ð¾ Ð¼Ð¾Ñ
ĠÐ¿ÑĢÐµÐ´Ð²Ð°ÑĢÐ¸ ÑĤÐµÐ»Ð½Ð¾
ÑĤÐµ ÑĢÐ½Ð°
ĠÐ¿Ð¾Ð½Ñı ÐºÐ¾Ð³Ð°
ŀÐ¢Ð ŀ
ÑģÐºÐ¸ ÑıÑĤ
ĠÑĦÐ¾ ÑĢÐ¼Ð°ÑĤÐ°
ĠÐºÐ¾Ð¼Ð¿Ð»Ðµ ÐºÑģ
ĠÑģÐ¿Ð¾ ÑģÐ¾Ð±
Ð³ Ð²Ð°
ĠÐľ Ð»Ð°
ĠÐ²Ðµ Ð´Ð½ÑĬÐ¶
Ð¹ ÑģÐºÐ°ÑĤÐ°
ĠÐ¡ÐµÐ²Ðµ ÑĢÐ½Ð°
ĠÐ° Ð¿Ð°
ĠÐĲ Ð¼Ð¸
ÑģÑĤÐ¸ ÐºÐ°
ĠÑĤÐ° Ð±
ĠÐ½Ð° ÑĢÐµÐ´
ĠÐ¿ÑĢÐ° ÑĪÐ°Ñ
ĠÐ½Ð° Ð´Ðµ
ĠÐ¿ÑĢÐ¾ Ð·Ð¾
ĠÑģÐ»ÐµÐ´Ð²Ð° ÑīÐ¸ÑĤÐµ
ĠÐ¿ÑĢÐ¸Ð½ÑĨÐ¸ Ð¿
ĠÐ¾ÑĤ Ð½Ð°ÑģÑı
ĠÐ¾Ñģ Ð²Ðµ
ĠÐ±Ð¸ Ñħ
Ð½Ð° Ð´
ĠÐ¾Ð±ÑīÐµ ÑģÑĤÐ²Ð¾ÑĤÐ¾
ĠÑģÑĬ Ð±Ð¸ÑĢÐ°
ĠÐ½ÐµÐ³Ð¾ Ð²Ð¸
ÑĨÐ µÐ½
ĠÐĶ Ð¶Ð
Ð´Ð° Ð»Ð¸
ÑĢÐµ Ð´ÐµÐ½
ĠÐ¾ÑĤÐ´Ð° Ð²Ð½Ð°
ĠÑģÑĤÐ° Ð²Ð°ÑĤ
3 2
ĠÐµÐ»Ðµ Ð¼ÐµÐ½ÑĤÐ¸
ĠÐºÐ¾Ð½ÐºÑĥ ÑĢÐµÐ½
ĠÑģÐ¾Ð±ÑģÑĤÐ²Ðµ Ð½Ð¾ÑģÑĤ
ĠÐ¿Ð¾ÐºÐ° Ð·Ð²Ð°ÑĤ
ĠÐ¿ÑĢÐµÐ´Ð¿ ÑĢÐ¸Ñı
ÑĤÐ²Ð° Ð½Ðµ
ĠÐĹÐ ĲÐ
ĠÐºÐ¾Ð»Ðµ Ð³Ð¸
ÑĢÐ¸ÑĤÐ° Ð½Ð¸Ñı
Ð²Ð° Ð»Ð°
ĠÐ´ ÑĢÑĬ
5 6
ĠÐ¿ÑĢÐ¸ Ð¿Ð¾
ĠÐ´ÑĬÐ»Ð ³Ð
ĠÐ·Ð½Ð°Ðµ ÑĤÐµ
¾ Ñģ
Ð¼Ðµ ÑģÐµ
Ð¾Ð± ÑīÐµ
ĠÑģÐ° Ð¼Ð°ÑĤÐ°
ĠÑģÑĥ Ð¼
ļÐ ĺ
ÑĪ ÑĥÐ²Ð°
¾ ÑĤÐ
ĠÐ¿ÑĢÐ¸ Ð½Ñĥ
ĠÐŁÐ° ÑĢÐ¸
ĠÐ¼Ðµ Ð´Ð¸Ð¸
ĠÑģ ÐºÐ¸
ĠÐ¼Ðµ ÑģÐ¾
ĠÑģÐ²ÑĬÑĢÐ ·
Ð¼Ðµ ÑĢÐ½Ð¾
ĠÐ¾ÑĤÐ³Ð¾Ð²Ð¾ÑĢ Ð½Ð¾ÑģÑĤ
ÑĨÐ¸Ð° Ð»ÐµÐ½
ĠÑĢÐ°Ð· Ð¿ÑĢÐµÐ´Ðµ
ĠÑĢÐµÐ°Ð»Ð¸ Ð·Ð¸ÑĢÐ°
ÑģÑĤ ÑĥÐ²Ð°
ĠÑĢÐµÐ·ÑĥÐ»ÑĤÐ° ÑĤÐ¸ÑĤÐµ
ĠÑģÐ²ÐµÑĤÐ»Ð¸ Ð½Ð°
ĠÐ¿Ð° ÑĢÐºÐ¸
ĠÑģÐ²Ð¸ Ð´Ðµ
ĠÐºÐ¾ Ð½ÑĦ
g e
ĠÐ±Ñİ Ð´Ð¶ÐµÑĤ
ĠÐ½Ð°Ð±Ð»Ñİ Ð´Ð°Ð²Ð°
ĠÐ¿Ð¾Ð»Ð ·Ð°
ĠÐķÐ²ÑĢÐ¾Ð¿ÐµÐ¹ÑģÐºÐ¸ Ñı
at e
ĠÐ¿Ð»Ð¾Ñ īÐ°
ĠÐŁÑĥ ÑĤÐ¸Ð½
Ð»Ðµ Ð¿
ĺÐ ¦Ð
ĠÐ¸ÑģÑĤÐ¸ Ð½ÑģÐºÐ¸
ĠÐĿÑı ÐºÐ¾Ð¸
Ð¢Ð¾ Ð²Ð°
ĠÐ¿ÑĢÐµÐ´ Ð½Ð°Ð·Ð½Ð°
ĠÐ¸Ð·Ð± Ñı
ĠÐ¿ÑĢÐµÐ´Ð»Ð°Ð³Ð° Ñ
ĠÐ¿ÑĢÐµÐ´Ð»Ð°Ð³Ð°Ñ Ĥ
Ð±Ð»Ð¸Ð¾ ÑĤÐµ
ÑģÐ¾ Ð²Ð°
ĠÐ½Ð°Ð¿ÑĢÐ° Ð²Ð¸ÑĤÐµ
Ġ200 0
Ð´ Ð½Ð¾ÑģÑĤ
ĠÑģÑĢÐµ Ñī
ĠÐ¿ÑĬÑĤ Ñĥ
ĠÐŁÐ¾ ÑģÐ»Ðµ
ac k
ĠÑģÐ²Ð¾Ð ¸
ĠÐ½ÐµÐºÐ¾ Ñĺ
ĠÐ·Ð° ÐºÐ°
ÑĢ Ñİ
Ī Ñĥ
oo gle
ĠÐĹÐ° Ð³Ð¾ÑĢÐ°
ĠÑģÐµÑĢÐ¸Ð¾ Ð·Ð½Ð¾
ĠÐ·Ð¾ Ð½Ð°
ÑģÐ¾ ÑĢ
ÑĮÐ¾ ÑĢ
ĠÑģÑĤÐ¸ Ð³Ð½Ðµ
Ð»Ñĥ Ð²Ð°
ĠÐĶÐ¾Ð± ÑĢÐµ
ĠÐ¿Ð¾ÑģÐ»ÐµÐ´ Ð½Ð°ÑĤÐ°
Ð¿Ð¸ Ð
Ð ¸Ð»
A R
ĠÐ¿ÐµÑĢ ÑĦÐµ
ĠÐ¼Ð¾ Ñı
ĠÐ½ÑıÐºÐ° ÐºÐ²Ð¸
m ent
ĠÐ¿Ð¾ÑģÑĤÐ° Ð²Ð¸
Ð´ Ð½Ð¸Ñı
ĠÐ¾ÑĤÐ²Ð¾ ÑĢÐ¸
ĠÐ¿ÑĢÐµ ÑģÑĤÑĬÐ¿Ð»Ðµ
ĠÑģÑĢÐµÐ´ Ð½Ð¾
ĠÐµÐºÑģÐ¿Ðµ ÑĢÑĤÐ¸
Ġ0 5
ĠÐ±Ð° Ð»Ð°Ð½
ĠÑģÐ¸ÑĤÑĥÐ° ÑĨÐ¸Ñı
ĠÐ¥ Ñĥ
ĠÐŁÑĥ Ð±Ð»Ð¸
Ð²Ð° ÑīÐ°
ĠÑģÑĬ Ð·Ð½Ð°
ĠÑģÐµ Ð»
Ð¼ÐµÐ½ ÑıÑĤ
Ð°Ð» Ð½Ð¸
ĠÐ³Ðµ Ð
ĠÐºÐ²Ð° ÑĢÑĤÐ°
ĠÐ¿ÑĢÐ° Ð²Ð¾ÑĤÐ¾
ÑĢÐ° ÑĤÐ¾
ĠÐºÐ¾ Ð»Ð°ÑĤÐ°
ĠÐ½Ð°Ð³ÑĢÐ° Ð´Ð°
ÑĪÐ ¸Ð¾ÑĤ
ĠÑģÑĤÐ° ÑĤÑĥ
¾Ñ ĨÐµ
ÑĤÐµÐ» Ð½Ð¸Ñı
ĠÑĢÑĬÑĨÐµ ÑĤÐµ
ĠÑħ Ð²ÑĬÑĢÐ
ĠÐ¾ÑĤ Ð½Ðµ
Ð½Ð¸ Ñģ
Ġ[ #
ĠÐ´Ð¾ Ð»Ð
ĠÐºÐ¾Ð½ ÑģÑĤÑĢÑĥ
ĺÐ ĹÐ
ĠÐ´Ð°Ð»Ðµ Ñĩ
ĠÐ¸Ð½ÑĦÐ µ
ĠÐļ ÑĬ
ĠÐ¥Ð µ
ĠÐ¿ÑĬÑĤ ÑĥÐ²Ð°
ĠÐ³Ð° Ð·
ĠÐ¿ÑĢÐ¾ÑģÑĤÑĢÐ°Ð½ ÑģÑĤÐ²Ð¾
ÑĦÐ °Ð½
ĠÐ©Ð ¾
ĠÑģ Ð½Ð¸Ð¼Ð°
Ñĩ Ð²Ð°Ð½ÐµÑĤÐ¾
ĠÐ¼ Ð»Ñı
ĠÑīÐµ ÑĪÐµ
ĠÐ±Ð¾ ÑĢÐ±Ð°
ĠÐ¸Ð½ÑĦ ÑĢÐ°
ĠÐĶ ÑĢÐ°
ĠÐ¸Ð·ÑģÐ»ÐµÐ´ Ð²Ð°Ð½Ð¸Ñı
Ñĩ Ð½Ð¾ÑģÑĤÑĤÐ°
ĠÐ¸Ð³ÑĢÐ° ÑĤÐ°
ĠÑĢÐ°Ð·Ð»Ð¸ ÑĩÐ½Ð¸ÑĤÐµ
ĠÐ½Ð° ÑģÑĤÑĢÐ¾Ð
ĠÑģÑĬÐ±ÑĢÐ° Ð½Ð¸Ðµ
ĠÐºÐ°Ð¿Ð° ÑĨÐ¸ÑĤÐµ
ĠÐ»Ð¾ÑĪÐ ¾
ĠÑĢÐ° Ð´Ð²Ð°
ĠÐ·Ð° ÑģÑĤÐ°
ĠÑĦÐ¾ ÐºÑĥ
ĠÐ·Ð²Ðµ Ð·
ĠÐ±Ð¾ Ð³Ð°ÑĤ
ĠÐ° ÑĢÑĤÐ¸
Ġ **
ĠÑĥÑĩÐµ Ð½Ð¸ÑĨÐ¸
Ð± ÑĢÐ¸ÑĤÐ°Ð½Ð¸Ñı
ÑģÑĤÐ²Ðµ Ð½Ð¸Ñı
ĠÐ·Ð°ÑģÑĤÑĢÐ° ÑħÐ¾
ĠÐ¿ÑĬ ÑĤÐµ
ĠÐĶÑĢÑĥ Ð³Ð¸
Ð½ÐµÑģ ÑĥÐ²Ð°
Ð´ ÑĬÑĢ
ĠÑģÐ¼ÑĬÑĢÑĤ ÑĤÐ°
ĠÐ¿ÑĢÐ¾ ÑĤÐ¾
Ñĩ Ð½Ð¸ÑıÑĤ
Ð³ ÑĢÐ¾
ĠÐ¾Ð±ÑīÐ¸ Ð½Ð°ÑĤÐ°
Ð´ÐµÐ¹ ÑģÑĤÐ²Ð¸Ðµ
i o
ĠÑĥÐ¿ÑĢÐ° Ð¶
Ð½ÑĦÐ ¾ÑĢÐ¼Ð°
ĠÑĤÐµ Ð½Ð´ÐµÐ½
ĠÑĢÐ°Ð· ÑħÐ¾Ð´Ð¸
ĠÐ¿ÑĢÐµ Ð´Ð¾
ĠÐ´Ð¸Ñģ ÐºÑĥ
ĠÐĶÐ¾ ÐºÐ°ÑĤÐ¾
ĠÐ¢ ÑĬ
ĠÐķ Ð´Ð½Ð¾
ĠÑģÑĬÑĢ ÑĨÐµÑĤÐ¾
ĠÐĴÐ° ÑģÐ¸
eb ook
Ð³Ð¾Ð´Ð¸ ÑĪÐµÐ½
ĠÐ¼Ð½Ð¾ Ð·Ð¸
ĠÐ½Ð° ÐµÐ¼
ĠÐ´Ð ¾ÑĪ
ĠÑĥ Ð¶Ð°
ĠÐ²ÑĤÐ¾ ÑĢÐ°
Ð³Ð¾Ð»Ñı Ð¼Ð°ÑĤÐ°
ÑģÑĤÐ²Ð ¸ÑĤÐµ
ĠÑĥÑģÐµ ÑīÐ°
ĠÐŁÑĢÐ° Ð²Ð¸
5 4
ÑĨÐ¸Ð¾Ð½ Ð½Ð¸ÑĤÐµ
ĠÑģÑĤÐ¸ Ð¼Ñĥ
Ð³ÑĢÐ°ÑĦÐ ¸Ñı
ÐºÐ¸ ÑĢÐ°
ĠÑĤÑĥ ÐºÑĥ
Ð¹Ð ¾
Ð·Ð¸ Ð
Ð³Ð¸ÑģÑĤÑĢÐ¸ ÑĢÐ°Ð½
ĠÑĤÐµÑħ Ð½Ð¸ÐºÐ°
Ñı ÑħÐ°
ĠÐ¶Ð¸Ð²Ðµ ÑıÑĤ
ĠÐĿÐ ĲÐ¢Ðŀ
ĠÑģÑĤÐ° ÑĤÐ¸Ñı
ĠP ro
ĠÐ°Ð´ Ð²Ð¾
i z
ĠÑģÐ²Ð¾Ñ ĺÐ°ÑĤÐ°
Ð±Ðµ ÑĢÐ°
ĠÐ° Ð¿Ð°ÑĢÑĤÐ°Ð¼ÐµÐ½ÑĤ
Ð½Ð¸ Ð´Ð¶
ĠÐ¿ÑĢÐ¸ ÐºÐ»Ñİ
ĠÐŀ ÐĳÐ
ĠÐ¦Ð °
ĠÐ´Ðµ Ð»Ð°
ÑģÑĤ ÑĬÑĤ
ĠÑĤÐµ ÑĢÐ¾
ĠÐ¾ Ð´Ð¸
ĠÐ²ÑĬÐ·Ð¼Ð¾ Ð¶Ð½Ð¾ÑģÑĤÑĤÐ°
ĠÐ¿Ð»Ð° ÑĤÐ¸
ĠÐ¸Ð· Ð»Ð¸
Ð±Ðµ Ð»
ÐºÑĤÐ¾ Ñ
ÐºÑĤÐ¾Ñ Ĥ
ÐĴÐ °
ĠÐºÐ¾Ð °Ð»Ð¸
ĠÑĢÐ°Ð±Ð¾ÑĤ Ð½Ð¸
ŀÐ ĳÐ
Ġ15 0
ĠÐĲ ÑĤÐ°Ð½Ð°
Ð ©Ð
Ð¶ ÐºÐ¸
ĠÐ½Ð°ÑģÐµ Ð»ÐµÐ½Ð¸ÐµÑĤÐ¾
ĠÐµÐ² ÑĢÐ°
Ð¿Ð°Ñ Ĥ
ĠÑīÐ° ÑģÑĤÐ»Ð¸
Ð½Ð¾ ÑģÐ¸
Ġ200 7
ĠÐ±Ð¸ Ð²Ð°
ĠÐĳ Ð»Ð¸
ĠÐ¸Ð·Ð²Ðµ ÑģÑĤÐ½Ð¾
ĠÐ¤ Ñĥ
ĠÑĢÐ° Ð´Ð¸Ð¾
ĠÑĤÐ²Ð¾ ÑĢ
ÑģÑı ÐºÑĬÐ´Ðµ
ĠÐ½Ð¸ÐºÐ° ÐºÐ²Ð¸
ĠÐ¸Ð· ÐºÐ°
ĠÐĳÐ»Ð°Ð³Ð¾Ð´Ð° ÑĢÑı
ĠÑģÑĤÐ° Ñı
ĠÑĥÐ±Ð¸ Ð¹
ĠÑģÐ° Ð¼Ð¸ÑĤÐµ
ĠÐ¿Ð¾ Ð»
I N
ÑĤÐ¼Ð °
ŀÐ ŀÐĶ
s e
ĠÐ¼Ð½Ð¾ Ð¶ÐµÑģÑĤÐ²Ð¾
ĠÐºÐ°ÑĤÐ° ÑģÑĤ
ÑģÑĤÐµ Ð¿ÐµÐ½
ĠÐĹÐ µÐ¼
ĠÐ°Ð²ÑĤÐ¾ Ð±Ñĥ
5 7
ĠÑģÐ¿Ð¾ ÑĢÐ°Ð·ÑĥÐ¼Ðµ
ĠÐ¾ÑĤÐºÐ° Ð·Ð°
ÑħÑĢÐ° Ð½Ð²Ð°
ĠÐ¾Ð±Ðµ ÑīÐ°
Ð²Ð¸ Ð´Ð½Ð¾
Ġ Ð»ÐµÐ½
ĠÑĦÐ¸ ÑĢÐ¼Ð°ÑĤÐ°
ĠÐ³ÐµÐ ¾
ĠÑģÑĬÐ´ÑĬÑĢÐ¶Ð° Ð½Ð¸Ðµ
ĠÐ´ÑĢÑĥ Ð³Ð°ÑĤÐ°
ĠÐ¿ÑĢÐ¸ÑĢÐ¾ Ð´Ð°ÑĤÐ°
ĠÐ³Ðµ Ð½ÐµÑĢÐ°
5 8
ĠÐ¿ÑĢÐµÐ´Ð¿Ð¾ ÑĩÐ¸ÑĤÐ°
ĠÐ¾ Ð½ÐµÐ·Ð¸
Ð½Ð´Ð °ÑĤÐ°
ÑīÐµ Ð½Ð¸ÐµÑĤÐ¾
ĠÐ¿ÑĬÑĢÐ²Ð °
Ġ ÐºÐ³
ĠÐ·Ð° Ð±
ĠÐ·Ð° ÑĢÐµ
ĠÐºÐ¾Ð»Ð¸ ÑĩÐµÑģÑĤÐ²Ð¾
ÑĢÐ¾ Ð¹
ĠÐ²ÑģÑıÐºÐ° ÐºÐ²Ð¸
ĠÐ¿ÑĢÐ¸ ÑıÑĤ
Ð»Ðµ Ð½Ð¸ÑĤÐµ
ĠÑĦÐ¸ Ð³Ñĥ
ĠÐ²ÑĢÑĬ ÑīÐ°
or e
ĠÑĤÑĢÐµÐ½Ð¸ ÑĢÐ¾Ð²
ĠÑģÑĤ ÑĬÐº
ĠÐ´Ðµ Ð»Ð¾ÑĤÐ¾
ĺÐ ¡Ð
ĠÐ°Ð³ÐµÐ½ ÑĨÐ¸Ñı
ĠÐ½Ðµ ÑģÑĬ
Ð³Ð¸ ÑĤÐ°
ĠÐ¿ÑĢÐµÐ² ÑĢÑĬÑīÐ°
ĠÐ·Ð°Ð´Ð° ÑĩÐ°
ĠÐĳÐ¾ Ð³Ð°
... ]
ĠÐĺ ÑģÐ¿Ð°
Ð²Ð° ÑīÐ¸
ÑĢÐ¾Ñ ĪÐ
ĠÐ¼Ñĥ Ð·Ð¸
ĠÐ±Ð¸Ð· Ð½ÐµÑģÐ°
ĠÐ´Ðµ ÑĤÐ°Ð¹
Ñĥ Ð½
ĠÐºÐ¾ ÑĢÑĥÐ¿
Ð½Ðµ Ð²Ð°
ac ebook
ÐĵÐ ¾
Ð²Ðµ Ð¹ÑĤÐµ
ĠÐ³Ð»Ð° ÑģÐ°
b er
Ð½Ð¸ Ð½
5 9
ĠÑĤÑĥ ÐºÐ°
ĠÐ¿ÑĢÐ¾Ð¼Ðµ Ð½Ñı
ĠÐ´Ðµ ÐºÐ¾
ĠÐ¿ Ð»Ñİ
Ð¿Ð ¾ÑĤ
ĠÐ¿ÑĢÐ¸ ÑĺÐ°
ĠÐĹÐ° ÐºÐ¾Ð½Ð°
ĠÐ¾ÑĤÐ½Ð¾ ÑĪÐµÐ½Ð¸Ñı
ĠÐ¿ÑĢÐµ ÑĨÐµ
ĠÐ¿Ñĥ ÑģÐºÐ°
ĠÐ´ÐµÐ¹ÑģÑĤÐ²Ð ¸ÑĤÐµ
ĠÐ±Ð¾ Ð»
ĠÑģÑı ÐºÐ°ÑĪ
ÑģÐ¸Ð µ
ĠÐ¡Ð ª
ĠÑĢÐ° Ð¹Ð¾Ð½
Ð µÑĪ
ĠÑĢÐ°Ð· ÐºÐ°Ð·Ð²Ð°
ĠÐ¿Ð°ÑĢÑĤÐ¸ Ð
ĠÐ¸ÐºÐ¾Ð½Ð¾Ð¼Ð¸ ÐºÐ°
ĠÐ´Ðµ ÐºÐ»Ð°
ĠÐĴÐµÐ»Ð¸ÐºÐ¾ Ð±ÑĢÐ¸ÑĤÐ°Ð½Ð¸Ñı
ĠÑĥ Ð²ÑĢÐµ
Ð¿ÑĬÐ» Ð½Ð¸ÑĤÐµ
p h
ĠÐļÐ¾ Ð
ĠÑģÐ¾ÑĦ ÑĤÑĥÐ
ĠÐĽÐ¾ Ð½Ð´Ð¾Ð½
Ð¡ ÑĬ
ĠÑģÑĬÑĤÑĢÑĥ Ð´Ð½Ð¸
ĠÐ²Ðµ ÑĢÐ¸
ĠÐºÐ° ÑĢÑĤÐ¾
ĠÐ¿ÑĢÐ¾ Ñı
ĠÐ²Ð° ÑĪÐµÑĤÐ¾
ĠÐĴÐľÐ łÐŀ
ĠÐ¿ÑĢÐµ ÑģÑĤÑĬÐ¿
ÑĪ ÐºÐ¸ÑĤÐµ
ĠÐ¾ Ð´Ð¾Ð±
ĠÐ²Ð° Ð¶Ð½Ð¸
ĠÐ¼Ð° Ð½Ð¸
ĠÐŁ Ð»Ðµ
ar e
201 1
Ð´Ð° Ð»
ĠÐ¿ÑĢÐ¾Ð²Ðµ ÑĢÐºÐ°
ĠÑģÑĬÑīÐµ ÑģÑĤÐ²Ñĥ
q u
ĠÐºÑĢÐ° Ð¹Ð½Ð°
ĠÐ´Ð¾ Ð½ÐµÑģÐµ
ĠÐ¿ÑĢÐ¾Ð´ÑĬÐ»Ð ¶ÐµÐ½Ð¸Ðµ
ĠÑĢÐµÐ°Ð» Ð½Ð¾
ļÐ Ĳ
ĠÑĦÐ° ÐºÑĤ
ĠÐļÐ° ÐºÐ¾
Ñİ Ñ
ĠÐ¿Ð°ÑĢÑĤÐ¸Ð ¸
ÑİÑ Ĥ
ĠÐ¿ÑĢÐ¾Ð±Ð»ÐµÐ¼Ð¸ ÑĤÐµ
ĠÐ¿Ð¾ÑĤÑĢÐµÐ±Ð¸ÑĤÐµ Ð»Ð¸ÑĤÐµ
ĠÐ° ÐºÐ°Ð´Ðµ
ĠÑģÑĥ Ð¼Ð°
Ġ0 4
ĠÐ¿ÑĢÐ¸ ÑģÑĤÐ°
Ð³Ð¾Ð»Ñı Ð¼
ĠÐ¡Ð¸ Ð¼Ðµ
ĠÐ²ÑĬÐ·ÑĢÐ° ÑģÑĤÐ½Ð¸
ĠÐķÐ ŀÐŀÐĶ
ĠÐļÐ¾ Ð³Ð°
ĠÐ»Ðµ ÑĤÐ¸
ĠÐ±Ð° ÑģÐµ
ĠÐ·Ð°ÐºÐ¾Ð½Ð¾ Ð´Ð°
ĠÐ¿ÑĬÐ» Ð½Ð°
ĠÐ²ÑĤÐ¾ ÑĢÐ¾
ĠÐ¿Ð¾Ð µ
ŀÐĴÐ Ĳ
Ã ¨
ĠÐ¾Ð¿ÑĢÐµÐ´Ðµ Ð»ÐµÐ½Ð¾
ŀÐ ŁÐ
Ġ[ ...]
ĠÐ¼Ð¾ Ð¶Ð°ÑĤ
ĠÐºÐ¾Ð ¾
ĠÑĥÑģÐ¿Ðµ ÑĪÐ½Ð¾
it y
Ð´Ð¾ Ð²ÐµÑĤÐµ
ĠÐĿÐµ ÐºÐ°
ĠÐ¿Ð¾Ð´Ð° ÑĢÑĬ
ĠÐ¿ÑĢÐ¾Ð´Ð° Ð¶Ð±Ð°
¡Ð¢Ð ĴÐ
ĠÐ¿ÑĢÐ°Ð²Ð¸ Ð»Ð½Ð¾
ĠÐ¿ÑĢÐµÐ´Ð¾ÑģÑĤÐ° Ð²Ñı
ÑĢÐ¼Ð ¸ÑĤÐµ
ĠÐ¿Ð°ÑĢÑĤÐ½ÑĮÐ¾ ÑĢ
ĠÐĴ ÑģÑı
ĠÐ²Ð¸ Ñģ
ĠÐ¾Ð±ÑīÐµ ÑģÑĤÐ²Ð¾
ĠÑģÐ¸ Ð¼Ð¿ÑĤÐ¾
ÑĤÐ»Ð µÐ½Ð¸Ðµ
ĠÐ½Ð¾ÑĢÐ¼Ð°Ð» Ð½Ð¾
ĠÐ²Ð° ÑĪÐ¸Ñı
ĠÐ¶Ð¸Ð²Ð¾ÑĤ Ð½Ð¸
Ð½Ð° ÑħÐ°
ĠÐĶÐ ŁÐ¡
ĠÐ½Ð¾ ÑģÐµ
ĠÐ£ Ð½Ð¸
Ð¼Ð¸ Ð»
ĠÐ¼Ð°Ð³Ð°Ð·Ð¸ Ð½
ĠÑĤÐ° ÐºÑģÐ¸
ĠÐ¸ ÑģÑĤÑĢÐ°
ĠÑĤÑĢÑĬ Ð³Ð½Ð°
ĠÐ±Ð»Ð¸Ð·Ð¾ ÑģÑĤ
Ð¿Ðµ ÑĤÐµ
ÑĤÐµ Ð½Ð¾
ÑĤÐ¾ Ð²ÐºÐ°
Ð»Ð¸ Ð²
ĠÐ¿ ÑĢ
ĠÐ¿ÑĢÐ¸Ð ¾
ÑĤÐµÐ» Ð½Ð¾ÑĤÐ¾
ĠÐ¡ Ð½Ð¸Ð¼
Ð´ Ð²Ð°Ð½Ðµ
ĠÐ¿Ðµ ÑģÐµÐ½
Ġ1 000
Ð¿ ÑĬ
ĠÐ´Ð¾ÐºÑĥ Ð¼ÐµÐ½ÑĤÐ°
ĠÑĤÐ° Ñı
ĠÐ¢Ð¾Ð °
Ð½Ð° ÑģÑĤÐ¸
Ð¡ Ð²
ĠÐŁÐµ ÑĤÐºÐ¾
ĠÐ½Ðµ Ð±Ðµ
ou r
Ð²Ðµ Ð»Ð¸
ĠÐĲ Ð½Ð°
ĠÐµÑĤÐ° Ð¿
ĠÑħÐ° ÑĢÑĤÐ¸
Ð²Ðµ Ð½Ð¸ÑĤÐµ
ĠÐ¸ Ð½Ð¶Ðµ
ĠÑĦÐ¸ Ð»Ð¾
ĠÐľÐ°ÐºÐµÐ´Ð¾ Ð½Ð¸Ñı
ĠÐ´ÐµÑĤ ÑģÐºÐ¸
ĠÐĶ Ð²Ð°
Ð´ Ð½Ð¾ÑĤÐ¾
ĠÑĢÐ°Ð· ÐºÐ°
Ġ19 6
ÑĤÐµ ÑĢ
ĠÐ¡ Ð»Ñĥ
ĠÐ¸Ð· Ð¼Ð¸Ð½Ð°
Ð´Ð ¾Ñħ
ĠÐ½Ð¸ Ð·
ĠÑĥ ÑĢÐµ
ÑĢÐ ±
ÑĦÐ¾ ÑĢÑĤ
ÑĤÐ¸ÑĢÐ° Ð½Ð¸
ĠÐ¾ÑĤÐ±Ðµ Ð»ÑıÐ·Ð°
ÑĢÐµ Ð¹
ĠÑĢÐµÐ¼Ð¾ Ð½ÑĤ
Ð»Ðµ ÑĢ
ĠÑĥÐ½Ð¸ ÑīÐ¾
ĠÐ¿ÑĬÑĢÐ²Ð¸ ÑıÑĤ
ÑĢÐ¸Ð µÑĤÐ¾
ĠÑĤÑıÑħ Ð½Ð°ÑĤÐ°
ĠÐ±ÑĬÐ´Ðµ ÑīÐµ
Ġ x
ĠÐ²Ð·ÐµÐ¼Ð° Ñ
ĠÐ²Ð·ÐµÐ¼Ð°Ñ Ĥ
ĠÐĴÑĬ Ð·
ĠÑģÑĬ ÑĩÐµÑĤÐ°
ĠÐ¿Ð¾ ÑĩÐ½Ð°
Ð ĲÐ
ĠÐĲ Ð½Ð³
ĠÐ½Ðµ Ð´Ð¾ÑģÑĤÐ°
ĠÑģÑĥ Ð±
ĠÐµÐºÑģ Ð¿Ð»Ð¾
¸Ð ¾Ð½Ð°
ÑħÐ¾Ð´ Ñı
ĠÐ½ÑıÐºÐ¾ Ñı
ĠÐ¾ÑģÐ¸Ð³Ñĥ ÑĢÐ¸
ĠÑĥ ÑģÑĤÐ¾Ð¹ÑĩÐ¸
ĠÑģ Ð¼Ð¸
ĠÐ¾ Ð½Ð¾Ð²Ð°
ĠÐ¿ÑĢÐ° Ð²
ĠÐ¿Ð¾Ð´Ð¾Ð± Ð½Ð¾
Ð»Ð¸Ð µÐ²
µÐ ¾
ĠÐ¿ÑĢÐµÑĤ ÑģÑĤÐ°Ð²
ĠÐ»Ð¸Ð´Ðµ ÑĢ
ĠÐ²Ð»Ð° ÑģÑĤÑĤÐ°
ĠÐ¢Ðµ Ñħ
ĠÑı Ð¹
Ð³ ÑĬ
ĠÐ¾ÑģÐ½Ð¾ Ð²Ð½Ð¾
ĠÐ¿Ð¾Ð»Ð¸ ÑĨÐ°
ĠÑĢÐ° Ð²Ð½Ð¾
ĠÑģÐ²Ðµ ÑĤÐ¾ÑĤ
ÑģÑĤÑĢÐ° ÑĨÐ¸Ñı
ĠÐ¸Ð½ÑĦÑĢÐ° ÑģÑĤÑĢÑĥ
ĠÐ¿ÑĢÐ¸ ÐºÐ°Ð·
ĠÑħÐ¾ ÑĤÐµÐ»Ð°
ĠÐ³Ð»Ð° Ñģ
ÑĢÐµ Ñī
ĠÐ§Ðµ ÑĢÐ½Ð¾
´Ð °
ÑģÑĤÐ¾ ÑĺÐ°
ĠÑĦÐ¾ ÑĢÐ¼Ñĥ
Ð² ÐºÐ¸ÑĤÐµ
ĠÐ¦Ðµ Ð½ÑĤ
ĠÑģÑĤÐ°Ð½Ð´Ð° ÑĢÑĤ
ĠÐ½Ð° Ð´Ð
ĠÐ½Ð¸ Ð²Ð°
Ð´Ð¸Ð °
ĠÐ¾ ÑģÑĤÑĢÐ¾
¾ÑĨÐ¸ ÑĺÐ°
ĠÐºÐ¾ ÑģÐ°
ĠÐ·Ð½Ð° ÐµÐ¼
ĠÐ¿Ð¾ Ðº
ĠÐ·Ð°Ð µÐ¼Ð°
ĠÐ± ÑĥÐ»
ĠÐ¿ÑĢÐ¾Ð± Ð»ÐµÐ¼Ð°
ĠÑģÐ³ÑĢÐ° Ð´Ð°
ĠÐ¡Ð ¾ÑĦÐ¸
ĠÐ¾ÑģÐ½Ð¾ Ð²Ð½Ð¸
ĠÐ¿ÑĢÐµÐ´ Ð»Ð¾Ð¶ÐµÐ½Ð¸Ðµ
Ð¿ ÑĤÐ¸
ĠÑĢÐ¾Ð´Ð¸ÑĤÐµ Ð»Ð¸
ĠÑģÐ²Ð¾Ñ ĺÐ¾ÑĤ
Ð´Ðµ ÑģÐµÑĤ
ÑģÑĤÐ° Ð½ÑĤÐ¸
Ð¶Ð° Ð²Ð°ÑĤ
ĠÐ¸Ð½ÑĤÐµÑĢÐµ ÑģÐ¸
ĠÐ¿Ð° Ð½Ð´Ðµ
ĠÐ¿Ð¾ÑģÑĤÐ¸ Ð³Ð½Ðµ
ĠÐ¸Ð· ÑĤÐ¾
ĠÑĥÐ¿ÑĢÐ° Ð²
ĠÐ¿ÑĢÐ¸ ÐºÐ°
ĠÐ¿ÑĢÐµ Ð¼Ð°Ñħ
ĠÐŁÑĢÐ¾ ÑģÑĤÐ¾
ÑĨÐ¸Ð¾Ð½ Ð½Ð°ÑĤÐ°
ĠÐ»Ðµ Ð³Ðµ
ÑģÑĤÐ²Ð ¸Ñı
ĠÐ¾ÑĤÐº ÑĢÐ¸Ðµ
Ð²Ð° Ð¹ÐºÐ¸
ĠÐ·Ð°Ð²Ð¸ÑģÐ¸Ð¼Ð¾ ÑģÑĤ
ĠÐ½Ñĥ Ð¶
ĠÐºÐ° ÑģÐ°
Ġ0 3
ĠÐ¸Ð·Ð¿Ð¾Ð»Ð·Ð²Ð° ÑĤÐµ
ĠÐ´Ð°Ð½ Ð½Ð¸ÑĤÐµ
ĠÐļÐ° Ð·Ð°
ĠÐµ ÑģÐµÐ½
ĠÑĨÑı Ð»Ð°
ĠÐ¿Ð¾ÑģÐ»ÐµÐ´ Ð½Ð¸Ñı
4 3
ĠÐ² Ð´ÑĬÑħ
ĠÐŀÑħ ÑĢÐ¸Ð´
ĠÑĨÐ °ÑĢ
ÐŁ ÑĢÐ¸
ĠÐ¿ÐµÐ½ ÑģÐ¸Ð
ĠÐ½ÐµÐºÐ¾Ð ¸
ĠÑĥÑģÐ»Ð¾Ð²Ð¸ ÑıÑĤÐ°
ĠÐ´ÑĬÑĢÐ ¶Ð¸
ĠÑĢÐ¾ Ðº
ĠÑĥÐ´Ð° ÑĢ
ĠÐ³Ð»Ñĥ Ð¿Ð¾
ĠA l
Ġ3 7
ĠÐ¿Ð¾Ñ ĺÐ°
ĠÑģÐ°Ð¼Ð¾ ÑģÑĤÐ¾Ñı
ĠÑģÑĬÐ¾ÑĤÐ²ÐµÑĤ Ð½Ð¾
µ Ð½ÑĤ
ŀÐ ļÐ
ĠÐºÐ° Ð·Ð²Ð°ÑĤ
ĠÑģÑĢÐµ ÑīÐ°ÑĤÐ°
ĠÐ¿ÑĢÐµÐ´Ð¿Ð¾ Ð»Ð°Ð³Ð°
ÑĢÐµ Ð¼ÐµÐ½Ð½Ð¾
Ð´Ð° Ð½
ĠÑģÐ»ÐµÐ´Ð²Ð° ÑīÐ°ÑĤÐ°
ÑĢÐ³ Ñĥ
ĠÐ¿ÑĢÐµÐ´ÑģÑĤÐ°Ð²Ð¸ ÑĤÐµÐ»
ĠÐºÐ¾Ð½ÑĦ Ð»Ð¸
ĠÐ¾ÑĤÐ ³
ĠÑģÑĬÐ·Ð´Ð° Ð²Ð°Ð½ÐµÑĤÐ¾
ĠÐŀ ÑĩÐ°ÐºÐ²Ð°
ĠÑģÑĤÐ° ÑĢÑĤÐ¸ÑĢÐ°
ĠÐ¿Ð° Ð´Ð°
Ð»Ñı Ð½Ðµ
ĠÑħÐ¾ Ð´Ð¸
ĠÐ´Ðµ ÑģÐµÑĤ
ÑģÑĤ Ð½Ð°ÑĤÐ°
ĠÑĤ ÑĢÐ¸ÑĤÐµ
ĠÐ¾Ð±Ñı ÑģÐ½ÑıÐ²Ð°
ĠÐ¿Ð¾ Ð²ÑĢÐµ
Ñģ ÑĢÐµÐ´
ĠÑģÐ¿ÐµÑĨÐ¸ ÑĦÐ¸
ĠÐºÐ¾ Ð½ÑĦÐµÑĢÐµÐ½
Ð½ ÑĩÐ°
ĠÑĥÐ´Ð¾ Ð²Ð¾Ð»
ĠÐ° ÑĤÐ¼Ð¾
ĠÑĢÐ¸ ÑģÐº
ĠÐĲ ÑĦ
Ġ3 8
ĠÐ¸Ð½ ÑĨÐ¸
ĠÑĤÑıÑħ Ð½Ð¾ÑĤÐ¾
b r
ĠÐ±Ð° Ð½Ñı
ĠÑĢÐ¾Ð»Ñı ÑĤÐ°
ĠÐ¼Ð¾Ð¶Ðµ ÑĪÐµ
ĠÑģÐ½Ð¸Ð¼ ÐºÐ°
ĠÐºÑĥÐ»ÑĤÑĥ ÑĢÐ°ÑĤÐ°
łÐ ķÐ
ĠÐ¾ÑĤÐ³Ð¾ Ð²Ð¾
ĠÑģ Ð»Ð°Ð³Ð°
ĠÐ²Ð¸ÑģÐ¾ ÐºÐ¸
ĠÐ½Ð° ÑģÐ»Ð°
ĠÐ¿Ð¾Ñģ Ð²ÐµÑĤÐµ
Ð¡Ð °
ĠÐ¾ÑĤÐ¿ ÑĢÐ°
ĠÑħÐ¸ Ð»
Ð¸Ð· Ð²Ðµ
ĠÐ·ÐµÐ»ÐµÐ½ ÑĩÑĥ
ĠÐ°Ð»Ð ±
ÑĢÑĥ Ð²Ð°ÑļÐµ
ĠÐºÐ¾Ð½ÑĤÐ° ÐºÑĤ
ĠÐ·Ð°Ð±ÑĢÐ° Ð²Ñı
ÐµÐ² ÑģÐºÐ¸
ĠÑģÑĥ Ð¿ÐµÑĢ
ĠÑĢÐ°Ð· Ð±ÐµÑĢÐµ
ĠÐ¾ ÑģÑĤ
Ð´Ð¾ ÑĤÐ¾
ĠÐ¿Ð¾ÑĩÐ¸ Ð²ÐºÐ°
k i
ĠÐ¡ Ð²ÐµÑĤÐ¾
ÐĲ ÐºÐ¾
ĠÐ¼ÐµÐ´Ð¸ Ð¸ÑĤÐµ
Ð· Ð½Ð°ÑĤÐ°
ĠÐ¿Ð¾Ð·Ð²Ð¾ Ð»Ð¸
ĠÐ½Ð° ÑĤÐ¾Ð²Ð°
Ð¼ Ð¿Ð¾
ĠÐ² ÑĢÐ·
ĠÐ¿ÑĢÐ¸ Ð»Ð¾Ð¶ÐµÐ½Ð¸Ðµ
ĠÐ° Ð²
ĠÐĶÐµ Ð¹
ĠÐ²ÑĬÐ· Ð½Ð¸Ðº
ĠÐºÐ¾Ð¼Ð¿Ñİ ÑĤÑĬÑĢ
ĠÐŀÑĤÐ ³Ð¾
Ð²Ð¾ Ð´Ð°
ÑĢÐµ Ð³Ð¸ÑģÑĤÑĢÐ¸ÑĢÐ°Ð½
ĠÐ¸ÑģÑĤÐ¸ Ð½Ð°ÑĤÐ°
ĠÑģÑĤÐ° ÑĢÐ¸
ĠÑģÑĬ Ð²Ð¼Ðµ
ĠÐ»Ð¸ ÑĩÐ½Ð¸
ĠÐ´Ð¾Ð¿ÑĬÐ»Ð½Ð¸ÑĤÐµ Ð»Ð½Ð¾
ĠÐ²ÐµÑĢ ÑģÐ¸Ñı
ĠÐ»Ñı ÑĤÐ¾ÑĤÐ¾
ĠÐ³Ð¸ Ð¼Ð½Ð°
ĠÑĩÐµÑĤÐ² ÑĬÑĢ
ÑĢÐ¸Ð ¸ÑĤÐµ
ĠÐ¼Ð° Ñĺ
ĠÐ¿Ð¾ÑĤÐµÐ½ ÑĨÐ¸Ð°Ð»
Ð½Ðµ ÑĪ
ĠÐ¿Ð¾Ñģ ÑĢÐµÐ´
ĠÐ·Ð° Ð³Ð»Ð°
ĠÐ¿Ð°ÑĨÐ¸Ð µÐ½ÑĤÐ¸
ÑĦÐ ¾Ð½Ð°
Ð²Ð° Ð¹ÑĤÐµ
ĠÐ¶ ÑĬÐ»
ĠÐ±Ð¸ Ð±Ð»Ð¸Ð¾ÑĤÐµ
ĠÑĢÐ°Ð· ÑģÑĤÐ¾Ñı
ĠÐ¿Ð¾ Ð¶ÐµÐ»Ð°
Ġ j
ĠÑĥÑģÑĤÐ° Ð½Ð¾Ð²Ð¸
ĠÑģÐµ Ð»Ð¾ÑĤÐ¾
ÑģÐ° Ð¼
ĠÐ½Ñı ÐºÑĬÐ´Ðµ
4 1
ĠÐłÐ° Ð´ÐµÐ²
ĠÐ¿ÑĢÐ¸Ð¾ ÑĢÐ¸ÑĤÐµ
ĠÐ°Ð» ÑĤÐµÑĢÐ½Ð°
ĠÑĩÐ° Ðº
Ð¡Ð ¢Ð
ĠÐ¾ Ð¿Ð¾Ð·Ð¸
ÑĤÐ²Ð¾ ÑĢÐ¸
Ð»Ð ±Ð°ÑĤÐ°
Ð»Ð¸ ÑĨÐ°
£ ÐłÐ
Ð² Ð½Ð¸Ð¾ÑĤ
ĠÐ¿Ðµ ÑĩÐµÐ»Ð¸
µÑ ļÐµ
µ Ð²Ð³ÑĢÐ°Ð´
Ð µÐ²Ð³ÑĢÐ°Ð´
ĠÐºÐ»Ñİ ÑĩÐ¾
ÑĢÐº Ñĥ
ĠÐı Ð
ĠÑĤÐ¾ Ð¿Ð»Ð¸
ĠÐ»Ñİ Ð±Ð¾
Ð½Ð »Ð¸
4 2
ĠÐ¿Ð¾ÐºÐ° Ð¶Ðµ
ĠÑģ Ð¿ÑĢÐ¾
ĠÐ¡ÑĬ ÑīÐ¾
ĠÑģÐ¿Ð° ÑģÐ¸
ĠÑĩÐ¾Ð²Ðµ ÑĪÐºÐ¸
ÑĢÐ²Ð° Ð½Ðµ
ĠÐĴ ÑģÑĬÑīÐ½Ð¾ÑģÑĤ
łÐ £
Ð°Ð» Ð½Ð°
ÑģÐ¾ÑĨÐ¸Ð °
Ð»Ð ³Ð°
ĠÐ»ÑİÐ±Ð¾Ð² ÑĤÐ°
ĠÐ¿ÑĢÐ¸ Ð²
ĠÐ¿Ð¾Ð»Ñĥ ÑĩÐ°Ð²Ð°ÑĤ
ĠÐ¸Ð·Ð¿Ð¾Ð»Ð· Ð²Ð°Ð½Ðµ
ĠÑĪÐ°Ð¼Ð¿Ð¸ Ð¾Ð½
Ð· Ð½Ð¸ÑĤÐµ
ĠÐ¿ÑĢÐ¾Ð¸Ð· Ð²Ð¾Ð´Ð¸ÑĤÐµÐ»
ĠÐ½Ð° Ð¿Ð°
ÐºÑĥ Ð¿
ĠÐ¼ Ð¼
ĠÑĪÐ ¾ÑĦ
ĠÐ¶Ðµ Ð½Ð°ÑĤÐ°
Ġ4 00
ĠÐľÐ¾ ÑģÐºÐ²Ð°
ĠÐ±Ñİ Ð´Ð¶Ðµ
ĠÑģ Ð»Ð¾Ð¶Ð¸
ÑģÑĤÐ° Ñ
ĠÑīÐ¾ Ð¼
ÐºÐ° ÑĩÐµ
ÑĢÐ »
Ð¶Ð °Ð»
ĠÐ¨Ð µ
ĠÐº ÑĬÑĢÐ
Ð½ÐµÐ² Ð½Ð¸Ðº
ĠÐ¿ÑĢÐ¸ Ð·Ð¾Ð²Ð°
ÑģÑĤÐ°Ñ Ĥ
ĠÐ½Ð° ÑĪÐ¸
ĠÐ¡Ð ŁÐ
ĠÐ½Ðµ Ð²ÑĬ
ĠÑģÑĤÑĢÐ° Ð´Ð°
ĠÐ¸ Ð¼Ð¸
ĠÑģÐ° Ð½Ðº
ÑĢÐ° ÑĤÐµ
ĠG oogle
ĠÐ¸Ð· ÑĢÐ°Ð·Ð¸
Ð½Ðµ Ð½Ð¸ÑĤÐµ
ĠÐĴÐ ¡Ð
ÑĢÐµ Ð½Ð¸ÑĤÐµ
ĠÐ¤Ð¸ Ð»Ð¸
ĠÐ³ÑĢ ÑĬÑĨ
ĠÐ³ÑĢÐµÑĪ ÐºÐ°
ĠÑĩÐ»Ðµ Ð½Ð¾Ð²Ðµ
ĠÐ²ÑĢÐ°ÑĤÐ° ÑĤÐ°
Ñģ Ð²Ð°ÑĤ
Ð± ÑĬÑĢ
Ð¿ ÑĢÐ¸Ñı
ĠÑĤÑĢÐ°Ð½ ÑģÑĦÐ
Ð¡Ð ¸
Ġ( "
Ð»Ñı Ð½
ĠÐ¡ ÑĢÐµ
ĠÐ¡ Ñ
ĠÐºÐ¾Ð³Ð¾ ÑĤÐ¾
a x
ÑĨÐ¸ Ð¿Ð»Ð¸
ĠÐ¸Ð¼Ð° Ð»
... "
ĠÐ¼ÐµÑĤÐ¾ Ð´Ð¸
ÑĩÐ¸ ÑĤÐ°ÑĤ
Ġ %
ĠÐ¢Ð ¾Ñĺ
ĠÑģÐ¿ÐµÑĨÐ¸Ð°Ð»Ð¸ ÑģÑĤÐ¸
Ð»Ð¸Ð µÑĤÐ¾
ĠÐ³ÑĢÐ¸ Ð¶Ð¸
ĠÐ´ÐµÐ¹ Ð½Ð¾ÑģÑĤÑĤÐ°
³ ÑĢÐ°
ĠÐ±ÑĬÐ´Ðµ ÑīÐµÑĤÐ¾
ĠÐ¾Ð± ÑĬÑĢ
ĠÐ¿ÑĢÐ¸ÑĤÐµ Ð¶Ð°Ð²Ð°
¾ Ð´
Ð½Ð´Ð° ÑĢ
ĠÐ¿ÑĢÐµ Ð´Ð°Ð²Ð°
ĠÐ·Ð´ÑĢÐ° Ð²ÐµÑĤÐ¾
ĠÐĲ Ð½Ð³Ðµ
ĠÐ¾ÑģÑĤÐ° Ð²Ñı
ĠÐ²ÑĤÐ¾ ÑĢÐ¸Ñı
ĠÑĢÐ°Ð· Ð³Ð»ÐµÐ´Ð°
Ð±Ð° Ð²Ð¸
ÑĤÐ²Ð ¸ÑĤÐµ
Ð»Ð¸ Ð²Ð°
ĠÐ¸Ð·Ð²Ðµ ÑģÑĤÐµÐ½
Ð½Ðµ ÑĢÐµÐ³Ð¸ÑģÑĤÑĢÐ¸ÑĢÐ°Ð½
Ð¾Ð± ÑĢÐ°Ð·Ð¸
ĠÐ¾Ñ ĦÐµ
¸ ÑĤÐ¾
. -
ĠÐ¸Ð· Ð±Ð¸
Ð»Ðµ ÑĢÐ¸
ĠÐºÐ¾Ð½ÑģÑĥÐ» ÑĤÐ°
ĠÑĦÐ¸Ð» Ð¼Ð°
Ð´ÐµÐ½ ÑĤÐ¸ÑĤÐµ
ĠÐºÑĢÐ° ÑĤÐºÐ¾
Ð·Ð¸ÑĢÐ° Ð½Ð°
== ==
ĠÐ½Ð°Ð¼Ð° Ð»ÑıÐ²Ð°
ĠÑģÑĬ ÑģÑĤÐ¾Ð¸
Ð¼ Ð¿Ð»Ðµ
ĠÐ°Ð¼ÐµÑĢÐ¸ÐºÐ° Ð½ÑģÐºÐ¸
e p
ĠÑĪÐ µÑĦ
ĠÐ¿Ð¾Ð· Ð´ÑĢÐ°
ÑĤÐ¾ Ð¿
or d
Ð´ÐµÐ» Ð½Ð¸Ðº
ĠÐ¾ÑĤÐ¸ Ð´Ðµ
on t
ÑĦÐ¾ Ð½Ð¸
ÑĤÐ¸ Ð»
ĠÐ·Ð° Ð¿Ð¸ÑģÐ°
Ñı Ð»
ĠÑģÑĬÐ·Ð´Ð° Ð´Ðµ
Ð»Ðµ Ð³Ð°
ĠÐ´Ð¾ ÑģÑĤÐ¾
ĠÐ¿ÑĢÐ¸ÑģÑĬ ÑģÑĤÐ²Ð°
ÑĩÐµ ÑĤÐ¸
ĠÑĤÐ²ÑĬÑĢÐ ´
ĠÐ¾ÑĦÐ¸ÑĨÐ¸Ð°Ð» Ð½Ð¾
ĠÐ¿Ð¾Ð½Ðµ Ð¶Ðµ
Ð³ Ð½Ð¸
Ð»Ð¾ Ð·Ð¸
ÑĤÐ¸ ÑĩÐ°
Ð»Ð¸Ð·Ð° ÑĨÐ¸Ñı
Ð»Ð¸Ð °Ð½
ĠÑģÑĬ Ð´Ð°
ĠÑģÐ»ÐµÐ´Ð²Ð° ÑīÐ¸Ñı
ĠÑģÐµ ÑĢÐ²Ð¸
Ð½Ð³Ð µÐ»
ÑģÐ»Ðµ Ð´Ð¾Ð²Ð°
ÑĤÐ° ÑĤÐ¸
Ð¼Ð¾ ÑģÑĤ
ĠÐ¾ Ð³Ð»ÐµÐ´
ĠÐµ Ð²ÐµÐ½ÑĤ
Ð½Ð° Ð²
ĠÐ¾ÑģÑĤÐ° Ð²Ð°ÑĤ
ĠÐ·Ð° ÐºÑĢÐ¸
ĠÐ¸Ð· ÐºÐ»ÑİÑĩÐ¸
ÑĩÐ¸ ÐµÑĤÐ¾
Ð´Ð¾Ð± ÑĢÐ¾
ĠÐĿÐ° Ð»Ð¸
Ð²Ð¾ Ð»Ð¸
ÑĤÐ¸Ð² Ð½Ð¸ÑĤÐµ
r an
ĠÐ¼Ð°Ð» ÑĬÐº
ĠÑĥÑĩÐµ Ð½Ð¸ÑĨÐ¸ÑĤÐµ
ĠÐ¿ÑĢÐ¾ Ð»ÐµÑĤ
ĠÐ¿ÑĬÑĢÐ²Ð ¾Ð½Ð°ÑĩÐ°
ĠÐ¿Ð¾Ð»Ð¸ ÑĨÐ¸ÑıÑĤÐ°
ĠÑĩÐµ ÑĢÐ½Ð¾
ĠÐ¸Ð· Ð¼Ð°
ĠÐ·Ð½Ð° Ðº
Ð·Ð° ÑĨÐ¸ÑıÑĤÐ°
ĲÐĿÐ ķ
µ ÑĪÐµ
ĠÐ¿ÑĢÐµÐ´ Ð»Ð¾Ð¶ÐµÐ½Ð¸Ñı
ĲÐ Ŀ
ĠÐºÑĬ ÑīÐ¸
Ġhttp s
ĠÐ¿Ð¾ÑģÐ»ÐµÐ´ Ð½Ð¾
ĠÐ·Ð°Ð¿Ð¾Ñĩ Ð²Ð°ÑĤ
ĠÐ² ÐºÐ»ÑİÑĩÐ¸
ĠÐ¸Ð· ÑĺÐ°Ð²Ð¸
Ð´Ñĥ Ð²Ð°ÑļÐµ
ÑĢ ÑĤÐ°ÑĤÐ°
ĠÐ¿ÑĢÐ¸ Ð±Ð»Ð¸
Ð·Ð ¶Ð¸
ĠÑĦÑĥÐ½Ðº ÑĨÐ¸Ð¾Ð½Ð¸
ÑģÑĤÐ²Ðµ Ð½Ð¸ÑıÑĤ
Ġ3 2
ĠÐľÐ ¾Ð½
Ð»Ð¸ Ð²Ð¸
ĠÐ¾ÑģÑĬ Ð·Ð½Ð°
ĠÐŁÑĢÐµÐ´ Ð»Ð°Ð³Ð°
ĠÐ¿Ð°ÑĢÐ»Ð° Ð¼ÐµÐ½ÑĤ
ĠÐ´Ð ¶Ð°
Ð½Ðµ ÑĢÐ°Ð»
ĠP l
ÑģÑĤÐ¸ Ñı
ĠÐ² ÑĬÑĢÐ²Ð¸
ĠÐ°Ð½Ð³Ð»Ð¸ Ð¹ÑģÐºÐ¸
ĠÐ¿Ð¾Ð´ Ð¿Ð¸ÑģÐ°
ĠÑĨÐ °
Ð½Ð° Ð½
ÑĢÐ¸ÑģÑĤÐ¸ ÐºÐ¸
ÑĤÐµ ÑĢÐ°
ĠÑģÐ»Ðµ Ð´Ð¸
ĠÐ£ÐºÑĢÐ° Ð¹Ð½Ð°
ĠÐ²ÐºÑĥ Ñģ
ĠÐ²Ð¸ Ð´Ð°
Ñģ Ð¼
ķÐ ĴÐ
ĠÐ¦Ð ¸
Ð»Ðµ ÑĨ
Ð³Ð¾Ð´Ð¸ÑĪ Ð½Ð°
ĠÐ¿ÑĢÐ° Ð²Ð°ÑĤÐ°
Ð³ÑĢÐ° Ð¼Ð°
n e
Ð»Ð¸ ÑĢÐ°Ð½Ðµ
ĠÐĺÐ· Ð¿Ð¾Ð»Ð·
Ð¼ÐµÑĤ ÑĢÐ°
ĠÐĵ Ñĥ
ĠÑģÑĤÐ¾ ÐºÐ¸
ĠÐ·Ð°Ð´ÑĬÐ»Ð¶Ð¸ÑĤÐµ Ð»Ð½Ð¾
ĠÐºÐ¾Ð½ÑĤ ÑĢÐ°
ĠÑģÐ³ÑĢÐ° Ð´Ð°ÑĤÐ°
ĠÐ´Ð° ÑĤÐ°
Ð»Ð¸ ÑıÑĤÐ°
ĠÑĤÐµ Ð¼Ð¸
ĠÑģÑĤÐ° Ð
ĠÐ² ÐºÐ»Ñĥ
ĠÐ¸ÐºÐ¾Ð½Ð¾Ð¼Ð¸ ÐºÐ°ÑĤÐ°
ĠÐ¾Ð¿ ÑĪÑĤÐ¸
Ð½ ÑĨÐµ
ÐŁ ÑĢÐµ
ĺÐ ¡Ð¢Ð
ĠÐ¿Ð¾ ÑĤÐµ
ĠÐ¸Ð·Ð¿ÑĬÐ» Ð½ÑıÐ²Ð°
ÑĢÐµ Ð½ÑĤ
ĠÐ¾Ð´ Ð½Ð¾ÑģÐ½Ð¾
Ð¿Ð¾ Ð´
ÑĢÐ¿Ð ¾
ĠÐ¼Ð¾ Ð·ÑĬ
ĠÐĲ Ð³ÐµÐ½
ÑģÐ±Ñĥ Ðº
°Ð½ ÑĤÐ¸
ĠÐºÐ¸ Ð½Ð¾
ĠÐ³Ð¾ ÑĤÐ¾Ð²Ð¸
ĠÐ½Ð¸ÐºÐ° ÐºÑĬÐ²
ĠÐ¸Ð· Ð»Ðµ
ĠÐ´Ð¾Ð¿ÑĬÐ»Ð½Ð¸ÑĤÐµ Ð»Ð½Ð¸
ĠÑģÐ²Ð¾Ð±Ð¾ Ð´Ð°
ĠÐŁÐ µÑĢ
ĠÐŁÑĢÐ¾ Ð
7 0
ĠÐ¡ Ð»Ð¸
Ð±Ð° ÑĢ
ĠÐŁÐµÑĤ ÑĢÐ¾Ð²
Ð³ ÑĬÐ»
° Ð½Ð°
ĠÐ´Ð¾Ð³Ð¾ Ð²Ð¾ÑĢÐ¸
ĠÐµ Ð·Ð¸
ĠÑĢÐ¾ Ð¼Ð°
ĠÐ¿ÑĢÐ¾Ð´ÑĬÐ»Ð ¶Ð¸ÑĤÐµ
ĠÐ¿ÑĢÐµÐ¿Ð¾ Ð´Ð°Ð²Ð°
ĠÐ¢ÑĬÑĢ Ð½Ð¾Ð²Ð¾
ĠÐ¿ÑĢÐ¾ Ð±Ð¸
ĠÑģÐ¼Ðµ ÑĤÐ°
ĠÐ¸ ÑģÐº
ĠÐ° Ð³ÑĢÐµ
ĠÐ¼Ð»Ñı ÐºÐ¾
Ð½Ð¾ Ð½Ð¸
ÑĩÐ° Ð½Ð¸
ĠÑĢÐµ ÑĪÐ°Ð²Ð°
ĠÐ³Ð¾ Ð²Ð¾ÑĢ
ÑĪÐµ ÑĤÐµ
ŀÐ ¡Ð¢Ð
ĠÑħÑĢÐ°Ð½Ðµ Ð½Ðµ
ĠÐ¸Ð· Ð³Ñĥ
ĠÑħÑĥÐ±Ð° Ð²Ð¾
ĠÐ¸ÐºÐ¾Ð½Ð¾Ð¼Ð¸ ÑĩÐµÑģÐºÐ¸
ĠI I
ĠÐ¿Ð° ÑĢÐº
ĠÐĶ Ð¶Ð°
p le
ec t
ĠÐ·Ð° ÑĪÑĤÐ¸
201 0
ĠÐĿ Ñİ
ĠÐ¿ÑĢÐµÐ·Ð¸ Ð´ÐµÐ½ÑĤÐ°
ĠÐ¿ÑĢÐµ ÑĩÐ¸
ĠÐ¡ÑĤÐµ ÑĦÐ°Ð½
ĠÑĤÐµ ÑĢÐ¼Ð¸
Ð¿ ÑıÐ²Ð°
ĠÑģÐ¾ ÑģÑĤÐ¾Ñĺ
ĠÐ¸Ð·ÐºÑĥ ÑģÑĤÐ²Ð¾
ÑĢÐµ Ð¼
ĠÐ·Ð½Ð°Ðµ ÑĪ
Ð±Ðµ Ð·
ÑĢÐ¸ Ñģ
ĠÐ¿ÑĢÐµÐ´Ð¸ Ð¼
Ð´Ð²Ð¸ Ð¶Ð¸
ĠÐ¿Ð¾ ÑģÑĤ
ĠÐ´ÑĬÑĢÐ²Ð ¾
ĠÑĤÐ¸ Ð¼
Ð½Ð ±
ĠÐºÐ¾Ð¼ÐµÐ½ÑĤÐ° ÑĢÐ¸
ÑĢÐ°Ð· Ð»Ð¸
ĠÐ¼Ð¾ÑĢÐµ ÑĤÐ¾
ĠÐĺÑģÐ¿Ð° Ð½Ð¸Ñı
5 3
ĠÑģÐºÐ¾ÑĢÐ¾ ÑģÑĤ
ĠÐºÑĢÐ° ÑģÐ¾
Ð»Ð° Ð½Ð´
ĠÐĵÐ ¸
ĠÐ¡Ñ Ĥ
ĠÐ°Ð½Ð°Ð»Ð¸ Ð·
ĠÐµÐ´ Ð½Ð¾Ð²
ÑģÑĤÐ¾ Ð²
ĠÐľÐ° ÑĢÑĤÐ¸
ĠÐĴÐ¸ Ð¶ÑĤÐµ
ĠÐ±Ðµ Ð»Ðµ
ĠÐ¾ Ð²
ĠÐ¿ÑĢÐ¾Ð´Ñĥ ÐºÑĤÐ°
Ð µÐ¼Ð°
ĠÐŀ Ð±Ð°
n o
ĠÑģÐ³ÑĢÐ° Ð´Ð¸
ĠÐ¿ÑĢÐ° Ð²Ðµ
ĠÐ¿ÑĢÐµÐ´Ð° Ð´Ðµ
ĠÐ¼Ð°ÑĪÐ¸ Ð½Ð¸
Ð½ ÑĤÐ¸ÑĤÐµ
ĠÐľÐ¾Ð¶Ðµ ÑĤÐµ
ĠÑĢÐ°Ð· ÑħÐ¾Ð´
ĠÐºÑĬ Ñģ
Ð²Ð¸ ÑĨÐ°ÑĤÐ°
ÐºÑĤÐ¸ Ð²Ð½Ð¸
ĠÐºÐ° Ð»
ĠÑĢÐµÐ° Ð³Ð¸
ÑĤÐ¸ Ð²Ð°ÑĤÐ°
ĠÐ½ÐµÐ °
ĠÐŁÑĢÐ¾Ð µ
ĠÑģÐ± Ð»ÑĬ
ĠÑı Ð´
Ġ ..
ĠÑģÐµÑĢÐ¸Ð¾ Ð·Ð½Ð¸
ĠÑĦÐ¾ Ð½Ð´
Ð ¨Ð
ÑĤÐ¸ Ð½Ð¸
ĠÑĥÐ µÐ±
Ð²Ñı Ð²Ð°Ð½ÐµÑĤÐ¾
Ð½Ð ·
ĠÐ½Ð°ÑĤÐ¿ ÑĢÐµÐ²Ð°
ĠÑĥÑģÑĤÐ° Ð½Ð¾
Ð»Ð¸ Ñģ
ĠÑģÐ¾ÑĨÐ¸Ð°Ð» Ð½Ð¸ÑĤÐµ
ĠÑĢÐµ ÑĦÐµ
v a
ĠÐ¼Ðµ Ð½Ð¸Ð´Ð¶
) ;
ĠÐ¿ÑĢÑĬ Ð²
ĠÐºÐ°Ð·Ð° Ð»
ĠÐ² ÑĬÑĢÐ
ĠÐ³Ð»ÐµÐ´Ð° Ð¼
ĠÑģÑĤÐ°Ð ¸
ĠÐ¿ÑĢÐ¾ ÑĩÐ¸ÑĤÐ°
ĠÐ¼Ð¾ Ð¼ÐµÐ½ÑĤÐ¸
ĠÐ¸Ð· Ð¿Ð»Ð°
Ð²Ðµ ÑĢÐ¾ÑıÑĤÐ½Ð¾
Ð·Ð¾ Ð²Ð¸
Ð½Ð³Ð ¸
ÐºÑĤÐ¸ ÑĤÐµ
ĠÑĦÐ °Ð»
Ð·Ð¸ ÑıÑĤÐ°
r u
ĠÐºÐ°Ð¼Ð¿Ð° Ð½Ð¸Ñı
ĠÑģÐ»Ñĥ Ð¶Ðµ
Ð¼Ð° Ð»
ĠÐºÐ¸ ÑĤÐ°
Ñģ Ð»Ñı
ĠÐ°ÑĤÐ¼Ð¾ ÑģÑĦÐµ
Ð½Ð´Ð °Ð»
ĠÐĺ Ð½Ð°ÑĩÐµ
Ð¼Ñĥ Ð¼
O N
ĠÐ¼Ð° ÑģÐ¸
ĠÐ³ÑĢÐ° Ð´Ñĥ
ĠÐ¿Ð¾ Ð½Ð¸
ĠÐ¾ÑĢÐ¸ Ð³Ð¸Ð½Ð°
ĠÐ±ÑĬÐ»Ð³Ð° ÑĢÑģÐºÐ¾ÑĤÐ¾
ĠÐ¼Ð° ÑīÐ°
ĠÐ¿Ð¾Ð²Ðµ Ð´ÐµÐ½Ð¸Ðµ
ĠÑĢÐ°Ð· Ð´Ðµ
ĠÐ¾Ð±ÑĢÐ°Ð·Ð¾Ð²Ð° Ð½Ð¸ÐµÑĤÐ¾
Ĥ Ð½Ð°ÑĤÐ°
ĠÐ¼Ð° ÑĢÐºÐ
ĠÑĩÐ¸ Ð
Ð½Ð° ÑģÑıÑĤ
ÑĤÐ¸ ÑĩÐ½Ð°
ĠÐ¿ÑĢÐµÐ´Ð¿ ÑĢÐ¸ÐµÐ¼Ð°
ĲÐ ¡Ð
ĠÑĤÑĬÑĢ ÑģÑıÑĤ
Ñ ĤÐ½Ð°ÑĤÐ°
¡ÐļÐ ĺ
Ð´Ð° Ð²Ð°ÑĤ
a f
ĠÐ²ÑĬÐ· Ð¿Ð¸ÑĤÐ°
ĠÑģ ÐºÐ»Ð°
ÑĤÐ¸ Ð»Ðµ
ĠÐ¾ ÑĤÐ²Ð°ÑĢÑı
ĠÐ¾ ÑĢÐ¸Ð
ĠÐ´ÑĬÑīÐµ ÑĢÑı
ĠÐ± Ð»Ðµ
5 2
ĠÐ¿ÑĢÐ¸ ÐºÐ»ÑİÑĩÐ¸
ĠÐ½Ð¾ Ð²Ð¾ÑĤÐ¾
ĠÐºÐ¾Ð½ ÑĤÐµ
ĠÐ°Ð±ÑģÐ¾Ð»Ñİ ÑĤÐ½Ð¾
Ðº ÑĨÐ¸ÑĺÐ°
ĠÐ¼ÐµÐ¶Ð´Ñĥ Ð½Ð°ÑĢÐ¾Ð´
ĠÐ·Ð° Ð¿Ð»Ð°ÑĤÐ°
Ð»Ðµ Ð½Ð°ÑĤÐ°
ĠÑģÐ° Ð¼Ð¸Ñı
ĠÑģÑĤÐ° Ð½
ÑĬÑĢÐ ´
Ð ¾ÑĤÐ
ĠÐ½Ð° Ð»Ñı
ĠÑģÐ¸ÑĤÑĥÐ° ÑĨÐ¸ÑıÑĤÐ°
ĠÑĥÐ¿ÑĢÐ° Ð²Ð»ÐµÐ½Ð¸ÐµÑĤÐ¾
ĠÐ¶ÑĥÑĢÐ½Ð° Ð»Ð¸ÑģÑĤÐ¸
ĠÐ¡ÑĤÐ¾ Ñı
ĠÑĥÑģ Ð¿Ð¾
ĠÐļÐ¸ ÑĢÐ¸Ð»
Ð´Ð¾ Ð¼
Ð¾ÑĤ Ð½Ð¾
S B
Ð»Ðµ Ñģ
ĠÐ³ÑĢÐ°Ð¶Ð´Ð° Ð½Ð¸ÑĤÐµ
ĠÐ ĪÑĥ
i an
ĠÑģÑĬ Ñħ
ĠÐ¿Ð¾Ð´Ð´ ÑĢÑĬ
Ĥ ÑıÑĤ
Ñ ĤÑıÑĤ
ĠÑĤÐµÐ¼Ð¿Ðµ ÑĢÐ°ÑĤÑĥÑĢÐ°
ĠÑĢÐ°Ð· Ð³Ð»ÐµÐ¶Ð´Ð°
ĠÑĢÐ°Ð· Ð¼ÐµÑĢÐ¸
Ð½ ÑĩÐµ
µÐ» ÑĤÐ°
ĠÐļ Ð»Ð°
ĠÐ³ÑĢÐ° Ð´Ð¾Ð²Ðµ
ĠÐ¿ÑĢÐµ Ð¼Ðµ
ĠÐ¡ ÑĤÐ¸
ĠÐµ ÑĤÐ¾
ĵÐ ĲÐłÐ
ĠÐ¾ ÐºÐ°Ð·Ð²Ð°
ĠÑĥÑĩÐµ Ð½Ð¸
ĠÐ¿ÑĢÐ¾Ð²Ðµ Ð¶Ð´Ð°
ĠÐ»Ð¸ÑĤÐµ ÑĢÐ°ÑĤÑĥÑĢÐ°
ĠÐ¿Ð¾Ð´ÐºÑĢÐµ Ð¿Ñı
Ð¿ Ð½Ð¾
ĠÐļÐ¾Ð½ ÑģÑĤÐ°Ð½ÑĤÐ¸
ĠÐºÐ»Ð¸ Ð¼Ð°ÑĤÐ¸
ĠÑģÑĥÑĤÑĢÐ¸ Ð½
Ð½Ð° Ð¼Ð¸
5 1
ÑĢÐ ·Ð¸
µ Ð´Ð½Ð¾
ĠÐ³ÑĢÐ° ÑĦÐ¸
ĠÐ½Ð°Ð¼Ð° Ð»Ð¸
ĠÐ²ÑĬÐ·Ð´Ñĥ Ñħ
ĠÐ±Ð¾ Ð³Ð°
Ġd e
Ð² Ð½Ð¾ÑģÑĤÑĤÐ°
ĠÐ¦Ðµ Ð½Ð°
ĠÐŁÑĬÑĢÐ²Ð ¾
ĠÐłÑĥ Ð¼ÑĬ
¸Ð ¸ÑĤÐµ
ĠÐ¿Ð¸Ñģ Ð¼Ð¾
ĠÐĳÐ¾ ÑĤÐµÐ²
ĠÐºÐ²Ð°Ð»Ð¸ ÑĦÐ¸ÐºÐ°
as s
ĠÑģ ÑĩÐ¸ÑĤÐ°
ÑģÐºÐ¾ Ð¿
±Ð ¸Ñı
ÑĪÐ° Ð²Ð°ÑĤ
Ġ ....
ÑĬÑĢÐ ºÐ°
ĠÐ½Ð° Ð´ÐµÐ¶
ĠÐ¼Ð° ÑĢÐºÐ¸
ĠÑģÑĤÑĢÐ° Ð½Ð¸ÑĤÐµ
ĠÐ½Ð°Ð¿ÑĢÐ° Ð²Ð¾
ĠÑģÐ¾ Ð·Ð´Ð°
ĠÑĤÐµÐ»ÐµÐ²Ð¸ Ð·Ð¸Ñı
ĠÑģÑĤÐ° ÑĢÐ°
ĠÐ½Ð°Ð³ÑĢÐ° Ð´Ð¸
ĠÐ¿Ðµ ÑģÐ½Ð¸
ĠÑħÑĢÐ¸ÑģÑĤÐ¸ Ñı
ĠÐ²Ð»Ð¸Ñı Ð½Ð¸Ðµ
ĠÐĹ Ð»Ð°
ĠÑĢÐ° Ð·Ð¾
ÑĢÐ°Ð· ÑıÐ²Ð°
ĠÐłÐ° Ð±Ð¾
ĠÑģÑĤÑĢÐ°Ð½Ð¸ ÑĨÐ°
ÑĬÑĢÐ ³Ð¾
ĠÑĦÐ° ÐºÑĤÐ°
ĠÑģÐ¼Ð° ÑĢÑĤ
ĠÑĨÐ¸ ÑĦ
p e
ĠÐ¾Ð±Ðµ ÐºÑĤ
ĠÐŁÐ»Ðµ Ð²ÐµÐ½
ĠÐ½Ð° ÐºÑĢÐ°Ñı
Ð½Ð° Ð»Ð¸ÑĤÐµ
ÑĢÐµ Ð½Ðµ
ÑĢÐ° Ð¼Ðµ
E D
ÑĤÐµ Ð»Ð¾ÑĤ
ĠÐĿÐ¾Ð²Ð¸ Ð½Ð¸
Ĥ ÑĬÐ½
Ñ ĤÑĬÐ½
Ð´Ð¾ Ð½Ð°
ĠÐºÐ¾ Ð»ÐºÑĥ
ĠÐķ ÐºÑģ
ÑĢÐ¾ Ð´Ð¸
ķÐ¢Ð ŀ
ĠÐ¿Ð¾Ð»Ð¸ÑĤÐ¸ ÐºÐ°ÑĤÐ°
ĠÐ¼Ð¸Ñģ ÑĬÐ»
ĠÐ¾Ð±ÑĢÐ°ÑĤ Ð½Ð¾
ĠÐĹÐ ¾
ĠÐ¸Ð·Ð¸ÑģÐºÐ²Ð° Ð½Ð¸Ñı
Ð³Ð¾ Ð»Ðµ
ĠÐ¿Ð¾ ÑĩÐµÑĤÐ¾
ĠÐ¸Ð·ÑģÐ»ÐµÐ´ Ð²Ð°Ð½Ðµ
ĠÐļÑĢÐ° ÑģÐ¸
A T
ĠÑĪÐ°Ð½ Ñģ
ĠÐ½Ð° ÑĤÑĢÑĥ
ĠA r
ĠÐ²Ð¾ Ð·Ð¸
ĠÐ´Ð¾ Ð
ĠÐ²Ð¸ ÐºÐ°
ĠÐ¿ÑĢÐ¾ÑĨÐ µÐ½ÑĤÐ°
ĠÐĹÐ µ
ĠÐ¼Ð¸Ð½Ð° Ð»Ð¾ÑĤÐ¾
ĠÐ³Ð¾Ð´Ð¸ Ð½Ð¸ÑĤÐµ
ĠÑĤÑĬÑĢÑģÐµ Ð½Ðµ
ĠÐĴÑĬ Ð¿ÑĢÐ¾
) :
ĠÐ¿Ð¾Ð´Ð³Ð¾ ÑĤÐ¾Ð²ÐºÐ°
ĠÑĦÑĥÐ½Ðº ÑĨÐ¸Ð¸
ÑħÐ²ÑĬÑĢÐ »Ð¸
Ġ4 8
ĠÐ° Ð´Ð°
ĠÐ¿ÑĢÐ¸Ð µÐ¼Ðµ
Ð² ÑĥÐ²Ð°
ĠÐŁÑĢÐ¾ Ð´Ñĥ
Ġ =
ĠÑĥÑģÑĤÑĢÐ¾Ð¹ ÑģÑĤÐ²Ð°
ĠÐ¿ÑĢÐ¾Ð´ÑĬÐ»Ð¶Ð° Ð²Ð°ÑĤ
ĠÐ½Ð¸ Ð²Ð¾ÑĤÐ¾
ĠÐ±Ð»Ð¾ Ðº
Ġ ÑĩÐ¾
ĠÐºÑĢÐµ Ð
ĠÐ´Ð ¶Ð
Ð½ ÑģÑĤÐ²Ð¾ÑĤÐ¾
ĠÐ¡ÑĤÐ° Ð½Ð¸
ĠÑģÑĤÐ° Ð´Ð¸Ð
Ð»Ð¾Ð¶Ðµ Ð½Ð°
Ð¼Ð¾ ÑĢ
ĠÐ½Ð°Ð¿ÑĢÐ°Ð²Ð¸ Ð¼
ĠÐĲ ÐĶ
ÑĩÐ¸ Ð»Ð¸
ÑģÑĤÐ¾ Ð²Ð¸
Ð¼Ð¾ Ð²Ð¸
ĠÐºÐ¾ ÑģÐ°ÑĤÐ°
ĠÐ±ÑĬÐ»Ð³Ð° ÑĢÑģÐºÐ°
ĠÐ³Ð»Ð° Ð²ÐµÐ½
ĠÐ¾ÑģÑĤÐ° Ð½Ð°Ð»Ð¸
¾ ÑĢÑĬ
ĠÐ¡ ÑĬÑĢÐ
en d
ĠÐ¹ Ð
¢Ð Ĳ
ĠÐ°ÑĢÐ¼Ð ¸Ñı
ÐºÑĤÐ¾ ÑĢÐ¸ÑĤÐµ
Ð·Ð¸ Ð´ÐµÐ½ÑĤ
ĠÐ½ÑıÐºÐ¾ Ð³Ð°
ĠÐ¿Ð¾ Ð¿Ð°
ÑģÑĤÑĬ ÑĢÐ°
ĠÐ¾ Ð½Ð¸Ðµ
Ðº ÑĤÐµÐ½
Ð»Ð¸ ÐºÐ°
ĠÑĪÐ¾ Ñĥ
ĠÐ²ÑĢÑĬÐ· ÐºÐ¸
ĠÐ¾Ð¿ÑĤÐ¸ Ð¼Ð¸
Ð²Ð¾ ÑģÑĤ
ĲÐ ľÐ
ĠÐĹÐ´ÑĢÐ° Ð²ÐµÐ¹ÑĤÐµ
Ð¿Ð¾ Ð»Ð°Ð³Ð°
ĠÐŁÐ¾ ÑĢÐ°Ð´Ð¸
ÑĬÐ³ ÑĬÐ»
Ġ 00
ĠÐ³Ð¾ ÑģÑĤÐ¸ÑĤÐµ
ĠÐķÐ²ÑĢÐ¾Ð¿ÐµÐ¹ ÑģÐºÐ°ÑĤÐ°
ĠÐ½ÐµÐ¿ÑĢÐµ ÐºÑĬÑģÐ½Ð°
ÑĢ Ð½Ð¾ÑģÑĤÑĤÐ°
ĠÐ¢Ð¾ ÑĩÐ½Ð¾
Ð± Ð½Ð¸ÑĤÐµ
ĠÐ¸ ÑģÑĤÐ°
ÑĢÐ°Ñ ļÐµÑĤÐ¾
ĠÐ´ÑĢÑĥÐ³Ð¸ Ñı
ĠÐ¿Ð¾Ð²ÑĤÐ¾ ÑĢÐ½Ð¾
ÑģÐ¾ Ð²ÐµÑĤÐµ
k o
ĠÑģÐ²ÑĬÑĢ ÑĪÐ¸
ĠÐĿÐ° ÑĢÐ¾Ð´
ĠÐ²Ð»Ð° ÑģÑĤÐ¸
ĠÐ²Ð·Ð°Ð¸ Ð¼Ð¾
ĠÑĥÑĩÐ° ÑģÑĤÐ²Ð°ÑĤ
ĠÐ²Ð½Ð¸Ð¼Ð° Ð½Ð¸ÐµÑĤÐ¾
Ð´Ð ±Ð¸
Ð» ÑģÑĤÐ²Ð¾ÑĤÐ¾
ĠÐ³ Ð»Ðµ
Ð³Ð¾ ÑĢ
ĠÐŀÑĤÐ º
ĠÑĢÐ°Ð·Ð¿Ð¾ ÑĢÐµ
Ð±Ð¸Ð ¾
ĠÐ½Ð¸ ÑĤÑĥ
ĠÐ½Ð° Ð¼Ð¸ÑĢÐ°ÑĤ
ĠÐ¿Ð¾Ð´Ð¿Ð¾ Ð¼Ð°Ð³Ð°
ĠÐĴÐ»Ð°Ð´Ð¸ Ð¼Ð¸ÑĢ
ĠÐ²Ð¾ Ð·
ĠÐ½Ð°ÑģÐµ Ð»ÐµÐ½Ð¸Ðµ
ĠÐ½Ð°ÑĩÐ° Ð»Ð¾
ĠÐ¾ÑĩÐµ ÐºÑĥÐ²Ð°
ĠÐ²Ð° Ð¶Ð½Ð°
ĠÑģÑĤÑĥ Ð´ÐµÐ½ÑĤÐ¸
ķÐ ĹÐ
Ġ )
ĠÐ¿ÑĢÐ°Ð²Ð¸ Ð¼
ĠÐ·Ð° ÐºÐ»Ñİ
Ð½Ð° Ð
g ar
ĠÐ¿Ð¾ ÑĩÐµ
Ġ Q
Ð²Ð¸ ÐµÑĤÐ¾
ĠÑ ĻÑĥ
ĠÑģ ÑħÐ
ĠÐ¿ÑĢÐ¾ÑĨÐµ ÑģÐ°
Ñģ ÑĤÐ¼Ð°
ĠÐ¼ÑĬ Ð¶ÐµÑĤÐµ
ĠÐ² Ð»Ðµ
ĠÑģÑĬÐ¾Ð± ÑīÐ°Ð²Ð°
ĠÐ¿ÑĬ Ð»ÐµÐ½
ÑĢÐ°Ñ ī
ĠÐ·ÐµÐ¼Ðµ Ð´ÐµÐ»
Ð½Ðµ Ð½Ð¸ÑıÑĤÐ°
ĠÐ·Ð²Ðµ Ð·Ð´Ð°
ĠÑģÑĤÑĢÐ° ÑħÐ¾ÑĤ
ĠÐĴÐ° Ñģ
ĠÐµÐ²ÐµÐ½ÑĤ ÑĥÐ°Ð»
ĠÐ²Ð¾ Ð¹
ĠÐ´Ðµ ÑĦÐ¸
ÑģÐ° Ð½
Ð½Ð¾ ÑģÑĤÐ°
Ð½Ð¾ Ð²Ð¸ÑĤÐµ
Ð»Ð¸ ÑģÑĤÐ¸ÑĤÐµ
ÑĢÐ° Ð±Ð¾ÑĤ
Ġ1 20
ĠÐ¸Ð½Ð²ÐµÑģÑĤÐ¸ ÑĨÐ¸Ð¸
ĠÑģÐµ Ð´ÐµÐ¼
ĿÐ ķ
ĠÐ¡ ÑĤÑĢÑĥ
ĠÐ³ÑĢÐ°ÑĵÐ° Ð½Ð¸ÑĤÐµ
ÑĢÐ¾ Ð·Ð°
Ð¹ ÑĤÐ¾
ĠÐº ÑĢÑĥ
ĠÐºÑĥÑħ Ð½Ñı
ĠÐ´ÑĢÑĥÐ³Ð¾ ÑĤÐ¾
ĠÐ´Ñĥ ÑĢÐ¸
Ð¶ Ð±Ð°ÑĤÐ°
ĠÐ·Ð°Ð³Ñĥ Ð±Ð°
ĠÐ¼ ÑĬÐ»
ĠÐ·Ð° ÑģÐ¸
ĠÐºÐ¾Ð¼ Ð¿Ð¾
ĠÐ´Ð¸ Ð³Ð¸ÑĤÐ°
ÑħÐ¾ Ð´Ð½Ð¾
ĠÐ¿ÑĢÐµÐºÐ° Ð»ÐµÐ½Ð¾
ÑĤÐ° ÑĤÐ¸ÑĤÐµ
ĠÑģÐ°Ð¼Ð¾ ÑĤÐ¾
ĠÐ½Ð°Ð² ÑģÑıÐºÑĬÐ´Ðµ
ĠÑĤÐµÐ°ÑĤ ÑĬÑĢ
Ð² ÑĢÑĬÑīÐ°
ĠÐ¿Ð¾Ð µÐ¼Ð°
ÑĥÐ °
Ð´Ðµ ÑĢÐ°
ĠÐľÐ° ÑĢÐ¸
ĠÐ½Ð° Ð·Ð°Ð´
ĠÐºÐ°ÑĤÐµÐ³Ð¾ ÑĢÐ¸Ñı
ĠÑĤÑĢÑĥ Ð´Ð°
ĶÐ ¡Ð
ĠÐ½Ðµ Ð´ÐµÐ»Ñı
ĠÐ±Ñĥ ÐºÐ²Ð°
ĠÑĥÑģÐ¿Ðµ Ð
ĠÐ¿Ð°ÑĢÑĤÐ¸ ÑıÑĤÐ°
Ñĥ ÑĢÐ°
ĠÑĢÐ°Ð±Ð¾ ÑĤÐ¾
ĠÑģÐ¸ Ð»Ð°ÑĤÐ°
? "
ĠÐ»Ð¸Ð¿ ÑģÐ²Ð°
Ñĥ Ðº
ĠÑģÐµ Ð»Ðµ
Ð¶Ð´Ðµ Ð½Ð¸Ðµ
ÑĤÐµ ÑĢÐ¸
ĠÐ¼ ÑĢÑĬ
ĠÐºÐ»Ð¸Ð µÐ½ÑĤÐ¸ÑĤÐµ
ĠÐµ ÐºÐ
Ð» Ð½Ð¾ÑģÑĤÑĤÐ°
Ð± Ñı
ĠÑĩ Ð»ÐµÐ½Ð¾
Ġ ÑĤÐ²
ĠÐłÑĥÐ¼ÑĬ Ð½Ð¸Ñı
ĠÐ¾ÑĤÐ¿Ð° Ð´ÑĬ
Ð¿Ð¾ Ð²
Ð½Ðµ ÑĢÐ¸ÑĤÐµ
Ð²Ðµ Ð»
ĠÐµÐ´Ð½Ð¾Ð² ÑĢÐµÐ¼ÐµÐ½Ð½Ð¾
ĠÐ²Ð¸Ð¶Ð´Ð° Ð¼
ĠÐ¸Ð³ÑĢÐ° ÑĩÐ¸
ĠÐļ ÑĢÑĬ
¾ÑĪ ÑĤÐ¾
ĠÐ½ÐµÐ¾Ð±ÑħÐ¾Ð´Ð¸ Ð¼Ð¸
¦Ð ĺÐ
ķÐ ¡Ð
ĠÐ²ÐµÑīÐµ ÑģÑĤÐ²Ð°
ÑģÑĤÐµ Ð½Ð¸
ĠÐŀÐŀÐ Ķ
ĠÑĦÐ ¾Ð½
ŀÐ Ļ
ĠÐ»Ð¸Ð¿ ÑģÐ°ÑĤÐ°
ĠÑĥÑģÐ¸ Ð»Ð¸Ñı
ĠÐĺÐ· ÑĢÐ°
Ð °Ð»Ð¸
ĠÐ¾Ð±Ñı Ñģ
ĠÐ¿ÑĢÐ° Ð·Ð½Ð¸
ÐĳÐ °
ÐĶÐ µ
ĠÐ½Ðµ Ð´Ðµ
ÑģÑĬ ÐºÐ°
ĠÐºÐ»Ñĥ Ð±Ð°
ĠÐĶÐ¾Ð± ÑĢÐ¸
Ġ3 3
ig ht
ĠÐĲ ÑĢ
OV ID
ĠÐ¸ÑģÐºÐ° ÑĪ
ĠÐ½Ðµ Ñģ
ĠÐ½Ð°Ð¼Ð° Ð»ÑıÐ²Ð°Ð½Ðµ
ĠÐ¼Ðµ ÑģÑĤÐ½Ð¸ÑĤÐµ
ĠF acebook
8 8
ĠÐ¿Ð¾ÑģÐµ ÑĤÐ¸ÑĤÐµ
ĠÐ² Ð½Ðµ
Ñı ÑģÐ½Ð¾
Ñģ Ð²Ð°Ð½Ðµ
E N
ĠÑģÐ¸ Ð»ÐµÐ½
ĠÑĥÑĩÐ° ÑģÑĤÐ¸ÐµÑĤÐ¾
ĠÐ´Ð¾Ð±Ð° Ð²Ñı
ĠÐ¼Ð¾ Ð¸ÑĤÐµ
ÐĿÐ ¸
E S
ÑĢÐ¾Ñ ĺÐ°
Ð½Ð¸Ð ¸ÑĤÐµ
ĠÑĥ Ð¼Ð¾
ĠÑģÐ»Ñĥ Ð¶Ð±Ð°
ĠÐ° Ð¼Ð¸
ÐºÑĥÐ» ÑĤÐµ
ĠÐ¿ÑĢÐµÐ´Ð¾ ÑĤÐ²
ÑĢÑĥ Ð¼
ĠÐ¾ÑĤÐ ¿Ð
ÑĢÐ¾Ñ ĨÐ
Ð¿ Ð²Ð°Ð½Ðµ
±Ð ¸ÑĤÐµ
ĠÐ±ÑĢÐµ Ð¼ÐµÐ½
ĠÑĢÐµ Ð²Ð¾Ð»Ñİ
ĠÐ¿ÑĢÐ¾ÐºÑĥÑĢÐ¾ ÑĢ
ĠÐº ÑĢÐ°Ñ
ĠÑĺÐ° Ñģ
ÑĢÐµ Ð½Ð¸ÐµÑĤÐ¾
ĠÑģÑĬ ÑħÑĢÐ°
ĠÐ±Ð¾ ÑĢÐ±Ð°ÑĤÐ°
Ð´Ðµ Ð½Ðµ
Ð´Ðµ Ð½Ð¸ÐµÑĤÐ¾
Ð¼Ð¸ Ð½Ðµ
Ðĺ Ð¼Ð°
ĠÐ°ÑĢ ÑħÐ¸
īÐ ¸
ĠÐ»Ð¸ ÑĩÐ½Ð¾ÑģÑĤ
°Ñ ļÐµ
O R
ĠÑĦÑĥÑĤÐ±Ð¾ Ð»
Ñ ŁÐ
Ð½ÑĨ Ñĥ
ĠÐ²ÑĬ Ð¾Ð±ÑīÐµ
ĠÐ¼Ð¸Ñģ Ð»Ð¸ÑĤÐµ
ÐĴÐ ¾
ĠÐºÐ¾Ð½ÑĨÐµ Ð¿
ÑĤÐµ Ñħ
ĠÑĨÐ¸ Ð²Ð¸
ĠÐ¼Ð°Ð» ÐºÐ¸ÑĤÐµ
Ð¼ÐµÑĤ ÑĬÑĢ
ĠÐ¸ Ð´Ð²Ð°ÑĤ
µ ÑĨ
ĠÐ¿Ð¾ ÑĤÐ¾
ÑĬÑ Ħ
Ð»Ðµ ÑĤÐ¾
ĠS h
Ð½ÑĤ ÑĢÐ¾
Ġ on
ÑĢÐ¸Ð µÐ¼
u st
Ġ3 9
ĠÐĳÐ»Ð°Ð³Ð¾ ÐµÐ²Ð³ÑĢÐ°Ð´
ĠÐ¿Ð¾ÑģÐ»Ðµ Ð´Ð¾Ð²Ð°
ĠÐ¼Ð¾ ÑĤÐ¸Ð²Ð¸
ÑģÑĤÐ° Ð½Ð¾Ð²
Ġ200 6
ĠÑĥÐ¼Ðµ Ð½Ð¸Ñı
ĠÐ¿ÑĢÐµÐ´ ÑģÑĤÐ¾Ñı
ªÐĽÐ ĵÐĲÐłÐ
ĠÐĳ ÑĢÐµ
ĠÐĿÐ °Ñĺ
?? ?
ĠÐºÐ°ÑĤÐ°ÑģÑĤ ÑĢÐ¾ÑĦÐ
ĠÐ·Ðµ Ð¼Ñı
ĠÐ²Ð¸ ÑģÑĤÐ¸
ĠÐ²Ð·Ð¸ Ð¼Ð°
ĠÐ¾ÑĤÐ³ Ð»Ðµ
ÑĤÐµÐ» Ð½Ð¾ÑģÑĤ
ĠÑģÑĬ ÑīÐ¸ÑĤÐµ
ĠÐ¼Ð° Ð·Ð½Ð¸
Ð¿Ð»Ð¸ ÐºÐ°
ĠÑĢÐµ ÐºÐ°
ÑĢÐ³Ð ¸Ñı
ĠÐ¾ÑĢÐ³Ð°Ð½Ð¸ Ð·Ð¼Ð°
ĠÐ½ÐµÐ³Ð¾ Ð²Ð¸Ñı
ĠÐŁÑĥÐ±Ð»Ð¸ ÐºÑĥÐ²Ð°
ĠÑģÐ¾ÑĨÐ¸Ð °Ð»Ð¸
ĠÐ¼ÐµÑĩ ÑĤÐ°
ĠÐ³Ð¾ Ð»ÐµÐ¼
ĠÐŁÑĢÐ¾ Ð¸Ð·
Ð²Ð° Ð°ÑĤ
ĠÐ¿ÑĢÐ¾ÑĨÐµ ÑģÐ¸
ĠÐ¾Ð±ÑĢÐ°Ð· ÑĥÐ²Ð°
Ð»Ðµ ÑĤÐµ
Ð»Ð¾ Ð½Ð¸
ĠÐ¿ÑĢÐ¸ÐµÐ¼Ð° Ñ
ĠÐ¿ÑĢÐ¸ÐµÐ¼Ð°Ñ Ĥ
ĠÐ¼Ð°Ð³Ð¸ ÑģÑĤÑĢÐ°
ÑģÐµ Ð½Ð¸
ĠÑģÑĢÐµ ÑīÐ¸
Ð½Ð° Ð¹
ĠÑĨÐ²ÐµÑĤÐ¾ Ð²Ðµ
Ð´Ð¾Ð± ÑĬÑĢ
ĠÐ¼Ð° ÑĢÐºÐ°
ĠÐ¡ÑĬ Ñģ
ĠÑģ ÑĢÐ¾
Ð ¾ÑĢÑĬ
ĠÐ·ÐµÐ¼ ÑĺÐ°
ĠÐ·Ð°Ð¿Ð¾ Ð²ÐµÐ´
ÑĢÐ°Ð±Ð¾ ÑĤÐºÐ°
ĠÐ¸Ð½ÑĦÐ¾ÑĢÐ¼Ð° ÑĨÐ¸ÑıÑĤÐ°
Ð· Ð¼Ð¸
ĠÐŁÑĬÑĢÐ²Ð ¸
ĠÐ¿Ð¾ Ð´Ð¸
Ġ re
ĠÐĲÐ½Ð³ Ð»Ð¸Ñı
ÑĢÑ Ħ
ĠÐ¿Ð¾Ð»Ð· Ð²Ð°
ÑħÐ¾ Ð²Ðµ
Ġ r
ĠÐ´Ð¾Ð¿ÑĬÐ» Ð½Ð¸
Ð´Ð¸ Ð¼
ÐºÐ¾ Ð»
ÑĢÑı Ð·Ð°
ĠÐ½Ð° Ð¿Ñĥ
Ð ¨
Ð³ ÑĥÐ²Ð°
Ð¿ Ð½Ð°
ķÐ ĵÐ
ĠÐ¸Ð· Ð¿Ð¸ÑĤÐ°
ĠÑģÐ¾ Ð»
ĠÐ´ÐµÐ½Ðµ ÑģÐºÐ°
ÑħÐ ¸Ñı
ĠÑĨÑĬÑĢÐº Ð²Ð°
ĠÐ¥Ð¾ ÑĢÐ°ÑĤÐ°
ĠÑģÑĬÐ·Ð´Ð° Ð²Ð°Ð½Ðµ
ĠÑĦÐ° Ð·Ð°
ĠÐ·Ð° ÑĤÑĢÑĥ
ĠÐ°Ð´Ð¼Ð¸Ð½Ð¸ÑģÑĤÑĢÐ° ÑĨÐ¸Ñı
Ð³Ð»Ðµ Ð´Ð¸
ĠÐ¿ÑĢÐ¸ÑĩÐ¸ Ð½Ð°ÑĤÐ°
ĠÐ¿ÑĢÐ°Ð· Ð½Ð¸Ðº
ĠÐ¿Ð¾ÑĢÑĬ ÑĩÐºÐ°
ĠÐ²ÑĬÐ· Ð¿Ð¾Ð»Ð·
ĠÐ´Ð ¸Ðµ
ÑĢ Ð½Ð¸Ðº
Ð¼Ðµ ÑĤÐ¾
ÑĢÐ ±Ðµ
ŁÐ ľÐ
ĠÐ¾ÑĤÐºÐ° ÐºÐ¾
Ð¼ Ð½Ð°ÑĤÐ°
ĠÐ²Ð¸ÑģÐ¾ Ðº
ĠÐ¾Ð¿ÑĢÐµÐ´Ðµ Ð»Ð¸
ÑĢÐ¸ Ð·Ð¾
ĠÑĤÑĬÑĢÐ³Ð¾ Ð²ÑģÐºÐ¸
Ð¼Ð¾ Ð½
ĠÐ½Ð° ÑĢÐºÐ¾
ÑģÑĤÐµÐ¿ÐµÐ½ Ð½Ð¾
ĠÐ²ÑĬÐ· Ð¿
ĠÐ´Ð ¾Ñĺ
Ð»Ð ±Ð¸
ĠÑĩÐµÑĤÐ² ÑĬÑĢÑĤ
ĠÐ¿Ð¾ ÑĤÐ¾Ð°
Ð»Ð¸ Ð½Ð¸
ĠB G
ĠÑģ ÐºÐ»Ñİ
Ð»Ð¾ ÑģÑĤ
Ĥ Ð½Ð¸Ñı
Ñ ĤÐ½Ð¸Ñı
ĠÐºÐ°Ð·Ð° Ð½Ð¾
ĠÑĢÐµÐ´Ð¾ Ð²Ð½Ð¾
ĠÐº ÑĢÐ¸ÑĤÐµ
ĠÑģÐ ¾ÑĨÐ¸ÑĺÐ°
ĠÑĦÐ¸Ð»Ð¾ ÑģÐ
µ Ð²Ð°
Ð³Ð¾Ð´Ð¸ÑĪ Ð½Ð°ÑĤÐ°
ĠÐ¿ÑĢÐµÐ´Ð¸ Ð¼Ð½Ð¾
Ð¿ Ð²Ð°
ĠÑģ Ð½Ðµ
7 7
ĠÐ±Ð° Ðº
ĠÐł ÑĬ
ĠÐ² Ð½Ñĥ
ĠÐ° Ð²Ð¸Ð
ĠÐŀ Ð¢Ð
ĠÑģÑĬÐ¾ ÑĢÑĬ
ĠÐ¾ÑģÐ½Ð¾ Ð²Ð°ÑĤÐ°
ĠÐµ Ð·Ðµ
ĠÐ¼Ð¸ ÐºÑĢÐ¾
ĠÐ§Ð¾ Ð²Ðµ
ĠÑĢÐ° Ð²Ð½Ð¸
Ð½ Ð½Ð°ÑĤÐ°
ĠÐ¾ÑģÐ½Ð¾Ð²Ð° Ð½Ð¸Ðµ
ĠÐ¼Ð¾ Ð»Ñı
Ð³Ð¾Ð´Ð¸ÑĪ Ð½Ð¸ÑıÑĤ
ĠÑĥÐ´Ð° ÑĢÐ¸
ĠÐŁÐ° Ð·Ð°
ĠÐ¸Ð·Ð²Ðµ ÑģÑĤÐ½Ð¸
Ðŀ Ñ
ÐŀÑ Ĥ
Ð¿Ðµ Ñ
ĠÑĦÐ¸Ð» Ð¼Ð¸
ĠÐ½Ð°Ð¼Ðµ ÑĢÐ¸ÑĤÐµ
" )
ĠÐºÑĢÐ°Ñ ĺÐ¾ÑĤ
ĠÐ·Ð°Ð¿Ð° Ð·Ð¸
Ð¥Ð ¾
ĠÑĢÐ°Ð·Ð»Ð¸ ÑĩÐµÐ½
ĠÐ¸Ð¼ Ð¿Ðµ
ĠÐ£Ð ¸
ĠÐ²Ð¸ÑģÐ¾ ÑĩÐ¸Ð½Ð°
Ð¿ÐµÑ Ĥ
ĠC OVID
Ð²Ñĥ Ð²Ð°ÑļÐµ
Ð²Ðµ Ð·
ĠÐ¿Ð¾ÐºÐ¾ Ð»ÐµÐ½Ð¸Ðµ
Ð½Ñı Ð²Ð°Ð½ÐµÑĤÐ¾
ĠÑħÐ°ÑĢÐµÑģ Ð²Ð°
ĲÐ ĶÐ
Ð·Ðµ Ð»
ķÐĿÐ ĺÐķ
ĠÐ¿Ð¾Ð»Ñĥ ÑĩÐ°ÑĤ
ÑĩÐ ¾ÑĤ
ĠÑģÑĬÐ³Ð»Ð° ÑģÐ½Ð¾
ĠÐ¢ ÑĢÑĥ
ro s
ĠÐ»Ð° Ð³Ðµ
ÑĢÐ¸Ð ¾ÑĤ
Ð½Ð ·Ð°
200 9
ĠÑģÑĬÑĢ ÑĨÐµ
ĠÐ¾ÑĨÐµ Ð½ÐºÐ¸
Ð»Ñı Ð·
ĠÐ¿ÑĢÐ¾ÑĤÐ¸Ð²Ð¾ Ð¿Ð¾
ĠÐ½Ðµ Ð²Ð¸
ĠÐ¸Ð·Ð¿Ð¾Ð»Ð· Ð²Ð°Ð½ÐµÑĤÐ¾
ĠÐ´Ð¸Ñģ ÑĨÐ¸Ð¿Ð»Ð¸
ÐłÐ ¾
ĠÐŁÑĢÐ¾ Ð±
Ñĩ ÑĬÑĤ
Ð³Ð° Ð½ÐµÑĤÐ¾
ĠÐ¸Ð· Ð»Ð¾
ĠÐ·Ð° Ð¼Ð¸Ð½Ð°
ĠÐ²Ð¾ Ð»Ñı
ĠÑģÐµÐ¼Ðµ Ñĺ
ÑĩÐºÐ¸ Ð¾ÑĤ
ĠÐ¸Ð·Ð²ÑĬÑĢ ÑĪÐ¸
ĠÑģÐµÐºÑĥ Ð½Ð´Ð¸
ĠÐµÐºÑģÐ¿Ðµ ÑĢÐ¸
ĠÐ¸Ð¼Ðµ Ð½Ð°
ĠÑĦÐ°Ð» ÑĪÐ¸
ĠÐ¿Ð¾Ð¼Ð¾Ñ Ī
ĠÐ³Ð¾ Ð»Ð°
t e
ĠÐ¼ ÑĢÐ°
ÑģÐ»ÐµÐ´ ÑģÑĤÐ²Ð¸Ðµ
¾Ñ ĵÐ°
ĠÐ½Ð¸ÐºÐ° ÐºÐ²Ð°
ĠÐ½Ð°ÑĢÐ¾ Ð´Ð°
ĠÐ¾ÑĤÐºÑĢÐ¸ ÑĤÐ¾
O S
ĠÑĤÑĥ ÑĢ
ÑĢÑģÐºÐ¸ ÑıÑĤ
ĠÐºÐ¾Ð¼ÑĥÐ½Ð¸ ÑģÑĤÐ¸
Ð²ÑĬÑĢÐ ·Ð°
ĠÐĶÐ¸ ÑĢÐµ
ĠÐĵÐµÐ¾ÑĢÐ³Ð ¸ÐµÐ²
ĠÐ¿ÑĢÐ¸Ð µ
ĠÐ¼Ð°ÑĪÐ¸ Ð½Ð°
ĠÐ¿Ð¾ ÑģÑĤÑĢÐ°
ĠÐĶÐ¶Ð ¾Ð½
ĠÐ²Ð½Ð¸Ð¼Ð° ÑĤÐµÐ»Ð½Ð¾
ĠÐ´ÑĢÐµ ÑħÐ¸
ĠÑĢÑĬÐºÐ¾Ð²Ð¾Ð´ ÑģÑĤÐ²Ð¾ÑĤÐ¾
Ð¼Ð± Ñĥ
ĠÐ¿Ð¾ÑĤÑĢÐµÐ±Ð¸ÑĤÐµ Ð»Ð¸
ĠÑĢÐ°Ð· Ð½Ð¸
ĠÑģÑĢÐµÐ´ ÑģÑĤÐ²Ð¾
ĠÑģÑĬ Ð²Ðµ
j a
ĠÐ¾ Ð¿Ð»Ð°
ĠÑĥÑĩÐ¸Ð»Ð¸ ÑīÐ°
ĠÑģÐ°Ð¼Ð¾ Ñĥ
ĠÑĥÐ¿ÑĢÐ° Ð²Ð¸
ĠÐ² Ð½Ð¾
ĠÑħÐ°ÑĢÐ°ÐºÑĤÐµ ÑĢ
u re
ÑĤÐ¸ Ð½Ð¾
ĠÐ°ÐºÑĤÐ¸ Ð²Ð½Ð¾ÑģÑĤ
ĠÑĤÐµÐ»Ðµ ÑĦÐ¾Ð½Ð°
ÑģÐ¾ Ð½
oc k
ĠÐĴÐ° ÑģÐ¸Ð»
ĠÐµÑĤÐ° Ð¶
Ñĺ Ñĥ
ĠÐŁÐ¾ Ð½Ðµ
Ġz a
ĠÑĢÐ°Ð· ÐºÐ°Ð·Ð°
ĠÐ¸Ð·Ð½ÐµÐ½Ð° Ð´Ð°
ÑĨÐ ¾ÑĤ
ĠÐ¸Ð½ÑģÑĤÑĢÑĥ Ð¼ÐµÐ½ÑĤÐ¸
ÑĦ Ñĥ
p l
ĠÑģÐµ ÑĢÑĤÐ¸
Ð¼Ñı Ð½Ð°ÑĤÐ°
ĠÐ¾Ð± ÑģÑĤÐ¾Ñı
ĠÐ¿ÑĢÐ¾ÑĨÐµÐ´Ñĥ ÑĢÐ°
ĠÐ´Ñĥ Ñħ
ĺÐĶÐ ķÐ
ĠÐµ Ð²ÑĢÐµ
ĠÐĽÑİ Ð±Ð¾
ar k
ĠÐ¾ Ð³ÑĢÐ°
ĠÑĢÐ¸ ÑģÐºÐ¾
ĠÐ° ÐºÑĥ
ĠÐµÐ²ÑĢÐ¾Ð¿ÐµÐ¹ÑģÐºÐ¸ ÑĤÐµ
ĠÐ¾ÑĦÐ ¾
ÑĪ Ñĥ
ĠÑģÐ¾ Ð¿
Ð»Ð° ÑĨÐ¸Ð¸
Ġ ;
Ð±ÑĬÑĢÐ ·Ð¾
ĠÑĢÐµÑģÑĥ ÑĢÑģÐ¸
ĠÐ¿ÑģÐ¸ ÑħÐ¸
Ð¼Ð¸Ñģ Ð»Ñı
6 6
ĠÐµÑģÑĤÐµ ÑģÑĤÐ²ÐµÐ½Ð¾
ĠÐ¾ÑĤÐ ¼Ðµ
ĠÐ½Ð¸ ÐºÐ¾
ĠÐ¿Ð¾ Ð³
ĠÑĤÐ¾ Ð³Ð°ÑĪ
ĠÑĥÐ²ÐµÐ»Ð¸ ÑĩÐ°Ð²Ð°
ĠÐ¿Ð¾Ð´ÑħÐ¾Ð´ ÑıÑī
ĠÐ¿Ð¾ ÑĤÐ
ĠÐ²ÑĬ Ð²ÐµÐ´Ðµ
ĠÐ³ÑĢÐµÑĪ ÐºÐ¸
ĠÐ·Ð´ÑĢÐ° Ð²Ð¸
ĠÐ²ÑĤÐ¾ ÑĢÐ¾ÑĤÐ¾
ĠÐ¿ÑĢÐ¾ÐºÑĥ ÑĢÐ°ÑĤÑĥÑĢÐ°ÑĤÐ°
ĠÑģÐ¾ÑĨÐ¸Ð°Ð» Ð½Ð¸
Ð½Ð°ÑĤÐ° ÑĤÐ°
ÑĩÐ¸ Ðº
ĠÐ¡ Ð»ÑĬÐ½
Ð¹ Ð´
Ġ $
Ð ¸Ð½ÑĤÐµ
ĠÐº ÑĢÐ¸Ðµ
ĠÐ¼Ð¾ ÑıÑĤÐ°
ĠÐ¸Ð½ÑĤÐµÑĢÐµ ÑģÐ½Ð¸
ĠÐ½ÑıÐ¼Ð° Ð¼
Ð¶Ð´Ð° Ð½Ð¸Ñı
ĠÐ¸Ð· Ð±ÐµÑĢÐµÑĤÐµ
ĠÐ¸Ð½ÑĤÐµÑĢÐµ ÑģÐ½Ð¾
ÑħÐ° ÑħÐ°
ĠÐ´Ð¾ÐºÐ°Ð·Ð° ÑĤÐµÐ»ÑģÑĤÐ²Ð°
ĠÐ·Ð´ÑĢÐ°Ð²Ðµ Ð¾Ð¿Ð°
ÑĢÐ°Ð±Ð¾ ÑĤÐ¸
ĠÐ¿Ðµ ÑĩÐ°ÑĤ
Ñĺ ÑĤÐµ
ĠÐ±Ð¾Ð»Ðµ ÑģÑĤÐ¸
ĠÐ²Ð° Ð¶ÐµÐ½
. :
ĠÐļ ÑĢÐ¸ÑģÑĤÐ¸
ĠÐºÐ¾Ð¼ ÑĦÐ¾ÑĢÑĤ
ĠÑĦ Ð»Ð°
U R
Ð±Ðµ Ñ
ÑĤÐ¾ ÑĩÐ½Ð°
ĠÑģÐ¿ÐµÑĨÐ¸Ð°Ð» Ð½Ð¸
ĠÐ¿Ð¾ ÑĢÑĤ
ÑĩÐ¸ Ð»
ÑĮÐ¾ ÑĢÐ¸
ÑĤÐµÑĢÐ¸Ð ¸
ĠÑģÑĤÐ¾Ð»Ð¸ ÑĨÐ°ÑĤÐ°
ĠÐ¾Ð± ÑīÐ°
Ð½Ðµ Ð»
ĠÐ¼Ð¸ Ð½
ĠÐ¸Ñģ Ð¿Ð°
ĠÐ¿ÑĢÐ¸ÑģÑĬ ÐµÐ´Ð¸
Ð±ÐµÑ Ĥ
ĠÐ¿Ð¾Ð´ ÑĢÐµ
ÐłÐ° Ð·
ĠÐ´Ð¾ÑģÑĤÐ° Ð²ÐºÐ°
om e
Ð²ÑĬÑĢ ÑĪÐµÐ½
ĠÐ¦Ðµ Ð½ÑĤÑĢÐ°
ĠÑĢÐ°Ð±Ð¾ÑĤ Ð½Ð¸ÑĨÐ¸
ĠÐ½Ð° ÐºÐ°ÑĢÐ°
Ðº ÑĨÐ¸
ĠÐĳÐµ ÑĪÐµ
ĠÐ¢ÑĬ Ð¹
ĠÑĪ Ñĥ
ĠÐ´Ð¾ Ð¿ÑĢÐ¸
ĠÐ¿Ð¾ ÑģÑĤÐ¾ÑĺÐ°
ĠÑĩÑĥÐ² ÑģÑĤÐ²Ð¾
ĠÐķÐ £
Ġ25 0
ĠÐ¿Ð¾Ð»Ð¸ÑĤÐ¸ ÑĩÐµÑģÐºÐ°
ĠÑĢÐ°Ð· Ñĥ
ĠÑģÐ²Ð¾Ð µ
Ġ www
ĠÐ¿Ðµ ÑĩÐµ
ĠÐ¿ÑĢÐ° Ð²Ñı
ĠÑģ ÐºÐ»Ð¾
ÑĤÐ»Ð ¾
Ð±Ðµ ÑĢÐ°ÑĤ
ĠÑģÑĬÑģÑĤÐ¾Ñı Ð½Ð¸ÐµÑĤÐ¾
ĠÐ¾Ð¿Ð° ÑģÐ½Ð¾ÑģÑĤ
ĠÐ¿Ð¾Ð½Ðµ Ð´ÐµÐ»Ð½Ð¸Ðº
ĠÐ¾ Ð³Ð»ÐµÐ´Ð°
ĠÐĳÐ ĵ
ÑĤÐ»Ð µ
Ĥ ¬
Ð»Ðµ ÑģÐ½Ð¾
ĲÐ Ľ
ĠÑģÐ¼ÑıÑĤÐ° Ñ
ĠÑģÐ¼ÑıÑĤÐ°Ñ Ĥ
ĠÑģ Ð½Ð°
Ð²Ð¾Ð ¸
ĠÐ¸Ð· Ñĥ
ĠÑģÐµ ÑĢÐ¸Ñı
ÑīÐ µÐ½
ĠÐ½Ð°Ð¿ÑĢÐ° Ð²ÐµÐ½Ð¸
ÑĢÐ´Ð¸ Ð½Ð°
ĠÑĥÑģÑĤÑĢÐ¾Ð¹ ÑģÑĤÐ²Ð¾
ĠÐ¤ ÑĢÐ°
ac h
ĠÐ° Ð¿Ð°ÑĢÑĤÐ°
ĠÑĦÐ¸Ð½Ð°Ð½ÑģÐ¸ ÑĢÐ°Ð½Ðµ
ĠÐ¥Ð¾ ÑĤÐµÐ»
ĠÑĦÐ° Ð¹
ĠÐ²ÐºÐ»Ñİ ÑĩÐ²Ð°ÑĤ
ĠÑħÐ¸ Ð¼Ð¸
ĠÐ°Ð²ÑĤÐ¾Ð¼Ð¾Ð±Ð¸ Ð»Ð°
ĠÐ»ÑĥÑĵÐ µÑĤÐ¾
Ð¶Ð´Ð° Ð²Ð°
ÑĬ ÑĢÐ¸
ĠÐ´Ð²Ð¸ Ð¶ÐµÐ½Ð¸ÐµÑĤÐ¾
ÑĨÐ¸Ð¾Ð½ Ð½Ð¸Ñı
ĠÐ° ÑĢÐ³Ñĥ
ŁÐľÐ ĿÐķ
ĠÐ²ÑĬÑĢ Ð½Ðµ
ĠÐºÐ¾Ð¼Ð±Ð¸Ð½Ð° ÑĨÐ¸Ñı
Ð¶ Ð±Ð¸ÑĤÐµ
Ð³Ð ¾ÑĤ
ĠÑģÑĬÐ±Ð¸ ÑĤÐ¸Ðµ
ĠÐĳÐ ªÐĽÐĵÐĲÐłÐ
ĠÐ¿ÐµÑĤ ÑĬÐº
ÑģÑĥ Ñģ
ĠÐ´Ð²Ð¸ Ð¶Ðµ
ĠÐ¼Ð¸ Ð»Ð¸
Ð» ÑĮÐ¾
ĠÐ½Ð¾ ÑģÑıÑĤ
Ð³Ð¸ Ñı
ĠÐĶÐ ĶÐ¡
Ð¡ ÑĤÐ°
ĠÐ¾ÐºÐ¾ Ð»Ð½Ð°ÑĤÐ°
ĠE x
ĺÐ Ŀ
ĠÐ¾Ð± Ð»Ð¸
' '
ĠÑĤÐ¾ Ð»ÐºÑĥ
ĠÐ¿ÑĢÐ¾ Ð²Ð¾
Ð³Ð¸Ð ¾
ĠÐ¿ÑĢÐ¾Ð¼Ðµ Ð½Ð¸ÑĤÐµ
ĠÐ¼ÐµÐ´Ð¸ÑĨÐ¸ Ð½ÑģÐºÐ¸
ĠÐ³Ñĥ Ð±Ð¸
ĠÐ±Ð¾ Ð¹
ĠÑĢÐ°Ð·Ð³Ð¾ Ð²Ð¾ÑĢ
¶Ðµ ÑĤÐµ
ĠÐ¼Ð¸ Ðº
ÑīÐ° Ð²Ð°ÑĤ
ĠÐĺÐ¼Ð° Ð¼
ĠÐ¦Ð µÐ»ÑĤÐ°
ĠÑħ Ð»Ñı
ĠÑģÐµ Ð²Ðµ
ĠÐĴÐ¸ ÑģÐ¾
ÑĤÐ¸Ð² Ð½Ð°ÑĤÐ°
ĠÐŀ Ð»Ð¸
ĠÑģÑĬ Ð±Ð¾ÑĤÐ°
ĠÐĴÑģÑı ÐºÐ°
ĠÑĤÐµ Ð±Ðµ
ÑĪ Ð½Ð¸Ð¾ÑĤ
ÑģÐµ Ð»
ĠÐ¿ÑĢÐ¾ ÑĩÐµÑĤÐµ
ÐºÑĤÐ¸ Ð²Ð½Ð¾
ÑģÑĤÐ° Ð²Ñı
p er
ĠÐ½Ðµ Ð¿ÑĢÐ¸
ĠÐ¾Ð±Ð¾ÑĢÑĥ Ð´Ð²Ð°Ð½Ðµ
ÑģÐ¾Ð±Ðµ Ð½Ð¾
ĠÐºÐ¾Ð½ ÑĤÐ¸
ÐºÑģÐµ Ð»
ĠÑĩÐµ ÑĢÐµÐ½
ĠÑģÑĬ ÑĢÐ´Ðµ
ĠÐ° Ð»Ðµ
ĠÐ¿ÑĢÐ°Ð²Ð¾ ÑģÐ»Ð°
ĠÑĢÑĥ ÑģÐ½Ð°
ĠÐ¼Ð° Ð½Ð°ÑģÑĤÐ¸
ĠÐĲ Ð»Ð
ĠÑĥÑģÐ»Ñĥ Ð³Ð°
Ð± ÑĬÐ»
ĠÐľÐ µÑĤÐ¾
r on
ÑĢÐ¾ Ð¼
ĠÐ¼Ð°Ð¹ ÑģÑĤÐ¾
Ñģ ÐºÐµ
ĠÐ²ÑĬÐ·Ð´Ñĥ ÑħÐ°
ĠÐ° ÑģÐ¸
. /
ĠÑģÐ¾ Ð´
ĠÐĶÐ °Ð½
ĠÐºÐ¾Ð½ÑĨÐµ ÑĢÑĤ
ÑĢÐµ Ð¼Ð¾
ÑģÑĤÐ²Ð° Ð½ÐµÑĤÐ¾
ĠÐ¾ÑĤ ÑģÑĤÑĬÐ¿
ĠÑĤÐµ ÐºÐ¾ÑĤ
Ð» ÑĤÐ¸
ĠÐ¿ÑĢÐ¾Ð¸Ð·Ð²Ð¾Ð´Ð¸ÑĤÐµ Ð»Ð¸
ĠÐ¼Ð¸Ð»Ð¸Ð° ÑĢÐ´Ð°
ĠÐ¼Ð¾ Ð½ÑĤÐ°
ĠÐ¾Ð±Ð»Ðµ Ðº
ĠÐ¼Ð°ÐºÑģÐ¸Ð¼Ð° Ð»Ð½Ð¾
ÐĴ ÑĬ
ĠÐ¿Ð¾ÑģÐµ ÑĤÐ¸
ĠÐ³ÑĢÐ¸ Ð¶Ð°
ĠÐĲ Ð´
ĠÐļÐ¾ Ð»ÐºÐ¾ÑĤÐ¾
ĠÐĿÐ° Ð¿ÑĢÐ¸Ð¼ÐµÑĢ
ĠÐľÐ° ÑĢÐºÐ¾
ĠÐ¼ ÑĬÑĢ
Ð¹ ÐºÐ°ÑĤÐ°
Ð¹ Ñģ
ĠÐ¾Ð± ÑĬÑĢÐ½Ð°
ĠÐ±Ð° ÑĤÐµ
ĠÐļÐ¾ Ð¼Ð¿Ð°
°Ñ ī
Ð³ Ð½Ð¾ÑģÑĤÐ¸
ĠÑģÑĬÐ¾Ð±ÑīÐ¸ ÑħÐ°
ĠÐ¿Ð»Ð¾ Ð´Ð¾Ð²Ðµ
r y
ĠÑģÑĤ ÑĬÐ»Ð
1 00
ĠÐºÐ»Ðµ ÑĤÐºÐ¸
Ð¼Ðµ ÑģÑĤÐ¾
ĠÑģÐ²ÐµÑĤÐ¾ Ð²Ð½Ð°
ĠÑĢÐ°Ð· ÑĢÑĥ
Ð½ ÑĥÐ²Ð°Ð°ÑĤ
ÑĢ ÑĨÐµ
ĠÐļ Ð½Ð¸
ÑĢÐ¾Ñ ĦÐ¸
ĠÐ·Ð°Ðµ Ð´Ð½Ð¸
ĠÑĢÐ°Ð· ÑħÐ¾Ð´Ð¸ÑĤÐµ
ĠÐ¼Ð¸ Ð³ÑĢÐ°
ĠÐ±ÑİÐ´Ð¶Ðµ ÑĤÐ°
Ġ7 5
ĠÐ¼ Ð»Ðµ
ĠÑģÐµÐºÑģ ÑĥÐ°Ð»
ĠÐĹÐ° ÐµÐ²
ĠÑĤÐµ ÑģÑĤÐ¾
A S
ĠÑĤÐ¾ ÑĤÐ°
Ð³Ð½Ð° ÑĤÐ¸
ĠÐŁÐ¾ Ð´Ð¾Ð±
ĠÐ±Ðµ Ð½Ð·Ð¸
ĠÐ·Ð° Ð´Ð¾Ð²Ð¾
ĠÐ¸Ð½ÑĤÐµ Ð»Ð¸
ĠÑĢÑĬ ÑģÑĤ
ĠÐºÐ¾ÑĢÐ¾Ð½Ð°Ð²Ð¸ÑĢÑĥ Ñģ
ĠÑģÑĬÑĤÑĢÑĥÐ´Ð½Ð¸ ÑĩÐµÑģÑĤÐ²Ð¾
ĠÐ²Ð¾ Ð´ÑıÑĤ
ĠÐ½Ð°Ð¿ÑĢÐ° Ð²Ñı
ĠÐŁÐ°ÑĢÐ¸ Ð¶
ĠÐĹÐ½Ð° ÑĩÐ¸
ĠÐŀ ÑĢÐ³Ð°Ð½Ð¸
ĠÐ´Ð¾ Ð¹
ĠÐ¿ÑĢÐ¾ÑĨÐµ Ð½ÑĤ
Ð±Ð¸ Ð»Ð¸
Ð§Ð µ
ĠÑģÐ¿Ð¸ ÑģÑĬÐº
ĠÐºÐ° Ð¼ÑĬ
Ñģ Ð²Ðµ
ĠÑĦÑĥÐ½Ðº ÑĨÐ¸Ñı
ĠÐ¸Ð½ÑĤÐµÑĢÐµÑģ ÑĥÐ²Ð°
ĠÐ·Ð°ÑĤÐ²Ð¾ ÑĢ
ĠÑĦÑĥÐ½Ðº ÑĨÐ¸Ð¾Ð½Ð°
ĠÑĨÐ¸ ÑĤÐ¸ÑĢÐ°
ĠÐ½Ð°Ð´Ðµ Ð¶Ð´Ð°
¦Ð ĺÐ¯
ĠÐ¸ÑģÐºÐ° Ð¼Ðµ
ĠÐ´Ð¾Ð³Ð¾ Ð²Ð¾
ĠÐ¶Ð¸ÑĤÐµ Ð»Ð¸
Ð´ÑĬÐ»Ð ¶Ð°
Ð» Ð½Ð¸Ð¾ÑĤ
ĠÐ³Ð¾Ð²Ð¾ÑĢ ÑıÑĤ
ÑĤÐµ Ð
ĠÑĢÐ° Ð´Ð¾ÑģÑĤ
ĠÐ´ ÑĢÐ¾
Ġp ro
ĠÑħÐ° ÑĢÐµÑģÐ°
ĠÐ¿ÑĢÐ¸ ÑĤÐ¸
ĠÐ¾ÑĢÐ³Ð° Ð½
Ð½ÑĦÐ ¸
9 8
ĠÑģÐ»Ð¾ Ð±Ð¾
Ð¿ÑĢÐµ Ð²Ð°
ĠÐ·Ð°ÑģÐµÐ´Ð° Ð½Ð¸Ðµ
Ñħ Ð½Ð°
ĠÐ´Ñĥ ÑĪÐ°ÑĤÐ°
ĠÐĶÐ µÐ»
ĠÐ¥ÑĢÐ¸ÑģÑĤÐ¾ Ñģ
ķÐĿÐ ¢Ð
Ð»Ñı Ð²Ð°Ð½ÐµÑĤÐ¾
ĠÐĿÐ¸ÐºÐ¾ Ð»Ð¾Ð²
ĠÑĥÑģ Ð¿ÑıÐ²Ð°
ĠÐ²ÑĬ Ð·Ð½Ð°
ĠÐ½Ð° Ð³Ð¾ÑĢÐµ
ĠÐĴ ÑĬÑĢ
ĠÐ´Ðµ Ð½ÐµÑģ
ĠÐµÐºÑģÐ¿Ðµ ÑĢÑĤ
ĠÐĶ ÑĬÐ»Ð
Ġ3 4
ĠÑģÑĤÐ° Ð½Ð°ÑĤ
ĠÐ´Ñĥ Ð¼Ð°ÑĤÐ°
ĠÐ±Ð¾ Ð»ÐºÐ°
Ð¼Ð¸ Ð½Ð¸ÑĢÐ°
Ġf or
ĠÐ°Ð²ÑĤÐ¾ ÑĢ
ĠÐ´ÐµÑģÐµ ÑĤÐ¸Ð»Ðµ
ĠÐ¿Ð° ÑĤÐ¸
ĠÐ¼Ð°Ð½Ð¸ Ð¿Ñĥ
ĠÐ¯ Ð¿Ð¾
ĠÐ¿Ð¾Ð·Ð¸ ÑĨÐ¸Ð¸
Ð±Ð¸ Ñı
ĠÑģÐ¸ÑģÑĤÐµ Ð¼
ĠÐºÐ¾Ð½ÐºÑĥ ÑĢÑģ
ĠÐ½Ñĥ Ð¶Ð½Ð¾
ĠÑģÐ¸Ð³Ð½Ð° Ð»
ĠÑĦÐ° ÐºÑĤÐ¾ÑĢÐ¸
Ð²ÐµÐ¹ ÑĨÐ°
ĠÐ¼Ð¾ Ð
o x
ĠÐ¾Ð±Ð»Ð° ÑģÑĤÐ¸
ĠÑĪÐ°Ð¼Ð¿Ð¸ Ð
ĠÐ¼Ð¸ Ð½ÐµÑĢÐ°
Ġ5 5
ĠÐĴ ÑĢÐ°
ĠÑģÐ¿Ð¾ÐºÐ¾Ð¹ Ð½Ð¾
Ñģ Ð»Ð¾Ð²
Ðŀ Ð±
ĠÐļÐ¾Ð¼Ð¸ ÑģÐ¸ÑıÑĤÐ°
ĠÑĢÐµÐ¶Ð¸ ÑģÑĮÐ¾
ÑĢ ÑĤÐµÐ½
ÐºÑĬ ÑīÐ¸
ĠÐ½Ð¸ ÑģÐºÐ¾
ĠÐ¾ÑĤ ÑĩÐµ
ĠÑĥ ÑĤÐ²ÑĬÑĢÐ
ĠÐ³Ð¾Ð´Ð¸ ÑĪÐ½Ð¾
ĠÐłÑĥ Ð¼ÐµÐ½
ĠÑģÐ»Ð° Ð±Ð¾
Ð½Ð¾Ð²Ðµ Ð½Ð¾
Ð´Ð° ÑĢ
ĠÐ¢Ðµ Ð
ÐĶÐ ¸
ĠÐ·Ð°Ð±ÐµÐ»Ðµ Ð¶Ð¸ÑĤÐµ
ĠÐ¸Ð· Ð²ÑĢ
ĠÐ³Ð¾ Ð´
ĠÐ±Ð °Ð»
ĠÐ¼Ð¾Ð´Ðµ ÑĢÐ½Ð¸
ĠÐ³ÑĢÐ°Ð´Ñĥ ÑģÐ°
Ð»Ð¾Ð³Ð¸ ÑĩÐ½Ð¸
ĠÐŀ Ð¿
A L
Ð·Ð½Ð° Ð²Ð°
ĠÐºÐ¾ Ð·
ĠÐļÐ¾ Ð»ÐºÐ¾
ĠÐºÐ°Ð¿Ð°ÑĨÐ¸ÑĤÐµ Ñ
ĠÐºÐ°Ð¿Ð°ÑĨÐ¸ÑĤÐµÑ Ĥ
ĠÐ¾Ð± ÑĺÐµ
ĠÐ´ÐµÑĤ ÑģÐºÐ°
ĠÐ»Ð¸ ÑģÑĤÐ°
Ð»Ðµ ÑĢÐ¸Ñı
ĠÐ·Ð´ÑĢÐ°Ð²Ð¾ ÑģÐ»Ð¾
r ess
in a
ĠÐ²ÑĬÐ·ÑģÑĤÐ°Ð½Ð¾ Ð²ÑıÐ²Ð°Ð½Ðµ
ou t
Ð·ÐµÐ½ ÑĤÐ°
ĠÐ¿ÑĢÐ¾Ñĥ ÑĩÐ²Ð°Ð½Ðµ
ĠÑģÑĤÑĬ Ð¿ÐºÐ°
ĠÐ¿Ð¾Ð»Ð¾Ð²Ð¸ Ð½
ÐºÐ¾ Ð»Ð¸
ĠÐĳÑĬÐ»Ð³Ð° ÑĢÑģÐºÐ°ÑĤÐ°
ĠÐ°ÑĢ ÑħÐ
Ð»Ð¸Ðµ Ð½ÑĤ
ĠÐ´Ð¾ÐºÑĥ Ð¼ÐµÐ½ÑĤ
ĠÐ¿Ð¾Ð² Ð´Ð¸
ĠÐ¿ÑĬÑĢÐ²ÐµÐ½ ÑģÑĤÐ²Ð¾
ĠÐ¿ÑĢÐ¾Ð¸Ð· Ð²ÐµÐ¶Ð´Ð°
ÑĤÐ¸ ÑĩÐ½Ð¾
or g
9 5
ĠÐ³ÑĬÑĢÐ ±Ð°
ĠÐ´Ð¸ Ð½Ð°Ð¼Ð¸
ÑĢÐ¾Ñ Ī
Ð¼Ð¾ Ð²Ðµ
ĠÐ¿ÑĢÐ¾ Ð¿Ð°
ĠÐ¿ÑĢÐ¾ ÑģÑĤÐ¸
ÑĤÐ¸ ÑĩÐµÐ½
ĠÐ¶Ð¸ Ð²Ð¾ÑĤÐ¾
ĠÐľÐ°Ð» ÐºÐ¾
' s
Ġi P
ĠÐ½Ð°Ð¿ÑĢÐ°Ð²Ð¸ Ð»
ĠÐºÑĬ ÑīÐ°ÑĤÐ°
ÐºÐ¾ ÑĺÐ°
ĠÑĢÐ°Ð·ÑģÑĤÐ¾Ñı Ð½Ð¸Ðµ
ĠÐ¾ÑģÑĤÐ° Ð½Ð°ÑĤ
Ð» ÑĺÐ°
ĠÐ² ÑıÑĤ
ĠÑĥÑĩÐ°ÑģÑĤ Ð½Ð¸ÑĨÐ¸ÑĤÐµ
ĠÐºÐ¾Ð½ÑĤÑĢÐ¾ Ð»Ð°
ĠÐ²Ðµ ÑģÑĤ
ĠÑĥÑĩÐ¸ ÑĤÐµÐ»
ĠÐ¼ÑĢÐµ Ð¶Ð°ÑĤÐ°
ĠÐ¼Ð¾Ð¼ ÑĩÐµ
ĠÐ¾Ð¿ÑĢÐµÐ´Ðµ Ð»ÐµÐ½
ĠÐ»Ð° Ð±Ð¾
ĠÐĵÐ¾ Ð»Ñı
ĠÐ½Ð°Ð ¾ÑĵÐ°
ĠÑģÐ¿Ðµ ÑĩÐµ
ĠÐ¾Ð± ÑĢÑĬÑīÐ°
ĠÐ¸Ð³ÑĢÐ° ÑıÑĤ
ķÐ Ľ
ĠÑĦÐ °Ð½ÑĤÐ°
ĠÑĢÐ¸ Ð±Ð°
Ð²Ð° ÑħÐ°
ĠÐ¿ÑĢÐµÐ¼Ð¸Ð µÑĢÐ°
ĠÐ¸Ð½ÑĤÐµ Ð½Ð·Ð¸
ĠÐ¿Ð¾ ÑĢÐµÐ´Ð¸
ĠÐĵ ÑĢ
ĠÐ´Ð¸ ÑģÑĤÐ°Ð½
ĠÐ»Ð¸Ð¿ ÑģÐ°
o y
** **
ĠÐ´ÑĬÑĢÐ¶Ð° Ð²Ð½Ð¸
ĠÐ¿Ð¾Ð´Ð³Ð¾ ÑĤÐ²Ð
ĠÐĳ ÑĬ
ĠÐ¾Ð±ÑīÐ¸ Ð½ÑģÐºÐ¸
ĠÐ²Ð ¾Ñĺ
Ð²Ð¾ Ð·Ð¼Ð¾
ĠÐ¿Ð¾Ð¼Ð¾ Ð³Ð½Ð°
ĠÑĤÐµ Ð³Ð»Ð¾
ic e
ĠÐ±Ð° Ð½ÐºÐ¾
ĠÐ¿Ð¾Ð»Ð¾Ð²Ð¸ Ð½Ð°ÑĤÐ°
ĠÐºÐ¾ Ð½Ð²Ð
as h
ÑģÐ»Ð° Ð²Ð°
ĠÐ¿Ñĥ Ð½Ðº
ÑĤÐ¸ ÑĢÐ°ÑĤ
Ð»Ð° ÑĨÐ¸ÑıÑĤÐ°
ĠÐ¸Ð·Ð³ÑĢÐ° Ð¶Ð´Ð°Ð½Ðµ
ĠÑĢÑĬÐºÐ¾ Ð²Ð¾Ð´Ð¸ÑĤÐµÐ»
ĠÐ·Ð°Ð´Ð° ÑĩÐ¸
a in
ĠC om
ĠÑģÐ° Ð¼Ð°
ĠÐ¸Ð·Ð¿ÑĢÐ° ÑĤÐ¸
ĠÐ¸Ð½ ÑģÐ¿Ðµ
ÑĢÐ° Ð¼Ð¸
Ð±Ð¾ Ð²Ðµ
ĠÐ¼Ð¾ Ð¶Ð°
u c
ĠÐ´Ð¾ Ð¿ÑĥÑģÐºÐ°
ĠÑĢÐ°Ð· ÑĩÐ¸ÑĤÐ°
ÑĢÑı Ð´Ð°
Ð¡Ð ¾ÑĦÐ¸Ñı
ĠÐ¾ Ð²Ð»Ð°
n i
ĠÐ¸Ð· Ð³Ð»ÐµÐ´Ð°
ÑĢÐµ Ð½Ð´
ĠÑĥ Ð¿Ð¾
ĠÐ¸Ð·Ð¸ ÑģÐº
ĠÐ¿ÑĢÐ°Ð²Ð¸ Ð»Ð°ÑĤÐ°
ĠÐ¡ Ð¿Ð¸
Ġ6 00
ĠÐ¡ ÑĤÑĥ
ĠÐ·ÐµÐ¼ÑĺÐ ¸
ĠÐ¿ÑĥÐ±Ð»Ð¸ ÐºÐ°ÑĤÐ°
ĠÐ³ÑĢÐ°Ð½Ð¸ ÑĨÐ°ÑĤÐ°
ow s
ĠÐ²ÑĬÑĢ Ð½Ð°
ĠÐ²Ð° ÑĢÐ¸Ð
ĠÐ¸Ð·Ð¸ÑģÐºÐ²Ð° Ð½Ð¸ÑıÑĤÐ°
ĠÐĳÐ¾ Ð³Ð¾
ĠÑĤÑĢÐµ Ð²Ð¾
ÑħÐ¾ Ð¶Ð´Ð°
Ð½ÑĤ ÑĢÐ¸
ĠÐ¡ Ð²Ð¸
Ġ200 5
o k
ĠÐµÐ¼Ð¾ÑĨÐ ¸Ð¾Ð½Ð°
ĠÐłÐµ Ð³Ð¸
ÑĢÐ¸ Ñ
ĠÐ¿ÑĢÐµÐ´ ÑģÑĤÐ¾Ð¸
ÑĢÐ¾ Ð²Ð¾
¶Ð °Ð»
Ñĥ ÑĢ
ĠÐ¼Ð»Ð° Ð´ÐµÐ¶
ĠÐ°Ð½Ð° Ð»Ð¸Ð·Ð°
ĠÐ¾ÑĤ ÑĢÐ°
ĠÐ³Ð»ÐµÐ´ Ð½Ð°
ĠÐ¿ÑĢÐ° Ð²Ð¸ÑĤÐµ
ĠÐ¿Ð¾Ð´Ð¾ Ð±ÐµÐ½
ac e
Ð· Ð²Ð¾
ÑĢÐ ·Ð¾
ĠÑĦÐ¾ÑĢÑĥ Ð¼
ÑĤÐµ Ð½Ð¸ÑĤÐµ
ĠÐ²Ð ³ÑĢÐ°
ĠÑģÑĤÐ° ÑĢ
ĠÐĿÐ° Ñĥ
ĠÐĶ Ð½ÐµÐ²Ð½Ð¸Ðº
ĠÐ¾ÑĤÐ±Ðµ Ð»ÑıÐ·Ð²Ð°
ĠÐ¸Ð· ÑĢÐµ
ĠÑĩÐ¸ ÑģÑĤÐ°
ĠÐ°Ðº ÑģÐµ
ĠÐºÐ¾Ð¼ÐµÐ½ÑĤÐ° ÑĢÐ°
Ð¿Ð¸ ÑģÐ²Ð°
ĠÐ¸Ð½ÑĦÐ¾ÑĢÐ¼Ð¸ ÑĢÐ°
Ð»Ð¾Ð³Ð¸ ÑıÑĤÐ°
ĠÐ²Ð¸ Ð½Ð°
ĠÐ·Ð°Ð¼Ðµ ÑģÑĤÐ½Ð¸Ðº
ĺÐĶÐķÐ ŀ
ĠÐ¿ÑĢÐ¾ÑĦÐ¸ Ð»Ð°
ĠÐ´Ð¾ Ð´Ð°
ĠÑĤÐµ ÑģÑĤ
·Ð °Ð½
ĠÐ¿ÑĢÐµÑĤ ÑģÐµÐ´Ð°ÑĤÐµÐ»
ĠÐ±Ð¾ Ñı
ĠÐ·Ð° Ð²Ðµ
ĠÑĥÐ´Ð¾Ð²Ð¾Ð» ÑģÑĤÐ²Ð¸Ðµ
ĠÐĺ Ð½ÑĦÐ¾ÑĢÐ¼Ð°
Ð»Ð¾ Ð³Ð°
Ð· Ð¼ÑĬÑĤ
µ Ð½Ð¾
ĠÐµ ÐºÑĢÐ°
ĠÐĺ Ð´Ðµ
ÑĩÐ¸ Ñı
ĠÑģÐ¿ÑĢÐ° Ð²Ð¸
ĠÐ½Ð¾ ÑīÑĥ
ĠÐºÐ°ÑĢÐ¸Ðµ ÑĢÐ°
ĠÐ¿Ð¾ÑģÐ»ÐµÐ´ Ð½Ð¾ÑĤÐ¾
ĠÐĺ Ð¼ÐµÐ½Ð½Ð¾
ĠÑĤÐµÑħÐ½Ð¾Ð»Ð¾Ð³Ð¸ Ñı
ĠÐº ÑĢÐ°Ñĺ
ĠÑģÑĬ Ñī
Ð¶Ð´Ðµ Ð½Ð¸Ñı
ĠÐ¿Ð¾Ð·Ð½Ð° ÑĤÐ¸
ĠÐĺÐ·ÑĢÐ° ÐµÐ»
ĠÐ²Ð° Ð»Ñĥ
ĠÐ¨Ð ¾
i es
ac t
ÐºÐ° Ð»
ĠÐ¡ÑĬÑĢÐ ±Ð¸Ñı
ĠÐ¼Ð¾ ÐµÑĤÐ¾
Ð¶ ÐºÐ°ÑĤÐ°
ĠÐ¿ÑĢÐ²Ð ¸Ð¾ÑĤ
ĠÑĤÑĢÐµ ÑĤÐ°
Ġ Ð¶Ð°Ð»
ÑĬÐ» ÑĬÐ³
ĠÐļÐ° ÑĤÐµ
ĠÐ¼Ð°Ð» ÐºÑĥ
ĠÐ¿ÑĢÐµÐ¿Ð¾ÑĢÑĬ ÑĩÐ²Ð°
ĠÐ¼ÑĥÐ·Ð¸ ÐºÐ°ÑĤÐ°
un g
ĠÐ½Ðµ Ð´Ð²Ð¸Ð¶Ð¸
Ð¶Ñĥ Ð²Ð°ÑļÐµ
Ð·Ð¸ ÑĺÐ°
ÑĤÐ° ÑĢÑı
ĠÐºÐ¾Ð½ÑĤÑĢÐ¾ Ð»Ð¸ÑĢÐ°
ĠÐ»Ðµ Ðº
ĠÑĨÐ µÐ½ÑĤÐ°
ĠÐ±Ð¾ ÑĢÐ¸
Ð ¾Ñģ
ĠÐ½ÐµÐ¿ÑĢÐµÐºÑĬÑģÐ½Ð° ÑĤÐ¾
Ñ ĭ
i b
ĠÐĴÐµ ÑģÐµ
ĠÐºÐ»Ð¸ Ð½Ð¸
ĠÐķÐ²ÑĢÐ¾ Ð¿
ĠÐ½ÐµÐ³Ð° ÑĤÐ¸Ð²Ð½Ð¸
ĠÐ° ÑĢÐ°
ÑĢÐºÐ µ
Ð´ÑĢÐ¸ Ð´
ĠÐ¿ÑĢÐµÐ ¾Ð´Ð¾
ĠÑĥÐ»Ð¸ ÑĨÐ°
ĠÐĳÐ° ÑĢÑģÐµ
Ð ¯
ĠÐĴ ÑĢÐµÐ¼Ðµ
ĠÐ½Ð°ÑĢÑĥ ÑĪÐµÐ½Ð¸Ñı
ĠÐ½Ð¸ Ð²Ð½Ð¸ÑĤÐµ
ĠÐ¸Ð·ÑĤÐ¾Ñĩ Ð½Ð¸ÑĨÐ¸
ĠÐ²ÑĢÑĬ Ñħ
ĠÐºÐ¾Ð»Ð¸ ÑĩÐµ
ĠÐ½Ðµ Ð¿ÑĢÐ°Ð²Ð¸
ĠÑĤÐ¾ Ð¿Ð»Ð¾
ĠÐ¼Ð¸ Ð³
ĠÐºÐ° Ð½Ð°
ĠÐºÐ° Ð»Ðµ
ÐºÐ° Ð»Ð¸
Ð¿ÑĢÐ¾ ÑĤÐ¸Ð²
on d
ĠÐ½Ð°Ð¿ÑĢÐµ Ð¶ÐµÐ½Ð¸Ðµ
ÑĤÐµÐ» ÑģÑĤÐ²Ð°ÑĤÐ°
ĠÐ° Ð»Ð°
ĠÐ° Ð¿
ĠÐ¾ÑĦÐ¸ Ñģ
ĠÐºÑĢÐµÐ´Ð¸ ÑĤÐ¸
ĠÐ¿ÑĢÐ¸ Ð»Ð¾Ð¶ÐµÐ½Ð¸Ñı
ĠÐ¡ Ð²
ĠÐ¿ÑĢÐ¾Ñĥ ÑĩÐ²Ð°
ĠÐ¿ Ð»Ñĥ
ĠÐĴÐ° Ð»ÐµÐ½
ĠÑĤÐ° Ð»Ð°
ĠÐ±Ñĥ ÑĤÐ¸
ĠÑĤÐµÐ¼Ð¿Ðµ ÑĢÐ°ÑĤÑĥ
ĠÑĩÐ° ÑģÐ¾Ð²Ðµ
ĠÐ´Ð ¶Ð¸
ĠÑĢÐ°Ð·Ð»Ð¸ ÑĩÐ½Ð¾
ĠÑģÐ»ÑĥÑĩÐ° Ð¹Ð½Ð¾
ĠÑħÑĢÐ° Ð½Ð°ÑĤÐ°
Ðº Ð»Ðµ
ĠÑģÑĬÐ·Ð´Ð° Ð²Ð°ÑĤ
Ð³ Ð»Ð¾ÑĤÐ¾
ĠÐ»ÑĬ Ð¶Ð¸
ĠÐ²ÑĬÐ·Ð¼Ð¾Ð¶Ð½Ð¾ ÑģÑĤÐ¸ÑĤÐµ
ĠÐĹÐµÐ¼ ÑıÑĤÐ°
ĠÐ´Ð¾ÑģÑĤÐ¸ Ð³Ð½Ð°
ĠÑģ Ã¨
Ð³Ð¾ Ð²Ð¾
ĠÐ¿ÑĢÐ¾ÑĤÐµ ÑģÑĤÐ¸
ĠÐ½Ð° Ð³Ð»Ð°
u e
ĠÐµÐº ÑģÑĤÑĢÐ°
ÐĲ Ð·
ĠÐºÑĢÐ° ÐºÐ°ÑĤÐ°
ĠÐ¼Ð»Ð° Ð´Ðµ
ĠÐ¿Ð¾ÑĩÐ¸ ÑģÑĤÐ²Ð°Ð½Ðµ
ĠC l
ĠÐ¿ÑĢÐµ Ð³Ð»ÐµÐ´
ĠÐ±ÑĬÐ´Ðµ ÑĤÐµ
ĠÐĳÐ¾ÑĢÐ¸ Ñģ
ĠÑĢÐµÐ³Ð¸ Ð¾Ð½
ic h
ĠÐļ Ñİ
ĠÐ° Ð¿Ðµ
ĠÐ± ÑĢÐ¸
ĠÑħÑĥÐ´Ð¾ Ð¶
ĠÐ±Ð¾ Ð
ĠÐºÐ° Ð¼Ðµ
ĠÐłÐ¸ Ð¼
ĠÑĢÑı Ð´ÐºÐ¾
ĠÐŁÑĢÐµ Ð¿Ð¾
ag e
ul t
ĠÐ¾Ð±Ñĥ Ð²ÐºÐ¸
ĠÑĤÑĬÑĢÐ³Ð¾ Ð²Ð¸Ñı
ĠÐ½Ð°ÑĩÐ¸ Ð½Ð¸
ĠÐ¡ Ð¼
Ġ** *
ĠÐ°Ð»ÐºÐ¾ÑħÐ¾ Ð»
Ġ4 6
ĠÐ¨ ÑĥÐ¼ÐµÐ½
ĠÐ¿ ÑĢÐ²
ĠSp ort
ĠÐĻÐ¾ ÑĢÐ´Ð°
ĠÑģÐ¼Ðµ Ð½Ð¸
ĠÐ½Ð° Ð¿ÑĥÑģÐºÐ°
Ĥ ÑĥÐ²Ð°
Ñ ĤÑĥÐ²Ð°
ĠÐĳÐ°ÑĢÑģÐµ Ð»Ð¾Ð½Ð°
ĠÐ¾Ð¿ÑĢÐ° Ð²Ð´Ð°
ĠÐ²Ð¸ Ð´ÐµÐ
ĠÐºÑĢÐ¸ Ð¼Ð¸Ð½Ð°
ĠÐºÑĥ ÑĢÑģ
ĠÐ³ÑĢÐ° Ð½Ð¸ÑĨÐ°
Ð½Ð¾ Ð²ÐµÐ½
ĠÑĢÐµÐºÐ¾ ÑĢÐ´
ĠÐ¿Ð¾Ð´Ð´ ÑĢ
Ð»Ð¸Ð²Ð¾ ÑģÑĤ
Ð»Ð° ÑĤÐ¾ÑĢ
Ð µÐ´Ð½Ð¾
ĠÑĥÑĩÐ°ÑģÑĤ Ð½Ð¸ÑĨÐ¸
ĠÐ¢Ðµ Ð»Ðµ
m an
ĠÐºÐ¾ Ñı
ĠÐ·Ð° Ð»Ð¸
ĠÑĤÐ¾Ð° Ð»ÐµÑĤ
ĠÑģÑĤÐ¾ ÑĤÐ¸ÑĨÐ¸
ĠÐ¼Ð°ÑĤÐµ Ð¼Ð°ÑĤÐ¸
ĠÑĩÑĥ Ð¶Ð´Ðµ
ĠÐ¿Ð¾ÑĤ ÑĬÑĢ
ĠÑģÐ¾ Ð»Ð¸
ÑĢÐ¸ Ð´Ð¸
Ð´ÐµÐ¹ ÑģÑĤÐ²Ð°
Ð¿Ð¸Ð µ
ĠÑģÐ°Ð¼Ð¸ ÑıÑĤ
ĠÑĦÐ¸Ð½Ð°Ð½ÑģÐ¾ Ð²Ð¸
r am
ĠÐ¾ Ð¿Ðµ
Ð¿ÑĢÐµÐ´ ÑģÐµÐ´Ð°ÑĤÐµÐ»
ĠÐ½Ð° Ð¿ÑĥÑģÐ½Ð°
Ð½Ð¾Ð½Ð¸ Ð¼ÐµÐ½
ra v
ĠÑĢÐ° Ð½Ð¾
ĠÐ´Ð¾Ð³Ð¾ Ð²Ð¾ÑĢÐ°
ÐĴÐ µ
ÑĢÐ´Ð °ÑĢ
ÐºÑĢÐ°ÑĤ Ð½Ð¾
ĠÑĢÐµÑģÑĤÐ¾ ÑĢÐ°Ð½ÑĤ
ĠÐ¿ Ð»ÑĬÑĤ
ĠÐºÑĢÐ¸ Ð·Ð°ÑĤÐ°
ĠÐ·Ð°ÐºÐ¾ Ð½Ð¸
ĠÐľÐ°ÑĢÑĤÐ¸ Ð½
ĠÐ¼Ð° ÑĢÑĪ
ĠÐ¼Ð¾ Ð½Ð¾
ĠÐ¾Ð³ÑĢÐ¾ Ð¼Ð½Ð°
ĠÐ²ÑĢÑĬÐ· ÐºÐ°ÑĤÐ°
ĠÑģÑĤ ÑĢÐ¾Ðµ
ĠÐ½ÐµÐ´Ð¾ÑģÑĤÐ° ÑĤÑĬ
ĠÑģÑĤÑĢÑĥ ÐºÑĤÑĥÑĢÐ°
ĠÐ¸ ÑģÐ¿Ð¾
ĠÐ¿Ð¾Ðº ÑĢÐ°Ñĺ
ĠÐ¸Ð¼Ð° Ð»Ð¸
ĠÐ·Ð°Ð¼ ÑĬÑĢ
ĠÐ² ÐºÑĬÑīÐ¸
ÑĩÐµ Ð»Ð¾
ĠÐ¡ ÑĤÐ¾Ð
ĠÐ¿Ð¾ ÑģÑĤÑĢÐ¾Ð
p t
ĠÑĤÐµÐ»ÐµÐ²Ð¸ Ð·Ð¾
Ġt h
ĠÐ°ÐºÑģÐµ ÑģÐ¾
ĠÐ¡Ð¸ ÑĢÐ¸Ñı
ĠÐºÑĬ ÑģÐ½Ð¾
Ð»Ð¸ ÑĢÐ°ÑĤ
ĠÐ¼Ð¾ Ð´Ñĥ
Ð¼Ð¸ ÑıÑĤ
ÑĪÐ °Ð»
ÑĢÐ²Ð ¾
Ð²Ð ·Ð
ĠÐŁÐ ŀ
ĠÐ±Ñı Ð»
ĠÐ¸Ð·Ð¿ÑĬÐ» Ð½Ð¸
ķÐ ¡
ĠÑģÐ¾ÑĦÑĤÑĥÐ µÑĢ
ĠÑģÐ¸ Ð»Ð½Ð°
ĠÑģÐµÐºÑĢÐµ ÑĤÐ°ÑĢ
ÐĿ Ñı
ĠÐ´ÑĬ Ð¶
ĠÑĥÐ ¸
ĠÐ¿Ð ¾Ñħ
ĠÐ´Ð¾ Ð·Ð°
7 6
ÑĢÐ´Ð °Ð½
ĠÐ¾Ð±ÑģÐ»ÑĥÐ¶ Ð²Ð°Ð½Ðµ
Ð¼ ÑĢÐ°
ĠÐ´Ð¸ ÑģÐºÐ¾
Ñĥ Ð·Ð°
ĠÐļ ÑĬÐ´Ðµ
ĠÑĩÐ¸ ÑıÑĤÐ¾
B G
ÑģÐ¿Ð¾ ÑĢÑĤ
ĠÐ¾Ð´ Ð»Ð¸
ĠÐºÐ°Ð·Ð²Ð° Ð¼
ĠÐºÐ¾ Ð´
ĠÐ¸Ð·ÑĤÐ¾Ñĩ Ð½Ð¸Ðº
ĠÑģÐ¸ÑĤÑĥÐ° ÑĨÐ¸Ð¸
Ð½ Ñģ
Ð²Ðµ Ð
ĠÐļÐ¾ ÑģÑĤÐ°
Ð»Ð¸ Ð¼
ÐºÐ° Ð½Ð¸
ĠÐ²ÑĬÑĢ ÑħÐ°
ĠÑģÐµ Ð²ÐµÑĢ
ĠÑĤ ÑĬÐ»
ĠÐ¸Ð·Ð¿ÑĬÐ» Ð½ÐµÐ½Ð¸ÐµÑĤÐ¾
ĠÑĢÐ°Ð±Ð¾ÑĤÐ¾ Ð´Ð°
ĠÐļÐ° ÐºÐ²Ð¸
ĠÐ¿Ð¾ÑģÐ¾ ÑĩÐ²Ð°
ĠÑĢÐ° ÐºÐ¾
ĠÐ¿ÑĢÐ¸ Ð½Ð°Ð´
Ġ y
ÑĩÐ° Ð²Ð°Ð½ÐµÑĤÐ¾
ĠÐ¾ÐºÐ¾ Ð½ÑĩÐ°
ĠÐĴ Ñı
s p
Ð±Ð° Ð²Ð¾
ĠÐ½Ð°ÑĨÐ¸Ð¾Ð½Ð° Ð»ÐµÐ½
ĠÑĥÐ²ÐµÐ»Ð¸ ÑĩÐ¸
Ġ6 5
ĠÐļÐ¾Ð¼ÐµÐ½ÑĤÐ° ÑĢÐ¸
ĠÐĶÐ µÑĤ
ĠÐ¿Ð¾ Ð»Ð°Ð³Ð°
ĠÑģÑĬÑħ ÑĢÐ°Ð½Ðµ
ĠÑģÐ¸Ð³Ñĥ ÑĢÐµÐ½
µ Ð»Ð°
Ð °Ð½Ð°
ĠÐ´ÑĢÑĥ Ð¶ÐµÑģÑĤÐ²Ð¾
ĠÐ¿Ð° ÐºÐµÑĤ
ĠÐ´ÑĬÐ»Ð¶Ð¸ Ð½Ð°
Ð² ÑĨÐ¸
ĠÐŀÐ± Ð»Ð°
ĠÐ²Ð¸ Ð½Ð¾Ð²
ĠÐ·Ð° ÑģÑı
ĠÐ·Ð°Ð½Ð¸Ð¼Ð° Ð²Ð°
ĠÐ½Ð° ÑģÐ°Ð¼
ĠÐ¿Ð¾ Ð¼Ð¸ÑģÐ»Ð¸
ÑģÐµÐ´Ð° ÑĤÐµÐ»Ð¾ÑĤ
ĠÐĳ ÑĢÑİ
ĠÐ½Ðµ Ð¹Ð½Ð°ÑĤÐ°
7 5
ĠÐ¿ÑĢÐ¾Ð¸Ð· ÑħÐ¾Ð´
ĠÐ¼Ð°ÑĢÐºÐ µÑĤÐ¸
ĠÑģÑĨÐµ Ð½Ð°ÑĤÐ°
v er
ĠÐ¿ÑĢÐ¾ÑĤÐ¸Ð²Ð¾ ÑĢÐµ
I T
ĠÐļÐ¾ ÑĢÐµ
f f
ĠÐ¡Ð¸ Ð³Ñĥ
Ð´Ð¾Ð± ÑĢÐ°
Ñģ Ð¼Ðµ
ĠÐ¡Ð ¾Ð±
Ð²Ð¸ Ñĩ
Ñĥ Ð´Ð¸
ĠÐĿÐµ Ð·Ð°
ĠÐ·Ð°Ð±ÑĢÐ° Ð²Ð¸
A M
ĠÑĩÑĥÐ² ÑģÑĤÐ²Ð¸ÑĤÐµ
ĠÐ¸Ð·Ð¿ÑĢÐ° ÑīÐ°
ĠÐ¶ÐµÐ»Ð° Ð
ĠÐ¸Ð½ÑĦÑĢÐ°ÑģÑĤÑĢÑĥ ÐºÑĤÑĥÑĢÐ°
ĠÑĺÐ° Ð²Ð½Ð¾
ĠÑģÐµ ÐºÐ¾Ð³Ð°ÑĪ
ĠÐ¼Ðµ Ð½Ñİ
ĠÐ¿ÑĬÑĤÐ¸ ÑīÐ°
ĠÑĤÐµ Ð»
Ð¿ÑĢÐ¾ Ð¸Ð·
ĠÐļÐ °ÑĤÐ°
ÑģÐ¸ Ð¸ÑĤÐµ
Ð¿ ÑĬÑĢ
ĶÐ¡Ð ľ
ĠÐ´Ð²Ñĥ Ð±Ð¾
ĠÐ¾ÑĤÐº ÑĬÐ´Ðµ
ÑĢÐµ ÑĨÐ°
ĠÐŁÑĬÑĢÐ²Ð °
ÑĢÐ° Ð»Ð¸
ĠÐ² ÐºÐ°ÑĢÐ°
ĠÐ¾ÑĤÐ¸ Ð²Ð°
¸ Ð½Ð°
ĠÑĦÐ¸Ð·Ð¸ ÑĩÐµÑģÐºÐ¸
Ð¼ÐµÑ ĵÑĥ
Ð½ÐºÐ µ
ĠÐ²Ð° Ð»Ð¸
Ð´Ðµ Ð½Ð°ÑĤÐ°
ĠÐ° ÑĤÑĢÐ°
ĠÐĺ ÑģÑĤÐ¸
ĠÐĿÐ° Ð
Ðº Ð²Ð°Ð½Ðµ
ĠÐ¡Ð½Ð¸Ð¼ ÐºÐ°
ÑĢÐ²Ð µÐ½Ð¸
ĠÐ¿Ð¾Ð´Ð¾Ð± Ð½Ð°
ÑĪÐºÐ¾ ÑĤÐ¾
ĠÑĢÐµÐºÐ»Ð° Ð¼Ð°
ÑĢÑı Ð³
ra d
ĠÐŁÐ¾ Ð²ÐµÑĩÐµ
en s
ĠÐ¸ÑģÑĤÐ¾ÑĢÐ¸ ÑĩÐµÑģÐºÐ¸
ĠÐ½Ðµ ÑĢÐ°Ð·
ĠÐ·Ð° ÑģÐµÐ³Ð°
¾ Ð½Ð¸ÑĤÐµ
Ð»Ð¸ ÑīÐµ
ou n
ĠÐ±Ñı ÑħÐ¼Ðµ
ĠÐĴÐ¸ Ð¶
ĠÑģÐ¾ Ð³Ð»Ð°
ĠÐ»Ð¸ Ð½Ð¸Ð¸
ÑĤÐ° ÐºÐ°
ĠÐĶÐ° Ð½Ð¸Ðµ
; &
Ð¿Ð¾ ÑĤÐµ
ÑĢÐ»Ð ¾
Ð½Ð° Ð¿ÑĢÐµÐ´
ĠÐ¿ÑĢÐ¾ Ð¿Ñĥ
ĠÐĺÐ ĿÐ
Ð¡ Ð¿Ð¾
ĠÐ¡ÐĲÐ Ķ
Ð·Ð¸ Ð½Ð°
ĠÐ·Ð°Ð¿Ð»Ð° ÑĤÐ¸
ÐĿÐ° ÑĩÐ°Ð»Ð¾
ĠÐ°Ð²ÑĤÐ¾ ÑĢÐ¸ÑĤÐµ
Ð½ÑĤ Ñĥ
ĲÐ Ļ
ĠÑģÐ²Ðµ ÑĤÐ¸
ĠÑĩÐ° ÑģÐ¾ÑĤ
ĠÐ¸Ð·Ð³ÑĢÐ° Ð¶Ð´Ð°Ð½ÐµÑĤÐ¾
ĠÑĢÐµ Ð¿ÑĢÐµ
Ð½Ðµ Ð
ĠÐ´Ðµ Ð±
ĠÑģÐ»ÑĥÐ¶Ð¸ÑĤÐµ Ð»Ð¸ÑĤÐµ
ĠÐ¡ Ð²ÐµÑĤÐ¸
ĠÐ·Ð°ÑħÐ° ÑĢ
ĠÐ¿ÑĢÐµÐ´Ð²Ð¸ Ð¶Ð´Ð°
ĠÐµÐ´ Ð½Ð°ÑĤÐ°
ÑĢÐ° Ð²
ĠÐłÐµ Ð°Ð»
ĠÑĤÐµ Ð¶Ðµ
of t
Ñģ Ð½Ð¾ÑĤÐ¾
Ð´Ð¾Ð± ÑĢÐ¾ÑĤÐ¾
ÑħÐ¾ Ð´Ð½Ð°
ÑĢÐ¸ Ðº
ul gar
¾ ÑĢ
ĠÐ±Ð¾ ÐºÐ»Ñĥ
Ð¹ Ð½Ðµ
ĠÐ¿Ð»Ð° ÑīÐ°ÑĤ
ĠÐºÐ»Ð° ÑģÐ¸ÑĢÐ°
Ð¼Ð½Ð¾ Ð³Ñĥ
ÐºÐ¾ Ð¼
ĠÐ¿ÑĢÐµÐ´ Ð¼ÐµÑĤ
ĠÐ°Ð´Ð²Ð¾ ÐºÐ°ÑĤ
ĠÐŁÑĬÑĢÐ²Ð °ÑĤÐ°
ĠÐ¸ÑĤÐ° Ð»Ð¸Ð°
ĠÐºÑĢÐ° ÐºÐ°
ĠÐ´Ð¾ÑģÑĤÐ¸ Ð³Ð°
Ð¶Ðµ Ð½Ð°
id e
ĠÑħ Ð²Ð°
Ñı Ð»Ð°
ÑĨÐ¸Ð°Ð» Ð½Ð¾
ĠÐľÐ ŀÐ
ĠÑĤÐµÐ¶ ÐºÐ¸
ĠÐ¾Ð± ÑĺÐ°Ð²Ð¸
Ð½Ð¾Ð² ÑģÐºÐ¸
ĠÐ¾Ð³ÑĢÐ¾ Ð¼ÐµÐ½
ĠÐ¿Ð°ÑĢÑĤÐ½ÑĮÐ¾ ÑĢÐ¸
ĠÐ»ÐµÐºÐ°ÑĢ ÑģÑĤÐ²Ð°
ĠÐ±Ð° Ð½ÐºÐ¸
Ð´ÐµÐ» ÑıÑĤ
¾Ñ ī
ĠÑģÐ¿Ð¾ÑĢÐ°Ð·ÑĥÐ¼Ðµ Ð½Ð¸Ðµ
9 6
ĠÐ¾ÑģÑĤ ÑĢÐ¾Ð²
ÑĢÐµÐ °
ĠÑĢÐ¾ Ð´ÐµÐ½
ĠÐ¾ ÑģÐµÐ¼
ĠÑģÐ²Ð° ÑĤÐ
ľÐ Ĳ
ĠÐ²Ðµ ÑģÑĤÐ½Ð¸Ðº
ĠÐ¼Ð¸ ÑĢÐ¸
Ð¿Ñĥ Ð»Ñı
ĠÐ° Ð¼Ð±Ð¸
ĠÐ¸Ð³ÑĢÐ° Ñĩ
un d
l y
ĠÐ¼Ð¾Ð¼Ð¸ ÑĩÐµ
ÑģÐºÐ¾ Ð²
ĠÐŁÑĢÐµ Ñ
ĠÐ½ÐµÐ·Ð° Ð²Ð¸ÑģÐ¸
ĠÑĢÐµÐ³Ð¸ Ð
ĠÐ¼Ð¾Ð´Ðµ Ð»Ð°
Ð· ÑıÑĤ
ĠÐ¾ÑĤ ÑĩÐ¸ÑĤÐ°
ĠÐ´Ð¾Ð °Ñ
ĠÐ·Ð°Ð´ÑĬÐ»Ð¶Ðµ Ð½Ð¸Ñı
ĠÐ¾Ð±Ð¾ÑĢÑĥ Ð´Ð²Ð°
ĠÐŁÐ° Ð²
ĠÐ±Ð»Ð¸Ð· ÐºÐ¸
ĠÐŁÑĢÐµÑ Ĥ
ĠÐ±Ð°ÑģÐµ Ð¹Ð½
ĠÐ¼Ð¾ Ð¶Ð½Ð¾
ĠÑĢÐµ Ñĩ
ĠÐ¿ÑĢÐ¸ÑĩÐ¸ Ð½Ð¸ÑĤÐµ
ĠÐ±Ð¾ Ð³Ð¾
ĠÐ¿ÑĢÐ¸ Ð´ÑĢÑĥ
ĠÑģÐ»ÑĥÑĩÐ° Ñĺ
ĠÐ¡Ð»Ð¸ Ð²ÐµÐ½
ĠÐ±Ðµ Ð´
ĠU n
ĠÑĢÐ°Ð·Ð¾ ÑĩÐ°
ĠÐ¿ÑĢÐ¸ÑģÑĤÐ¸ Ð³Ð½Ð°
ÐºÐµ ÑĤÐ°
ĠÐ½ÐµÐ¿Ð¾ ÑģÑĢÐµÐ´
ĠÐ±ÐµÐ·Ð¾Ð¿Ð° ÑģÐ½Ð¾ÑģÑĤ
ind ows
ĠÐ¿Ð° Ð·Ð¸
ĠÐ¿Ð¾Ð»Ð¸ ÑĨÐµ
Ð½Ð¾ ÑģÑĤÐ¸ÑĤÐµ
ĠÐ³Ð¾Ð»Ñı Ð¼Ð°ÑĤÐ°
200 8
ÐĳÐ ¸
Ġ/ &
ĠÐ´ÐµÑģÐµ ÑĤÐºÐ¸
Ġ !!!
ĠÐ¾ÑĢÐ³Ð°Ð½Ð¸Ð·Ð° ÑĨÐ¸ÑıÑĤÐ°
ĠÑĦÐµ Ð½Ð¾Ð²ÐµÑĤÐµ
ĠÑĢÐ¾ Ð´Ð½Ð¸
ĠÐĹÐ° Ð¿Ð°
ĠÑĤÐµÑħÐ½Ð¸ ÑĩÐµÑģÐºÐ¸
ĠÐ±Ð° Ð·Ð°ÑĤÐ°
ĠÐ¾ÑĤÐºÑĢÐ¸ Ð²Ð°
ĠÐ¾ÑĢÑĬÐ¶Ð¸ Ð
ĠÐĺÐ· ÑĤÐ¾Ñĩ
ĠÐ¾Ð± Ð·Ð°
ĠÐ±Ðµ Ð»Ð¸
ĠÑģÐ¿ÑĢÐ° Ð²ÐµÐ´
ĠÑģÑĥ Ð´
ĠÐºÑĥ ÑĢÐ¾
ĠÐľÐ¸ ÑģÐ»Ñı
ĠÐ¾ÑĢÑĬÐ¶Ð¸Ð µ
ĠÑĢÐ°Ð±Ð¾ÑĤ Ð½Ð°
ĠÐ²Ð ·
ĠÑĩÐµ ÑģÑĤ
ĠÐ³Ðµ ÑĢÐ¾Ð¸
ĠÐ½Ðµ Ð¹Ð½Ð¸ÑĤÐµ
A C
ĠÑģÐ°Ð¼Ð¾ Ð»ÐµÑĤ
ĠÐ¿ÑĢÐ¸ÑĢÐ¾ Ð´Ð°
ĠAn d
ĠÐŁÐ¾ Ð²Ðµ
E T
ĠÐ¡ÑĬ Ð·Ð´Ð°
ĠÐ¿ÑĢÐµÐ´ÑģÑĤÐ°Ð²Ñı Ð½Ðµ
ĠÐ¸ Ð»Ñİ
Ð¿ ÐºÐ°ÑĤÐ°
ĠÐ±ÑĬÐ´Ðµ Ð¼
ĠÐĵÐ¾ÑģÐ¿Ð¾ Ð´
Ð¼Ðµ Ð¹
ĠÐ¸Ð½ÑĦÐ¾ÑĢÐ¼Ð° ÑĨÐ¸Ð¸
Ð¶ Ð½Ð¸Ñı
Ð»ÑıÐ·Ð° Ñ
Ð»ÑıÐ·Ð°Ñ Ĥ
ĠÐ»Ñĥ ÐºÑģÐ¾
ĠÐ¸Ñģ ÐºÑĥ
ĠÐ¿Ð¾Ð´ÑħÐ¾Ð´Ñı ÑīÐ¸
ĠÐĴÑĤÐ¾ ÑĢÐ°ÑĤÐ°
ĠÐ¸Ð·Ð²Ðµ ÑģÑĤÐ½Ð°
ĠÐ±Ð° Ð²Ð½Ð¾
Ð»Ñı Ð·Ð
ĠÐ¾Ð± ÑģÑĤÐ°Ð½Ð¾Ð²
ĠÑħÑĢÐ°Ð½Ð¸ÑĤÐµ Ð»Ð½Ð¸
ĠÐ·Ð°Ð²ÐµÐ´Ðµ Ð½Ð¸Ñı
ÑģÑĤÐ¸ ÑĩÐ½Ð¾
/ ,
ĠÐ¾Ð´ Ð½Ð¾Ñģ
ĠÐ·Ð° Ð³Ð¸Ð½Ð°
ĠÐ¸Ð· Ð´Ð°Ð²Ð°
ĠÐ¾ Ð²Ð¾Ð·Ð¼Ð¾
ĠÐ² Ð»Ð¸ÑĺÐ°
ĠÐĶÐ¾ ÑģÑĤÐ°
ĠÐ·Ð° ÑīÐ¸ÑĤÐµ
ĠÐ´Ð²Ð¸ Ð¶Ð¸
¾Ñ ĺÐ°
i re
ĠÑĢÐ°Ð¹Ð ¾Ð½Ð¸
ĠÐ¿Ð¾Ð¼Ð¾ Ð³Ð½Ð°ÑĤ
ĠÑĦÐ° ÐºÑĤÐ¾ÑĢ
ĠÐ»Ð¸ ÑĩÐ½Ð¸ÑĤÐµ
ĠÐ¶ÐµÐ»Ð°Ð µ
ĠÐ¿ Ñı
ÑĩÐµ Ð¼
ĠÑĢÐ°Ð·Ð»Ð¸ ÑĩÐ½Ð°
Ð±Ð °ÑĤ
ĠÐ·Ð° Ð¿Ð¸Ñģ
ĠÑīÐ ¾ÑĤÐ¾
ĠÐ¼ Ñİ
ed ia
ĠÐ¿Ð¾Ð»Ð· Ð²Ð°Ð½Ðµ
ĠÑĢÐ°ÑģÑĤÐµ Ð¶
ĠÐ¾Ð´ ÑĢÐµ
ĠÐ½Ð° ÑģÐºÐ¾ÑĢÐ¾
ĠÐ¿Ð°Ð·Ð° ÑĢÐ¸
ÑģÑĬ Ð´Ð¸
ĠÐ¸ ÑģÐºÐ¾
ĠÐ½ÑıÐºÐ° ÐºÐ²Ð¾
ĠÐ¢ ÑĬÑĢÐ³Ð¾
ĠÑģÑĬ Ð¿ÑĢÐ¾
ĠÑģÐºÐ° Ð½Ð´Ð°Ð»
ĠÐºÐ¾ Ð¼Ð¸ÑĤÐµ
ÑĩÐ¸ ÑļÐ°
ĠÑģÐ¾Ð±ÑģÑĤÐ²Ðµ Ð½Ð¸Ðº
ĠÑĦÐ¾ Ð½Ð´Ð°
ĠÐºÑĥ Ð¿Ñĥ
ĠÐ¢Ð¾Ð´Ð¾ ÑĢ
ÑĩÐ¸ Ð½
ĠÑģÑĬÐ±Ð¸ ÑĤÐ¸ÐµÑĤÐ¾
ĠÑģÑĤÐ°ÑĤÐ¸ ÑģÑĤÐ¸
ÑĢÐµ Ñ
ÑĢÑĬ ÑīÐ°ÑĤ
ĠÑĢÐ°Ð· Ð²Ð¾Ñĺ
ĠÐ¿ÑĢÐ¸ ÑħÐ¾Ð´Ð¸
ĠÑģÑĤÐ° ÑĢÐ¸ÑĤÐµ
ĠÐ´Ð° Ð´ÐµÐ½
I S
ĠÐ¾ Ð½Ð·Ð¸
ĠÑĢÐµÑģÑĤÐ¾ ÑĢÐ°Ð½
ĠÐ¿ÑĢÐµÐ´ÑģÑĤÐ° Ð²ÑıÑĤ
ÑĢÑĬ Ð±
ĠÐ¿Ð¾ ÑĩÑĥÐ²
ÐºÑĥ Ð²Ð°ÑĤ
e g
ĠÐ¡Ð £
Ġ4 2
ĠÐ¿ÑĢÐµÐ¼Ð¸Ð µ
ĠÐº Ð²Ð¾
ĠÑģÑĬÑģÑĤÐ° Ð²Ð°
ĠÐ¿Ð¾ Ð´Ðµ
ĠÐ²Ð¸ ÑĨÐµ
ĠÐĲÑĦ ÑĢÐ¸ÐºÐ°
ĠÐ´Ð° Ð½Ð¾
ĠÐ¡Ð ĶÐ¡Ðľ
Ð´Ðµ ÐºÐ²Ð°ÑĤ
Ð·Ð ¾ÑĤ
¸Ðµ Ð²Ð°
Ġ, ,
ĠÐ´ÑĬÑĢÐ²Ð µ
it h
ĠÐº Ð¼ÐµÑĤÐ°
ĠÐ²ÐºÐ»Ñİ ÑĩÐµÐ½Ð¸
ÐŁÐ ¸
ĠÐŁÐ¾Ð» ÑĪÐ°
ĠÑĢÐµ Ð¿ÑĥÐ±Ð»Ð¸ÐºÐ°
Ð· ÐºÐ¸
ĠÐ¿ÑĬÑĤÑĥ Ð²Ð°Ð½Ðµ
Ðĳ Ñĥ
ĠÐ¼ÐµÑĤÐ¾ Ð´
ÑĤÐ¸ ÑıÑĤ
ÐĽÐ ¸
ĠÐ²Ñı ÑĢÐ½Ð¾
ĠÐ²Ð¸Ð´ ÑıÑĤ
ĠÐ¼Ð¾Ñī Ð½Ð¾ÑģÑĤ
ÑĤÐ¾ ÑĩÐ½Ð¸
ĠÐĳ ÑĢÐ¸ÑĤÐ°
ĠÐ²Ð¾ÐµÐ½ Ð½Ð¸
ĠÐ¿ÑĢÐ¾ÑĦÐ¸ Ð»
ĠÐºÐ°ÑĩÐµ ÑģÑĤÐ²Ð°
ĠÐ±ÐµÐ· Ð±Ðµ
ĠÐµÐ²ÑĢÐ¾ Ð¿
Ð»Ðµ Ð¶Ð°
ĠÐ²Ðµ Ð»Ð¾
ĠÐ· Ð±Ð¾ÑĢ
7 9
ÑĦÐ¾ ÑĢÐ¼Ð°ÑĤÐ°
/ .
Ð¼Ð¾ ÐºÑĢÐ°
ĠÐ´ Ð²Ð¾ÑĢ
ĠT h
ĠÑĦÐ¾ Ð½Ð´Ð¾
o z
ĠÐ½Ð° Ð¿Ð°Ð´Ð°
ÑģÐ¸ Ð¿Ðµ
ĠÐĵ ÑĢÐ°Ð´
ĠÐ¿Ð»Ð° ÑģÑĤÐ¼Ð°
ĠÐ¼ÑĥÐ·Ðµ Ð¹
ĠÐ¿Ð¾ÑĤÑĢÐµ Ð±
Ð±Ðµ Ð½Ð¸
ĠÐ´ÑĢÐ¶Ð° Ð²Ð°ÑĤÐ°
Ð¼Ð¸Ð µÑĢ
ÑĢ ÑħÐ¸
Ð¼Ðµ Ð½Ð¾
Ð½Ð¸ ÑĤÐ°
ĠÑĤÐµÐ¶ ÐºÐ¾
ĠÑģÑĤÐ°ÑĤÐ¸ ÑıÑĤÐ°
Ðº ÑĨÐ¸Ð¸ÑĤÐµ
ÐĶÐ ŁÐľÐĿÐķ
ĠÐ´Ðµ Ð±Ðµ
ĠÐĿÐ¾ Ð²Ð¾
ĠÐĿÐµ ÑīÐ¾
ÑģÑĤ Ñı
ĠÐ£ ÑĩÐ°
ĠÐĶ Ñı
ĠÐ³Ð° ÑĢÐ°
ĠÐºÐ¾ ÑĢÐ¿Ð¾
ĠÐ¿Ð¾Ð»Ð¸ ÑĨÐ¸Ñı
ĠÑĢÐ° Ð´Ð¸
ĠÐ¿Ð¾Ð´ Ð²Ð¸
ĠÐĻÐ¾ ÑĢÐº
e k
ĠÐĿÐ°ÑĨÐ¸Ð¾Ð½Ð° Ð»Ð½Ð°ÑĤÐ°
ĠÑĦÐµÑģÑĤÐ¸ Ð²Ð°Ð»
ĠÐ²ÑĢÐµÐ¼Ðµ Ð½Ð°
ĠÐ¿Ð¾Ð»Ñĥ ÑĩÐ¸ÑĤÐµ
ĠÐ¿Ð¾ ÑĢÐ¾
ĠÐºÑĢÐµÐ °
ĠÐ´Ð¾Ð»Ð° ÑĢÐ¸
Ð»Ñĥ Ð²Ð°ÑļÐµ
Ð³Ð° Ð½Ð¸
ĠÐºÐ°ÐºÐ²Ð¸ ÑĤÐ¾
ÑĩÐ¸ ÑĤÐµÐ»Ð½Ð¾
ÑģÑı Ð²Ð°
ĠÐ¿Ðµ ÑĤÑĢÐ¾
ĠÑģÑĥ Ð¿Ðµ
ÑĢÑı Ð²Ð°Ð½ÐµÑĤÐ¾
ÑĩÐºÐ¾ Ð²
Ðº ÑĬÑĢ
ĠÐ½Ð° ÑĪ
ÑĢÐµÑ Ĥ
ÐĳÑĬÐ»Ð³Ð° ÑĢÐ¸Ñı
ĠÑģÐ»ÑĥÑĩÐ° Ð¸ÑĤÐµ
ĠÐľÐ° ÐºÐ°ÑĢ
Ð´Ð¸ Ð»
ĠÐ¸Ð·Ð²ÑĬÐ½ ÑĢÐµÐ´
ĠÐĶÐ ¸Ð°
ĠÑĤÐµÑĢÐ¸ÑĤÐ¾ ÑĢÐ¸Ñı
ĠÐ¸Ð·Ð¾ ÑģÑĤÐ°
ÑģÐ»Ð° Ð¼
ĠÐ¸Ð½ÑĤÐµ ÑĢÐ¸Ð¾
ĠÑģÑĬ Ð²ÐµÑĤÐ¸
ĠAp ple
ĠÐ¼Ð»Ð° Ð´
ĠÐ½Ðµ Ð·Ð½Ð°
ĠÐ¾ Ð³Ð»Ð°
ĠÐ¸Ð· ÑģÐ»ÐµÐ´Ð¾Ð²Ð°
ĠÐ¾ÑĤÐ´Ðµ Ð»Ð½Ð¸
Ð»ÐºÐ¾ Ð²
ĠÐ³Ðµ Ð½ÐµÑĢÐ°Ð»
ĠÐĺÑģÐºÐ° Ð¼
ĠÐ¾ÑģÐ½Ð¾ Ð²Ð½Ð°ÑĤÐ°
ĠÑĥÐ»Ð¸ ÑĨÐ°ÑĤÐ°
ĠÐ¾ÑģÐ½Ð¾ Ð²ÐµÐ½
Ð·Ð° Ð¼
ĠÐºÐ¾Ð¼ Ð¿Ð¾Ð·Ð¸
ÑĤÑĥ Ð²Ð°ÑļÐµ
ĠÐ³Ð»Ðµ Ð´Ð°ÑĤ
ĠÐº Ð»Ð¸ÐµÐ½ÑĤ
Ġ: :
ĠÐ¿Ð¾ Ð¿ÑĬÐ»
Ð±Ð¾ ÑĢÐ¸
ĠÐ¿Ð¾ ÑģÑĤÐµÐ¿ÐµÐ½Ð½Ð¾
ÐºÐ¾Ð² ÑģÐºÐ¸
ĠÐ¡Ð»ÐµÐ´ Ð²Ð°
ĠÐ¿ÑĢÐµÐ³Ð¾ Ð²Ð¾ÑĢÐ¸
ĠÐ¿Ð¾ Ð¼ÐµÑĵÑĥ
ĠÐ´Ð° Ð´Ð°ÑĤ
o ol
ÑģÐ¿Ð¾ ÑģÐ¾Ð±
ĠÐ¿ÑĢÐ¸Ð² Ð»Ð¸ÑĩÐ°
m k
ĠÑĤÐ° ÑĤÐºÐ¾
ĠÐµ ÑĤÐ¸
Ð½Ð¸ ÑĺÐ°ÑĤÐ°
ĠÐ»Ñı ÑĤÐ¾
ĠÐłÐµ Ð·ÑĥÐ»
ĠÑģÐ¾Ð ¾Ð¿
ĠÑīÐ° ÑģÑĤÐ¸Ðµ
ĠÐ¿Ð¾Ð´Ð´ÑĢÑĬ Ð¶ÐºÐ°
ĠÐ±Ð¾Ð»Ðµ ÑģÑĤ
ĠÐ¼Ð°Ð³Ð°Ð·Ð¸ Ð½Ð¸
ĠÑģÑĤÑĢÐ¾Ð¸ÑĤÐµ Ð»ÑģÑĤÐ²Ð¾
ĠÐºÐ¾ Ð½Ðµ
ĠÐ¿Ð¾ ÐºÑĢÐ°Ð¹
ĠÐĺ ÑĢÐ°Ð½
ĠÐ»ÐµÐºÐ° ÑĢÐ¸
ÑĺÐ ¾ÑĤ
ĠÐ¿ÑĢÐµ Ð¿Ð°
ĠÐ¿Ð¾Ð´Ð¾Ð± ÑĢÐ¸
Ð²Ð° ÑĢÑıÑĤ
Ð½Ð´Ð °ÑĤ
ĠÐ½ÐµÐ³Ð¾Ð²Ð¸ Ð¾ÑĤ
ĠÑĪÐ¸ÑĢÐ¾ ÐºÐ¾
i x
ĠÐ¿ÑĢÐµ ÑģÑĤÐ°
Ð»Ð¸Ð ¸
ĠÐĶÐ¾ ÐºÐ¾
" ?
ĠÐ±Ðµ Ð¶Ð°
ÑħÐ²Ð° ÑīÐ°
ĠÐ¿Ð¾Ð´ ÑĢÐ¾Ð±
ĠÐ·Ð²Ñĥ ÑĩÐ¸
ĠÐ¾ÑĩÐµ Ð²Ð¸Ð´Ð½Ð¾
ÑĤÐµ ÑĨ
Ð½Ðµ ÑĤÐ°ÑĤÐ°
ĠÐµÐºÐ¸ Ð¿Ð¸
ĠÐ±ÑĢÐ¾ ÑıÑĤ
ĺÐĿÐ Ĳ
ĠÐ´Ð¾ Ð¿ÑĥÑģÐ½Ð°
Ð»Ð¸ Ð·ÑĬÐ¼
ĠÑĢÐ°Ð·Ð³Ð¾ Ð²Ð¾ÑĢÐ¸
ĠD e
ĠÐ²ÐµÑĩÐµ ÑĢÑı
ĠÑĩÐ° ÑĪÐ°
Ð»Ð¾ Ð²Ð¾
ÑĤÐ¸ Ðº
°Ð °Ð
ĮÐ µ
ĠÐļÐ¾ Ð¼Ð¿Ð»Ðµ
ĠÑĢÐµÐ·ÑĥÐ» ÑĤÐ°ÑĤÐ°
ĠÐķ Ð»ÐµÐ½Ð°
ĠÐ´Ð¾ÑģÑĤÐ° Ð²
ĠÑģÐ²ÑĬÑĢÐ·Ð° Ð½Ð°
ĠÐĺÐ½ÑĤÐµ ÑĢÐµ
ĠÑģÑĤÐ¾Ð»Ð¸ ÑĨÐ°
ĠÐ¾Ð±Ðµ Ð¼
ĠÐ°Ð»Ð± ÑĥÐ¼
Ð¼ Ð»Ð°
ĠÐ¿Ð¾ÑĤÑĢÐµÐ±Ð¸ÑĤÐµ Ð»
ĠÐ¿Ð»Ð°ÑĤ ÑĦÐ¾ÑĢÐ¼Ð°
h one
ĠÐ´Ð¾ÐºÐ¾ Ð»ÐºÑĥ
in k
ĠÐĴÐ°ÑģÐ¸ Ð»ÐµÐ²
ĠÑħÐ°ÑĢÐ°ÐºÑĤÐµ ÑĢÐ¸ÑģÑĤÐ¸ÐºÐ¸
ĠÐ³Ð° Ð·Ð¾
ĠÐ±ÑĬÑĢÐ ·Ð°
ĠÑĩÐ¸Ð ¸ÑĤÐ¾
ĠÐ¿Ðµ Ð
Ð¥Ð °
ĠÑĤÐµ ÑĢÐµÐ½
ĠÐ´Ð¾ÐºÐ»Ð° Ð´
ĠÑĤÐ²ÑĬÑĢÐ ´Ð
ĠÐĳÑĢÑİ ÐºÑģÐµÐ»
ĠÑģÑĤÐ° ÑĢÑĤ
ĠÑģÐ»ÑĬÐ½ ÑĩÐµ
ĲÐ ĳÐ
ĠÐ·Ð°ÑģÐ»Ñĥ Ð¶Ð°Ð²Ð°
ĠÐºÐ¾Ð½ ÑģÐµ
Ð´Ð¾ ÑĢ
ĠÐ±ÑĬÐ»Ð³Ð° ÑĢÐ¸Ð½
£ ÐĴÐ
ĠÐļÐ ŀÐľÐ
ĠÐºÐ° Ð¿
ĠÐĿÐ¸ ÐºÐ¾Ð¹
ĠÐ»Ð¸ ÑĩÐµÐ½
ĠÐ· ÑĢÐ¸ÑĤÐµ
ĠÐ°Ð²ÑĤÐ¾Ð¼Ð°ÑĤÐ¸ ÑĩÐ½Ð¾
Ð· Ð±Ð¾
ĠÐ´Ð¸ Ð²Ð¸
ĠÐ£ Ð½Ð³Ð°
ĠÑĥÑģÐ»ÑĥÐ³Ð¸ ÑĤÐµ
ĠÐ´ÑĬÐ»Ð³Ð ¸
ĠÐ»Ð¸ÑĤÐµ ÑĢÐ°ÑĤÑĥ
ĠÑĥ ÑģÐºÐ¾
ĠÐ¾ÑģÑĬÑīÐµÑģÑĤÐ² ÑıÐ²Ð°
ĠÐºÐ²Ð° Ð»Ð¸ÑĤÐµ
ĠÐ¡ÑĤÐ¾ Ð¹
ĠÐ¿Ð¾ÐºÐ° Ð¶Ð°
ĠÑĢÐµÐ»Ð¸ Ð³Ð¸Ð¾
ĠÐ¼Ð° Ð»Ð¾
ĠÐ´Ðµ Ð²ÐµÑĤ
Ð¼ Ð¼
ĠÐµÐ¿Ð¸ Ð´Ðµ
Ñĥ ÑĩÐµ
ĠÐ½Ð¾Ð²Ð¸ ÑıÑĤ
ĠÐ²ÑĬ Ð¾ÑĢÑĬ
ĠÐ½Ð°Ð´ ÑıÐ²Ð°
ĠÐºÐ¾Ð»Ðµ Ð³Ð¸ÑĤÐµ
ĠÑĨÐµ Ð»Ð¸ÑĤÐµ
ĠÐ³ÑĢÐ° Ð½Ð¸ÑĨÐ¸
ĠÐĺÐ½ ÑģÑĤÐ¸ÑĤÑĥ
Ð¿Ð¾ ÑģÑĤÐ¾
ÑĤÐµÑĢÐ¸Ð °Ð»
ĠÐ¢Ð ¸Ðµ
ĠÐ´ÑĬÐ»Ð±Ð¾ ÐºÐ¾
ĠÐ²ÑĬÐ¿ÑĢÐ¾Ñģ ÑĬÑĤ
ĠÐ³Ð»Ð° Ð²Ð½Ð¾
ĠÐ¡Ð¿Ð¾ ÑĢÑĤ
ĠÐ´Ð¾ Ð¿Ñĥ
ĠÑģÐ»Ñĥ Ð¶Ð¸
ĠÑģÑĥÑĤÑĢÐ¸ Ð½ÑĤÐ°
ĠÐ¿Ð¾ ÑĢÐµÐ´ÐµÐ½
ĠÐ± ÑĢÐ°Ð½
ĠÐ¿Ð¾ÑĤÐ²ÑĬÑĢÐ ´Ð¸
ĠÑĦÐ° Ð±ÑĢÐ¸
ĠÑı Ð¿Ð¾
ĠÐ¿ÑĢÐµÐ´Ñĥ Ð¿ÑĢÐµ
Ð¢Ð Ĳ
Ð»Ð ³
łÐ ĲÐĴÐ
ĠÐ¿Ð¾ Ð¿Ð°Ð´Ð½Ð°
ĠÑĤÑĢÐ°Ð½ Ñģ
ĠÐºÐ¾Ñģ Ð¼Ð¸
Ġ4 4
ĠÐ²Ð¾ Ð¹Ð½Ð°ÑĤÐ°
ĠÐ´Ð°Ð½ÑĬ ÑĨÐ¸
ĠÐ¼Ð¸Ð½Ð¸ÑģÑĤÐµÑĢ ÑģÑĤÐ²Ð¾
ĠÐľÐ° ÑĢÐº
ÑĢÐ¾Ð² ÐºÐ°
ĠÑĢÐµÐ³Ð¸ ÑģÑĤÑĢÐ°ÑĨÐ¸Ñı
ĠÐ¿Ð¾ ÑĤÐ²
ÑģÐµÐ´Ð° ÑĤÐµÐ»Ñı
ĠÑĥÐ¿ÑĢÐ°Ð²Ð¸ ÑĤÐµÐ»
ĠÐµÐº ÑĢÐ°Ð½
ĠÐºÑĢÐµÐ´Ð¸ Ñ
ĠÐºÑĢÐµÐ´Ð¸Ñ Ĥ
ĠÐ´Ð¾ Ð¿Ð¸
am s
ĠÑģÐ¸ Ð»Ð½Ð¸
ĠÐ½ÐµÐ·Ð° ÐºÐ¾Ð½
ĠÐ²Ð»Ð¸Ð·Ð° Ñ
ĠÐ²Ð»Ð¸Ð·Ð°Ñ Ĥ
ĠÐ´ÐµÐ¼Ð¾Ð½ ÑģÑĤÑĢÐ¸
Ð»Ð¾Ð¶Ðµ Ð½Ð¾
ĠÐĴÐ° ÑĢÐ´Ð°ÑĢ
ĠÑģÑĬ Ð±Ñĥ
ÑģÐ½Ð° Ñ
ÑģÐ½Ð°Ñ Ĥ
ĠÐ¿Ð¾ ÑĤÐ¾Ðº
ĠÐ¾ÑģÐ¸Ð³Ñĥ ÑĢÑıÐ²Ð°Ð½Ðµ
ĠÐ± ÑĢÑĬ
ĠÐ¦ÐµÐ½ÑĤ ÑĬÑĢ
ĠÐ´Ð° Ð¼
ĠÐĹÐ ¸
ĠÑģÐ²Ðµ ÑĤÐ¾Ð²
ĠÐ³Ð¾ÑĢÐ¸ Ð²Ð¾
ĠÐ¸ ÑģÑĤÐ¸Ð½Ð°
Ð´Ð¾Ð½Ð° ÑĩÐ°
ĠÐĴ ÑĬÐ»
Ñģ Ð»Ð¾Ð²Ð¸
ĠÐ¿ÑĢÐµ Ð³
ĠÑģÐ¾Ð´ ÑĢÐ¶Ð¸
ŀÐ ĹÐ
ĠÑĢÐ°Ð·Ð¿Ð¾ Ð»Ð¾Ð¶ÐµÐ½
ĠÐ¾Ð»Ð¸ Ð¼Ð¿Ð¸
ĠÐ½Ð° Ð´Ð¾Ð»Ñĥ
ĠÐ³Ðµ Ð½ÐµÑĢÐ¸
ĠÐ¸Ð· ÑĢÐ¸
ĠÐ²Ð¸ Ð·
ĠE n
ĠÑģÑĤÑĢÐ°Ð½Ð¸ ÑĨÐ°ÑĤÐ°
ĠÐ·Ð°Ð¿Ð¾ÑĩÐ½Ð° ÑħÐ°
ÑĢ ÑĤÐ¸ÑĤÐµ
ĠÐ¤Ð¸Ð»Ð¸ Ð¿
ĠÑĢÐµÑĦÐµ ÑĢÐµÐ½Ð´
in i
ĠM ar
ĠÐĶÐ µÐ½
ĠÐ¼Ð¸Ð»Ð¸Ð ¾Ð½
ķÐ ¡Ð¢Ð
ĠÐ¤Ð¸ Ð»
ÑĦ Ñ
ĠÑĥÐ»Ð¸ ÑĨÐ¸ÑĤÐµ
i al
ĠÑĦÐµ Ð½Ð¾Ð²Ðµ
ĠÐ¿ÑĢÐ¾ ÑıÐ²Ð¸
ĠÐµÐºÑģÐ¿Ð»Ð¾ Ð°ÑĤÐ°
ĠÐ¼Ð¸Ð½Ð° Ð»Ð¸Ñı
ĠÑģÐ²Ð¾Ð±Ð¾ Ð´Ð½Ð¾
ĠÐ² Ð½ÐµÑģÐµ
i le
ÑĦÑ Ĥ
ĠÐ¸Ð· Ñ
ĠÐ¿ÑĢÐ¾Ð´ÑĥÐºÑĤÐ¸ ÑĤÐµ
ĠÐ² Ð»Ð°Ð³Ð°
ĠÐ¿Ð¾Ð´ ÑĢÐ¾
¯ ÐĴÐ
ĠÐĲ ÑĢÐ°
ĠÐ´Ð ¾ÑĨ
ĠÐ¼Ð°ÑĢÑĪ ÑĢÑĥ
ĠÐ± ÑĢÑıÐ³
ĠÐ½Ð°Ð»Ñı Ð³Ð°Ð½Ðµ
Ġ200 4
ĠÑĦÐ° ÐºÑĥÐ»ÑĤÐµ
ĠÑĢÐ° Ðº
Ð»Ð¸Ð ¾ÑĤ
ĠÐºÐ¾Ð½ÑĤÐ° ÐºÑĤÐ¸
ÑĢÐµ Ð»Ð¸
ĠA d
ĠÑģÐ½Ð¸Ð¼ ÐºÐ¸ÑĤÐµ
ĠÐ¿ÐµÑĢÐ¸Ð¾ Ð´Ð¸
ĠÐ¸Ð·Ð±Ð¾ ÑĢÐ°
Ð·Ðµ Ð½Ð°
ĠÐ¸Ð·Ñ Ĥ
ĠÐ¶Ðµ ÑģÑĤÐ¾
ĠÑĤÐµ Ð½Ð¸
ĠÑģÑĢÐ° Ð²Ð½Ð¸ÑĤÐµ
ÑĤÐ¾ Ð²Ð¾
ĠÐļÐ° Ð½Ð°
ĠÐºÐ¾Ð¼Ð¿Ð»Ðµ ÐºÑĤ
is h
ĠÐ¿Ð¾Ð´Ð´ÑĢ ÑĪÐºÐ°
Ð³Ð¾ Ð²Ð¾ÑĢ
ĠÑģÑĢÐµÐ´ ÑģÑĤÐ²Ð°ÑĤÐ°
ĠÑĢÐ°Ð·Ð½Ð¾ Ð¾Ð±ÑĢÐ°Ð·Ð¸
ĠÐŁÐłÐ ķÐĶÐ
ĠÐľÐ° Ð´ÑĢÐ¸Ð´
ĠÐľÐ¾ Ð»Ñı
Ð½Ðº Ñĥ
ĠÑģÑĤÑĢÐ° Ð½Ð¸ÑĨÐ¸
ĠÐ¼Ð¸Ð½Ð° Ð²Ð°
ĠÑĤÐ¸ Ð¼Ð°
?? ??
ĠÐ¿Ð¾Ð±Ðµ Ð´Ð°ÑĤÐ°
ĠÐ²Ð¸ÑĤÐ° Ð¼Ð¸Ð½
ĠÐ±Ð¸Ð² ÑĪÐ¸Ñı
ĠÐ·Ð°Ð²ÑĬÑĢ ÑĪÐ²Ð°
ĠÐ»Ð¸ Ñħ
ĠÐ¼Ð¸Ñģ Ð»ÑıÑĤ
ĠÐ´Ð¸Ñģ Ð¿Ð»Ðµ
ÑĢÑĤÑĥ Ð³Ð°
ĠB e
ĠÐ° ÑģÐ¾ÑĨÐ¸Ð°
ĠÐ¾ÐºÐ° Ð¶Ðµ
ĠÐ¾ ÑģÐ¿Ð¾
ĠÐ½Ðµ Ð¿ÑĢÐ¸ÑıÑĤ
ĠÐĴÐ¸ Ð´Ð¸Ð½
ĠÐ¿ÑĢÐ¾ Ð¼Ð¸ÑĪ
w e
ĠÐ¿Ð¾Ð»Ð¸ÑĤÐ¸ ÑĨÐ¸
ĠÐ³Ð»ÑĥÐ¿Ð¾ ÑģÑĤÐ¸
ĠÐ³Ð¾ Ð»ÐµÐ¼Ð°
ĠÐ¾Ð±Ñī Ð½Ð¾ÑģÑĤ
ĠÐĳÐ»Ð°Ð³Ð¾Ð´Ð° ÑĢÐµÐ½Ð¸Ðµ
ĠÐ¿ÑĢÐ¸ ÑģÑĥ
u g
ĠÑģÑĤÐ° Ð½ÑĥÐ²Ð°
ĠÑģÑĬ Ð½
ĠÐĹÐ° ÑĢÐ°Ð´Ð¸
Ð½Ð¸ ÑĢÐ°Ð½Ð¸
ĠÐĴÐ»Ð° Ð´Ð°ÑĤÐ°
ĠÐ¼ Ð½ÐµÐ½Ð¸ÐµÑĤÐ¾
ĠÑĤÑĢÐ¸ Ð¼Ð°
ĠÐŁÐ»Ð° Ð¼ÐµÐ½
ÑĢÐ´Ð¶Ð¸ Ðº
ĠÐĹÐ° ÐºÐ¾Ð½Ð¾
ĠÑĥÑĩÐµ Ð±
ĠÐ½Ð° Ð²ÑĬÐ½
ĠÐºÐ°ÑĢÐ¸Ðµ ÑĢÐ°ÑĤÐ°
ĠÐ¿Ð¾Ð´ÐºÑĢÐµ Ð¿Ð¸
ĠÐ¿Ð¾Ð´Ð¾Ð± ÑĢÑıÐ²Ð°Ð½Ðµ
ĠÐºÐ²Ð°ÑĢÑĤÐ° Ð»
ÐŁÐ µ
Ð¿Ð¾ Ð»Ð½Ð¸ÑĤÐµ
I C
8 6
ĠÑģÐ¿Ð¾ Ð´Ðµ
ĠÐľÐ¸ Ð½Ð°
ĠÐ¿ÑĢÐ¸Ð³Ð¾ ÑĤÐ²Ñı
Ð· Ð½Ðµ
ĠÐ·Ð°Ð¿Ð¾ÑĩÐ½Ð° Ñ
ĠÐ·Ð°Ð¿Ð¾ÑĩÐ½Ð°Ñ Ĥ
ÑĤÐµ ÑĤÐµ
ĠÐ²Ð° Ð¶Ð¸
ÐĿÐ° Ð¹
ĠÐ¾ÑĤ ÑģÐ»Ð°
ĠÐ»Ð°Ð±Ð¾ ÑĢÐ°ÑĤÐ¾
ķÐ Ĵ
Ð·Ð° ÑĢ
Ð¿ ÑĥÐ²Ð°
ĠÐ® Ð¶Ð½Ð°
ĠÐ´ÐµÐ½Ð° ÑĢÐ¸
ĠÑģÐµÑĢÐ¸Ð¾ Ð·ÐµÐ½
ĠÐ½Ðµ Ð¼
ĠÐ·ÐµÐ¼Ðµ Ð´Ðµ
Ð¿ÑĢÐ¾ Ð
ĠÑģÑĤÐ° Ð½Ð¾Ð²Ð¸
ĠÂ ·
ĠÐļÐ¾ ÑģÑĤÐ¾Ð²
ĠÐ½Ð°Ñģ ÑĬÑĢ
ÑĢÐµÑĪ Ð½Ð¸
ÑģÐ° Ñ
Ð· ÑĬÐº
ĠÐ¼Ð¸Ð½Ð¸ Ð¼ÑĥÐ¼
Ð½Ð´ Ð¶Ð¸
ĠÑģÑĤÐ° ÑĤÐ¸Ð¸
ĠÐºÐ° Ð´ÑĢÐ¸
Ð½ ÑĩÐµÐ²
ĠÑģÐ²Ð¾Ð±Ð¾ Ð´Ð°ÑĤÐ°
ĠÐ½Ð°ÑĨÐ¸Ð¾Ð½Ð° Ð»Ð½Ð¸Ñı
ĠÐ¸Ð·ÑĩÐµ Ð·Ð½Ð°
ĠÐ½Ð°ÑĤÐ¸ ÑģÐº
ĠÐ£ Ð¿ÑĢÐ°
ÐºÐ¾ Ð¼Ð¾
ĠÐ±Ð° Ð±Ð°
ĠÐ¿Ð¾ÑĢÑĬ ÑĩÐºÐ¸
ĠW indows
l d
ĠÑĦÐ¾ Ð»
Ð ĵÐ°
Ð³Ð¸ Ð¿ÐµÑĤ
ÑģÐ°Ñ Ĥ
ÑĺÐ° Ð½
ĠÐ·Ð¾ Ð½Ð¸
ĠÐĿÐ¸ ÑīÐ¾
ÐºÐµ ÑĢ
ĠÐ²ÑĬÐ½ ÑĪÐµÐ½
Ð´Ð¸Ð µ
âĢĵ âĢĵ
Ñĥ Ð¿Ð¾ÑĤÑĢÐµ
ĠÐ¿ÑĢÐµÐ²ÑĬÑĢ Ð½Ðµ
Ġ Ð»Ð¾ÑĪ
ĠÐľ ÑĬ
ĠÑĩÑĥÐ¶ Ð´Ð¸
ĠÐ½Ð°ÑĢÑĥ ÑĪÐµÐ½Ð¸Ðµ
ĠÐ¿ÑĢÐµÐ´ Ð¼ÐµÑĤÐ¸
Ġâ Ĥ¬
ĴÐ Ĳ
E L
ĠÐ·Ð¸ Ð¼Ð°ÑĤÐ°
ÑĪ Ð½Ð¸ÑıÑĤ
ĠÐ¿ÑĢÐ¾ÑĤÐµ ÑģÑĤ
ÐºÑĤÐ¸ Ð²ÐµÐ½
Ð¶ ÑĬÑĤ
ĠÐ±ÐµÐ±Ðµ ÑĤÐ¾
ĠÐ¿ Ð»ÑĬ
ĠÐ¡Ð ĺ
ĠÐ¾Ð¿ÐµÑĢÐ° ÑĨÐ¸Ñı
ÑĩÐ° Ð¼
ĠÐ¾ÑĤÐ½Ð¾ ÑĪÐµÐ½Ð¸ÑıÑĤÐ°
ÑĢÑĬ Ñħ
ĠÐ¿ÑĢÑı ÐºÐ¾
an g
ĠÐ²Ðµ ÑĢÐ¾ÑıÑĤ
ĠÐ¢Ð Ĵ
Ð¼Ð° Ð¹
ÑĢÐ»Ð¸ Ð½
ĠÐ·Ð°ÑĤÐ²Ð¾ ÑĢÐ°
ĠÐ¿ÐµÑĢ ÑģÐ¿ÐµÐºÑĤÐ¸
ĠÐ¼Ðµ Ð´
ĠÐ¸Ð½ÑĤÐµ Ð»Ðµ
a h
ÑĤÐ¾ÑĢ ÑĬÑĤ
Ð»ÐµÐ µ
ĠÐ¶ÐµÐ»Ð° Ð½Ð¸ÐµÑĤÐ¾
n et
ĠÐ¼Ð¸ ÑĢ
ÑĢÐ¾ÑĺÐ° ÑĤÐ½Ð¾
ĠÑĪÐ¾ ÐºÐ¾Ð»Ð°
Ð²Ð¸ÑģÐ¾ ÐºÐ°
ĠÐ¼Ð° Ð½Ð´Ð°ÑĤ
ĠÑĤÑĢÐ° Ð
ĠÐ¿Ð¾Ð»Ðµ Ð·Ð½Ð¸
ĠÐĿÐ° ÑĤÐ¸
ĠÐ¼Ð¾ Ð³Ð»Ð¸
ĠÐ½Ð° ÑģÑĤÐ¸
Ñĥ Ð·
ĠÐºÐ° Ð¼ÐµÑĢÐ°
ĠÐ±ÐµÐ·Ð¿Ð»Ð° ÑĤÐ½Ð¾
ĠÐ¿ÑĢÐ¾Ð¸Ð· Ð²Ðµ
ĠÑĥ ÑĢÐµÐ´
µ ÑĦÐµ
Ð½Ñı ÐºÐ¾Ð³Ð°
ĠÐ¯Ð¿Ð¾ Ð½Ð¸Ñı
ĠÑĤÐ¾Ð¿ ÐºÐ°ÑĤÐ°
ĠÐ¿ÑĢÐ¾ÑĨÐµÐ´Ñĥ ÑĢÐ¸
ĠÐºÑĢÐµ Ð¼
Ð µÐ½Ð¸
ÑħÐ µÐ½
ÐļÐ° Ðº
ĠÐ·Ð°Ð±Ð¾ Ð»ÑıÐ²Ð°Ð½Ðµ
ĠÐĲÐ½ ÑĤÐ¾
ol d
Ð² Ð»ÑıÐ²Ð°ÑĤ
ĠÐµ Ð·Ð¸ÐºÐ°
ĠÐ½Ð°Ñĥ ÐºÐ°ÑĤÐ°
Â °
ÑĤÐ¸ Ð¼
Ġ is
ĠÐ¿ÑĢÐ¸ Ð»Ð¸ÑĩÐ°
ĠÑģÑĢÐµ Ð´Ð¸
ÑĢÐ¸Ñ Ĥ
ĠA m
Ġ8 00
ĠÐ¼ÐµÐ¶Ð´ÑĥÐ½Ð°ÑĢÐ¾ Ð´Ð½Ð¸
Ð·Ð¸Ð ¸
ÑĤÐ¸ ÑĢÐ°Ð½
ÑĺÐ° Ñ
Ð½Ðµ Ð½ÑĤ
ĠÐµÐ»Ðµ Ð¼ÐµÐ½ÑĤ
ÑĺÐ°Ñ Ĥ
ic a
ĠÐ² ÑĢÑģÐºÐ°
Ð½ ÑĤÐ¸ÑĢÐ°
ĠÐ´Ðµ Ð½Ð¾
ÑĢÐ ±Ð¾
ĠÐ¿Ð¾ ÑĢÑĤÐ°
ĠÐ¸Ð·ÐºÑĥ ÑģÑĤÐ²Ð¾ÑĤÐ¾
ĠÐ·Ð°ÑĪÑĤÐ¸ ÑĤÐ°
ĠÐ¿ÑĢÐ°ÐºÑĤÐ¸ ÐºÐ¸
ĠÐ·Ð°Ð²ÑĢ ÑĪÐ¸
ÑĤÐ° Ð½
ÑģÑĤÐ¸ ÑĩÐ½Ð¸
ĠÑģÐ²ÐµÑĤÐ¾ Ð²ÐµÐ½
ĠÐ½ÐµÐ²Ðµ ÑĢÐ¾ÑıÑĤ
ĠÐ½ÐµÐ¹ Ð½Ð¾ÑĤÐ¾
ĠÐ¥ÑĢÐ¸ÑģÑĤÐ¾ Ð²
ĠÐ¶Ð¸Ð²Ð¾ÑĤÐ¾ Ñ
ĠÐ¶Ð¸Ð²Ð¾ÑĤÐ¾Ñ Ĥ
ĠÐ´Ð¾Ð±ÑĢÐ¾ ÑĤÐ¾
Ð³Ð¾Ð»Ñı Ð¼Ð¾
ĠÑģÐ¸Ð¼Ð¿ÑĤÐ¾ Ð¼Ð¸
ĠÐĿÐµ Ð
ĠÐ½ÐµÐ¾ Ð±Ð¸
ĠÐ¡ÑĤÐµ ÑĦÐ°
ĠÐ¿ÑĢÐ¸ Ð»Ð¸
ĠÐ²Ð¾ÐµÐ½ Ð½Ð¾
ĠÐ½Ðµ Ð½Ð°
ĠÑģÑĦÐµ ÑĢÐ°ÑĤÐ°
ĠÐºÐ¾Ð½ÐºÑĢÐµ ÑĤÐ½Ð¸
Ð ®
ĠÐ¶Ðµ Ð»Ðµ
ĠÐ¾Ð±Ð²Ð¸ Ð½Ð¸ÑĤÐµ
ĠÑĢÑĥ ÑģÐºÐ°ÑĤÐ°
ĠÐ¡Ð ĴÐ
" -
ĠÑĤÐ¾ Ð½Ð°
ÑĤÐ¾ ÑĩÐ½Ð¾
Ð¼Ð° ÑĢ
ĠÐ¾ÑĩÐ° ÐºÐ²Ð°ÑĤ
Ð±Ð° Ð²Ð½Ð¾
ĠÐ¾Ð¿ ÑĪÑĤÐµ
ĠÐ¸Ð·ÐºÐ»Ñİ ÑĩÐµÐ½Ð¸Ðµ
ĠÑģÐµ ÐºÐ¾ÑĺÐ°
ĠÐ¿Ð¾Ð´Ð°ÑĢÑĬ Ðº
Ð²ÐµÐ´ ÑĥÐ²Ð°
ĠÑĤÐ²ÑĬÑĢÐ´ ÑıÑĤ
ĠÐĲÐ² ÑģÑĤÑĢÐ°
ĠÐ·Ð° Ð³Ð°
ĠÐ¿Ð¾Ð»Ð· Ð²Ð°ÑĤ
Ð± Ð²Ð°ÑĤ
ÑĤÐ² ÑıÑĤ
ĠÐ¼Ðµ ÑĢÐºÐ¸ÑĤÐµ
ĠÐ¿ÑĢÐµ ÑĤÐµ
ĠÐ½Ð°ÑģÐ»ÐµÐ´ ÑģÑĤÐ²Ð¾
ĠÐ° Ð
ĠÐ¾ÑĤ ÑĢÐ¸ÑĨÐ°
ĠÐ½ÑĥÐ¶Ð´Ð° Ð
c o
ĠÐ¡ÑĬ ÑīÐµ
ÑĢÐ ¶Ð
Ġ4 7
] :
ÑĢÐ¾Ñ ĦÐµ
ĠÐ»Ðµ ÑĩÐµ
ĠÐºÐ¾Ð½ÑģÑĥ Ð¼Ð°
ot el
ĠÐ¾ÑĤÐºÐ° Ð·Ð²Ð°
Ġ5 6
ÑĢÐ¾Ñ ĺ
Ð¿ÑĢÐ¾Ð µ
ĠÐ² ÐºÐ°
Ġ4 9
£ ÐĽÐ
ĠÐ¼Ð¾ Ð½Ð¸
ĠÐ²Ð¿ÐµÑĩÐ° ÑĤÐ»ÐµÐ½Ð¸Ðµ
ĠÑģÐ²Ðµ ÑīÐµ
Ðł Ñĥ
ĠÑĥ Ð¼ÐµÑĤ
ĠÑħÑĥÐ´Ð¾ Ð¶Ðµ
ĠÐ¾Ð´ ÑĢÐ¶
ÑĪÐ¸ Ð½Ð³
ĠÐŁÑĥÐ±Ð»Ð¸ÐºÑĥÐ²Ð° Ð½Ð¾
ÑĤÐ ³Ð¾
ĠÐ¾ÑĤÐ »Ð
Ð± Ð»Ðµ
ÐºÑĤ Ð½Ð¸
Ñģ ÐºÑĬ
ĠÐłÐ ĲÐĹÐ
ĠÐ±ÑĥÐºÐ²Ð° Ð»Ð½Ð¾
ĠÑĢÐ°Ð·Ð»Ð¸ ÐºÐ°ÑĤÐ°
ĠÐ½Ð¾Ñī ÑĤÐ°
ĠÑģÐ½Ð¸Ð¼ ÐºÐ°ÑĤÐ°
ĠÐŁÐ¾Ð²Ðµ ÑĩÐµÑĤÐ¾
ĠÐłÐ° Ð¹
ĠÐ¿ÑĢÐ°Ð²Ð¸ ÑĪ
ĠÐ¾ÑĤÐ¿Ð°Ð´ÑĬ ÑĨÐ¸
°Ð½ ÑģÐºÐ¾
ĠÐ¿Ð°ÑĨÐ¸Ð µÐ½ÑĤÐ¸ÑĤÐµ
Ð³ÑĢÐ° Ð¼Ð°ÑĤÐ°
ĠÐ´Ñĥ ÑĪÐ°
ĠÐ½Ðµ Ñ
ĠÐĺÐ½ÑĤÐµ ÑĢÐ½ÐµÑĤ
ĠÑģ ÐºÑĥ
ĠÐ¼Ð¾ Ð¶Ð½Ð¾ÑģÑĤ
¡Ð ł
ĠÐ¼ÐµÐ´Ð¸ÑĨÐ¸ Ð½Ð°
ĠÐ¿Ð¾Ð¼Ð° Ð³Ð°ÑĤ
ÑĤÐµÐ» ÑģÐºÐ¸
ĠÐķ Ð»ÐµÐºÑĤ
ĠÐ½Ð¸ ÑĪÑĤÐ¾
ĠÐľÐµÐ¶Ð´Ñĥ Ð½Ð°ÑĢÐ¾Ð´
Ð²Ð° ÑĤÐ¸
ĠÐ¿ÑĢÐµÐ²ÑĬÑĢ Ð½Ð°
ĠÑģÐ¿ÐµÑĨÐ¸Ð°Ð» Ð½Ð°
ĠÐ¡Ð¸Ð¼Ðµ Ð
ĠÑģÐµÐ¼ÐµÐ¹ ÑģÑĤÐ²Ð°
ĠÐ¸Ð½ÑĤÐµ Ð³ÑĢÐ°
ĠÐ· Ð³Ð¾Ð»Ðµ
ĠÐ¿ÑĢÐµ ÑĨÐ¸
ĠÑģÐ¿Ð¾ Ð¼Ðµ
ĠÐ»Ð¸ÑĩÐ½Ð¾ ÑģÑĤÐ¸
ĠÐ²ÑĬ Ð³Ð»Ðµ
Ð½Ð¾ ÑĢÐ°
Ð²Ð° Ð¶Ð½Ð¾ÑĤÐ¾
ĠÐ¡Ð¸Ð¼ÐµÐ ¾
Ð»Ð ·Ð¸
ĠÐ±ÐµÐ· Ð¿Ð¾
ĠÑģÐ»ÑĬÐ½ ÑĨÐµ
Ð³Ð¾ÑĢÐµ ÑĨ
ĠÐŀ ÑĦÐ¸
ĠÑĤÑĢÐµÐ½ÑĮÐ¾ ÑĢ
ŀÐ ¢
ĠÐ²Ð¸Ð´Ñı Ñħ
ĠÐ½ÐµÑ Ĥ
ĠÐ·Ð°Ð±Ðµ Ð»ÑıÐ·Ð°
Ð¶ ÑĥÐ²Ð°Ð°ÑĤ
ĠÐ´Ð¾Ð°Ñ ĵÐ°
ĠÑĥ ÑĢÐµÐ´Ð¸
ĠÐºÑĥ ÑĩÐµ
ĠÑģÐ¾Ð± ÑģÑĤÐ²ÐµÐ½
ĠÑģÐµ Ð¿Ð°Ðº
Ð½ ÑĤÐ¾
Ð´Ð° Ð²Ð°Ð½Ðµ
ĠÐ·Ð° ÑĤÐ²Ð°ÑĢÑı
ĠÐ¾Ð³ÑĢÐ¾ Ð¼Ð½Ð¸
ĠÐ²Ð¸Ð¶Ð´Ð° Ñ
ĠÐ²Ð¸Ð¶Ð´Ð°Ñ Ĥ
ĠÐ¥Ð °ÑĢÐ¸
ĠÐ¸Ð·Ð¿Ð¾Ð»Ð·Ð²Ð° Ð½Ð¸
ÐºÑĤÐ¸ Ð²Ð½Ð°
ĠÐĴÐ¸ Ð½Ð°Ð³Ð¸
ĠÐ¿ÑĢÐ¾ Ð¼Ð¾ÑĨÐ
ĠÑģÑĤÐ°Ð½Ð´Ð° ÑĢÑĤÐ¸
ĠÑģÑħÐ µÐ¼Ð°
Ð»Ðµ ÑĤÐ½Ð¸
ĠÐĺ Ð³ÑĢÐ°
ĠÐºÐ¾ ÑģÑĤ
Ġ4 3
ĠÑĤÐ¸ Ð¿Ð¸
ĠÐ¿ÑĢÐ¾ Ð²Ð¸Ð½
Ð¶Ð´Ðµ Ð½Ð¸ÐµÑĤÐ¾
ĠÐºÐ¾Ð¼Ð¸ ÑģÐ¸ÑıÑĤÐ°
ĠÐ¡Ð °Ð½
ĠÐ·ÐµÐ»ÐµÐ½ÑĩÑĥ ÑĨÐ¸
ĠÑģÐ²ÑĬÑĢÐ·Ð° Ð½Ð¾
ĠÐºÐ°Ð·Ð° Ñħ
ÐŁ ÑĢÐµÐ´
ĠÐ¿ÑĢÐ¾ Ð¿ÑĥÑģÐ½Ð°
ĠÐĪÐ ¾
Ĥ Ñ£
Ñ ĤÑ£
ĠÐºÑĢÑĬ Ð²Ð¾
ĠÐºÐ¾Ð¼ Ð¿ÑĢÐ¾
ĠÐ·Ð²ÐµÐ· Ð´Ð¸
ĠÑģ Ð½Ð¾
T V
ÑģÑĤÐ° Ð½Ð¾
8 5
Ð½Ð ¶
ĠÐ¿ÑĢÐ¾ Ð¼ÐµÐ½ÑıÑĤ
ÐºÐ¾Ð¸ ÑĤÐ¾
et o
ĠÐ¿ÑĢÐµ Ð²Ð¾Ð´
ĠÐ§Ðµ ÑģÑĤÐ¾
ĠÐĲ Ð±Ðµ
Ñħ ÑĬÑĤ
er e
Ð¿ ÑĤÐ¾
ĠT e
ĠÐ¼Ñĥ Ð»ÑĤÐ¸
Ð¹ ÑģÐºÐ¾
ĠÐ±Ð¾Ð»Ð½Ð¸ ÑĨÐ°ÑĤÐ°
ÑģÑ İ
ĠÐ½Ð°ÑĨÐ¸Ð¾Ð½Ð° Ð»Ð½Ð¾
ÑĤÐ º
ÑĢÐ¸Ð °ÑĢ
ĠÐ¼Ðµ ÑģÑĤÐ½Ð¸
. ).
ÑģÐµ Ð½Ð¾
ĠÐ¾ÑĤÐ³Ð¾ ÑĢÐµ
ĠÐĲÐ²ÑĤÐ¾ ÑĢ
ÑĬÑĢÐ ¶Ð¸
ĠÐĶ ÑĬ
Ð±Ð¸ Ð»
ĠÐ¢Ð° Ð
ĠÐ¸Ð·Ð± ÑĢÐ°Ð½
ÑĢÑĤÐ¾ Ð²Ðµ
ĠÐºÐ°Ð½Ð´Ð¸Ð´Ð° ÑĤÐ¸
ĠÐ´ÐµÑĤÐ°Ð¹ Ð»Ð¸
ĠÐº ÑĢÐ¾
Ð± ÑıÑĤ
Ð¹ Ð»Ð¾
)) ))
ĠÑħÐ»Ñı Ð±
ĠÐ¿ÑĢÐ¾ Ð±Ð²Ð°
ĠÐķ Ð»
ĠÑģÐ¿Ðµ ÑĨÐ¸Ð°Ð»ÐµÐ½
ĠÐ¸Ð½ÑĤÐµ Ð³ÑĢÐ¸
ÑģÑĤÐ²Ðµ Ð½Ð¾ÑģÑĤ
ĠÐµÑĦÐµÐºÑĤÐ¸ Ð²Ð½Ð¾ÑģÑĤ
Ð»Ð½Ð¸ ÐºÐ°
ÐĽ Ñĥ
ĠÐ°Ðº ÑĨÐ¸Ð¸
Ð²Ð¸ÑģÐ¾ ÐºÐ¾
ĠÑģÐµ ÑģÑĤÑĢÐ°
ĠÐ¸Ð½ÑģÑĤÐ¸ÑĤÑĥ Ñ
ĠÐ¸Ð½ÑģÑĤÐ¸ÑĤÑĥÑ Ĥ
ĠÐ½ÐµÐ³Ð¾ Ð²Ð°
8 9
ĠÐºÐ° Ð¼ÑĬÐº
ÑĢÐµ Ð½Ð°ÑĤÐ°
ÑĢÐ¾ÑĨÐ ¸
Ð²Ð¸ ÑĨÐ¸
ĠÑģÐ¾ÑĨÐ¸Ð°Ð» Ð½Ð°ÑĤÐ°
ÐºÑĤ Ð½Ð°
ĠÑĥÐ´Ð¾Ð± Ð½Ð¾
ĠÐ¿Ð¾Ð² ÑĤÐ°ÑĢÑı
ĠÑĢÐ°Ð·Ð±Ð¸ÑĢÐ° Ð¼
en a
ÑĬÑĤ ÑĢÐµ
ĠÑģÑĤÐµ Ð½Ð°
ĠÐ´Ð¾Ð¿ÑĬÐ» Ð½ÐµÐ½Ð¸Ðµ
ĠÐ´ÑĢÑĥÐ¶Ðµ ÑģÑĤÐ²Ð¾ÑĤÐ¾
ĠÐ³Ð»Ñĥ Ð¿Ð°
ĠÐ¿Ð¾ ÑģÑĤÑĢÐ¾
ĠÐ ĥ
ĠÐ³Ð¾ÑģÐ¿Ð¾ Ð´Ð¸Ð½
ĠÑģÐ¿ÐµÑĨÐ¸Ð°Ð»Ð¸ ÑģÑĤ
ÑĩÑĥ Ð²Ð°ÑļÐµ
ĠÐ³Ð¾Ð»ÐµÐ¼Ð¸ Ñı
ĠÐļÐ° Ð¿Ð¸ÑĤÐ°
ĠÐ´ÑĬÐ»Ð³Ð¾ ÑģÑĢÐ¾
Ð± Ð»Ð°
ĠÐ¶Ð¸Ð»Ð¸ Ñī
ÐºÐ½Ð¾Ð²Ðµ Ð½Ð¾
-------- --------
ĠÐ¡ Ð²ÐµÑĤ
ÐºÐ¸ ÑıÑĤ
» ÑıÑĤ
·Ð µÐ¼
ĠÐ¿Ð¾Ð´ÑħÐ¾Ð´Ñı ÑīÐ°
ĠÐ±Ð¸Ð² ÑĪ
ĠÐ½Ð°ÑĨÐ¸Ð¾Ð½Ð° Ð»Ð½Ð°
ÐºÐ¾ Ð²ÐµÑĤÐµ
ĠÑĥ Ð´
Ð³Ð¾ ÑĤÐ¾
ĠÐ¿ÑĢÐ¾ÐºÑĥ ÑĢÐ°ÑĤÑĥÑĢÐ°
ÑĢÐ¸ Ð·Ð¸ÑĢÐ°
ĠÐ¾Ð¿ÑĢÐµÐ´Ðµ Ð»ÐµÐ½Ð°
ĠÐ¿Ð¾ ÐºÑĥ
ĠÑĥÑģÑĤÐ° ÑĤÐ°
ĠÐ¾ÑģÑĤÐ° Ð²ÐºÐ°
ĠÑĦÐ °Ð»Ð¸
ĠÐ¿Ð¾ ÑģÑĤÑĬÐ¿
ĠÐĳÐ °Ð»
Ġb y
ĠÐļÐ° ÐºÐ²Ð°
ĠÐĳÐ¸ ÑĤÐ¾
ĠÑĢÐ°Ð·Ð¿Ð¾ Ð»Ð¾Ð¶ÐµÐ½Ð¸
ĠÑģÑĤÑĢÑĥÐºÑĤÑĥ ÑĢÐ¸
Ñĩ Ð½Ð¸Ð¾ÑĤ
µÐ µ
ĠÑĢÐµÐ° ÐºÑĨÐ¸Ñı
ov a
ĠÐºÐ¸Ð»Ð¾ Ð¼ÐµÑĤÑĢÐ°
ĠÐ·Ð° Ð³Ð¸
ĠÐ¿ÑĢÐ¾ÑĤÐµ ÑģÑĤÐ¸ÑĢÐ°
ĠÐ¦Ð²ÐµÑĤÐ° Ð½Ð¾Ð²
ķÐĿÐ Ĳ
ÑĪÑĤÐ¸ Ð½Ð°
ĠÐ¿Ð¸ÑģÐ° ÑĤÐµÐ»
ĠÐ¿Ð¾ÑĤÐ²ÑĬÑĢÐ ¶
Ð»Ð° Ð½Ð´Ð¸Ñı
Ð¿Ð¸ Ñ
ĠÐ±ÑĬ Ð´Ð°
ĠÐ´ÑĬÑĢÐ¶Ð° Ð²Ð½Ð°
Ð´Ð¾Ð²Ð° ÑĤÐµÐ»Ð½Ð¾
ĠÐ¿ÑĢÐµ Ð¾Ð±
ÐºÐ¾ Ð»ÐºÐ¾
ÑĤÐ» ÑıÐ²Ð°
Ð³Ð¾Ð»ÐµÐ¼Ð¸ ÑıÑĤ
ĠÐ¼Ð° ÑģÐ°ÑĤÐ°
ĠÐ»Ð¸ ÑģÑĤÐ°ÑĤÐ°
ĠÑĨÐ²ÐµÑĤ Ñı
ĠÑģÐ¸ Ð½Ð°
ĠÐĶ Ð¶Ð¸
ĠÐłÐ° Ð´Ð¾
ÑĢÐ¼Ð °ÑĤ
ĠÑģÐ¿Ð° Ð»
ĠÑĤÑĢÐ¸ Ð¼ÐµÑģÐµ
ĠÐ´Ð¾ÑģÑĤÐ¸ Ð³Ð½Ðµ
. ),
ĠÐ± Ð»Ð°
a il
ĠÐľÐ¸Ð½Ð¸ ÑģÑĤÐµ
ĠÐĵÐ¾ Ð»ÐµÐ¼Ð¸
N ews
Ð½Ð¸ ÑĩÐµÑģÐºÐ¸
ĠÑģÑĬ ÑīÐ¸
°Ñ Ħ
ĠÑģ Ðº
ÑĢÐ¸ ÑģÑĤ
ĠÐļÐ¾ Ð»Ðµ
ÑĤÐ¾ Ð³Ð°Ð²Ð°
ĠÐ°ÑĢÐ¾ Ð¼Ð°ÑĤ
ĠÐ³Ð»Ð° Ð²Ð½Ð¸Ñı
Ð¤Ð ¾
ĠÐĶÐ¸Ð¼Ð¸ ÑĤÑĢÐ¾
ĠÐ²ÑĬÐ·Ð¿ ÑĢÐ¸ÐµÐ¼Ð°
ĠÐŁÐ °ÑĤ
ĠÐºÑĢÐ° Ð»
Ð¿Ð¸Ñ Ĥ
ĠÑĢÐ°Ð· Ð´ÐµÐ»Ð¸
ĠÑĥ ÐºÑĢÐµ
Ð´Ð¸ ÑıÑĤÐ°
ĠÑģÐ²ÑĬÑĢÐ ·Ð°Ð½
ĠÐĿÐ° ÑĢÐµ
ĠÐ´Ð¶Ð ¾
ÑĬÑĢÐ ºÐ¾
ŀÐ¡Ð ¢
ĠÑģÑĬÐ´ÑĬÑĢÐ¶Ð° Ð½Ð¸ÐµÑĤÐ¾
ĠÐ¾ ÑĤÐ¾
ÑĬÑĢÐ ¿Ð
ÑĤÐ°ÑĤ ÑĬÐº
ĠÐ° Ð½Ð¾
ĠÑģÑĤ ÑĢÐµÑģ
ĠÐĴÐ° ÑĪÐµÑĤÐ¾
ĠÐļÐ° Ð»Ð¸
ĠÐļ ÑĢÑĥ
Ð¼ÐµÑĢ ÑıÑĤ
ĠÐ»Ðµ ÐºÑĥÐ²Ð°
ĠÐ¾ÑĤ ÑĢÐµ
ĠÐ»Ð¸ ÑĨÐ°ÑĤÐ°
ÑĬ Ð´
ĠÐºÑĢÐ°ÑģÐ¾ ÑĤÐ°
Ð³Ð¾ Ð»ÐµÐ¼
ĠÐ³ÑĢÐ° Ð´Ð¾ÑĤ
Ð½ÐµÑģÐ° Ñ
Ð½ÐµÑģÐ°Ñ Ĥ
ÑĤÐ²Ð° Ð½ÐµÑĤÐ¾
ĠÐºÐ¾ÑĢÐ° Ð±
ĠÐ½Ð°Ñĥ ÑĩÐ½Ð¸
ĠÐ¸ Ð°ÐºÐ¾
ĠÐĿÐ°Ð ¸
ĠÐ½ÑĥÐ¶Ð´Ð°Ð µ
Ð¿Ð°Ñ ĵÐ°
ĠÐ¿Ð¾Ñı Ð²ÑıÐ²Ð°
ĠÐĳ ÑĢÐ°Ð·Ð¸
ÑħÐ²ÑĬÑĢÐ »Ð
Ð²Ðµ ÑĢÐ·Ð
ĠÑĢÐ°Ð±Ð¾ ÑĤÐ¸ÑĤÐµ
ĠÐ² ÑĢÐ°Ð±Ð¾
ĠÑģ ÐºÐµ
ĠÐ° Ð±Ð¾
ĠÐºÐ°Ð±Ð¸ Ð½ÐµÑĤ
ĠÑģÐ¿Ð¾ ÑģÐ¾
ĠÐ¼Ð°Ð¹ ÐºÐ°ÑĤÐ°
Ð» ÑĤÐ°
ÑģÑĤÐ¾ Ð¿Ð°
ĠÐ½Ðµ ÑĢÐ²
v o
ĠÐ¾Ð±Ð¸ ÑĩÐ°ÑĤ
ĠÐºÐ°Ð¶Ðµ Ð¼
ĠÐ½ÐµÐ¿Ð¾ Ð·Ð½Ð°
ĠÐ° Ð²Ð°
ŀÐ Ł
ĠÐºÑĥ ÑĩÐµÑĤÐ°
Ð³Ð¾ Ð²Ð¸
ĠÐºÐ¾Ð½ ÑģÑĤÐ°
Ġ @
ĠÐ¸Ð¼Ð¾ ÑĤÐ°
ĠÐ±Ð¸ Ð·Ð½Ð¸
ĠÐºÑĥ ÑĤÐ¸Ñı
ĠÐļ Ð»Ñĥ
ĠÑģÑĬÐ¾ÑĤÐ²ÐµÑĤ ÑģÑĤÐ²Ð¸Ðµ
ĠÑģÑĤÑĥ Ð´ÐµÐ½ÑĤ
Ð¼Ð¸ Ð»Ð°
ĠÐĶÐ¾ Ð±Ð°
ÑģÐºÐ¾ Ð²Ð¾
ÑģÑı Ð²Ð°Ð½Ðµ
ĠÐ¾ ÐºÐµ
ĠÐĿÐ° Ð¿ÑĢÐ°
ĠÐµ Ð»Ð°
ĠÐ´Ð° Ð»
ĠÑģÐ¼ ÑıÐ½Ð°
ĠÐ´Ð²Ð¸Ð³Ð° ÑĤÐµÐ»
ĠÐ¾ÑĤÐºÑĢÐ¸ ÑĤÐ¸
Ð±ÑĢÐ¾ Ð²Ð¾
ÑģÑĤÐ¾ Ñ
c he
ĠÐķ Ð¹
ĠÐ¸ÑģÐº Ð»Ñĥ
ĠÐºÐ¾Ð½ ÑģÑĤÐ¸ÑĤÑĥ
ĠÑĦÐ¸Ð½Ð°Ð½ÑģÐ¾ Ð²Ð°
ĠÑģÑĤÐ°Ð´Ð¸Ð ¾Ð½
ĠÐĶÐ ¾Ð½Ð°
ÑĢÐµ ÑĤÐ°
ĠÐ¢Ð¾Ð´Ð¾ ÑĢÐ¾Ð²
ĠÑģÐ¿Ð¾ÑĢÑĤ Ð½Ð¸
ĠÑģÐ¸Ð³Ñĥ ÑĢÐ½Ð¾ÑģÑĤÑĤÐ°
ĠÐºÑĢÑĬÐ² ÑĤÐ°
ĠÑħÐ¸ ÑĢÑĥ
ĠÐ¿Ð»Ð°Ð½Ð¸ Ð½Ð°
ÑģÐ° Ð¼Ð¾
ĠÑĩÐ° ÑģÐ¾Ð²
P S
ĠÐ±Ð¸ ÑĤÐºÐ°
ĠÐ¿Ð»Ð° Ð¶Ð°
ÑĢÐµ ÑīÐ°
ĠÑĤÑĥÑĢÐ½Ð¸ ÑĢ
Ð»Ñı Ð½Ð°
Ð½Ð¾ Ð²Ð°ÑĤÐ°
ĠÐ¾Ð±ÑīÐµ ÑģÑĤÐ²ÐµÐ½Ð¸
ĠÐ¿ÑĢÐµ ÑģÐ»ÐµÐ´
ĠÐ¶Ð¸ Ð²
Ð½Ð° Ñħ
ĠÐ¯ Ð²Ð½Ð¾
ĠÑģ ÑĩÑĥ
ÑģÑĤ ÑıÐ²Ð°
ĠÐļÐ¾ Ð»ÐµÐ´Ð°
ĠÐ¿Ð° Ð»Ð°
Ð´Ð¾ Ð³Ð¾ÑĢÐµÑĨ
ĠÑģÑĤÑĥ Ð´ÐµÐ½ÑĤÐ¸ÑĤÐµ
ĠÐķ ÑģÑĤÐµ
ĠÐĶÐ ¾Ð½
oo d
ĠÑĥÑģÐµ ÑīÐ°Ð½Ðµ
ĠÐ´ÑĢÐ¶Ð° Ð²Ð°
ĠÐ¿Ð¾Ð´ÐºÑĢÐµ Ð¿Ð°ÑĤÐ°
ĠÐ¸Ñģ Ð¿ÑĢÐ°
ĠÑĤÑĬÑĢÐ ¶Ðµ
ĠÐ¸Ð·Ð¸ Ð³ÑĢÐ°
ĠÐķ Ð²
ĠÐŁÑĢÐ¸ ÑĩÐ¸Ð½Ð°ÑĤÐ°
ĠÐŁÑĬÑĢÐ²Ð¸ ÑıÑĤ
ĠÐ·Ð°Ð ¸Ð½ÑĤÐµ
ĠÐµ Ð¿Ð
ĠÑĨÐµ ÑĢÐµÐ¼Ð¾
s h
ĠÐ¿Ð°Ð½Ð´Ðµ Ð¼Ð¸ÑıÑĤÐ°
Ð¿Ð° ÑĤÐ¸
ĠÐĳÐ¾ Ð¶Ðµ
ĠÑĤÑĥÑĢÐ½Ð¸ ÑĢÐ°
ĠÐ¡Ð ¡Ð
Ġ Ð·Ð
ĠÑĢÐµ Ð·Ð¾
ĠÐ¼Ð° ÑģÐºÐ¸
ĠÐŀÑĤÐ³Ð¾ Ð²Ð¾ÑĢ
ĠÐ¿Ð»Ñİ Ñģ
ĠÑĢÐµ ÑĪÐ°
ĠÐŁ ÑĬÑĤ
ĠÐ¼Ð°ÐºÐµÐ´Ð¾ Ð½ÑģÐºÐ¸
ÑĩÐµ Ð½Ð°ÑĤÐ°
ĠÐ·Ð° ÐºÑĬ
ÑĤÐ»Ð °ÑĤÐ°
ĠÑģÐ¾ÑĨÐ¸Ð°Ð» Ð½Ð¾
ĠÑĤÐ° Ð½ÑĨ
Ð¿Ð° Ð»Ð¸
ĠÑĦÐ¸Ð½Ð° Ð»Ð°
ĠÐ·Ð½Ð° Ð½Ð¸Ñı
Ñĥ Ð²Ð°ÑļÐµÑĤÐ¾
ÑģÑĤÐ¾Ñ Ĥ
ĠÐ³Ð°ÑĢÐ°Ð½ ÑĨÐ¸Ñı
Ð´Ð¾ Ð
ĠÐŀ ÑģÐ¾Ð±ÐµÐ½Ð¾
ÑģÐµ Ð²
ĠÐºÐ¾Ð½ÑĤÐµ Ðº
ĠÐ¿ ÑĤÐ¸
ÑĢÐ´Ð¾ Ð³Ð°Ð½
ĠÐķ ÐºÐ¸
ĠÑģÑĤÑĢÐ°ÑĤÐµÐ³Ð¸ Ñı
Ð½Ðµ Ð½ÑĤÐ¸
O L
ĠÑħÐ°ÑĢÑĤÐ¸ Ñı
ĠÐºÐ¼ÐµÑĤ ÑĬÑĤ
ĠÐµÐ´Ð¸Ð½ ÑģÑĤÐ²ÐµÐ½Ð°ÑĤÐ°
ĠÑĩÐ¾Ð²ÐµÐº ÑĬÑĤ
ĠÐ´ÐµÐ½Ð¾ Ð½Ð¾
ĠÑĢÐ°Ð· ÑĥÐ¼
ĠÐ¿Ð¾ Ð¿ÑĢÐ°
ĠÐ¿ÑĢÐµ ÑģÑĤÐ¸
ro id
ĠÐ¼Ð¾ ÑĤÐ¾
ĠÑħÐ¾ Ð´
ÑģÑĤ ÑĢÐ¸Ñı
Ð¼Ð±Ð¾ Ð»
ĠÐ¿ÑĢÐµÐ·Ð¸Ð´ÐµÐ½ÑĤ ÑĬÑĤ
ĠÐ¸Ð· Ð´Ðµ
ĠÑĩÑĥÐ¶Ð´Ðµ ÑģÑĤÑĢÐ°Ð½
Ð¢Ð ¸
ĠÐ½Ð¸ÐºÐ° ÐºÐ²Ð¾
ot o
ĠÐŁÑĢÐµÐ¿Ð¾ ÑĢÑĬ
m e
ĠÐ¡ ÑĢÐ±Ð¸
ĠÐºÐ¾Ð¼ Ð¿ÐµÑĤÐµ
ĠÐ¿ÑĬÐ» Ð½Ð¸
ĠÐ¼Ð° ÑĢÐºÐ°ÑĤÐ°
ĠÐ²Ð¸ÑģÐ¾ÐºÐ¾ ÐºÐ°ÑĩÐµ
ÑģÐµ ÑĢÐ¸Ð¾
ĠÑĦÐ° Ð¼Ð¸
u ro
ĠÐ¿ÑĢÐµ ÑģÐºÐ¾
ĠÐ¿ÑĢÐ¸ÑıÑĤ Ð½Ð¾
ĠÑģÑĬÐ¾ÑĤÐ²ÐµÑĤ Ð½Ð¸ÑĤÐµ
ÑħÐ¾ Ð´Ð½Ð¸
ĸ ÐĶÐ
ĠÐ´Ñı Ð»
ĠÑĤÑĢÐµ ÑĤÐ¾
ĠÐĴÐ¸ Ñģ
ĠÑĢÑĥ ÑģÐºÐ¸ÑĤÐµ
ĠÑĢÐ¸ ÑģÐºÐ°
ĠÑģÑĬÐ´ ÑĬÑĢÐ¶Ð°ÑĤ
ĠÐ·Ð° Ð²ÑĢÑĬÑīÐ°
ĺÐ¢Ð ķÐĽÐ
ĠÐ·Ð»Ð¾ ÑĥÐ¿Ð¾ÑĤÑĢÐµ
ĠÑģÑĬÑģÑĤÐ°Ð² ÐºÐ¸
ĠÑģÐ½Ð° Ð±
ĠÐŁÑĢÐ¾ Ð´Ð°Ð²Ð°
ĠÐ± ÑĢÐ°Ðº
ĠÐ¡ ÐºÐ°
ĠÑĩÐ»ÐµÐ½Ð¾ Ð²ÐµÑĤÐµ
ĠÐ¼Ñı ÑĢÐºÐ°
ĠÑĩÐ¸ ÑģÐ»Ð¾
ĠÐ´Ð¸Ð° Ð³Ð½Ð¾ÑģÑĤÐ¸
ĠÐ´Ð¸ ÑĪÐ°
ĠÐ¼Ð¸Ð½Ð° Ð»Ð¾
ĠÐ´Ñĥ ÑħÐ°
Ð½Ð´ Ñĥ
ĠÐ¦ ÑĬÑĢÐº
................ ................
ĠÐºÐ¾Ð¼Ð¿ÐµÑĤÐµ Ð½ÑĤ
ĠÐ³Ð»Ð°ÑģÑĥ Ð²Ð°Ð½Ðµ
ĠÐ³Ð¾Ð´Ð¸ ÑĪÐ½Ð°
ÐºÐ¾ Ð²Ð¾
Ð»Ð¾Ð³Ð¸ ÑĩÐ½Ð¾
ĠÐ½Ð°Ð¿ÑĢÐ°Ð²Ð¸ ÑħÐ°
ķÐ §Ð
ĠÐ¾ ÑģÑĥ
ÑĢÐ¾ Ñı
ĠÐ´ ÑĬÐ»ÑĬÐ³
ĠÐ²Ð· ÑĢÐ¸
ÑĦÐ¸ÐºÐ° ÑĨÐ¸Ñı
Ġo d
ĠÐ½Ð°Ð² ÑĢÐµÐ¼Ðµ
ĠÐ¿Ð¾ Ð²Ñı
, ,
ĠÐ¿Ð¾ÐºÑĢÐ¸ Ð²Ð°
ĠÑģÑĬÐ´Ðµ Ð±Ð½Ð°ÑĤÐ°
ĠÑĩÐ¸ Ð¹ÑĤÐ¾
ĠÐ¡ Ð»Ðµ
ĠÐ¿Ðµ ÑĤÐ¸
re d
ĠÐ¿ÑĢÐ¸ÑĤÐµ ÑģÐ½ÑıÐ²Ð°
ĠÐ·Ð°Ð ¾Ð±Ð¸
ĠÐ´ÐµÐ¿Ñĥ ÑĤÐ°ÑĤ
Ð´Ð° Ð»Ðµ
ĠÐŀ Ð±ÐµÐ´Ð¸
ĠÐľÐ µÑ
ĠÐºÐ¸ ÑĤÐ°Ð¹
ÑīÐµ ÑģÑĤÐ²Ð¾
U S
ÐºÐ° ÐºÐ¾
ĠÑģÑĤÑĬ Ð¿ÐºÐ¸
ĠÑĢÐµ Ð¿Ð¾
ĠÐ¡ÑĤÐ¾ Ð»Ð¸
ÑģÑĤÐµ Ð½Ð´Ð¸
ĠÐĲ Ð½ÑĤÐ¸
ĠÐ²Ð¸ Ð·Ð¸Ñı
Ð»Ð ±Ð¾
ÑĢÐ° Ð
Ð·Ðµ ÑĢ
ķÐ ¢
Ð¶Ð° Ð²Ð°Ð½Ðµ
ĠÐ¿Ð¸ ÑĪÐ°ÑĤ
ĠÑģÑĬÐ¿ÑĢÑĥ Ð³Ð°
ĠÐ¿ÐµÑĢÑģÐ¾ Ð½Ð°Ð»
Ð¾Ð±ÑĢÐ°Ð· Ð½Ð¸
ĠÐ½Ð°Ñĥ ÐºÐ°
ĠÐµÐºÑģ ÐºÑĥ
ÑĤÐµ Ð³
Ð²Ð¾ Ð´Ð½Ð¸
ĠÐºÐ°Ð¶Ðµ ÑĤÐµ
ĠÑĢÐµ Ð»Ð°
Ð²Ð ³Ð
ĠÐ¼Ð¸ Ð½Ðµ
Ð²ÐµÑ ľÐµ
ĠÐ¿ÑĢÐµÐ´Ð° Ð²Ð°Ð½ÐµÑĤÐ¾
ĠÐ´Ð¾Ð¼Ð° ÑĪÐ½Ð¸
Ġ200 3
ĠÐ¸Ð·Ð³Ð»ÐµÐ¶Ð´Ð° Ñ
ĠÐ¸Ð·Ð³Ð»ÐµÐ¶Ð´Ð°Ñ Ĥ
ĠÐ¿ÑĢÐ¾Ð´Ð° Ð²Ð°ÑĤ
ĠI D
ĠÐ¿Ð¾ Ð³ÑĢÐµ
ĠÐ´Ðµ ÑģÑĤÐ¸Ð½Ð°
ĠÐ¿ÑĢÐ¾ Ð·ÑĢÐ°
ĠÐ³Ñĥ Ð¼Ð¸
¸ ÑģÑĤÐ¾
ĠÑĦÐ¾ÑĢÑĥ Ð¼Ð°
ĠÑĤÐ° ÐºÑģÐ°
ĠÐ¿Ð¾ Ð»Ð¾Ð¶ÐµÐ½Ð¸ÐµÑĤÐ¾
ĠÐ·Ð°Ð²ÐµÐ´Ðµ Ð½Ð¸Ðµ
ĠÐ²ÑĢÐµ Ð¼ÐµÐ½
ĠÐ¼Ð°Ð»ÐºÐ¾ ÑĤÐ¾
ĠÐĿÐ°ÑĨÐ¸Ð¾Ð½Ð° Ð»Ð½Ð¸Ñı
ÑĩÐ¸ ÑĨÐ¸
ĠÐ¿Ð¾Ð´ ÑĩÐ¸
ĠÐ¡ÑĬ Ð³Ð»Ð°
ĠÐ»Ð¸Ð´Ðµ ÑĢÐ¸
ĠÐ¢Ð łÐ
ĠÐĴÐ° ÑĪÐ°ÑĤÐ°
ÑĢÐµ Ð²
ĠÐŁÐ¾ Ð»Ñĥ
ĠÐ· Ð»Ðµ
ĠÑģÑĬÐ¾Ð± ÑīÐµÐ½Ð¸Ðµ
ĠÐ¾ÑĤÐ¿Ñĥ ÑģÐºÐ°
ĠÐ¿ÑĢÐµÐ´Ð¾ÑĤÐ² ÑĢÐ°ÑĤ
ub e
ĠÐ¿Ð»Ð° Ð½Ð¾Ð²Ðµ
Ð¾Ð± ÑħÐ¾Ð´Ð¸
ĠÑĩÐ° Ð¹
Ð±Ðµ ÑĢ
ĠÐĿÐ°ÑĤÐ¸ ÑģÐ½ÐµÑĤÐµ
ĠÐ¿ÑĢÐµÐ´Ð¿ÑĢÐ¸Ñı ÑĤÐ¸Ñı
Ð³Ð¾Ð´Ð¸ÑĪ Ð½Ð¸
ĠÐ¿Ð¾Ñģ ÑĢÐµÑī
ĠÑģÐµÑĢÐ¸Ð¾ Ð·Ð½Ð°
ĠÑģÑĬÐ µÐ´Ð¸
ĠÐ¸Ð½ÑģÑĤÑĢÑĥ Ð¼ÐµÐ½ÑĤ
Ð¼Ð¸Ð µ
Ð½Ð¾Ð²Ðµ Ð½Ð¸
ķÐ ¦
ĠÐ¸ Ð´Ð½Ð¸
ĠÐºÐ¾Ð»Ð¸ÑĩÐµ ÑģÑĤÐ²Ð°
Ð¡ Ð»ÐµÐ´
ĠÐºÐ¾ Ð½ÑĦÐ¸
Ð¶Ðµ Ð½Ð¾
ĠÑħ Ð»Ð°Ð´Ð¸
Ñ ļÐ°ÑĤÐ°
ÐºÐ¸ Ð
ĠÐ¼Ð¾ ÑģÑĤ
ĠÐ¸ÑģÐºÐ° Ð»
Ð± ÑĬÐ»Ð³Ð°
ĠÐĲ Ð»Ð±Ð°
ĠÑģÐ»Ñĥ Ð¶Ð±Ð¸
ĠÑģÑĬÐ¾Ð± ÑĢÐ°
ĠÑĤÐµÑħ Ð½Ð¸Ñı
ĠÑĤÑĥ ÑĢÑģÐºÐ¸
ĠÐ¿Ð¾ÑģÐ»ÐµÐ´ Ð²Ð°
ÐºÐ¾Ð½ ÑģÑĤÑĢÑĥ
ĠÑĤÑĥÑĢÐ¸ Ð·ÑĬÐ¼
p ort
ĠÑĪ ÑĥÐ¼
ĠÐ½ÐµÐ¸Ð· Ð²Ðµ
9 7
Ð²Ð»Ðµ ÑĤÐ²Ð¾
ÑĢÐ¾ Ð¼Ð°
ĠÐ¸Ð½Ð¸ÑĨÐ¸Ð° ÑĤÐ¸Ð²Ð°
ĠÐ¾ÑĦÐ¾ ÑĢÐ¼
ĠÐ·Ð° Ð»Ð°Ð³Ð°
Ñħ Ð²Ð°ÑĤ
ĠÐ¿Ð¾ÐºÑĢÐ¸ ÑĤÐ¸Ðµ
ĠÐ±ÑĬÐ»Ð³Ð° ÑĢÑģÐºÐ¾
ĠÐŁÐµÑĤÐºÐ¾ Ð²
ĠÐ´ÐµÐ¹ÑģÑĤÐ²Ð ¸ÑıÑĤÐ°
ĠÑģÐ¸Ð³Ñĥ ÑĢÐ½Ð¸
ĠÐľÐ° ÐºÑģÐ¸
ĠÐ¿Ð¾ Ð½Ñĥ
ĠÐ¾Ð± ÑĢÐ°Ð·Ñĥ
ĠÐ¼Ðµ ÑĤÑĢÐ¾
ĠÐºÐ¾Ð°Ð»Ð¸ ÑĨÐ¸Ñı
ĠÐĲ Ð±
ĠÑĨÐµÐ½ Ð½Ð¾ÑģÑĤÐ¸
ĠÐ¿Ð¾Ð²Ð¸ ÑĪÐ°Ð²Ð°Ð½Ðµ
ĠÐķ Ð´Ð¸
ĠÑĥ Ð¼Ð¸ÑĢÐ°
ĠÐ¿Ð¾ ÑģÑĤÐ¾Ð¸
ĠÐŁÐ°Ð·Ð° ÑĢÐ´Ð¶Ð¸Ðº
ĠÑģÑĤÐ¾ ÑıÑĤ
ŀÐ ł
ĠÐµÐ¿Ð¸ Ð·Ð¾
ĠÐ¾Ð± ÑĬÑĢÐºÐ°
ĠÐľÐµÑĤÐ¾ Ð´Ð¸
Ġ200 1
ĠÐ·Ð ¾ÑĪÑĤÐ¾
ĠÐ¿Ð¾ Ð¼
ĠÐºÐ¾ÑĢÐ¸ ÑģÑĤÐµ
ĠÑĦÐ¸ Ñ
ĠÐ·Ð°ÑĤÐ²Ð¾ ÑĢÐ¸
Ð½ Ð½Ð¸ÑĤÐµ
ĠÑĢÑĬ ÐºÐ°ÑĤÐ°
ĠÑĦÐ¸Ñ Ĥ
ĠÐ² ÑħÐ¾Ð´
ma il
ĠÐ¼Ð°Ð³Ð°Ð·Ð¸ Ð½Ð°
ĠÐ¿Ð¾ÑģÐµ ÑīÐµÐ½Ð¸Ðµ
ĠÐ²Ð¸ÑĨÐµ Ð¿ÑĢÐµ
ĠÑģÐ²ÐµÑĤÐ¾ Ð²Ð½Ð°ÑĤÐ°
ĠÑģ Ð¼Ñĥ
ĠÑĥ ÐºÐ°Ð·Ð°
ĠÐ¶Ð¸Ð²Ð¾ÑĤ Ð½Ð¸ÑĤÐµ
ĠÐľÐ¸ÑħÐ° Ð¹
f or
ĠÐļÐ¾Ð¹ ÑĤÐ¾
ĠÐ¿Ð¾Ð´Ð° ÑĤÐ¾ÑĨÐ¸
ĠÐ±Ð ¾Ð½
Ð±ÑĬÑĢÐ ºÐ°
ĠÐĲ Ð»Ð¸
ĠÑĩÑĥ Ð´Ð¾
ĠÑģÑĬÑħÑĢÐ°Ð½Ðµ Ð½Ð¸Ðµ
ħÐ ¾
ĠÐ·Ð´ÑĢÐ°Ð²ÐµÐ¾Ð¿Ð° Ð·Ð²Ð°Ð½ÐµÑĤÐ¾
Ð²Ð¾ Ð»Ð½Ð¾
ĠÐ¸Ð· Ð¿
ĠÑģÐ¿Ðµ ÐºÑĤÐ°
ĠÐ¾ÑĤÐ»Ð¸ ÑĩÐ½Ð¾
ĠÐµ ÐºÐ¾Ð½Ð¾
ĠÑĻÑĥ Ð±Ð¾Ð²
ĠÐĿÑı ÐºÐ¾Ð¹
ĠÐ²ÐµÑĩÐµ ÑĢÑĤÐ°
Ð´Ðµ Ð½Ð¾Ð²
ĠM ic
ĠÑĢÐµ ÑĨÐ¸
ĠÑģÐ²Ð¾Ð±Ð¾ Ð´ÐµÐ½
ĠÐ¸Ð· Ð½Ðµ
Ð²Ð¸ Ð¶
Ð¶Ðµ Ð½Ð¸ÑıÑĤÐ°
ĠÐŀ Ð¿Ð¸ÑģÐ°Ð½Ð¸Ðµ
Ð»Ð¾ Ð·Ð¸ÑĤÐµ
ĠÐ´Ð¾Ð²Ðµ ÑĢÐ¸Ðµ
av a
ĠÐ¡ÑĤÐ¾Ñı Ð½Ð¾Ð²
ĠÐĵ Ð»ÐµÐ´Ð°
ĠÑģÑĢÐ°Ð²Ð½Ð¸ÑĤÐµ Ð»Ð½Ð¾
ĠÐ½Ð° ÑĤÐ°ÑĤÑĬÐº
ÑĩÐ° ÐºÐ°
ĠI II
ĠÑģ ÑĢÑıÐ´Ð°
ĠÑĢÐ° Ñģ
ĠÐ¿ÑĢÐ¸ ÑħÐ¾Ð´Ð¸ÑĤÐµ
ĠÑĢÐ¾Ð¼Ð° Ð½ÑĤÐ¸
ĠÐ¿ÑĢÐµ Ñĥ
ÐĴÐ ĺÐĶÐķÐŀ
ĠÑĢÐµ ÑĦÐ¾ÑĢÐ¼Ð¸
________ ________
ĠÐ¾ÑĤÐ ¼Ð
ĠÐ¸Ð·Ð»Ð¾ Ð¶Ð±Ð°
ĠÐ¿ÑĢÐ¾ÑĩÐ¸ÑĤÐ° Ð½Ð¸Ñı
ĠÐµÐ½ÐµÑĢÐ³Ð µÑĤÐ¸
Ñĩ ÑĤÐ¸
ĠÐ¿ÑĢÐµÐ´Ð¿ ÑĢÐ¸Ðµ
Ã ©
Ð·Ð° ÑīÐ¸
ĠÐµÐ¼Ð¾ÑĨÐ ¸Ð¸
ÑĢ ÑģÑĤÐ²Ð¾
ĠÐ¸Ð½Ð´ÑĥÑģÑĤ ÑĢÐ¸Ñı
Ð· Ð¼Ð¾ÑĤ
ĠÐºÐ¾Ð½ÐºÑĥ ÑĢÑģÐ°
ĠÐ¿ÑĢÐµÐ´ÑģÑĤÐ° Ð²Ð°
ĠÐ±ÑĬÑĢÐ ·Ð¸
ĠÐ²ÑĬÐ·Ð½Ð° Ð³ÑĢÐ°
8 7
ĠÐºÐ¸Ð»Ð¾ Ð³ÑĢÐ°
ĠÑħ ÑĢÐ¾Ð½Ð¸
ĠÐ©Ð¾ Ð¼
Ñ ĮÐ
ĠÐ´Ð¾Ð¼Ð°ÐºÐ¸ Ð½
ĠÐ¿ÑĢÐµ Ð·Ðµ
ĠÐ²Ð°ÐºÑģÐ¸ Ð½Ð°
ĠP h
ĠÐ°ÐºÑĤ ÑĢÐ¸
ĠÐ½Ð°ÑģÐ¸ Ð»Ð¸Ðµ
Ð·Ð° Ð½ÑĤÐ¸
ÑĢÐ½Ð¸ ÐºÐ°
Ð»Ð¾Ð³Ð¸ ÑĩÐµÑģÐºÐ¸
Ð´ÐµÐ¹ ÑģÑĤÐ²Ð¸ÐµÑĤÐ¾
ÑĪÐ¸Ð½Ð³ ÑĤÐ¾Ð½
ĠÐºÑĢÐ°ÑģÐ¸ Ð²Ð¸
c l
ĠÐ½Ð°Ð»Ð¸ ÑĩÐ¸ÐµÑĤÐ¾
ĠÐ·Ð° ÑħÑĢÐ°Ð½Ð²Ð°
ÑĢÐµÐ ¾
ĠÐłÐ £
Ð³Ð¾ Ð²
ĠÐľÐ° Ð½ÑĩÐµ
ĠÑĺÐ° Ð·Ð¸Ðº
ĠÑĢÐµ ÑĪÐµ
ĠÑĥÑģ Ð²Ð¾
ĠÑĥÑĩÐ¸Ð»Ð¸ ÑīÐµÑĤÐ¾
ĠÐ¿Ð¾ÑģÑĤÐ° Ð½Ð¾Ð²
ĠÐ·Ðµ Ð¼Ð¸
¸ Ð½Ð¸
ĠÐ·Ð° Ð³
ĠÑģÐ¿Ð° Ð·Ð²Ð°
ĠÐ¿ÑĥÐ±Ð»Ð¸ ÑĩÐ½Ð¾
ĠÐ¡Ð ĽÐ
ĠÐ°ÐºÑĤ ÑĮÐ¾
ĠÐ¸Ð· Ð±Ñĥ
ĠÐĶÑĢÑĥ Ð³
ĠÐºÐ¸ÑģÐµ Ð»Ð¸Ð½Ð°
ĠÐ¿Ð¾Ð² Ð»Ð¸Ñı
Ð»Ð¾ Ð²Ð¸ÑĤÐµ
ĠÐ½ÑıÐºÐ¾ Ð³Ð¾
Ð»Ð³ ÑĢÐ°Ð´
ĠÑĨÑĬÑĢÐº Ð²Ð°ÑĤÐ°
Ñģ Ð½Ð¸ÑĨÐ¸
Ð¼Ð¾ Ð²Ð°
ĠÐ¸Ð· ÑĤÑĬÐº
ĠÑģÐ²ÐµÑĤÐ»Ð¸ Ð½Ð°ÑĤÐ°
Ð²ÑĬÑĢ ÑĪÐ¸
Ð¶Ð° Ð»Ð¸
c i
ÑĪ Ð½Ð¾ÑģÑĤ
ĠÐ¸Ð· Ð³Ð°
ĠÐ¿Ð¾ÑĩÐ¸ ÑĤÐ°
ĠÐºÐ¾Ð¼Ð° Ð½Ð´Ð¸
ĠÐ¡ Ð¼Ð¾
ĺÐ ĵÐ
v i
ĠÐ³Ð¾Ð´Ð¸ ÑĪÐ½Ð¸
ĠÐ¸Ð· Ð½Ð¾Ñģ
ĠÐµ Ð»
ĠÐ¿Ð¾Ð²ÑĬÑĢÑħ Ð½Ð¾ÑģÑĤ
ĠÐ¿Ð¾Ð·Ð½Ð° Ð²Ð°
ĠÐºÑĢÐ°ÑģÐ¸ Ð²Ð°
ĠÐ»ÐµÐ³Ðµ Ð½Ð´Ð°
ĠÐ¿ÑĢÐ¾ Ð¿ÑĥÑģÐºÐ°
ĠÑĤÑĢÐ°Ð´Ð¸ ÑĨÐ¸Ñı
ĠÐ½ÐµÐ³Ð¾ Ð²Ð¾
ĠÐ±Ð° Ð½ÐºÐ°ÑĤÐ°
ĠÐ½Ð¸ ÑģÐºÐ¸
ĠÐ·Ðµ Ð»ÐµÐ½Ð¸
ĠÐŁÐ¾ Ð½ÑıÐºÐ¾Ð³Ð°
ÑĢ ÑĩÐ¸
ĠÐµÑĦÐµÐºÑĤÐ¸ Ð²Ð½Ð¾
ĠÐ¾ÑĤ ÑĩÐ°
ĠÐ·Ð°ÐºÑĥ ÑģÐºÐ°
ĠÐ¿ÑĢÐµ ÐºÑĢÐ°ÑĤ
ĠÐ¾ÑĤÐ± ÑĢÐ°Ð½Ð°ÑĤÐ°
ĠÐºÐ¾Ð¼Ð¸ÑĤÐµ Ñ
ĠÐºÐ¾Ð¼Ð¸ÑĤÐµÑ Ĥ
ĠÐ¡Ð ŀÐ
ĠÐķ Ð¼Ð¸
ĠÐ²Ð° ÐºÑĨÐ¸
ÑĥÐ²Ð° Ð¼Ðµ
ĠÑģÑĤÐ° Ð½Ð°Ð»
ĠÐĴ ÑĩÐµÑĢÐ°
ĠÑģÑĤÐ° ÑıÑĤÐ°
ĠÐĶÐ¾Ð±ÑĢÐ¸ Ñĩ
ĠÐ¶Ð¸Ð²Ð¾ÑĤ ÑĬÑĤ
ĠÐŀ ÐŁÐ
ĠÐ¿Ð¾ÑĤÐ ¿Ð¸
ĠÑĥ Ð¶
ĠÐ¸Ð½ÑĤÐµÐ»Ðµ ÐºÑĤÑĥ
Ð½Ð¾Ð²Ðµ Ð½Ð°
ĠÐ¿Ð¾Ð´Ð³Ð¾ ÑĤÐ¾Ð²
ĠÐ¿ÑĢÐ¾Ð¿Ð° Ð³Ð°
ĠÐŀ ÑĤÐºÐ°
Ñģ Ð½Ð¸Ñı
ÑģÑĤ Ð½Ð¸Ñı
ĠÐ¿ÑĢÐ¾ÑĨÐµÐ´Ñĥ ÑĢÐ°ÑĤÐ°
ĠÐ² Ð½Ð°ÑĤ
ĠÐ·ÐµÐ¼ ÑĺÐ°ÑĤÐ°
ÑħÐ¾ Ð²ÐµÑĤÐµ
ĠÑģÐ¾Ð±ÑģÑĤÐ²Ðµ Ð½Ð¸ÑĤÐµ
ĠÐ¼Ð° ÑģÐ¾
Ðº ÑĨÐ¸Ð¾
ĠÑģÑĬ Ð´Ð±Ð°ÑĤÐ°
ĠÐ³ÑĢÐ° Ð½Ð¸ÑĨÐ¸ÑĤÐµ
ĠÑĦÐ ¾Ð½Ð°
ĠÐ½Ð°Ð¿ÑĢÐ°Ð²Ð¸ Ð»Ð¸
ĨÐ Ĩ
ĠÐ¿Ð»Ð°Ð½Ð¸ Ð½Ð°ÑĤÐ°
ĠÐ¸Ð·Ð¿Ð¸ ÑĤÐ²Ð°
ĠÐ´Ð°Ð½ ÑĬÐº
ÑĬÑĢÐ ¿
ĠÐ³ÑĢÐ°Ð´Ð¸ Ð½Ð¸
ĠÐ¾Ð¿ÑĢÐµÐ´Ðµ Ð»ÑıÑĤ
ĠÐ¾Ð¿Ð¸ÑģÐ° Ð½Ð¸Ðµ
ĠÐĽÑĥ ÐºÐ°
ÑĤÑĥ ÑĢÐ°ÑĤÐ°
ĠÑĦÐ¸Ð½Ð°Ð½ ÑģÐ¸ÑĢÐ°
ĠÑģÐ¾ ÑĢÐ°Ð±Ð¾ÑĤÐºÐ°
ĠÑĥÑĩÐ¸ ÑĤÐµÐ»Ð¸
ĠÐ½ÐµÐ³Ð¾ Ð²
ĠÑĢÐµÐ°Ð³Ð¸ ÑĢÐ°
ĠÐºÐ°ÐºÐ²Ð° ÑĤÐ¾
ĠÐ²ÑĤÐ¾ ÑĢÐ½Ð¸Ðº
ĠÐ²ÐµÐ»Ð¾ ÑģÐ¸Ð¿Ðµ
ĠÐ³ÑĢÐ°Ð´ ÑģÐºÐ¸
ĠÐ¾ÑĤÐ¿Ð µ
ĠÐ½Ð°Ð¿Ð¸ ÑĪÐ°
ĠÐĲ Ð¹
ĠÑĢÐ° ÑģÑĤÐ¸
ĠÑģÐ¾ÑĨÐ¸Ð°Ð» Ð½Ð°
ĠÐ¾ ÑģÑĤÐ²Ð°
ĠÐĴÐ ĲÐ
ĠH D
ĠÐ´Ð»ÑĬ Ð¶Ð½Ð¾ÑģÑĤ
ĠÐŁÑĢÐ¾Ñ ĦÐµ
ÑĤÐµ Ð¶
ĠÐ´Ð° Ð´ÐµÐ½Ð°
ĠÐ¾ÑĤ ÑģÑĬ
ĠÐ¿Ð¾Ð·Ð¸ ÑĨÐ¸ÑıÑĤÐ°
ĠÐ¡ ÑĬÑ
ÑģÐµ ÑĤÐ¸
ĺÐĿÐ ĺ
ĠÐ¿Ð¾Ð´ Ð¿Ð¸
Ð·Ðµ Ð¼
ĠÑģÑĬÐ·Ð´Ð° Ð´ÐµÐ½Ð°
ĠÐ¨Ð° Ð¼Ð¿Ð¸
6 5
ÑĢ ÑĦÐµ
ĠÑĢÐ¸ ÑģÑĥ
ĠÐĳÐĿÐ ¢
ĠÐ¿Ð¾Ð·Ð½Ð° Ñ
ĠÐ¿Ð¾Ð·Ð½Ð°Ñ Ĥ
ĠÐ¿ÑĢÐµ ÐºÑĬ
ĠÑĢÐ° Ð²ÐµÐ½
ĠÐ½ÐµÐ´Ðµ Ð»Ð°
ĠÐĽ ÑĬ
ÑģÐ¿Ðµ ÐºÑĤ
e ar
ĠÐŁÐ¾ Ð·Ð´ÑĢÐ°
Ĥ Ð½Ð¸Ðº
Ñ ĤÐ½Ð¸Ðº
Ð¿ Ð½Ð¸
ĠÑĢÐµÐ·Ðµ ÑĢÐ²
ĠÐ½Ð° Ð¼ÐµÑĢÑıÑĤ
Ð³Ð¾Ð´Ð¸ÑĪ Ð½Ð¸Ñı
ĠÐ¿ÑĢÐ°Ð· Ð½Ð¸ÑĨÐ¸
ÐĿÐ Ĳ
ÑĪ Ð²Ð°Ð½Ðµ
ĠÐ¿Ð¾ÑĩÐµÑĤÐ¾ ÐºÐ¾ÑĤ
ĠÐĴÑĬ Ð·Ð¼Ð¾Ð¶Ð½Ð¾
ĠÐ»Ð¸ ÑĩÐ½Ð°
w it
or k
ĠÐľÐµÑ ĵÑĥ
ĠÐ¿Ð ¸Ñı
ĠÐĴ Ð¼ÐµÑģÑĤÐ¾
im e
ĠÐ½Ð°Ð´Ð ·Ð¾
ĠÐ±Ð»Ð¸Ð· ÐºÐ¸ÑĤÐµ
ĠÐ¿Ð°ÑĢÐ° Ð»Ðµ
ĠÑĦÑĢÐ° Ð½ÑĨÑĥ
Ð»Ð¾ Ð¶Ð°ÑĤ
ĠÐ½Ð°Ð¿Ð¾ Ð¼Ð½Ñı
ĠÐ¿Ð¾ Ð±Ð°
ĠÑĦÑĥÑĤÐ±Ð¾ Ð»Ð¸ÑģÑĤ
ÑĢ Ð½Ð¸ÑıÑĤ
ĠÐ¾ ÐºÑĥ
ĠÐ¿ÑĢÐ¾ ÑģÑĤÐ°
ĠÐ¿Ð¾ ÑģÐ»Ñĥ
ĠÐ¾ÑĤÐºÑĢÐ¸ Ñ
ĠÐ¾ÑĤÐºÑĢÐ¸Ñ Ĥ
ĠÐºÐ° ÑĢÑĤÐ°ÑĤÐ°
ĠÐ±ÐµÐ· Ñĥ
ĠÑĤÐ¸ ÑĤÑĥ
ĠÐ¿ÐµÑĢÑģÐ¾ Ð½Ð°
ĠÐ¾Ð¿ÐµÑĢÐ° ÑĨÐ¸Ð¸
ĠÑĥ ÑĤÐ¾Ñĩ
m l
Ð»Ð¾ Ð
ĠÐ¾Ð¿Ð° ÑģÐ½Ð¾
ĠÐ²Ð¸ Ð´Ð¸ÑĪ
ĠÐĿÐ°ÑĢÐ¾Ð´ Ð½Ð¾ÑĤÐ¾
ĠÐ½Ð°Ð¿Ð¸ ÑĤÐºÐ¸
Ð²ÐµÑĢ ÑģÐ°
ĠÑĤÐµÐ»Ðµ ÑĦÐ¾Ð½Ð¸
Ð½Ð¸ ÑħÐ°
ĠÐºÐ¾Ð½ÑĨÐµ Ð½ÑĤÑĢÐ°
Ð¼Ñĥ Ð½Ð¸
ĠÐ¡ Ð¼Ðµ
¸ ÑĢÐ°
ĠÐ¿ÑĢÐµ Ð½Ðµ
ÐºÑĥ Ñģ
ĠÑĨÐµ Ð»Ñĥ
ĠÑģÐ¿Ð¸ ÑģÑĬÐºÐ°
ĠÐ¾ ÑĢÐ°
Ð²Ð¼Ð µÑģÑĤÐ¸
ĠÑģÐ¿Ð¾ Ð¼Ð½Ñı
ĠÐ¿ÑĢÐµÐ´ÑģÐµÐ´Ð°ÑĤÐµÐ» ÑıÑĤ
Ð½Ð´Ð µÑĢ
ĠÑģÑĤÐ¸Ð¼Ñĥ Ð»Ð¸ÑĢÐ°
ĠÐ±Ð¾ Ð³Ð°ÑĤÐ°
ĠÐŁÐ¾ ÑĩÐ¸
ĠÑĤÐµÐº ÑģÑĤÐ°
ĠÐ¿ ÑĩÐµ
ĠÐĿÐ° ÑĢÐ¾
ĠÐ³ÑĢÐ° Ð¼Ð°
ĠÐ°Ð´Ð° Ð¿
ĠÐľÐ¸ Ð»Ð°
ĠÐ°Ð¼ÐµÑĢÐ¸ÐºÐ° Ð½ÑģÐºÐ¸ÑĤÐµ
ĠÐ½Ð° ÑĩÐµÐ»Ð¾
ĠÐºÐ²Ð° Ð´
ĠÑģÐµÐ´Ð¼Ð¸ ÑĨÐ°ÑĤÐ°
ÑĢÐ¸ ÑĩÐ°
ĠÐ°Ð¼ÐµÑĢÐ¸ÐºÐ° Ð½ÑģÐºÐ°ÑĤÐ°
ĠÐ¿Ð¾Ð´ÑĢÐ¾Ð± Ð½Ð¾ÑģÑĤÐ¸
ÑģÐ¸Ð ¾Ð½
ĠÐĶÐ¾ Ð¼Ð°
Ð± Ð»Ð°Ð³Ð¾
ĠÐ¾Ð±ÑĢÐ°Ð±Ð¾ ÑĤÐºÐ°
ĠÐķ Ð´Ð²Ð°
ĠÐ´Ðµ Ð¿ÑĢÐµ
Ð²Ð°Ñĺ ÑĤÐµ
ĠÑĢÑĬÐºÐ¾Ð²Ð¾Ð´ ÑģÑĤÐ²Ð¾
r om
R O
ĠÐ¾Ð±ÐµÐ· Ð±Ðµ
ĠÑĥ ÑĤÐ¾ÑĩÐ½Ð¸
Ġ Ð½Ñİ
ĠÐ± Ð»Ñı
ĠÐķ ÑĢÐ´Ð¾Ð³Ð°Ð½
Ð»Ð° Ð¹
Ð´Ðµ ÑļÐµ
Ð¿ÐµÑĢ ÑĤÐ¸ÑĤÐµ
ĠÐĺ Ð»Ð¸Ñı
ĠÐ¶Ð¸ Ð²Ð¸
ĠÑĥÐ²ÐµÐ»Ð¸ ÑĩÐµÐ½Ð¸Ðµ
ĠiP hone
ĠÐ¸ Ð·Ð¶Ð¸
ĠÐ¿Ð¾Ð³ ÑĢÐµÑĪ
ĠÐļÐ¾Ð½ÑģÑĤÐ°Ð½ÑĤÐ¸ Ð½
ĠÐĿÐ° ÑĩÐ°Ð»Ð¾
Ġ4 1
ĠÐľÐ¸ÑħÐ° Ð¸Ð»
200 7
ķÐ Ĺ
ĠÐ¿Ð¾ Ð¿
. ;
ĠÐ¾Ð¿Ð¸ ÑĤÐ²Ð°ÑĤ
Ð»Ð¸ ÑĢÐ°Ð½Ð¸
Ð¹Ð¼ Ñģ
ĠÑģÐ¼ÑıÑĤÐ° Ð¼
Ð³ ÑĬÑĤ
ĠÑĤÐµ ÑģÑĤÐ¾Ð²Ðµ
ÑģÑĤÐµÐ½Ð´Ð¸ Ð»
ĠÐ¿ÑĢÐ¾ÑĥÑĩÐ²Ð° Ð½Ð¸Ñı
ĠÑĩÐ¸ ÑģÑĤ
Ð³Ð¾ Ð²Ð¾ÑĢÐ¸
S t
Ð»Ð¸ ÑīÐµÑĤÐ¾
ams ung
ĠÐ¸Ð·Ð´ ÑĢÑĬ
Ð µÑĤ
ĠÐĺÐ¼Ð° Ð¼Ðµ
Ð¡Ð ¾
ĠÐľÐ° Ð½Ð¾
ĠÑģÐ¼Ðµ Ð½Ñı
ĠÑĩÐµÑĤÐ²ÑĬÑĢÑĤ ÑĬÐº
ĠÑĤÑĢÐ° Ð²Ð¼Ð
ĠÐºÐ° Ð½Ð°Ð»
ĠÐºÐ¾ ÑĢÐ¸ÑģÑĤÐ¸
ĠÐºÐ°Ð¼Ð¿Ð° Ð½Ð¸ÑıÑĤÐ°
ĠÐ¸ Ð½Ð´Ðµ
ic k
ĠÐ¿ÑĢÐ¸ÑģÑĤÐ° Ð½Ð¸
ĠÐłÐ° Ð±Ð¾ÑĤ
ĠÐĲ Ð
Ð¼ÐµÑĤ ÑĬÑĤ
ĠÐ¿Ð¾ÑģÑĤÐ° Ð²ÐµÐ½Ð¸
ĠÐ´ ÑĬÐ»Ð³Ð°
ĠÐŀÐŀÐ Ŀ
ĲÐĴÐ Ĳ
ÑģÑĤÐ¸ ÑĩÐ½Ð°
ĠÐĺ Ð½Ð´Ð¸Ñı
ĠÐ¶Ð¸ÑĤÐµ Ð»Ð¸ÑĤÐµ
Ð²Ð¸ Ð»
ĠÑĥÐ²ÑĢÐµ Ð¶Ð´Ð°Ð½Ð¸Ñı
ĠÐ° ÑĢÐ¼Ð¸
ĠÑĤÐµÑĢÐ¾ ÑĢÐ¸ÑģÑĤÐ¸
ĠÐ½Ð°ÑģÑĤÐ° Ð½ÑıÐ²Ð°Ð½Ðµ
ĠÐµ ÑĤÐ½Ð¸
ĠÑĢÐ¾ Ð¼Ð°Ð½
ÑģÐ»ÐµÐ´ ÑĬÐº
ĠÐ¾ÑĤ ÑĢÐ°Ð·ÑıÐ²Ð°
ĠÐºÑĥ ÑĢ
ĠÐ¿ÑĢÐ° Ñħ
ĠÐ½Ð¸ Ð²Ð½Ð°ÑĤÐ°
ĠÐºÐ¾Ð¼Ð¿Ð° Ð½Ð¸Ð¸ÑĤÐµ
ĠÐ¾Ð±Ð¸ ÐºÐ¾
ĠÐ² Ð»Ñİ
ĠÐºÐ° Ð¶Ð°ÑĤ
ĠÐ¼Ð¸Ð½Ð¸ÑģÑĤÑĬÑĢ ÑĬÑĤ
Ñģ Ð½Ð¾ÑģÑĤÑĤÐ°
ĠÑģÐ¿Ð¾ ÑĢÑĤÐ¸
.... ..
ĠÑģÐ¼Ðµ ÑĤÐºÐ¸
ĠÐ±Ð° Ð³Ð°
ĠÐ·Ð° Ð»Ð°ÑĤÐ°
ĠÐ· ÑĬÑĢ
Ñģ ÐºÐ²Ð¸
Ð»Ð¸ ÑıÑĤ
ĠÑģÐ¾ Ð²ÐµÑĤ
ĠÐ¼Ð¾Ð½ÑĤÐ° Ð¶
ĠÐ½ÐµÐ¾Ð±ÑħÐ¾Ð´Ð¸ Ð¼Ð¸ÑĤÐµ
ĠÐµÐ´Ð¸Ð½ ÑģÑĤÐ²ÐµÐ½Ð¸ÑıÑĤ
ĠÐ¾ÑĦÐµ ÑĢÑĤÐ¸
ĠÐļÐ ŀÐ
ĠÑģÑĬÐ¼ Ð½ÐµÐ½Ð¸Ðµ
Ġ200 2
ÑĢÐ° ÑĨÐ¸Ð¸
ĠÐ°ÑĤÐ¼Ð¾ÑģÑĦÐµ ÑĢÐ°
ÑģÑİ Ð»
ĠÑģÐµ Ð½Ð·Ð¾
ĠÑĥÐ±Ð¸ Ð
ÑģÐ¸Ð» Ð²Ð°
ĠÑĢÐµÐ°Ð» Ð½Ð¾ÑģÑĤ
ĠÑĢÐ°Ð·Ð¿Ð¾ Ð»Ð¾Ð¶ÐµÐ½Ð¸Ðµ
Ġâ Ĩ
ĠÐ¿ÑĢÐ¾Ð²Ðµ Ð¶Ð´Ð°Ð½Ðµ
Ñģ Ð»Ð¾ÑĤÐ¾
ÑĤÑĬ ÑĢÐ°
Ð± Ð½Ð¾ÑĤÐ¾
ĠÐ³ÑĬÑĢÐ ´Ð
ÑģÐ¸Ð °
ĠÐ½Ð°Ð µÐ¼Ð°
ĠÐ¸Ð· ÑĤÐ¸ÑĩÐ°
ĠÐ½Ð°Ð¿ÑĢÐ° Ð²ÐµÐ½Ð°
ĠÐ¾Ð´Ð ±
en ce
ĠÑĤÑĬÑĢÐ ¿Ð
Ð· Ð»Ð¾
ĠÑĢÐ°Ð¼ ÐºÐ°
ĠÐ¼Ð°ÑĤÐµ ÑĢÐ¸ÑĺÐ°
ĠÐłÐ ķÐ
ĠÑģÑĤÐ°Ð½Ð° Ð»Ð¾
ĠÑĩÐµÑĤÐµ Ð½Ðµ
ĠÐ¼Ð¸Ð½Ð¸ ÑģÑĤÑĬÑĢÐ°
Ð¹ÑģÐºÐ¸ ÑıÑĤ
ĠÐ¾ÑĩÐµ ÑĢÑĤÐ°
Ð» Ð´Ð¾
ÑĦÐ¸ ÑĨÐ¸Ð
ĠÐ¿ÑĢÐµÑĤÑģÑĤÐ°Ð² ÑĥÐ²Ð°
j e
Ð´Ð¸ ÑĺÐ°
ĠÐ´Ð¾Ñĺ Ð´Ðµ
ĠÐ²Ð¸ Ð»Ð°
ÐĽÐ µ
ĠÐļÐ¾ ÑģÐ¾Ð²Ð¾
ĠÐºÐ¾Ð¼ Ð¿ÐµÐ½
ĠÐ± ÑĢÑĥ
Ð¼Ð° Ð¼
ĠÑģÐ¿Ð¾ ÑĢÑĤÐ°
ÑħÐ¾ ÑĤÐµÐ½
Ð¿Ð¾ Ð¿ÑĥÐ»Ñı
ÑĤÐ¸Ð² Ð½Ð¸Ñı
ÑģÑĤÐµ Ð½Ð°
ĠÐĺÐ·ÑĤÐ¾Ñĩ Ð½Ð¸Ðº
ĠÐĸÐ °
ĠÐ·Ð»Ð° ÑĤÐ¾
ĠÑĢÐµ ÑĦÐ¾ÑĢÐ¼Ð°
ĠÐ¿Ð¾ÑģÑĤÐ° Ð²ÑıÑĤ
Ð»Ð¸ ÑĤÐ°
ĠÐ¿Ð¸ ÑĪÐ°
ĠÐ¿ Ð»Ð¾Ð²Ð´Ð¸Ð²
ĠÐ½Ð¾ Ð¼ÐµÑĢÐ°
Ð²Ð¾Ð´ ÑģÑĤÐ²Ð¾ÑĤÐ¾
ĠÐĳÐ¾ Ð¶
ĠÑĤÐµ Ð¶ÐºÐ°
ĠÐ½Ðµ ÑĢÐµ
Ð²Ð°Ñ ļÐ°ÑĤÐ°
ĠÐ½Ð° ÑĪÐ¸Ð¾ÑĤ
ĠÐ²ÑĬ Ð»Ð½Ð°
ķÐĿÐ ĺ
ĠÐ¾ Ð±Ð
Ð½Ð³ ÑĢÐ°Ð´
ĠÐĳÑĥ Ð³Ð°
ĠÐĶ Ð¶Ñĥ
+ +
ÑģÐ¾ ÑĢÐ¸
Ð °ÑĢ
ÑģÐ½Ð¾ Ð²Ð°
Ð»Ð¾ Ð±Ð¾
Ð²ÐµÐ´Ðµ Ð½Ð¸
l a
ĠÑģÑĥÐ± ÑģÐ¸
Ðļ Ñĥ
Ð¿Ð¾ Ð´Ð°
ĠÐ½ÑıÐ¼Ð° Ð¼Ðµ
ĠÐ´Ð¾Ð¿ÑĬÐ»Ð½Ð¸ÑĤÐµ Ð»Ð½Ð°
ĠÐ¡Ð¸ ÑģÑĤÐµ
in t
ĠÐºÐ¾ Ð¿
ĠÑģÐ¾ÑģÑĤÐ¾Ñĺ Ð±Ð°
Ð· ÐºÐ¾
ĠÐĶ Ð²Ðµ
ĠÐ¿Ðµ Ð´Ð°
ĠÐĸÐ¸ Ð²
ŀÐ ļ
ĠÐ±Ð¸Ð±Ð»Ð¸Ð¾ÑĤÐµ ÐºÐ°
ĠÐ¼Ð¾Ð·ÑĬ ÐºÐ°
ĠÐ¿ÑĢÐµÐ¼Ð¸Ð½Ð° Ð²Ð°
ĠÐ±Ð °Ð»ÐºÐ°
ĠÐ³Ðµ ÑĢÐ¾Ð¹
ÑģÐµ ÑĤÐµ
ĠÐ£ ÑģÐ¿Ðµ
ĠÐ¸Ð· Ð¼Ð¸
ĠÐ²Ð´Ð¸ Ð³Ð½Ð°
ÐºÐ¸ Ð½
ĠÐ¿ÑĢÐ¸ Ð¼Ð¸
Ð·Ð¾ Ð½
ĠÐĵÐ° Ð±ÑĢÐ¾Ð²Ð¾
Ð´ÑĬÐ»Ð ¶Ð¸ÑĤÐµ
ĠÑĤÐµ ÑĢÐµÐ½Ð°
ĠÐ¼Ð°Ð» ÑĨÐ¸
Ð²Ðµ Ð½Ð°ÑĤÐ°
ĠÐ´Ð¸Ð·Ð° Ñĺ
ĠÐ´Ðµ ÑĦÐ¸ÑĨÐ¸
Ð»Ðµ Ð½Ðµ
ĠÐ¿Ð¾ Ð·Ð°
ĠÐĺ ÑģÑĤÐ°
ĠÐ·Ð° ÑģÐ½Ðµ
ĠÐ½Ð°Ð»Ð¸ ÑĨÐµ
ĠÐ¡Ð¼ ÑıÑĤÐ°
ÑĢÐ¸ Ñħ
ÑĢÐµ Ð½Ð¾ÑģÑĤ
is s
ĠÑģÐ²Ð¾Ð¹ ÑģÑĤÐ²Ð°
ĠÑģÑĥ Ð¼Ð°ÑĤÐ°
ĠÑģÑĬÐ±Ð¸ ÑĢÐ°ÑĤ
Ġ7 00
ĠÐ¢Ð°Ð °
ĠÐ½Ð°ÑĨÐ¸Ð¾Ð½Ð° Ð»Ð½Ð¸
ĠIn ter
ĠÐ°ÑĢÑħÐ µÐ¾
ĠÐ¿Ð¾Ð¼Ðµ ÑīÐµÐ½Ð¸Ñı
Ð¹ÑĤÐµ Ð´
ĠÐºÑĢÐ° Ð¹Ð½Ð¾
ĠÑģÐ¾ ÑģÐµ
ĠÐ¿ÑĢÐ¾Ð´Ð¾Ð»Ð ¶Ð¸
ĠÐ¿ÑĢÐ¾ÑĦÐµÑģÐ¸Ð¾Ð½Ð° Ð»Ð½Ð¾
ĠÐ°ÐºÑĤÐ¸Ð²Ð½Ð¾ ÑģÑĤÐ¸
ĠÐĿÐ ķÐ
Ð´Ð²Ð¸ Ð¶
ÐºÐµ Ð½Ð´
ÑģÑĤ ÑĢÐ¸ÑĤÐµ
ĠÐ° ÐºÐ°
Ð·Ð¸Ð´ÐµÐ½ÑĤ ÑĬÑĤ
ĠÐ¾Ð±ÑģÑĤÐ°Ð½Ð¾Ð² ÐºÐ°
ĠÐ§ ÑĢÐµÐ·
ĠÐĴÐ° Ð¶Ð½Ð¾
ÑģÐµ Ð½Ð°
ĠÐ¿ÐµÑĩÐ° Ð»Ð±Ð°
Â ®
ĠÐ¾ÑĤÐ ¼
n ik
ĠÑħÐ¾ ÑĢÐ¸Ð·Ð¾
ĠÐ½Ð°ÑĨÐ¸Ð¾Ð½Ð° Ð»Ð½Ð°ÑĤÐ°
ĠÐ¾ÑģÐ½Ð¾ Ð²Ð½Ð°
µ ÑĢÐ¾
ĠÐ¡ÑĤÐ¾Ð ¸
ĠÐĲÐ² ÑģÑĤÑĢÐ¸Ñı
ĠÐ¾ÑĤ ÑģÐµ
ĠÑģÐ¿Ð° Ð´
ĠÑģÐ¾Ð±ÑģÑĤÐ²Ðµ Ð½Ð¸
ĠÐ±Ð»Ð°Ð³Ð¾Ð´Ð° ÑĢÑı
ĠÑĢÐµÐ·Ðµ ÑĢÐ²Ð°
ĠÐļÑĢÐ°ÑģÐ¸ Ð¼Ð¸ÑĢ
ĳÐ Ĳ
ĠÐ´ÐµÑģÐµÑĤÐ¸Ð»Ðµ ÑĤÐ¸Ñı
Ð ¦
ĠÐĿ Ñĥ
ĠÐ´Ð¾ Ð¿Ð¾Ð»Ð½Ð¸ÑĤÐµ
ÐĴ ÑģÐ¸
ĠÐĲÐ½Ð³Ðµ Ð»Ð¾Ð²
ĠÐ¾Ð³ÑĢÐ¾ Ð¼Ð½Ð¾
ĠÑģÑĬÑīÐµ ÑģÑĤÐ²Ð¾
Ð½Ð± ÑĥÐ»
ĠÑĩÐµ ÑģÑĤÐ¸
ĠÐłÐ°Ð· Ð¿Ð¾
ĠÐ¡ÑĤÐ° Ð²Ð°
ĠÐ½Ð° ÑģÑĤÑĢÐ¾Ð¹
ĠÐ¾ÑĤÐ´Ð° Ð»Ðµ
ĠÐłÐµ ÑĪÐµÐ½Ð¸Ðµ
ĠÐ¸Ð·ÑĢÐ°Ð· ÑıÐ²Ð°
ulgar ia
ĠÐ·Ð°Ð± Ð»Ñĥ
ĠÐ½Ð°Ð²Ð¸ ÑģÑĤÐ¸Ð½Ð°
ĠÐ°ÐºÑģÐµÑģÐ¾ Ð°ÑĢÐ¸
ĠÐ»ÑİÐ±Ð¸ Ð¼
ÑĨÐ° ÑĢÐ¾Ð²
ĠÐ¿ÑĢÐµÐ´Ð¸Ð·Ð²Ð¸ ÐºÐ²Ð°
ĠÐ²ÑĬÐ½ ÑĪÐ½Ð¸
ĠÐĴÐ¾ Ð´Ðµ
ÑĪ ÑĤÐ²Ð¾
ĠÐ½Ð¾Ð²Ð¸ Ð¾ÑĤ
ĠÐĴ ÑĬÐ½
ĠÐĹÐ° ÐºÐ¾Ð½
Ġ9 9
ĠÑģÑĬÑīÐµÑģÑĤÐ²Ñĥ Ð²Ð°ÑĤ
ĠÑĥÑģÐ¿Ð¾ ÐºÐ¾
ĠÐ·Ð° Ð»Ðµ
ĠÐ½Ð°ÑģÑĤÑĢÐ¾Ð µÐ½Ð¸Ðµ
ĠÑģÑĬ ÐºÑĢÐ°
ĠÑģÐµ Ð¼Ð¸Ð½Ð°
ĠÐ¼Ð° ÑģÐºÐ°
ĠÐ±Ñĥ ÑĤÐ¾
ĠÑģ Ð¿Ð¸ÑģÐ°Ð½Ð¸Ðµ
ĠÐ´ÐµÐ¼Ð¾ÐºÑĢÐ° ÑĤÐ¸
ĠÐĹÐ° ÑħÐ°
ĠÑĩÐ°ÑģÑĤ Ð½Ð¸
Ð½Ð¸ Ð½Ð°
ĠÐŀ Ð±ÑĢÐ°
ĠÐ½Ð¸ÐºÐ¾ Ð³Ð¾
ĠÑĤÐµÐ»ÐµÐ²Ð¸Ð·Ð¸ Ð¾Ð½
ĠÑģ ÐºÑĢÐ¾
ĠÐ¼Ð° ÑħÐ°
ĠÐ¼Ð¾Ð¼Ð¸ ÑĩÐµÑĤÐ°
ĠÐ¼Ð¾ ÑĤÐ¾ÑĢ
ĠÐ²Ðµ Ð»Ð°ÑĤ
ĠÐ½Ð°Ð³ÑĢÐ° Ð´Ð°ÑĤÐ°
ÑĩÐ¸ Ð¼
ĠÐ½ÑĥÐ¶ Ð´Ð¸
ĠÐºÐ°ÑĢÑĤÐ¸ Ð½Ð°
ĠÐ¡ÑĬ Ð²ÐµÑĤ
ĠÐµ ÑĦÐ¸ÐºÐ°
Ðķ Ð²ÑĢÐ¾
ÑĢÐ¾ Ð»
ĠÐŁÐ° Ð²ÐµÐ»
ĠÑģÑĤÐ° ÑĢÐ¾
ÐľÐ Ĳ
ĠÐĲ ÐķÐ
Ð»Ð¸ Ð¹
ĠÐ¿ÑĢÐ¾ÑĦÐµÑģÐ¸Ð¾Ð½Ð° Ð»Ð½Ð¸
Ð²Ð¸ ÑıÑĤÐ°
ĠÐºÑĢÐµ Ð¿Ð¾
ĠÐ¾ÑĤÐ ·Ð¸
Ð± ÑıÐ²Ð°
ÑĢÐ ¿Ð°
ĠÐ³ÑĢÐ°ÑĵÐ° Ð½Ð¸
ĠÐ°Ð²ÑĤÐ¾ ÑĢÐ¸
ĠÐľÐ¾ Ð´ÐµÐ»
ĠÐĴÐ° ÑĪÐ¸Ð½Ð³ÑĤÐ¾Ð½
ĠÐ¿ÑĢÐµ Ð¿ÑĢÐ°
ĠÑĩÐ¸ ÑģÑĤÐ¸
ĠÐļÐ °Ð»
ĠÑı Ð´Ðµ
ĠÐĴÐ ª
ĠÐ±Ñı Ð»Ð¾
Ð²ÐµÑĢÐ·Ð ¸ÑĤÐµ
ĠÑģÑĬÐ·Ð´Ð° Ð´ÐµÐ½
ĠÑģÐ°Ð¹ ÑĤÐ¾Ð²Ðµ
Ð»Ð³Ð ¸
ÑģÑĬ ÑĨÐ¸
ÑĢÑĦ Ñİ
ĠÐĴÑĢÐ° ÑĨÐ°
ĠÐ¿ÑĢÐ¸ Ð²Ð¸
ĲÐ ľ
ĠÐĿÐ¾ Ð²
ĠÐ°ÐºÑĤÐ¸ Ð²Ð½Ð¸
ĠÐºÐ°ÑĤÐµÐ³Ð¾ ÑĢÐ¸Ð¸
ĠÐºÐ°Ð¼ÑĬ Ð½Ð¸
Ð±Ð¸ Ð²Ð°
ĠÐ²ÑĬÑĢÐ ²
ÑĩÐµ Ð½Ð¸ÑıÑĤÐ°
ĠÐ½Ð°Ð¿ÑĢÐ° Ð²ÐµÐ½Ð¾
ĠÐºÐ° ÑĢÐ°Ð½
ĠÐ¡ÑĢÐ±Ð¸ ÑĺÐ°
ĠÐ¾ÑĤÐ´ÐµÐ» Ð½Ð¸ÑĤÐµ
ĠÐ¾Ð³ ÑĬÐ½
n ews
ĠÐ¿Ð¾Ð´Ð³Ð¾ ÑĤÐ²Ñı
Ñĥ Ð¼Ð¸ÑĤÐµ
Ð½Ð´Ð° ÑĢÑĤ
ĠÑĥÐ²ÐµÐ»Ð¸ ÑĩÐ°Ð²Ð°Ð½Ðµ
ĠÐļÐ¾Ð½ ÑģÑĤÐ¸ÑĤÑĥ
ĠÐŁÑĢÐ¾Ð± Ð»ÐµÐ¼
ĠÐºÐ°ÑĤÐ°ÑģÑĤÑĢÐ¾ÑĦÐ °
ÑĨÐ¸Ð¾Ð½ Ð½Ð¾ÑĤÐ¾
ĠÐ¿Ð¾Ð´Ð³Ð¾ ÑĤÐ²Ð¸
ĠÐ¡Ð ¸ÑĤÐµ
ĠÐ® Ð³Ð¾
ĠÐĴ ÑĤÐ¾ÑĢÐ¸
Ð» ÑĨÐ¸
µ Ð²ÑĢÐ¾
ĠÐ¿Ð¾Ñı Ð²Ð°ÑĤÐ°
ĠÐ´Ðµ Ñĺ
Ð³Ð½Ðµ ÑĤÐµ
ĠÐ¿Ð»Ð° ÑīÐ°Ð½Ðµ
ĠÐ½Ð°Ð´ Ð¿ÑĢÐµÐ²Ð°
ĠÐ²Ð¾Ð µ
ĠÑĢÐ°Ð· Ð¼ÐµÑĢÐ°
ĠÐ¿ÑĢÐµÑģÑĤÑĬÐ¿Ð»Ðµ Ð½Ð¸Ðµ
ĠÐ¼Ð¸ÑģÐ»Ðµ Ð½Ðµ
ĠÑĤÑĬÑĢÐ ³
ÑĢÐµ Ð»
ĠÑģÐ»ÑĬÐ½ ÑĨÐµÑĤÐ¾
t o
ĠÐĸÐ ¾
Ð °Ð»ÐµÐ½
ĠÐ° Ð»Ñĥ
ÑĺÐ ¾
ĠÐĺÐ· Ð²Ðµ
Ð²Ð° Ð¹
ĠÐ¿ÑĢÐµÐ´Ð° Ð²Ð°Ð½Ðµ
ÑĢÐ° Ð¹
īÐµ Ð½
ĠÐ·Ð° Ñģ
ĠÐ½ÐµÐ´Ð²Ð¸Ð¶Ð¸ Ð¼Ð¸
ĠÐ°Ð½ÑĤÐ¸ Ð
Ð½Ð¾ Ð³Ð¾
ĺÐļÐ Ĳ
ĠÐ½ÐµÐ²ÑĬ Ð·Ð¼Ð¾Ð¶Ð½Ð¾
ĠÐ»Ðµ ÑĩÐµÐ½Ð¸ÐµÑĤÐ¾
ĠÐ´Ð¸ÑĢÐµ ÐºÑĨÐ¸Ñı
ĠÐ¼Ð° ÑģÐ¾Ð²Ð¾
ĠÐ¾Ð±Ñĥ ÑĩÐµÐ½Ð¸ÐµÑĤÐ¾
ĠÑĢÐµÐ³Ð¸ÑģÑĤÑĢÐ¸ ÑĢÐ°Ð½Ð¸
ĠÐĳÐ °Ð½ÑģÐºÐ¾
ĠÑĢÐ°Ð·Ð½Ð¾Ð¾Ð±ÑĢÐ°Ð·Ð¸ Ð
ĠÐ¾ÑĤÐ½Ðµ Ð¼Ð°
ĠÑĢÐ°Ð·Ð½Ð¾Ð¾Ð±ÑĢÐ°Ð·Ð¸Ð µ
ĠÐ´Ð½Ðµ Ð²Ð½Ð¾
ĠÐ¸ÑģÑĤÐ¾ ÑĢÐ¸Ð¸
ĠÑģÐ°ÐºÐ° Ð°ÑĤ
Ð´Ð ±Ð
ĠAnd roid
ĠÐĺÐ²Ð° Ð¹Ð»Ð¾
ÑģÐµ Ð½Ð¸Ðµ
ĠÐ²ÑĬÐ¿ÑĢÐ¾ ÑģÐ¸ÑĤÐµ
ĠÐ¦Ð²ÐµÑĤÐ° Ð½
ĠÐ½Ð¸ ÑģÐºÐ°
ĠÐ²ÑĬÑĤÑĢÐµ ÑĪÐµÐ½
ÑīÐµ ÑĤÐµ
ĠÐ¡ÑĤÐ¾ ÑıÐ½
¾ ÐºÐ¾Ð»Ð¾
ĠÐ¿Ð¸ ÑĪÑĥÐ²Ð°
Ð±Ð»Ð¸ Ð·Ð¾
ĠÐ°ÐºÐ°Ð´Ðµ Ð¼Ð¸
ĠÑĥÑģÐ¿Ðµ ÑħÐ°
ĠÐ½Ð¾ ÑģÐ¸ÑĤÐµ
ĠÐŀÐ± ÑīÐ¾
ĠÐ²ÑıÑĤ ÑĬÑĢ
6 8
ĠÑģÑĬ Ð´Ð¸Ñı
ĠÐ¿ÑĢÐ¾ÑĤÐµ Ð
ĠÑı Ð±ÑĬÐ»
ÑģÐ¾ Ðº
ĠÐ¼Ð¾Ð¼ ÑĩÐµÑĤÐ°
ĠÐ¼Ðµ Ð±ÐµÐ»Ð¸
ĠÐŁÑĢÐµÐ´ ÑģÑĤÐ°
ĠÑĦÑĢÐµ Ð½ÑģÐºÐ¸
ĠÐ½Ð°ÑĤÐ¸ ÑģÐºÐ°
ĠÐºÐ°ÐºÑĬ Ð²ÑĤÐ¾
Ð´Ð¸Ð ¾ÑĤÐ¾
ĠÐ¿ÑĢÐµÐ´ Ð»Ð¾Ð¶ÐµÐ½Ð¸ÐµÑĤÐ¾
ĠÑĪÐ¾ÑĦ ÑĮÐ¾
ĠÑĦÐ¾ÑĤÐ¾ Ð³ÑĢÐ°ÑĦÐ
Ð¼Ð¾ ÑĢÐ°
ĠÐŀ Ð±Ðµ
Ð»Ð¸ Ðº
ĠÐĶÐ° Ð½Ð¾
ĠÑģÑĤÑĢÐ° ÑĪÐ½Ð¾
Ñĩ ÑĥÐ²Ð°Ð°ÑĤ
ĠÐķÐ ĶÐ
ĠÐ¾Ð´Ð³Ð¾ Ð²Ð¾ÑĢ
ĠÐ²Ðµ Ð½ÑĤÐ¸
ĠÑģÐµÑĢÑĤÐ¸ ÑĦÐ¸ÐºÐ°
ÑĤÑĢÐ¾ Ð¿Ð¾Ð»Ð¸
ĠÐ½Ðµ ÑĢÐ°
ĠÐ¿ÑĢÐ¾ÑĦÐµ ÑģÐ¾ÑĢ
ĠÐ¸Ð· ÐºÐ°ÑĢÐ°
Ð´Ð¸ ÑĢÐ°
ĠÐºÐ°ÑĤÐµÐ³Ð¾ÑĢÐ¸ ÑĩÐ½Ð¾
Ð±Ð¸ ÑĢÐ°Ð½Ðµ
ĠÑĦÐ¾ÑĤÐ¾ Ð³ÑĢÐ°ÑĦÐ¸
ÑĤÐ»Ð µÑĤÐ¸
ÑİÑĤ Ñİ
Ð½Ð¾ Ð¼Ð¸
ĠÑĢÐ¾ Ð´
ĠÑĨÐµÐ½ÑĤ ÑĢÐ¾Ð²Ðµ
ot h
ĠÐ¸Ð½ÑĤÐµÐ»Ð¸ Ð³ÐµÐ½ÑĤ
Ġc om
ÐĿÐ ¸Ðµ
ĠÐ¡Ð Ĳ
ĠÐ¸Ð·Ð²ÑĬÑĢÑĪ Ð²Ð°ÑĤ
ĠÐ²Ð° ÑĪÐ¸Ð¾ÑĤ
ĠÐ¾Ð± Ð²
ĠÑģÐ¸Ð³Ð½Ð° Ð»Ð¸
ĠÐ¡Ð¸ ÑĤÐ¸
Ð³ Ð´Ð°
ĠÐ£Ð½Ð¸ Ð²ÐµÑĢÑģÐ¸ÑĤÐµ
ĠÐ¿Ð¾Ð² ÑĢÐ·Ð°
Ð¼ÐµÐ½ ÑĥÐ²Ð°
ĠÐ¡Ð»Ð° Ð²Ð¸
ĠÐº Ñİ
ĠÐ½Ð° ÑģÑĤÑĬÐ¿
Ġ18 0
ŀÐ §Ð
ĠÐ´Ð¾ Ð·Ð²Ð¾
Ð¿Ð»Ðµ Ð½Ð¸Ðµ
ÑĤÐµ ÑĢÐ¸Ð½Ð°
Ð½Ð »
ĠÐ¾ÑĤÐºÑĢÐ¸Ðµ ÑĤÐµ
Ð·Ð° ÑīÐ¾ÑĤÐ¾
Ð³Ð¾Ð´Ð¸ÑĪ Ð½Ð¾
ĠÑģ ÑĩÐµÑĤÐ¾
Ðº Ð»
ĠÐ¸Ñģ ÐºÑĢÐµ
Ġ Ð»Ð¾Ð²
¸ Ð¼
ĠÐ¾Ð±Ñı Ð´
ĠÐ¸Ð·Ð±Ñı Ð³Ð°
ĠÐĺ Ñģ
it al
I V
ÑĢÐ²Ð ¸Ð·
ĠÐĲ Ð½Ð³ÐµÐ»
Ð»Ð¾ÑĪ ÐºÐ¸
ĠÐ·Ð°Ð¸Ð½ÑĤÐµ ÑĢÐµ
Ð³ ÑĢÐ¸ÑĤÐµ
ĠÐ ĮÐµ
ĠÐ¶Ð¸Ð²Ð¾ ÑĤÐ¸
ÑĨÐµ Ð²
Ð¶ Ð´ÐµÐ½
ÐºÑĥ Ð»Ð°
ĠÐŁÐ ¾ÑĤÑĢÐµ
ÑĦÐµ ÑĢÐµÐ½
ĠÐ¿ÑĢÐµÐ´Ñĥ Ð¿ÑĢÐµÐ´Ð¸
ĠÐ²Ð¸ Ð¶
ĠÐ¾Ð±Ð¸ÑĩÐ° Ð¼
ĠÐ°ÑĤÐ° ÐºÐ°
Ġ6 4
ĠÐ¿ÑĢÐ¸ Ð»Ð¾Ð¶Ð¸
ĠÐ½Ð°ÑĢÐ° ÑģÑĤÐ²Ð°
! ?
ĠÑģÐ¸Ð¼ Ð²Ð¾Ð»Ð¸
ĠÑĩÐµÑĢÐ²Ðµ Ð½Ð¾
ĠÐŁÐ µÐ½
ĠÑİ ÑĢÐ¸Ð´Ð¸
ĠÑģÐ»ÐµÐ´ Ð½Ð¾ÑĤÐ¾
ĠÑĤÐµÑĢÐ° Ð¿Ð¸Ñı
ĠÐ·ÑĬ Ð±Ð¸
ÑĤÐµÐ ¾
ĠÑħ Ð»Ð°
ĠÐ©Ð °
Ð³ Ð²Ð°ÑĤ
ĠÐ½ÑıÐºÐ¾Ð µ
ĠÑĢÐ°ÑģÑĤÐµ Ð½Ð¸Ñı
Ð´Ð¾Ð±ÑĢÐ¸ ÑıÑĤ
Ġ5 7
ĠÐ½ÑıÐºÐ° Ðº
ĠÐ¿ÑĢÐ¸ÑģÑĬ ÑģÑĤÐ²Ð¸Ðµ
Ð½ÑıÐ²Ð° Ð¼
¿Ð ¾
Ġ5 8
ĠÐĺÐ²Ð° Ð½Ð¾Ð²Ð°
ÑģÐ¸Ð ¾
ÑĤÐ²Ð °ÑĤÐ°
ĠÐ¸Ð·Ð²Ð° Ð´Ð¸
ĠÐ¿ÐµÐ½ÑģÐ¸Ð ¾
Ð´ Ð½Ð¸ÑĨÐ¸
ĠÐ½ÑĥÐ¶ Ð´Ð¸ÑĤÐµ
ĠÐ´Ð¸Ð¿Ð»Ð¾ Ð¼Ð°ÑĤÐ¸
Ð©Ð µ
ĠÐºÐ¾Ð»Ðµ Ð³Ð°
ÑĩÐ¸ Ð½Ð¸
ĠÐ´ÑĬÑĢÐ ¶Ð°ÑĤ
ĠÑĢÐ° ÑģÐ¿Ð¾
ÐºÐ° ÑĨÐ¸Ñı
ĠÑĤÑĢÐ°Ð µ
on g
ĠÐ¾Ð±Ð ¶Ð°Ð»
T he
ĠÑģÐµ Ð»Ð°
ĠÐ¸Ð·Ð»Ð¸Ð·Ð° Ñ
ĠÐ¸Ð·Ð»Ð¸Ð·Ð°Ñ Ĥ
ĠÐ´Ð° ÑĤÐ°ÑĤÐ°
Ð½Ð ±Ðµ
ĠÐ¿ÑĢÐ¸ Ð»Ð¾Ð¶ÐµÐ½Ð¸ÐµÑĤÐ¾
ĠÐ¿Ð»Ð° Ð½ÐµÑĤÐ°ÑĤÐ°
ĠÐµÐ»Ðµ Ð¼ÐµÐ½ÑĤÐ°
ÑĤÐ±Ð¾ Ð»
ĠÐºÐ¾Ð½ÑĦÐ»Ð¸ ÐºÑĤ
ĠÑĤÐ° Ð¼Ñĥ
ĠÐľ ÑĬÐ¶
ĠÐ² Ð»Ð¾ÑĪÐ
ĠÐ¿ÑĢÐµÐ´ÑģÑĤÐ° Ð²ÐµÐ½Ð¸
Ð²Ð¸ÑģÐ¾ ÐºÐ¸
ĠÑĤÐ° Ð¹Ð½Ð°
ĠÐ³Ð¾Ð²Ð¾ ÑĢÑı
ĠÐ±Ð¾ Ð¼Ð±Ð°
ĠÐ·Ð° Ð´Ð°Ð²Ð°
ĠÐ° ÑģÑĤÑĢÐ¾
ĠÐ²Ñı ÑĢÐ°
ĠÐ±Ð»Ð¾ ÐºÐ¸
ĠÐ¸Ð¼Ð° Ð»Ð°
Ġ ÑĢ
ĠÐ¼Ð¾Ð¶Ðµ Ð±Ð¸
Ð½Ð¸Ð ¾
ĠÐĽ ÑĥÐ¸
ĠÐ¡Ð¸Ð¼Ðµ Ð¾Ð½
Ð²Ð¾Ð´ ÑģÑĤÐ²Ð¾
ĠÐ¥Ð° ÑģÐºÐ¾Ð²Ð¾
ĠÐ¸ÑģÑĤÐ¸ Ð½ÑģÐºÐ°
ĠÐ¶ÐµÑĢ ÑĤÐ²Ð°
Ð²Ð¸ ÑĺÐ°
ĠÐ´Ð¾Ð±Ð¸ Ð
Ġb e
ĠÑģÑĬÐ¾ÑĢÑĬ Ð¶ÐµÐ½Ð¸Ñı
ĠÐ¸Ð¼Ð¿Ðµ ÑĢÐ¸Ñı
ĠÐ¡Ð ľÐ
ĠÐ¿Ð¾Ð·Ð²Ð¾ Ð»ÑıÐ²Ð°ÑĤ
ĠÐ½ÐµÐ´Ð¾ ÑģÑĤÐ¸
ĠÐ¿Ð° ÑĢÐºÐ¾
ĠÐ°ÑĢÐµ ÑģÑĤÑĥÐ²Ð°
ĠÐ³Ð¾ ÑĢÐ°
ÑĢÐ¸ ÑģÑĤÐ°
ĠÐ´Ð¾Ð²Ð¾ Ð»Ð½Ð¾
ĠÐ´ ÑĢÐ¾Ð±
ķÐ Ļ
Ð´ÑĢÑĥ Ð¶ÐµÐ½Ð¸Ðµ
ĠÐ´ ÑĢÐ°Ð·
ĠÐ¿ÑĢÐ°ÑĪÐ°Ñ ļÐµ
ĠÐ´Ð¾Ð»Ð ³Ð¾
ĠÐ¾ÑĤÐ³Ð¾ Ð²Ð°ÑĢÑıÑĤ
ĠÐºÐ¾ÑĢÐ¾Ð½Ð°Ð²Ð¸ÑĢÑĥ ÑģÐ°
ĠÐ³ÑĬ Ð²ÐºÐ°
ÑĤÐ¸ Ð¿
ĠÐ°ÐºÐ°Ð´Ðµ Ð¼Ð¸Ñı
ĠÐ¸Ð¼ Ð¿ÐµÑĢÐ°
ĠÐ´Ð¾ ÐºÑĤÐ¾ÑĢ
Ð¿ ÐºÐ¸ÑĤÐµ
ar i
ĠÐ¿ÑĢÐ¾ÑĨÐ µÐ½ÑĤÐ¸
ĠÐ¾Ð±Ðµ ÐºÑĤÐ°
ĠÐ¿Ð¾Ð¼Ðµ ÑīÐµÐ½Ð¸Ðµ
ĠÐĴÐµ ÑĢÐ¾ÑıÑĤÐ½Ð¾
ÑħÐ °ÑĤÐ°
ĠÐ¾ÑĤÐ´Ðµ Ð»Ñı
ĠÐ±Ð»Ð¾ ÐºÐ°
ĠÑĦ ÑĢÐµÐ½
ĠH otel
ĠÐ¿ÑĢÐµÐ´Ð¾ÑģÑĤÐ° Ð²Ð¸
ĠÐĳÐ ¸Ð·
ĠÐ¿ÑĥÐ±Ð»Ð¸ÐºÑĥÐ²Ð° Ð½Ð¾
6 7
ĠÑģÐ¸ Ð½ÑĤÐµ
ĠÑģÐ¸ Ð¼Ð¿Ð°
ĠÑĥÐ»Ð¸ ÑĨÐ¸
ĠÐ¿Ð°ÑĢ ÑĩÐµ
ĠÐĵÐ¾ ÑĢÐ°
ĠÐ³ ÑĬÑĢ
ĠÐ¿ÑĢÐµÐ´Ð»Ð°Ð³Ð° Ð¼Ðµ
ÐºÐ¾Ð¼Ð¾ ÑĤÐ¸Ð²
ĠÐĶÐ¾Ð½Ð° Ð»Ð´
ĠÐ´Ð¾ Ð¶Ð¸
Ñģ Ð½Ð¸Ðº
ĠÐ¸ Ð´ÐµÐ¾
Ð²Ð° ÑĢÐ°
Ð¿Ð¾ ÑģÐ»ÐµÐ´ÑģÑĤÐ²Ð¸Ðµ
ĠÑĢÐµ ÐºÐ°ÑĤÐ°
ĠÐºÑĥÐ»ÑĤÑĥ ÑĢÐ¸
ĠÐ¿Ð¾Ð´ ÑĢÐ°Ð·
ĠÐ¶ÐµÑĢ ÑĤÐ²Ð¸
ĠÐ½ÐµÐ¾Ð±ÑħÐ¾Ð´Ð¸Ð¼Ð¾ ÑģÑĤ
Ð³ÑĢÐ°ÑĦ ÑģÐºÐ¸
ĠÑģÐ²ÑĬÑĢÐ ¶ÐµÑĤÐµ
ĠÑģÐµ Ð´Ð°
ĠÐ¾Ð¿ÑĤÐ¸ Ð¼Ð°
ĠÐ¡ÑĬÑ İ
Ð½Ð´ ÑĬÑĢ
ĠÑħÐ¾ ÑĢÐ¼Ð
ĠÑģÑĬÐ³Ð»Ð° ÑģÐ¸Ðµ
ĠÐ³ÑĢÐ° Ð´Ð¾Ð½Ð°ÑĩÐ°
ĠÐ½Ð° ÑĪÐµ
ĠÐ½Ð¾ÑīÑĥ Ð²ÐºÐ¸
ĠÐ¢ ÑĢÐ°Ð½
ĠÐ¾ Ð¿ÑĢÐµ
ĠÐ£ ÑĩÐµ
ĠÑģÐ¿Ð° Ð»Ð½Ð¸
ĠÐ¾ ÐºÑĢÑĬ
an a
ĠÐ½Ð¸ÐºÐ¾Ð³Ð° ÑĪ
ĠÐ°ÐºÑĤÑĥ Ð°Ð»Ð¸
ĠÐ¨ ÑĤÐ¾
ĠÐ²Ðµ ÑģÐµ
ĠÑĢÐ°Ð· Ð¼Ð¸
ĠÐ½ÐµÐ±Ðµ ÑĤÐ¾
ÐºÐ¾ Ð½Ð¸
ĠÑģÐ¸ Ð½Ð´Ð¸
ĠÐ¾Ð±ÑĢÐ°ÑĤ Ð½Ð¾ÑĤÐ¾
ĠÐ´ Ð»Ð°
ĠÐ²Ð¸Ð¶Ð´Ð° Ð¼Ðµ
ĠÑģÑĤÑĬÐº Ð»Ð¾
ĠÐ¸ÑģÐºÐ° Ð½Ðµ
ĠÐ¼Ð°ÑīÐ° Ð±
ĠÐºÐ¾Ð¾ ÑĢÐ´Ð¸Ð½Ð°
Ð´Ð¸ÑĤÐµ Ð»Ð¸ÑĤÐµ
Ð½Ð¸ ÑĨÐ°ÑĤÐ°
Ð»Ð¾Ð¶Ðµ Ð½Ð¸ÑĤÐµ
ĠÐ¼Ð°Ð·Ð½Ð¸ Ð½Ð¸
ÑĪ ÑĬÐ½
ĠÐ¿ÑĢÐ¸ Ð¼Ðµ
ÑģÑĤ Ð½Ð¸ÑıÑĤ
ĠS k
ĠÑĢÐµ ÑĪÐ¸ÑĤÐµ
ĠÐ»Ð¾ÑĪÐ ¸
Ð¿Ñĥ Ð»
ĠÐ¼Ð¾Ð±Ð¸ Ð»Ð½Ð¸
ÑĤÐ¸ ÑĢÐ°Ð½Ðµ
ĠÑĩÑĥÐ² ÑģÑĤÐ²Ð¾ÑĤÐ¾
ĠÐ¡Ðµ Ð¿Ð°Ðº
ĠÑĤÐ¸ Ð¿Ð°
ĠÐĿÐ ¯
ĠÐ¾Ð±ÑģÑĬ Ð¶Ð´Ð°
ĠÐ¿Ð¾Ð´ Ð¿Ð¸Ñģ
Ð°Ð» Ð½Ð¸ÑĤÐµ
ĠÐ´ÑĬÑĢÐ¶Ð° Ð²Ð½Ð¸ÑĤÐµ
ĠÑĥÐ±Ðµ Ð´Ð¸
ĠÐ¿Ð¾Ð´ÐºÑĢÐµ Ð¿ÑıÑĤ
ĠÐĺÐ· ÑĤÐ¾ÑĩÐ½Ð°
ĠÐ¾ÑĦÐ¸ ÑĨÐ¸ÑĺÐ°
ĠÐŁÑĢÐ¾ Ð²Ðµ
Ġ5 2
ĠÐ¸Ð¼Ð° Ñħ
ĠÐĹÐ°ÐºÐ¾Ð½Ð¾ Ñ
ĠÐĹÐ°ÐºÐ¾Ð½Ð¾Ñ Ĥ
ĠÐ½ÐµÐºÐ¾ ÑĺÐ°
Ð±Ð¸ Ð¹
ĠÐºÐ¾ Ð½Ð³
ĠÐ±Ð°Ð»Ð°Ð½ Ñģ
er c
Ð³ Ð½Ð°ÑĤÐ°
ĠÐ¿Ð¾Ð´Ð¾Ð± ÑĢÑıÐ²Ð°
ĠÐ»Ñİ Ð±Ð¸ÑĤÐµ
ĠÑģÐ´ÐµÐ» ÐºÐ°
ĠÐ¸Ð· ÑĤÐ¾Ðº
ĠÑģÐ»ÐµÐ´ Ð½Ð°ÑĤÐ°
ĠÐ»ÐµÐ½ ÑĤÐ°
ĠÐ½Ð°ÑĢÐ¾ Ð´Ð½Ð¸
E C
ĠÐ¸Ð·Ð²ÑĬÑĢÑĪ Ð²Ð°Ð½Ðµ
Ġm m
ÐµÐ¼Ð¾ ÑģÑĤ
ĠÐ¿Ð¾Ð»Ð¸ÑĨÐ° Ð
M W
ĠÐ½Ð°ÑĤÑĢÑĥ Ð¿Ð°
or s
Ð»Ð¾Ð¶Ðµ Ð½Ð¸ÑıÑĤÐ°
ĠÐ²ÑĬÑĤÑĢÐµÑĪ Ð½Ð¸ÑĤÐµ
ķÐ¢Ð ķ
ĠÐ²ÐµÐ´Ð½Ð° ÑĪ
ĠÐ¿ÑĢÐµÐ´Ð¸ Ð·Ð±Ð¾
ĠÐ´ÑĬÑĢÐ¶Ð° Ð²ÐµÐ½
ÐĽÐ °
ĠÐ¿Ð¾Ð´ ÑĢÐ°
ĠÑģÐ°Ð½Ðº ÑĨÐ¸Ð¸
ĠÑħÐ¾ ÑĤÐµÐ»Ð¸
ĠÐ´Ð¾ ÑģÑĤÑĬ
Ð¼Ð¾ Ð¶Ðµ
ÐŁ Ñĥ
ĠÑĤÐµÐº ÑģÑĤÐ¾Ð²Ðµ
Ð²Ð¸ Ð½Ð¸
ĠÐ¿ÑĢÐ¾Ñ ĪÐ
, ...
¾ÑĨ Ð½Ð°
ĠÐ¼Ð° ÑĩÐ¾Ð²Ðµ
ĠÐķ Ð¼Ð¸Ð»
ĠÐĥ Ð
ĠÐ¼ÐµÑħÐ°Ð½Ð¸ Ð·ÑĬÐ¼
ĠÐ¿Ð¾ÑĩÐ¸ Ð½Ð°
ĠÐĴ Ñĥ
¾Ð ¾Ð
ĠÐĵÑĢ ÑĨÐ¸ÑĺÐ°
ĠÐĳ ÑĬÑĢÐ
ĠÐºÐ¾Ð½ÑĦÐµÑĢÐµÐ½ ÑĨÐ¸Ñı
ĠÑĢÑĥÑģÐ½Ð° ÑĨÐ¸ÑĤÐµ
ĠÑĥÐ½Ð¸Ð²ÐµÑĢÑģÐ¸ÑĤÐµ ÑĤÐ°
ĠÐ³Ðµ Ð¹
ĠÐ¿Ð°ÑĤ ÑĢÐ¸Ð¾
ĠÐ¿Ð¾ Ð¼Ð¸
ĠÑĦÐ°ÐºÑĥÐ»ÑĤÐµ Ñ
ĠÑĦÐ°ÐºÑĥÐ»ÑĤÐµÑ Ĥ
ĠÐ° Ð´ÐµÐºÐ²Ð°ÑĤ
ĠÑĤ ÑĢÑı
Ð±Ðµ Ð´
ĠÑģÐ»ÑĥÐ¶Ð¸ÑĤÐµ Ð»
ĠÐ¼Ð°Ð½Ð°ÑģÑĤÐ¸ ÑĢ
Ġ ÑĬÐ³ÑĬÐ»
Ð»Ð¸ ÑīÐ°
ĠÐ½Ð°Ð² Ð»Ð¸Ð·Ð°
ĠÑĢÐ°Ð· Ð¼Ðµ
ĠÐĽÐ¸ Ð³Ð°
ĠÑĢÐ° Ð¶Ð´Ð°
ĠÐļÐ µÐ¹
ig n
ĠÐ²ÑıÑĢÐ²Ð° Ð¼
ĠÑģÐ¾Ð±ÑģÑĤÐ²Ðµ Ð½Ð°
ÑĬÐº Ð¼Ð¾
ĠÑĩÐ¸ ÐµÑĤÐ¾
ĠÐ²Ð»Ð° Ð´ÐµÐ
ĠÑĩÐ»Ðµ Ð½ÐºÐ¸
ÐļÐ ¸
ĠÐĳÐ¸ÑĤÐ¾ Ð»Ð°
ĠÐ¾ÑģÐ²Ð¾Ð±Ð¾ Ð¶Ð´Ð°
ĠÑģÐ¿ÑĢÐ° Ð²Ñı
Ī ÐĲ
ĠÐ¸ ÑģÑ
ĠP r
A D
ĠÑĢÐ°Ð±Ð¾ÑĤÐ¸ Ð¼
ÐºÑĤÐ¾ ÑĢÐ¾ÑĤ
ĠÐ½Ð°ÑĢÐ¸ ÑĩÐ°ÑĤ
ĠÑģÑĬÑħÑĢÐ° Ð½ÑıÐ²Ð°
Ð¿Ð¾Ð»Ð¸ ÑĤÐ¸
ĠÐ¼ÐµÐ´Ð¸ÑĨÐ¸ Ð½ÑģÐºÐ°
ĠÑĢÐ°Ð·Ð±ÑĢÐ° Ñħ
ĠÑĦÐ¸Ð½Ð°Ð½ ÑģÐ¾Ð²
ĠÐ¸Ð· ÑģÑĤÑĢÐµ
ĠÐ ĺÐ°
ĠÐ²ÑĬÑĢ Ð½Ð°ÑĤ
ĠÐ¿Ð¾ÑĤÑĢÐµ Ð±Ð½Ð¾
ĠÑģÐ¼ ÑĬÑĢ
Ð½ÐµÑĨ ÑĬÑĤ
ÐĽÐ ¾
ĠÐºÐ»Ð¸Ð µÐ½ÑĤÐ°
ĠÐ¼Ð¾ Ð³ÑĬÐ»
ĠS amsung
ĠÐ¿ÑĢÐµÐ¿Ð¾ ÑĢÐ°
ic s
ĠÐŀ ÐºÐ¾Ð»Ð¾
Ð»ÐµÐ¹ Ð±Ð¾
ĠÐ° ÑĦ
ĠÑĥÑĩÐ° Ñ
ĠÑĥÑĩÐ°Ñ Ĥ
ÑģÐ½Ðµ Ð½Ð¸Ñı
6 9
Ð²Ð° Ð¶Ð½Ð¸ÑĤÐµ
ĠÐ¿ÑĢÐ²Ð °ÑĤÐ°
ÑģÐ¸ Ñģ
ĠÐ¿ÑĢÐµ ÑĤÐµÐ½
Ð¿Ðµ Ð²
ĠÑĢÐµ Ð¹
ĠÐ´Ðµ Ð·Ð¸
ĿÐ ĺÐľÐ
Ð¾Ð± ÑĢÐ°ÑľÐ
" ...
ĠÑģÑĤÐ¾Ð¹ Ð½Ð¾ÑģÑĤÑĤÐ°
Ð½Ð° Ñĺ
ĠÐ¿Ð¾ Ð¿Ð°Ð´Ð°
Ð¼Ð¾ Ð²ÐµÑĤÐµ
ĠÑĪ ÑĤÐµ
Ġ8 5
ÑĤÑĬ Ð¼
ĠÐĺÐ¼Ð° ÑĪÐµ
ĠÐ¼Ð¸ÑģÐ»Ð¸ ÑĪ
łÐ ŀÐ
Ð¿ÑĢÐ¾ Ð´Ñĥ
ĠÐ¡Ð¸ Ð»
ÑĥÐ²Ð° Ð¼
ĠÐ°Ð´ ÑĢÐµ
ĠÐ½Ð° ÑĪÐ°
ĠÐĺÐ´Ðµ ÑıÑĤÐ°
ĠÐĶÐ²Ð° Ð¼Ð°ÑĤÐ°
ÑģÑĬ Ð»Ð°
ĠÐ¼Ð°ÑĤÐµÑĢÐ¸Ð °
ation al
ĠÐĲÑĤÐ°Ð½Ð° Ñģ
ĠÐ¿Ð¾Ð²Ðµ Ð´ÐµÐ½Ð¸ÐµÑĤÐ¾
ĠÑĦÐ¾ ÑĢÐ¼Ð°ÑĤ
ĠÐ´ÑĬ Ð½Ð¾ÑĤÐ¾
¤ ÐĲ
ĠÐ·Ð°Ð¿Ð¾Ñĩ Ð½ÐµÑĤÐµ
ĠÑĩÐµ ÑĢÐ²ÐµÐ½
ĠÑģÑĬÐ¿ÑĢÑĥ Ð³Ð°ÑĤÐ°
ĠÐºÑĢÐ° Ð
ĠÐºÐ¾ ÑĢÐ¿
ĠÑĨÐµÐ»Ð¾ ÑģÐ½Ð¾
Ð½ÐºÐ¾ Ð²Ð°
ÐŁ ÑĢÐ°
ow er
ĠÐ¿Ð¾Ð´Ð° Ð´Ðµ
ĠÐ¾ÑģÐ¸Ð³Ñĥ ÑĢÑıÐ²Ð°ÑĤ
ĠÐ¸Ð¼Ðµ Ð½Ð°ÑĤÐ°
ļÐ Ł
Ð»Ð³Ð ¸Ñı
ĠÑĥÐ´Ð¾ Ð²Ð»ÐµÑĤÐ²Ð¾
ĠÐ¿Ðµ ÑĪÐµ
ĠÑĢÐ°Ð·ÑĢÐµ ÑĪÐµÐ½Ð¸Ðµ
ĠA ir
ĠÐ¸Ð·ÑĤÐµ Ð³
Ġ' '
ĠÑģ ÑĢÑĬÐ±
ĠÑģÐ»ÑĥÑĩÐ¸ Ð»Ð¾
ĠÐºÐ¾ ÑĪ
ĠÐ¿ÑĢÐµÐ´ÑģÑĤÐ° Ð²Ð»ÑıÐ²Ð°ÑĤ
ĠÐºÑĥ Ð¿Ð°
ĠÑģÑĤÐ° ÑĢÐ°ÑĤÐ°
ĠÐ´Ñı Ð´Ð¾
ĠÑĤÑĢÐµ Ð½Ð¸ÑĢÐ°
ĠÐĿÐ°Ð¸ ÑģÑĤÐ¸Ð½Ð°
ĠÐµÐ»ÐµÐºÑĤÑĢÐ¸ ÑĩÐµÑģÐºÐ¸
Ð½Ð° ÑĤÐ¾
ĠÐĲ ÐºÐ°Ð´Ðµ
ĠÐºÐ°Ð±Ð¸ Ð½ÐµÑĤÐ°
ĠÐºÑĬÑģ Ð¼ÐµÑĤ
ĠÑģÑĤÑĢÐ¾Ð¸ÑĤÐµ Ð»ÑģÑĤÐ²Ð¾ÑĤÐ¾
ĠÐĺ Ð»Ð¸ÐµÐ²
ÐĹ Ð´ÑĢÐ°
ĠÐ³Ð¾Ð²Ð¾ ÑĢÐµ
ĠÑĥ ÑĤÐ²
ĠÐ²ÑĬÑĤÑĢÐµÑĪ Ð½Ð¾
ĠÑģÐ²ÑĬÑĢÐ· Ð²Ð°
ĠÐºÐ¾ Ð¿Ð¸
ĠÐ¶Ð¸Ð²Ðµ ÐµÐ¼
ĠÐ¿Ð¾Ð´ Ð½ÐµÑģÐµ
ĠÐµÐ´Ð½Ð¾ ÑģÑĤÐ°
ĠÑĢÐ°Ð±Ð¾ÑĤ Ð½Ð¾
Ð²Ðµ Ñĩ
ĠÐŀÐ±Ð¸ ÐºÐ½Ð¾Ð²ÐµÐ½Ð¾
ĠÑĢÐµÐ° ÐºÑĨÐ¸Ð¸
ĠÐ¦Ðµ Ð½Ð°ÑĤÐ°
ĠÑģÑĬÑģÑĤÐµÐ·Ð° Ð½Ð¸Ðµ
ĠÑĢÑĥ ÑģÐºÐ¸Ñı
ĠÐ¾Ð³ÑĢÐ°Ð½Ð¸ ÑĩÐµÐ½Ð¸Ñı
Ġ at
ĠÐ½Ð° Ñħ
ĠÐ§ Ð»
ĠÐ¸Ð· Ð³Ð»ÐµÐ´
Ð½Ðµ Ð»Ð°
ĠÐ¿ÑĢÐ¾ Ð¿Ð¾
ĠÑĢÐ°Ð·Ð²Ð¸ Ð²Ð°ÑĤ
ĠÐļÐ°Ð½Ð° Ð´Ð°
ĠÐ¿ÑĢÐ¾ÑģÑĤÐ¾ ÑĢ
o om
ĠÐ¾ÑĤÐ±Ð¾ ÑĢÐ¸
Ð´ ÐºÐ°ÑĤÐ°
ĠÐļÐ° Ð·Ð²Ð°
Ġv o
ĠÐ»Ðµ Ð³Ð»Ð¾
ļÐ ŀ
ÑĢÐ¾Ð² ÐºÐ¸
O M
ÐºÐ° Ð»Ñı
ĠÑģÐµ Ð´Ð½Ð°
Ð¹ Ð½Ð¸Ñı
ĠÐ¾ÑĤÐº ÑĬ
ĠÑģÑĤ ÑĢÐµÐ¼Ðµ
ĠÐļÐ¾Ð ¸
ĠÑģÑĬÐ³Ð»Ð° ÑģÐ¸
ĠÐ¾ÑĤ ÑĬ
ĠÐ²Ð° ÐºÐ°Ð½
ĠÐ¿ÑĢÐµÐ³Ð¾ Ð²Ð¾ÑĢÐ¸ÑĤÐµ
ĠÐĺ ÑĢÐ°Ðº
ĠÐ¿ÑĢÐµÐ´ ÑħÐ¾Ð´
ĠÑĤÐ²ÑĬÑĢÐ´Ð ¾
ĠÐ¾Ð±ÑīÐµ ÑģÑĤÐ²ÐµÐ½Ð¾
" !
ĠÐ¤ Ð»Ð¾
ĠÑģÐ¾ Ðº
Ð½Ð¸ ÑĢÐ°Ð½Ðµ
ĠÐ²ÑĬÑĢ ÑĪÐ¸
ĠÐ¿Ð° Ð´Ð½Ðµ
ĠÐľÐ¸Ð½Ð¸ÑģÑĤÐµÑĢ ÑģÑĤÐ²Ð¾
ĠÐ² ÑĢ
ĠÐļÐ ĲÐ
ĠÐ½Ð° ÑĤÑĥÑĢÐ°
ĠÐ°Ð²Ð¸Ð ¾
Ġ9 5
ĠÐ£Ð½Ð³Ð° ÑĢÐ¸Ñı
ĠÑıÐ¹ ÑĨÐ°
ĠÐłÐ ¾Ð½Ð°
łÐ ĲÐĿÐ
ĠÐĴÐ° ÑĪÐ¸ÑĤÐµ
ĠÐ¼ Ð½ÐµÐ½Ð¸Ñı
ĠÐ±Ðµ Ð»
ĠÐ³Ð¾ ÑĢÐ´Ð¾
ÑģÐ¸ ÑĺÐ°ÑĤÐ°
ĠU SB
Ð´Ð¸ Ñģ
ĠÐ¾ÑĤÐº ÑĢÐ°
ĠÑħÑĢÐ° Ð¼
ÐºÐ¾ Ð²Ð¸ÑĤÐµ
ĠÐ¿Ðµ ÑĢÐ¸
ÐºÑĤÑĥ ÑĢÐ°ÑĤÐ°
ĺÐ Ľ
ĠÐĸÐ¸ Ð²Ð¾ÑĤ
ĠÐ½Ð°Ð´ ÑıÐ²Ð°Ð¼
Ð¹Ð µÑĢ
ĠÐ¾Ð± ÑīÐ°ÑĤÐ°
ĠÐ¿Ð¾ Ð»ÐµÑĤ
ÑģÑĤÐ°Ð½ ÑĨÐ¸Ñı
ĠÐ¸Ð½ÑĤÐµÑĢÐµ ÑģÐ½Ð°
¯ Ð¢
ĠÐ¾Ð±Ð¸ ÑĤÐ°
ĠÑģÐ¿Ð¾ ÑĢ
ĠÐ¿ÑĢÐµ Ð½Ð°
ÐºÐ¾Ð¹ ÑĤÐ¾
¥ Ð
ĠÐ´Ð¸ ÑĺÐ°
ĠÐ´ÑĬÐ»Ð ³
ĠÑģÑĬÑīÐµ Ð²ÑĢÐµÐ¼ÐµÐ½Ð½Ð¾
ĠÐ¼Ð¸Ð½Ð¸ ÑģÑĤÐµ
Ð¿ ÑĢ
ĠÐ Ļ
ÐºÐ°Ð· Ð²Ð°Ð½Ðµ
ĠÐ¿Ð°Ð¼ÐµÑĤ ÑĤÐ°
ÑģÑĤ Ð½Ð¾ÑĤÐ¾
ĠÐ»ÐµÐºÐ° ÑĢÐ¸ÑĤÐµ
ĠÑĢÐµ ÑĩÐ¸
ĠÐŀÐ»Ð¸ Ð¼Ð¿Ð¸
ÑĢÐºÐ µÐ»
ĠÐŁÐ¾ ÑģÐµ
ĠÐ¿ÑĢÐ°ÐºÑĤÐ¸ ÑĩÐµÑģÐºÐ¸
ĠÐĲ Ð·Ð¸Ñı
ĠÐ¿ÑĢÐ¾ Ð½Ð¸Ðº
ĠÐºÐ¾Ð½ÑĤ Ñĥ
Ð·Ð¸ ÑĤÐµÐ»Ð½Ð¾
ĠÑĤÐ¸ ÑĤÐ»Ð°ÑĤÐ°
Ġ5 4
ĠÐłÐ°Ð· Ð»Ð¸
Ñģ Ð½Ð¸ÑĨÐ¸ÑĤÐµ
ĠÐ·Ð°ÐºÐ¾ Ð½Ð¸ÑĤÐµ
ĠÐļÐ° Ð¼Ðµ
ĠÐ¸Ð· ÑħÐ¾Ð´
ĠÐ¾ Ð¼ÑĢÐ°
ĠÐ¾ÑĤÐ²Ð¾ ÑĢÐµÐ½Ð¸
ĠÐ´Ð¾Ð± ÑĢÐ¸ÑĤÐµ
ĠÐ±ÑĢÐ°ÑĤ Ñı
ĠÑĦÑĥÑĤÐ±Ð¾ Ð»Ð¸ÑģÑĤÐ¸
ĠÐ¿Ð¾Ð¼Ðµ Ð¶Ð´Ñĥ
ĠÐ¸ÑģÑĤÐ° ÐºÐ½Ð°
ĠÐ¾Ð±Ð·Ð° Ð²Ðµ
ĿÐ ķÐ¡
ĠÐĻÐ¾ ÑĢÐ´Ð°Ð½
ĠÐºÐ¾Ð½ÐºÑĥ ÑĢÐµÐ½ÑĤ
ĠÐµ ÑĦÐ¸
ĠÐ¿Ð¸ Ð»Ð¾
Ð½ÐµÐ½ ÑĤÐ°
ÐĿÑı Ð¼Ð°
Ġ ÑĬ
ĠÐ½Ð° ÑıÑģÐ½Ð¾
ĠÐ¿ÑĢÐ¸ Ð¼ÐµÑĢÐ½Ð¾
ÐºÐ¾ Ð¼Ð¸
ÑĢÐ¼Ð°Ð» Ð½Ð¾
ĠÐĪÐ° Ñģ
ĠÐ²ÐµÐ»Ð¸ ÐºÐ¾
ĠÐĳÑĢÐ° Ð²Ð¾
Ð¼ÐµÐ½ ÑĤÐ¾ÑĤ
Ð³ ÑĢ
ĠÐ¸Ð· Ð¼Ð¸ÑģÐ»Ð¸
ĠÐºÐ° ÑĢÐ°ÑĤ
ĠÐ²Ð»Ð° ÑģÑĤÐ¸ÑĤÐµ
ĠÑĤÑĢÐµ ÑĤÐ°ÑĤÐ°
ĠÐ¿ÑĢÐµ ÑģÐµ
ĠÑĢÐµ Ð³Ð»Ð°
ĠÐ¡Ð ĶÐ¡
Ð¼Ñĥ Ð»Ð°
ĠÐ³Ð¸ Ð³Ð°Ð½ÑĤ
ĠÑĥÑĩÐµ Ð½Ð¸ÑĤÐµ
ĠÐ¾Ñħ Ð»Ð°
ĠÐ¨ Ð²ÐµÐ¹ÑĨÐ°
ĠÐ²ÑĬÐ» Ð½ÑĥÐ²Ð°
Ð´ Ð½Ð¸Ðº
ĠÐ²Ð¸ Ð¶ÑĤÐµ
an s
ĠÐ¿ÑĢÐ¾Ð±Ð»ÐµÐ¼ ÑĬÑĤ
ĠÐºÑĢÐ° Ðº
ĠÑīÐ °ÑĤ
ĠÐ¸Ð½Ð´ Ñĥ
ĠÐµÐºÑĢÐ° Ð½Ð°
Ð²ÑĬÑĢÐ ¶Ðµ
ĠÐ° Ð¿Ð»Ð¸ÐºÐ°
ĠÑģÐ¼Ðµ Ð
ĠÐ¡ÑĬ Ð²ÐµÑĤÐ°
ĠÐ´Ðµ Ð²Ð¾Ñĺ
ĠÐ¿Ð¾ Ñĥ
ĠÐ³Ð»ÐµÐ´Ð° Ð¼Ðµ
ľÐ ŀ
Ð²Ð½Ð¸ ÐºÐ°
Ð±Ðµ Ð½Ð°
µÐ¹ ÑģÐ±ÑĥÐº
Ð µÐ²ÑĢÐ¾
Ð¼Ðµ ÑĤÐµ
Ð»Ð¾Ð¶ Ð±Ð°ÑĤÐ°
ĠÐķÐ ļ
ĠÐ¸Ð½ÑĤÐµÑĢÐµ ÑģÐµÐ½
ĠÑĦ ÑĢÐ¸
ĠÐĳÐµ ÑĢÐ»Ð¸Ð½
ĠÐ²ÑĬÐ·ÑģÑĤÐ° Ð½Ð¾Ð²Ð¸
Ð´Ðµ ÑĨ
ĠÐ¿Ð¾Ð´Ð¿Ð¾Ð¼Ð°Ð³Ð° Ð½Ðµ
ĠL e
ÑģÑĤÐ¸ ÑĩÐµÐ½
Ðº Ð½Ð¾Ð²ÐµÐ½
ĠÐ±Ð° ÑĢ
ĠÐ²ÑĬÐ· Ð´ÐµÐ¹ÑģÑĤÐ²Ð¸Ðµ
ĠÐ©Ð ķ
ĠÐ½ÐµÐ²ÑĬ Ð·Ð¼Ð¾
ĠÑĦÐ¸ÑĤ Ð½ÐµÑģ
ĠÐ±ÐµÐ· ÐºÑĢÐ°
ĠÐŁÐ° Ðº
Ð¼Ð¾Ñ īÐ
ĠÐ³Ð»Ð°ÑģÑĥ Ð²Ð°ÑĤ
ĠÐ¾Ð±Ð¾ Ð±
ĠÐ»Ðµ ÑģÐµÐ½
ĠÐĺÑģÑĤÐ° Ð½Ð±ÑĥÐ»
ĠÐ¿Ð¾Ð»Ð¸ÑĤÐ¸ ÐºÐ¸
ĠÐºÐ° Ð»Ð¾
ĠÑģÑĢÐ° Ð¼
ÐºÐ° ÑĤÐ¸
ĠÐ¿ÑĢÐ¾Ð´ÑĬÐ»Ð ¶Ð°ÑĤ
ĠÐ¿Ð¾ÑĤ ÑĬ
ĠÑĩÐµ ÐºÐ°
Ð½Ð¸ Ð»
Ð½Ð´ ÑĬ
Ð¿ ÑĢÑı
ÑĤÑĥ Ðº
Ġi m
Ð²Ðµ Ð·Ð´Ð°
ĠÐ¿Ð¾ ÑģÑĤÑĬÐ¿Ð¸
ĠÐľÐ¸Ð½Ð¸ ÑģÑĤÑĬÑĢ
ĠÑĤ ÑĢÐ¾ÑĪÐ
ÑģÑĦÐ °Ð»
ĠÐ¸Ð¼Ð° ÑħÐ°
ÑĢÐ½Ð¸ ÑĨÐ°
ĠÐ¡Ð¡Ð ¡Ðł
ĠÐ¿ÑĢÐµÑģÑĤÑĬÐ¿Ð»Ðµ Ð½Ð¸Ñı
ĠÐĶÐ°Ð½Ð¸Ðµ Ð»
Ð± Ð»Ñİ
ĠÐ²Ð¸Ð½Ð¾ Ð²ÐµÐ½
ĠÐ¢Ð¾ Ð¼Ð°
ĠÐ¾ÑĤÐº Ð»Ð¾
Ñĥ Ñ
wit ter
ĠÑĥ Ñĩ
ĠÐ´Ð¾ÐºÑĥ Ð¼ÐµÐ½ÑĤÐ¸ÑĤÐµ
ĠÐ¿ÑĢÐ¸ Ð¼ÐµÑĢÐ¸
ĠÐļ ÑĥÐ»
ĠÐ±Ð° Ð½ÐºÐ¸ÑĤÐµ
ÑģÑĤÐ²Ð¾ Ð¼
ĠÑĦÐ¸ ÑĢÐ¼Ð¸ÑĤÐµ
ĠÑģÑĥ Ð±Ðµ
am e
9 4
ĠÐ»Ð° ÑĤÐ¸
Ð¼Ð° ÑĢÐ°
Ð¼Ð¸ÑģÐ»Ðµ Ð½Ð¾
Ð¶Ðµ ÑģÑĤÐ²Ð¾ÑĤÐ¾
ÐĶÐ ¾Ð±
ÑĢÐ¾ Ñģ
ĠÐµÐº ÑģÑĤÑĢÐµ
ĠÐĿÐµÐ·Ð° Ð²Ð¸ÑģÐ¸Ð¼Ð¾
ĠÐĹÐ° ÑĤÐ¾Ð°
Ð´Ð¾ Ð²Ð¾Ð»
ĠÐ¼Ð½Ð¾Ð³Ð¾ Ð±ÑĢÐ¾
ĠÐµÑģÐµÐ½ ÑĤÐ°
ĠÐŁÐµÑĢ Ð½Ð¸Ðº
ĠÐ¿ÑĢÐµÐ´Ð¸Ð¼ ÑģÑĤÐ²Ð¾
Ð³Ð¸ Ð½Ð°Ð»
ĠÐŀ Ð¿ÑĢÐµÐ´Ðµ
ĠÑģÑĤÐ¾ Ð»
Ð´Ð¾Ð± ÑĢÐ°ÑĤÐ°
°Ñ ľÐ
ĠÑĨÐµÐ»Ð¸ ÑıÑĤ
ĠÑģÐ¾Ð±ÑģÑĤÐ²Ðµ Ð½Ð°ÑĤÐ°
ĠÐ½Ðµ Ð¼ÑģÐºÐ¸
ĠÐ½Ð¾ Ð¼Ð¸Ð½Ð°
ĠÐ±Ð¸ ÑĤÐºÐ°ÑĤÐ°
ĠE UR
ĠÑĤÑĬÑĢ ÑģÐ¸ÑĤÐµ
ĠÐ´Ðµ Ð¿Ð¾Ð·Ð¸
Ð»Ð½Ð¸ ÑĨÐ°
ĠÐ¾ ÑĤÐ²Ðµ
Ð´Ð¸ Ð½Ð³
ĠÐ¿ÑĢÐ¾ÑĦÐµÑģÐ¸Ð¾Ð½Ð° Ð»ÐµÐ½
ĠÐ²Ð¾ Ð·ÑĢÐ°
Ð¹ Ð½Ð¾ÑĤÐ¾
ĠÐ°Ð³ÑĢÐµ ÑģÐ¸
Ð»Ð½Ð¾ ÑģÑĤÐ¸
ĠÐĳÐ ¸Ð¾
Ð½Ðµ Ð»Ð¸
ĠN ews
Ð¿Ð¾ Ð»Ñĥ
ĠÐ½Ð°Ñĥ ÐºÐ¸
ĠÑĦÐµ Ð½Ð¾
ĠÑĤÐµÐ¼Ð¿ÐµÑĢÐ°ÑĤÑĥ ÑĢÐ¸
ĠÐĽÑĥ Ð´Ð¾Ð³Ð¾ÑĢÐµÑĨ
ĠÐ½Ð° ÑģÑĤÑĬÐ¿Ð¸
ĠÐ·Ð°ÑģÑĤÑĢÐ°ÑħÐ¾ Ð²Ð°
Ð»Ð¸ Ð·Ð¼Ð°
ĠÐ°Ñĥ Ð´Ð¸Ð¾
ĠÐ¢Ð¾ Ð¿
ĠÐ½Ð°Ð¿ÑĢÐ° Ð²ÐµÐ½
ĠÐŁÑĢÐ¾ Ð³ÑĢÐ°Ð¼Ð°ÑĤÐ°
ĠÑĢÐ¾Ðº Ð»Ñı
ĠÐ½Ð°Ñĥ ÑĩÐ½Ð¾
ĠÐļÐ°ÑĤÐµ Ð³Ð¾
ĠÐ½Ð¾ÑģÐ¸ ÑĤÐµÐ»
ĠÐ±Ð¸Ð² ÑĪÐ¸ÑıÑĤ
Ð´Ð±Ð °Ð»
u v
Ð¿Ðµ Ð½Ð°
ª Ð¢
ĠÐ´ÑĢÑĥÐ¶Ðµ ÑģÑĤÐ²Ð°
ĠÐ¿ÑĢÐµÑĤ ÑģÐµÐ´Ð°ÑĤÐµÐ»Ð¾ÑĤ
ĠÐĴ Ð·Ðµ
ĠÐ¿Ð¾ ÑĢ
ÑĢÐ´Ð µÐ½
ĠÑĤÐ° Ð±Ð»Ð¸
9 2
ĠÐ¿ÑĢÐ¾Ð± Ð»Ðµ
ÑĦÐ¸ÑĨÐ¸ ÑĢÐ°Ð½Ð¸
ĠÑģ Ñİ
ĠÐ·Ð°Ð¿Ð° Ð´
ĠÐĽÑİ Ð±Ð¾Ð²
Ñĥ ÑĢÐ³
ĠÑģÑĤÐµ Ð½Ð¸
ĠÐ°Ð¿Ð° ÑĢÐ°ÑĤ
" ;
ĠÐ³Ð¾ ÑģÑĤ
ĠÐļÑİ ÑģÑĤÐµÐ½Ð´Ð¸Ð»
ĠÐŁÐ° ÑĢÐ°
ĠÐ¿ÑĢÐ¾ÑĦÐµÑģÐ¸Ð¾Ð½Ð° Ð»Ð½Ð°
ĠÑģÑĤÐ¾ ÑĢÐ¸
Ð¼Ð¸ Ñ
ĠÐ·Ð°ÐºÐ¾Ð½Ð¾Ð´Ð° ÑĤÐµÐ»ÑģÑĤÐ²Ð¾
ĠÑĩÐµ ÑĤÐ°
ĠÐºÐ¾ ÐºÐ¾
ĠÑĢÐ°Ð·Ð¾ÑĩÐ° ÑĢÐ¾Ð²Ð°
ĠÐ²ÑĢÐµ Ð¼ÐµÐ½Ð½Ð¾
ĠÐ¿Ð¾Ð¼Ð° Ð»ÐºÑĥ
ÐºÑĤÐ¸ ÐºÐ°
ĠÐĲ Ð½Ð¾Ð½Ð¸Ð¼ÐµÐ½
8 4
ĠÐ¿Ð° ÑĢÐ¾
ĠÐ¾Ð±ÐµÐ· ÑīÐµÑĤÐµ
ĠÑĨ ÑĬÑĢÐºÐ¾
ĠÐ¼ÐµÑģÑĤÐ° ÑĤÐ°
ĠÐ¼ÐµÐ½Ð¸Ð´Ð¶ ÑĬÑĢ
ÑĤÐ¸ Ð²Ð¸ÑĤÐµ
Ġ6 6
ĠÑĥÐ¿ÑĢÐ°Ð¶ Ð½ÐµÐ½Ð¸Ñı
ĠÐ¾ Ð¿ÑĢÐ¾
ĠÐĳÐ¸ Ð²
ÐºÑĥ Ð²Ð°ÑļÐµ
ĠÐ³Ð¾ ÑĤÐ¾Ð²Ð°
Ð³ ÑĬÑĢ
ĠÐ·Ð½Ð° ÑĨÐ¸
ÐºÑĥ Ð²Ð°Ð½Ðµ
ĠÐ¸Ð·Ð²Ðµ Ð´Ð½ÑĬÐ¶
ĠÐĺÐ° ÐºÐ¾
ĠÐ¸Ð½ÑģÑĤÐ¸ÑĤÑĥ ÑĨÐ¸Ð¸ÑĤÐµ
ĠÐ½Ð° ÑĪÐ¸ÑıÑĤ
ĠÐ¿Ð¾Ð µÐ¼Ðµ
Ð½ Ð½Ð¾ÑĤÐ¾
ĠÐŁÐ¾ Ð¿Ð¾Ð²
ĠÑģÑĬÐ·Ð½Ð° Ð½Ð¸ÐµÑĤÐ¾
ĠÐ¿ÑĢÐ°Ð²Ð¸ Ð»Ð¾
ĠÐ¸Ð½ÑĤÐµÑĢÐµ ÑģÐ¸ÑĤÐµ
ĠÐŁÐ° ÑĢÑĤÐ¸
ĠÐŀÐ±Ð° ÑĩÐµ
Ġ5 1
ĠÐºÐ°Ð¶Ðµ ÑĪ
ĠÐ»Ðµ ÐºÐ¸
ĠÑģÐ²Ðµ ÑĤÐ»Ð¾
ĠÐĲÐķÐ ¦
ĠÐ¸Ð· Ð²ÑĬ
ĠÑĥÑģÐ»Ð¾Ð²Ð¸ Ð
ĠÐ·Ð°ÐºÑĥ Ð¿Ñĥ
ĠÐ¼ÑĬ Ð¶Ð°
ĠÐ± Ð»Ð¾Ð³
ĠÑģÑĤÑĢÐ°Ð½ Ð½Ð¾
ĠÐ° ÐºÑĤÐ¾
ĠÑģ Ð²Ð°Ð»Ð¸
ĠÑĢÐ°Ð·Ð±Ð¸ ÑĢÐ°Ð½Ðµ
ĠÐĿÐ¸ ÐºÐ¾Ð³Ð°
ĠÐ¾ÑĤÐ¸ Ð²Ð°ÑĤ
ĠÑĤÐ¾ Ð½
ĠÑĤÑĢÐ¸Ð¼ÐµÑģÐµ ÑĩÐ¸Ðµ
ĠÐ¼Ð½Ð¾Ð·Ð¸ Ð½ÑģÑĤÐ²Ð¾
ĠÑĥÑģÐ»Ð¾Ð²Ð¸Ð µ
ĠÐĶÐ °ÑĤÐ°
ĠÐ¼Ñİ ÑģÑİÐ»
ĠÐĿÐµ Ð¾Ð±ÑħÐ¾Ð´Ð¸
ĠÐ¿ÑĢÐ¾ ÑģÐ»ÐµÐ´
Ð·Ð¸ÑĢÐ° Ð½Ð¾
Ġg o
Ð³ÑĢÐ° Ð´Ð°ÑĤÐ°
ĠÐ£ ÐŁÐ
ĠÑĢÐµ Ð²Ð¸
ÑģÑĬ Ð²ÑĬÑĢÑĪÐµÐ½
ĠÐ²Ð¿ÐµÑĩÐ° ÑĤÐ»ÑıÐ²Ð°
Ð±ÑĢÐ° Ð²Ð¸
ĠÑĥÐºÑĢÐ° Ð
ĠÐ·Ð²Ñĥ Ðº
ĠÑģÑĥ ÑħÐ¾
ĠÐĳÐ¸ Ð»
ĠÑĢÐ°Ð·ÐºÑĢÐ¸ Ð²Ð°
ĠÐ·Ð±Ð¾ ÑĢÑĥÐ²Ð°
ĠÑĤÐµÐ¼Ð¿Ðµ ÑĢÐ°ÑĤÑĥÑĢÐ°ÑĤÐ°
ĠÑģÐ¸Ð¼ Ð²Ð¾Ð»
ĠÑĦÐ¾Ð» ÐºÐ»Ð¾
Ð» ÑĦ
ĠÐ¼Ðµ ÑĤÑĢÐ¸
ĠÐ½Ð°ÑģÑĤÐ¾Ñı ÑīÐ¸Ñı
ĠÐ¾ Ð¼Ðµ
ĠÐ±Ð¸ ÑĢÐ°
ĠÐŀÐ²Ð° Ð
ĠÐŁÐ ĲÐłÐ
Ð²Ñĥ Ð´
ĠÐ¿ÑĢÐµÐ¼Ð¸ÐµÑĢ ÑĬÑĤ
Ðº Ð½Ðµ
ĠÐ¿ÑĢÐ¾Ð»ÐµÑĤ ÑĤÐ°
ÑģÑĤ ÑıÑĤ
ĠÐ´ÐµÐ¿Ñĥ ÑĤÐ°ÑĤÐ¸
ĠÐļÐ¾ÑĢÐµ Ñı
ĠÐŀÐ²Ð°Ð °
ĠÐ¿Ð¾ Ð´Ð°Ð²Ð°
ĠÐ²Ð·Ð µÑĤÐ¾
Ð½Ñ ĭ
ĠÐ¼Ð¾ ÑĢÑģÐºÐ¸
ĠÑħÐ µÐ¼
Ð»Ð½Ð¸ ÐºÐ¾ÑĤ
ĠÑĤÑĥÑĢÐ¸ÑģÑĤÐ¸ ÑĩÐµÑģÐºÐ¸
ĠÐľÐ° Ñı
u x
ĠÐ·Ð´ÑĢÐ° Ð²Ð°
ĠÐŁÑĢÐ° Ð²Ð¾
ĠÐĶÑĥ Ð½Ð°Ð²
ĠÑģÐ¸ Ð»Ð¸ÑĤÐµ
ĠÐ¿ ÑĬÑĢÐ
ĠÐ³Ð° Ð¼Ð°
ĠÐ¸ Ð»ÑĺÐ°
ĠÐ¨Ð°Ð¼Ð¿Ð¸ Ð¾Ð½
ĠÐ¿Ð¾ ÑĢÐ°Ð½Ðµ
ĠÐĿÐ¸ Ð½Ð¾Ð²Ð°
ĠÐ¿Ð° Ñĥ
ĠÐ¿ÑĢÐµÐ½Ðµ Ð±ÑĢÐµ
ĠÐĿÐ¾ Ð²Ð°ÑĤÐ°
ÑĢÑ £
ĠÐ¼ÑĬÐ» ÑĩÐ°
ĠÐ¿ÑĢÐ¾Ð´Ð° Ð¶Ð±Ð¸
ĠÐ¿Ð° Ð¼Ñĥ
ĠÑĢÐµÐ³Ñĥ Ð»Ð¸ÑĢÐ°
on s
ĠÑħÐ²ÑĬÑĢÐ »Ð¸
ÑĤÐ¸ Ð¾ÑĤ
Ð· ÐºÐ°
ĠÐ´Ð¸Ðµ ÑĤÐ°
ĠÐŀÑģÐ½Ð¾ Ð²Ð½Ð°ÑĤÐ°
ĠÑģÐµ ÑĢÐ¸ÑıÑĤÐ°
ĠÐºÐ¾ Ð´Ðµ
ĠÐ¡ ÑĤÑĢÐ¾
ĠÐµÐ»ÐµÐºÑĤÑĢÐ¾ Ð½Ð½Ð¸
ĠÐ¿ÐµÑĢÑĦÐµ ÐºÑĤÐ½Ð¾
ĠÐ¾Ð±ÑıÐ²Ð¸ ÑħÐ°
ĠÑģÐµ ÐºÑĤÐ¾ÑĢÐ°
Ð¿ Ð²Ð°ÑĤ
ĠÐĳ ÑĢÐ¸
Ð¼Ð¸Ñ Ĥ
ĠÐ° Ð½Ð³
ĠÐµ Ð¼Ð±
ĠÑģÐ²ÐµÑĤÐ¾ Ð²Ð½Ð¾
ÑģÑĤÐ²Ð ¸
ĠÑĥÐºÑĢÐ°Ð ¸
Ð¼Ð° Ð»ÐºÐ¸
ĠÐ¡Ð¸Ð¼ÐµÐ¾ Ð½Ð¾Ð²
ĠÐ³Ð»Ð° Ð²Ð¸
ĠÐ»Ð¸ ÑģÑĤ
ĠÐŁÑĢÐµÐ´ ÑģÐµÐ´Ð°ÑĤÐµÐ»
ĠÐ²Ð ¾ÑĤ
ÑĨÐ¸ ÑĢÐ°
ĠÐ¿Ð¾Ð»Ñĥ ÑĩÐ°Ð²Ð°Ð½Ðµ
Ð´Ð¾Ð °
ĠÐº Ð»Ð¾
ĠF l
ĠÑģÑĬÐ²Ð¼Ðµ ÑģÑĤÐ½Ð¾
ÑĢ ÑĨÐ¸ÑĤÐµ
ĠÐ±ÑĢÐ¾Ñ ĺÐ¾ÑĤ
as e
ĠÑģÐ¿Ð¾ Ð¼ÐµÐ½Ð¸
ĠÑĩÐ¾Ð²Ðµ ÑĩÐµÑģÑĤÐ²Ð¾ÑĤÐ¾
ĠÑĤÐµ ÑĢÐ¼Ð¾
ĠÑĨÐµÐ½ÑĤÐ° ÑĢ
ĠÐ¸Ð· Ð¿Ð¾
b l
at ch
ÐļÐ° ÐºÐ²Ð¾
ÑģÐµ ÑĤÐ¾
ĠÐ»Ð¸ ÐºÐ²Ð¸
ĠÐºÐ° ÑĢÐ°ÐºÑĤÐµ
ĠÐ¾Ð¿Ð¸ ÑĤÐ¸
ĠÐķ Ð³Ð¸Ð¿ÐµÑĤ
ĠÐ²Ð¸ÑĤÐ° Ð¼Ð¸Ð½Ð¸
ĠÑĨÐµ Ð»Ð¸Ð¾ÑĤ
ĠÑģÐ²Ð¾Ð±Ð¾ Ð´Ð½Ð¸
ĠÐ¾ÑĦÐµ ÑĢÑĤÐ°
ĠÑĦÑĥÐ½ÐºÑĨÐ¸Ð¾Ð½Ð¸ ÑĢÐ°
ĠÐ¦Ð °ÑĢ
Ð¿Ð¾ ÑģÐ»Ðµ
ĠÐ§ÐµÑĢÐ½Ð¾ Ð¼Ð¾
ĠÐĲ Ð´Ð¼Ð¸Ð½Ð¸ÑģÑĤÑĢÐ°
Ð ¸ÑģÑĤÐ¾
ĠÐļÐ¾Ð¼Ð¿Ð° Ð½Ð¸ÑıÑĤÐ°
an k
ĠÑĥÐ¿Ð¾ÑĤÑĢÐµ Ð±Ð°ÑĤÐ°
ĠÐ¢ÐµÐ ¾Ð´Ð¾
ĠÐłÐµÐ³Ð¸ Ð¾Ð½Ð°
ĲÐ Ķ
ÑĢÐ²Ð °ÑĤÐ°
ĠÐĺ Ð²Ð¾
ĠÐ¿ÑĢÐ¾ Ð¼ÑıÐ½Ð°ÑĤÐ°
ĠÐ¿Ð¾ÑģÐ»Ðµ Ð´Ð¸ÑĨÐ¸
Ð»Ð¾ Ð²ÐµÑĤÐµ
ĠÑĥÐ²Ð° Ð¶ÐµÐ½Ð¸Ðµ
ĠÐ¿Ð¾Ð²Ñı ÑĢÐ²Ð°
ĠÐŀÑĤÐº ÑĢÐ¸
ĠÐĳÐªÐĽÐĵÐĲÐłÐ ĺÐ¯
Ð±Ð° Ð²Ð°
ĠÐ§Ðµ ÑĢÐ²Ðµ
Ġp r
ĠÑģÐ¾ Ð¾Ð±ÑĢÐ°ÑľÐ
ĠÑĤÑĬ Ð¼Ð½Ð¾
ĠÐ»Ð¸ Ð±ÐµÑĢÐ°
ĠÑģÐ¼ ÑĢÑĤ
ĠÐ¸Ð·ÑĢÐ°Ð±Ð¾ ÑĤÐµÐ½Ð¸
Ð²Ð¾ Ð¹
ĠÑĥÑģÐ¸ Ð»Ð¸ÑıÑĤÐ°
ĠÐ° Ð³ÐµÐ½ÑĤ
ĠÐ´ÑĢÐ° Ð¼Ð°
ĠÐ¼ÐµÑģÑĤ Ð½Ð°ÑĤÐ°
ĠÑĤÑĥÑĢÐ¸ Ð·Ð¼Ð°
ĠÑĥ Ð¼Ð°
ĠÐ¿Ð¾ÑģÑĤÑĢÐ° Ð´Ð°
ĠÐĿÐĲÐ Ł
Ð» Ð½Ð¸ÑĨÐ¸
ĠÐĳÐµ Ð»Ð³ÑĢÐ°Ð´
ĠÐĶÐ¾ Ð¿ÑĬÐ»Ð½Ð¸ÑĤÐµ
ĺÐ ľ
Ðº Ð²Ð°ÑĤÐ°
Ð·Ð° ÑĨÐ¸ÑĺÐ°
ĠÐºÑĢÐ¸ ÑģÑĤÐ°
==== ====
ĠÐµÐ»Ðµ Ð³Ð°Ð½ÑĤ
ros oft
Ð»Ð¸ Ð²ÑĥÐ´
ÑĢÐ¾Ð µÐ½Ðµ
ÑĬÑĢÐ´ Ð¶Ð°Ð»Ð¸
Ð¿Ð° Ð½
Ð½Ð° Ð¹ÑĤÐµÐ´
ĠÑĤÑĬÑĢÑģÐµ Ð½ÐµÑĤÐ¾
ĠÐ½Ð° Ð½ÐµÑģÐµ
ĠÑģÐ»Ð° Ð²Ñı
ĠÐ¿Ð¾ Ð»Ñı
ĠÐºÐ¾Ð¼ÑĥÐ½Ð¸ÐºÐ° ÑĨÐ¸Ñı
ĠÐĳ ÑĢÑĥ
Ð· ÑĬÑĤ
Ð»ÑıÐ·Ð ¾ÑħÐ°
ÑĥÑ Ĥ
ĠÐ¾ ÑĢÐµ
ĠÐºÑĥÐ»ÑĤÑĥ ÑĢÐ½Ð¾
ĠÐ¡Ð¿Ðµ ÑĨÐ¸Ð°Ð»Ð¸
ĠÐ³Ð»Ð° ÑģÐ¾Ð²Ðµ
ĠÐ´Ð¾ÑĪ Ð»Ð¸
ÑģÑĤÐ²Ð ¸ÑıÑĤÐ°
ĠÑĤÑĢÐ° Ð¿Ðµ
ÑģÐ¾ Ð
ĠÐĶÐ¾ ÑģÐµÐ³Ð°
ĠÐ·Ð°ÑīÐ¸ÑĤÐ° Ð²Ð°
ĠÐ¼Ð¾ Ð¹
Ġ5 3
or y
ĠÐ¸Ð´Ðµ Ð°Ð»
ĠÑĥÑģÐ¿ÐµÐ °
ĠÐŀ Ð²Ð¾Ñĺ
ĠÐĴÐ¸ Ð´Ñı
ĠÐ¾ÑĦÐ¸ ÑģÐ°
d e
ĠÐ¾Ð¿Ð»Ð° ÐºÐ²Ð°
ĠÑģÑĬÐ±Ð¸ ÑĤÐ¸ÑıÑĤÐ°
ĠÐ¿ÑĬÑĢÐ²Ð¾Ð½Ð°ÑĩÐ° Ð»Ð½Ð¾
ĠÑĤÐµÑĢÐ° ÑģÐ°
ĠÑĤÐ¾Ðº Ð¼Ñĥ
ĠÐĲÑĤÐ°Ð½Ð° ÑģÐ¾Ð²
ĠÐ¿Ð¾Ð»Ð¸ÑĨÐ°Ð ¸
¡Ð ĳ
Ñĩ Ð»Ðµ
I L
ĠÐ¼ÐµÐ´Ð¸ ÑĥÐ¼Ð¸
Ð¼Ð ±Ð
ĠÑĤÑĢÑĬ Ð³Ð½Ðµ
l ine
ĠÑģÑĬÐ¾ÑĤÐ²ÐµÑĤ Ð½Ð°ÑĤÐ°
Ð½Ð°ÑģÑı Ð½Ðµ
ĠÑĢÐ°Ð· Ð±ÐµÑĢÐ°ÑĤ
Ġ ch
ĠÐ² ÑĢÐ°ÑľÐ
ĠÐ½ÐµÑĥ ÑģÐ¿Ðµ
ĠÐ³Ð¸Ð¼Ð½Ð° Ð·Ð¸Ñı
ĠÐ´ÑĬÑĢÐ¶Ð° Ð²Ð¸ÑĤÐµ
ĠÐ½Ð¸ÐºÐ° Ðº
ĲÐ ł
ĠÐ·Ð° Ð²Ð¾Ð´
ÐºÑĥ Ð»Ð¸
ĠÐ·Ð° ÑĢÑı
ĠÐ¿Ð¾ÑĢÑĬ ÑĩÐ°
ĠÐ´Ð° Ð»Ð°
Ð·Ð° Ð½
ĠÐ¸Ð· Ð±ÐµÑĢÐµ
ĠÐŁÐµ ÐµÐ²ÑģÐºÐ¸
ÑĩÐ¾ Ð²
ĠÐ´ÐµÐ¼Ð¾ÐºÑĢÐ° ÑĨÐ¸Ñı
Ġ6 8
ÑĩÐ¸ ÑħÐ°
ĠÐ±Ñı Ð»Ð°
ÐºÑĢÐ° ÑģÐ¸
ĠÐĴÐ° ÑĪÐ¸Ñı
ÑħÐ¾Ð´ ÑıÑī
9 3
µ Ð´Ð¸Ð½
ĠÐ¿Ð¾Ð·Ð´ÑĢÐ° Ð²Ð¸
I M
ĠÑĤÐ¾Ð µÑģÑĤ
Ð½Ð¸ÑĨÐ¸ ÑĺÐ°
ĠÐ¸Ð·Ð³ÑĢÐ° Ð´Ð¸
ÐºÐ¾Ð µ
ĠÐ²Ð»Ð° Ð´Ðµ
6 4
ÑģÐµ ÑĢ
ĠÑĢÐ°Ð·Ð¿Ð¾ Ð·Ð½Ð°
ĠÐ¿ÐµÐ µ
ĠÐŁÐ¾ÑģÐ»ÐµÐ´ Ð½Ð°
ĠÑĥÐ¿ÑĢÐ°Ð²Ð»ÑıÐ²Ð° ÑīÐ¸ÑĤÐµ
ŀÐ Ŀ
Ð²ÐµÑĤÐµ Ð½
ĠÐ³Ð¾ÑģÐ¿Ð¾ Ð´Ð°
ĠÐĺÐ· Ð¿ÑĢÐ°
ĠÐ¿Ð»Ð¾Ñ īÐ¸
Ð´Ðµ ÑĢÐ°ÑĨÐ¸Ñı
ĠÑĢÐµ ÐºÐ¾Ð½ÑģÑĤÑĢÑĥ
ĠÐ½Ðµ ÑģÑĤÐ°
ĠÐ¿ÑĢÐ¾Ð¸Ð· Ð²Ð¾Ð´Ð¸
ÑĩÐµ ÑĪÐµ
ĠÐ´Ð¸Ð·Ð° Ð¹
ĠÐºÐ¾ÑģÑĤ Ñİ
ĠÐľÐ¸ ÑĢÐ¾
ĠÐµÐ½ÐµÑĢÐ³Ð¸ ÑĺÐ°
ĠÐ¾Ð±ÑīÐµ ÑģÑĤÐ²ÐµÐ½Ð°
ĠÐ¿Ð¾ ÑĩÐ²Ð°
ĠÑĤÐµ ÐºÑĥ
ĠÐ¼Ð¾ ÑĤÐ¸Ð²Ð°
Ð½Ñı Ð³
ĠÑģÐ»Ðµ Ð´Ð¾
ĠÐ¡ÐºÐ¾ ÑĢÐ¾
Ñĥ Ð´
ĠÑĤÑĢÐµ ÑĤÐ¸Ñı
ĠÐ¿Ð¾Ð²ÑĬÑĢÑħ Ð½Ð¾ÑģÑĤÑĤÐ°
ĠÑĢÐ°Ð· ÐºÐ¾
ĠÐ½Ðµ Ð¿ÑĢÐ¾
ĠÐ¸Ð¼Ñĥ Ð½Ð¸ÑĤÐµ
Ñĥ ÑģÑĤÐ¾Ð¹ÑĩÐ¸
ĠÑĪ ÐºÐ°
ĠÐ¿Ð° ÑĤÐµ
ĠÐ¿Ð¾Ð´Ð³Ð¾ÑĤÐ¾Ð² ÐºÐ°ÑĤÐ°
ĠÐŁÑĢÐ¾Ñ ĨÐµ
ĠÐ¿Ð°ÑĤ ÑĢÐ¸Ð°ÑĢ
ĠÐĶÐµ ÑģÐ¸
Ð¿ ÑĢÑĬ
ĠÐ¶ÑĥÑĢÐ½Ð° Ð»Ð¸ÑģÑĤ
ĠÑĤÑĢÐ°Ð½ÑģÑĦÐ µÑĢ
ĠÐ¸Ð· Ð»Ð°Ð³Ð°
Ð §
ĠÐ°Ð²ÑĤÐ¾ ÑĢÐ°
ĠÐ´ÑĬÑĢÐ¶Ð° Ð²Ð½Ð°ÑĤÐ°
l i
ĠÐ¸Ð·Ð´Ðµ Ð»Ð¸Ñı
ĠÐ¿ÑĢÐµ Ð¼Ð¸
ĠÐ¿ÑĢÐ¾Ð²Ðµ ÑĢÐºÐ¸
ĠÐłÐ° Ð´Ð¸Ð¾
ĠÑģÑĤÑĢÐµ Ð¼Ð¸
ĠÐ¿Ð¾Ð»ÑĥÑĩÐ¸ Ð»
Ð¿Ð¾ Ð²Ð°
ĺÐ ¡
Ð¼Ðµ Ð½Ð¾Ð²Ð°
ĠÐ´Ð²Ð¾ ÑĢÐ°
ĠÐ¥ ÑĢÐ¸ÑģÑĤÐ¸
ĠÐ·Ð° ÐµÑĤÐ¾
ĠÑĤ ÑİÑĤÑİ
ÑģÑĤÐ¾ ÑĢ
ĠÑĦÐ° ÑĢÐ¼Ð°
ĠÐ±Ð° Ð·Ð¸
ĠÑģÐ¿Ðµ ÑĨÐ¸ÑĺÐ°
ĠÐ¢Ð £
ĠÐ¿Ðµ ÑĤÐ½Ð°
ĠÐŁÐ¾ Ð²ÐµÑľÐµ
ĠÐºÐ¾Ð¼Ð±Ð¸ Ð½Ð¸ÑĢÐ°
ĠÑĩÐµ ÑĢÐ²ÐµÐ½Ð¸
ĠÑģÑĤÐ°Ð½Ð° ÑħÐ°
ÑĤÐ¾ Ð²ÐµÑĤÐµ
ĠÐ²Ð¸ÑģÐ¾ ÐºÐ¸ÑĤÐµ
ĠÑģÑĤÐ¸ ÑħÐ¾
ÐºÑĬ Ð»Ð°
ĠÐºÐ¾Ð½Ð²Ð µÐ½
ĠÑĢÐ°Ð·ÑģÐ»ÐµÐ´ Ð²Ð°Ð½Ðµ
ĠÐ¿ÑĢÐ¸ÑĤÐµ Ð¶Ð°
ĠÐ·Ð° Ð³ÑĢÐ¸
ĠÐ¾Ð±ÑģÑĤÐ¾Ñı ÑĤÐµÐ»ÑģÑĤÐ²Ð°
ĠÑĩÐµ ÑĢÐ½Ð¸
Ð´Ðµ ÑĢ
ÑĢÑģÐºÐ¸ Ð¾ÑĤ
ÑīÐµ Ð½Ð¸ÑıÑĤÐ°
ĠÐ·Ð°Ð¿Ð° Ð·Ð²Ð°
Ð´ÑĬÐ»Ð ³Ð¾
ĠÑĤÐ²Ð¾ Ñı
ÑĩÐ° Ð¹Ð½Ð¾
ĠÐľ Ñİ
ĠÐ´Ð¾Ð¿ÑĬÐ» Ð²Ð°
ĠÐľÐµ Ð´Ð¸ÑĨÐ¸
ĠÐľÐ¾ Ð¼
ĠÐ§Ðµ ÑĤÐ¸
ÑĤÑĥ ÑĢÐ¸
ĠÐ½Ðµ Ð²ÑĢÐ¾
ÑĢÑĬ Ð½
ĠÐ¾ÑĤ ÑĤÐ°Ð¼
ĴÐ ŀ
ĠÐ¿ÑĢÐ²Ð ¾
¸Ð ¾Ð½
ĠÐ·Ð°ÑģÑı Ð³Ð°
ĠÐ¸Ð³ÑĢÐ° ÑĩÐ¸ÑĤÐµ
ĠÐ° Ð½Ðµ
ĠÐ¸ÑĤÐ° Ð»Ð¸Ð°Ð½
ĠÐ½Ð°ÑģÑĤÑĢÐ¾Ð µ
ĠÑĥÐ´Ð¾ ÑģÑĤÐ¾Ð²Ðµ
ĠÐºÐ¾Ð¼Ð¿Ð¾ Ð½ÐµÐ½ÑĤÐ¸
ĠÐ° Ð¼
ĠÑģÑĥ ÑĢÐ¾Ð²Ð¸
ĠÐŁÑĢÐ¾ ÑĩÐµÑĤÐµ
ĠÑĤÑĢÑĥ Ð´Ð¾
ĠÐ¿Ð¾Ð´ Ð¿ÑĢÐ°
ÑĢÐ´Ð ¸Ð¾
ĠÐŀ Ð¡Ð
ĠÑģÑĬÐ¾Ð± ÑīÐµÐ½Ð¸Ñı
ĠÐ¸Ð·Ð³Ñĥ Ð±Ð¸
ĠÐ» ÑıÑĤ
ĠÑĤÑĢÐµÐ½Ð¸ÑĢÐ¾Ð² ÐºÐ°
Ñĥ ÑĢÐ¸
ĠÐ·Ð°Ð´ÑĬÐ»Ð ±Ð¾
ÑĩÐµ Ð²Ð¾
ĠÐ¿Ð»Ð°ÑĤ ÑĦÐ¾ÑĢÐ¼Ð°ÑĤÐ°
ĠÐ¾ÑĤÐºÐ° Ð¶Ðµ
ĠÑģ Ð¿Ð¸ÑģÐ°
ĠÐ½Ð°ÐºÐ°Ð·Ð° Ð½Ð¸Ðµ
ĠÐ¡Ð¸Ð³Ñĥ ÑĢÐ½Ð¾
ÑĢÐ¾ Ð´ÐµÐ½
ĠÑĢÐ°Ð· Ð´ÐµÐ»Ñı
µÐ½ ÑĤÐ¸ÑĢÐ°
ĠÐ¿ÑĢÐµÐ´ ÑģÐµÐ´Ð°ÑĤÐµÐ»Ñı
Ð±Ðµ Ð»Ðµ
ĠÐ±ÑĬÐ´Ðµ ÑĪ
ĠÑĤÐ¾Ð°Ð»ÐµÑĤ Ð½Ð°
ĠÐĵÐµÐ¾ÑĢÐ³Ð ¸ÐµÐ²Ð°
ÑģÐ¸ Ð»Ð½Ð¾
ĠÐ¿Ñĥ ÐºÐ°
ĠÑĤÐµÑĢÐ¾ ÑĢÐ¸
ĠÐ£ ÐĿÐ
ĠÐ³Ð¾ Ð»Ðµ
ĠÐ°Ð² ÑĤÐµÐ½
Ñĥ Ð²Ð°Ð½Ðµ
ĠÐ¿Ð¾Ð²Ð¸ ÑĪÐ¸
ĠÐ¸Ð· Ð½ÐµÑģÐµ
¾Ð´ Ð²ÐµÑĤ
ÑĤÐ²Ð¾ ÑĢ
ĠÐ¾Ð¿Ð¸ ÑģÐ²Ð°
ĠÐ¿ÑĢÐ¾ÑģÑĤÑĢÐ°Ð½ ÑģÑĤÐ²Ð¾ÑĤÐ¾
ĠÐºÐ¾Ð»Ðµ ÐºÑĨÐ¸Ñı
ÑģÑĤÐ° ÐµÐ½
ĠÐĴÐ¸ Ð¶Ð´Ð°
Ð»Ðµ Ð½Ð¾ÑĤÐ¾
ĠÐºÐ° Ð¼ÐµÑĢÐ¸
ĠÐ´Ð° Ð¼Ð°
o j
ĠÐĺ ÑģÑĥÑģ
¾ ÐºÑģÐ¸
ĠÐ¾ÑĤ ÑģÑĤÐ¾
ĠÐ¿ÑĢÐµÑģÐºÐ¾ Ð½ÑĦÐµÑĢÐµÐ½
ĠÐ´Ðµ Ð½Ð¾Ð²Ð¸
ĠÐ¿ÑĢÐ°ÑĪÐ°Ñ ļÐ°
ĠÐ¿ÑĢÐ¾Ð´Ð° Ð¶Ð±Ð¸ÑĤÐµ
ĠÐ¥Ð¾ Ð»Ð°Ð½Ð´Ð¸Ñı
ĠÐ¼Ð½Ð¾Ð·Ð¸ Ð½Ð°
Ð²Ð¸ÑģÐ¾ Ðº
¸ Ð³ÑĢÐ°
Ð¿Ð¾ Ð·Ð½Ð°
ĠÑĥÑģÐ»Ñĥ Ð³Ð°ÑĤÐ°
ĠÐĿÐ° Ð¿Ð¸
ĠÑĢÐ°Ð· Ð±ÐµÑĢÐµÑĤÐµ
ĠÑģÐ¿Ð¾ Ð´ÐµÐ»ÑıÑĤ
ĲÐ ĵÐ
ĠÐ²Ð¾ Ð´Ð¸ÑĤÐµ
ĠÐµÑģÑĤÐµ ÑģÑĤÐ²ÐµÐ½
ĠAp art
ĠÐ·Ð°ÑĢÐµ Ð¶Ð´Ð°Ð½Ðµ
ĠÐºÐ°ÑĤÐµÐ³Ð¾ÑĢÐ¸ ÑĩÐµÐ½
Ð µÑĤÐ°
ĠÑħÐ²ÑĬÑĢÐ »Ñı
Ð µÐ²Ð°
ĠÐ¿ÑĢÐ¸Ð¾ÑĢÐ¸ÑĤÐµ Ñ
ĠÐ¿ÑĢÐ¸Ð¾ÑĢÐ¸ÑĤÐµÑ Ĥ
ĠÐ¿Ð¾ÑĩÑĥÐ² ÑģÑĤÐ²Ð°
Ð¿Ð° Ð»
ĠÑĥÑģÐµ ÑĤÐ¸
ĠÐµÐºÑģÐ¿Ð»Ð¾Ð°ÑĤÐ° ÑĨÐ¸Ñı
ĠÑģÑĤÐµ Ð½Ð°ÑĤÐ°
Ð¶Ð° ÐµÐ¼Ð¸
ĠÑĦÐµ Ð´ÐµÑĢÐ°
ĠÑĢÐ°Ð·Ð±Ð¸ ÑĢÐ°ÑĤ
Ð²Ð½Ð¸ ÑĨÐ°
ĠÐ²ÑĬÐ· Ð¿Ð°
ĠÐ¤Ð¾ Ð½Ð´Ð°
ĠÐ°ÑģÐ¾ÑĨÐ¸Ð° ÑĨÐ¸Ñı
ĠÐĺ Ð·Ð¾
ĠÑģÑĤ ÑĢ
ĠÐ´Ð¾Ð²Ð¾ Ð»ÐµÐ½
ĠÐ½Ð°ÑĨÐ¸Ð¾Ð½Ð° Ð»Ð½Ð¸ÑĤÐµ
ĠÐ¾ÑĦÐ¸ ÑĨÐµ
ĠÐ¼Ð° ÑĢ
ĠÐŁÐ ŀÐĽÐ
ĠÐľÐµ ÑĢÐºÐµÐ»
ĠÐĶÐ¸Ð¼Ð¸ÑĤÑĢÐ¾ Ð²Ð°
ĠÐ¿ÑĢÐ¸Ð·Ð½Ð° Ð²Ð°
ÑģÐ° ÑĢ
Ġs o
ĠÐ¿Ð°ÑĢÐºÐ¸ Ð½Ð³
or ld
ĠÐĳÐĿÐ ł
ĠÐ¼Ð¸Ð½Ð¸ ÑģÑĤÑĢÐ¸
ÐĲ Ð²ÑĤÐ¾
Ð½ÑĤ Ð½Ð¸
ĠÐ¿Ð¾ÑģÑĤÐ¸ Ð³Ð°
ĠÐŁÑĬÑĢÐ²Ð ¾Ð½Ð°ÑĩÐ°
ĠÐ¸Ð· Ð²Ð¾
ĠÐ´Ð²Ð¾ Ð¹Ð½Ð¾
ĠÐ½Ð°Ð´ Ð»Ðµ
ĠÐ¾ÑĤÐ¸ ÑĪ
ĠÐ¿ÑĢÐ¸ ÐºÑĢÐ¸
ĠÐ½Ð° ÑģÐ¸Ð»
ĠÐ½Ð°Ð¿ÑĢÐ°Ð²Ð¸ ÑĪ
ĠÑĢÐµÐ³Ñĥ Ð»Ð°
ĠÐ¾ÑĤÐº ÑĢÐ¾
ĠÐ¤Ð ¾ÑĤÐ¾
200 6
ĠÐºÐ¾ Ð¼Ðµ
ĠÐ¡Ðµ ÑĢÐ³Ð
ĠÑģÑĬ ÑĢÐ²
ĠÐ¸Ð½Ð´ÑĥÑģÑĤ ÑĢÐ¸Ð°Ð»
ĠÐ²Ð¾Ð´Ðµ ÑīÐ¸
ĠÐ½Ð°ÑĢÐµ ÑĩÐµ
Ġ7 2
ĠÑĤÐµ Ð»Ð°
Ġ198 9
ĠÑī ÑıÑħÐ°
ÑīÐ¸ Ð½Ð°
ĠÐ§Ð° ÑģÑĤ
ĠÐ¾Ð´ ÑĢÐ¶Ð°
ĠÑģÑĢÐµÐ´ Ð½Ð°
ĠÐ¿ÑĢÐ¾Ð²Ðµ ÑĢÐ¸
ÑĤÐºÐ¾ Ð²
Ð ¾Ð±Ð¸
ÑģÐµ ÐºÑģ
ĠÑĦÐ µÐ½
ĠÐºÐ½Ð¸ Ð³Ð¸ÑĤÐµ
Ð³ÑĢÐ° Ð´Ð°
Ð½Ð¸ ÑģÐºÐ°
ĠÐµ ÐºÐ¾Ð½Ð¾Ð¼Ð¸
Ð´Ð¾Ð± ÑĢÐ¸Ñı
ĠÐ¢Ð° ÐºÐ¸Ð²Ð°
ĠÑĨÐµÐ½ÑĤÑĢÐ° Ð»Ð½Ð°ÑĤÐ°
ĠÐºÐ¾Ñģ Ð¼Ð¾
ĠÐ¡Ðµ Ð¿ÑĤÐµÐ¼Ð²ÑĢÐ¸
ĠÐ²Ð»Ð° Ðº
ÑĢÐ° ÑħÐ°
ĠÐ½ÐµÐ³Ð¾ Ð²Ð¸ÑıÑĤ
ÑĢ Ð½
ĠÐ¿Ð¾ÑĢÐµÐ´Ð¸ ÑĨÐ°
ĠÐ¿Ðµ ÑĪÐ°
ĠÑģÐ»Ð° Ð´ÐºÐ¸
ĠÐ±Ð¸ Ð»ÐµÑĤÐ¸
ĠÑĢÐµÐ°Ð» Ð½Ð¸
ĠÐ¢Ð¾ Ð»ÐºÐ¾Ð²Ð°
ÑĢÐ°Ð· Ð½Ð¾
ĠÐ»Ðµ Ð³Ð»Ð¾ÑĤÐ¾
ĠÑģÑĤÐ° ÑĢÑĤÐ¸
ĠÐĳÑĬÐ»Ð³Ð° ÑĢÑģÐºÐ¸
ĠÐĴÐ¸ ÐºÑĤÐ¾ÑĢ
ĠÐ¿ÑĬÑĤÐµ ÑĪÐµ
ar y
ĠÐ¸Ð·Ð¿ÑĬÐ»Ð½Ð¸ÑĤÐµ Ð»ÐµÐ½
ĠÑĢÐµ Ð·Ð¸
ĠÐ°Ð»ÑĤÐµÑĢÐ½Ð° ÑĤÐ¸Ð²Ð°
ĠÑĪÐ°Ð¼Ð¿Ð¸ Ð¾Ð½Ð°
Ð½Ð²Ð µÑģÑĤÐ¸
ĠÐ¿ÑĢÐ¾Ð¸Ð·Ð²ÐµÐ´Ðµ Ð½Ð¸Ñı
ĠÐµÐ²ÐµÐ½ÑĤÑĥÐ°Ð» Ð½Ð¾
ĠÐ¿ÑĢÐµÑĤ ÑģÑĤÐ°
ĠÐ¸Ð½ÑĨÐ¸ Ð´ÐµÐ½ÑĤ
ĠÐ¿Ð¾Ð»Ñĥ Ð²ÑĢÐµÐ¼Ðµ
ÑĢÐ¸Ð °Ð½
ÑĢÐ¾ ÐºÐ¾
ÑĥÐ µ
ĠÐ¿ÑĢÐµÐ´ÑģÑĤÐ°Ð²Ñı Ð½ÐµÑĤÐ¾
ĠÐ½ÐµÐ²Ðµ ÑĢÐ¾ÑıÑĤÐ½Ð¾
ĠÑģÐµ ÑģÑĤÑĢÐ¸
ĠÐķÐ ĴÐ
ĠÐ´Ð¾ Ð»Ñĥ
ĠÑĢÐ° Ð´Ð¾
ĠÐ¸ÑģÐºÐ° ÑĪÐµ
ĠÐ¿ÑĢÐ°Ð· Ð½Ð¸ÐºÐ°
ĠÐ¿ÑĢÐ¾ Ð±Ð°
ĠÐ¸Ð· Ð´ÑĬÑĢÐ¶Ð°
Ð»Ðµ Ðº
ĠÐ±ÑĬ Ð±ÑĢÐµ
ĠÐĹÐ° Ð¿Ð°Ð´
ÐĵÐ µ
ĠÑģÐµ Ð³
ĠÐ²ÑģÐµÐºÐ¸ Ð´Ð½Ðµ
¸ Ð¼Ð°
ĠÐłÐ°Ð· Ð³ÑĢÐ°Ð´
ĠÑĤÐ¾ ÐºÑģÐ¸
Ð¼ Ð½Ð¸Ñı
¸ ÑĢ
ĠÐ±Ð¾ Ð»ÐºÐ¸
ĠÑħÐ¸ Ð´ÑĢÐ°
ĠÐ¼Ð¸ÑģÑĬÐ» ÑĤÐ°
ĠÐ¿ÑĢÐµ ÑħÐ¾Ð´
ĠÐ±Ð¾Ð³Ð° ÑĤÐ¸
ĠÑĥÑģ Ð»Ð¾Ð¶
ĠÐ´Ð¾Ð±Ð¸ Ð²Ð°
ĠO p
·Ð ¸ÑĤÐµ
ĠÐ´ÐµÑĦÐ¸ Ð½Ð¸
ĠÐ´ÑĢÐ° Ð¼Ð°ÑĤÐ¸
ĠÐłÑĥ ÑģÐ¸ÑĺÐ°
ĠÐŁ ÑĬÐ»
ĠÐĴÐ°Ð»ÐµÐ½ ÑĤÐ¸Ð½
ÐºÐ¾ ÐµÑĤÐ¾
ĠÐ³ Ð½Ðµ
ÑĢÐ¸ ÑĢÐ°ÑĤ
ĠÐŀ Ð¿ÐµÑĢÐ°
ĠÐ¿Ð¾ÑģÑĢÐµÐ´ ÑģÑĤÐ²Ð¾Ð¼
ĠÐ±Ð¾ Ð¶Ðµ
ĠÐĿÐµ Ñĥ
ĠÐ²Ð¾ Ð¹Ð½Ð¸
ĠÐ¾Ð³ ÑĬ
ĠÐ¿Ð¾Ð´Ð ±
ĠÐĹÐ¾ ÑĢÐ°Ð½
ĠÐ² Ð»ÐµÐ·
7 2
ĠBG N
ĠÐ»Ðµ Ð²
ĠÐ±ÑĢÐ¾ Ð
ĠÐĵÑĢÑĥ ÐµÐ²ÑģÐºÐ¸
ĠÐľÐ¾Ð½ ÑĤÐ°Ð½Ð°
ĠÐ½Ð°Ð±Ð»Ñİ Ð´ÐµÐ½Ð¸Ðµ
ĺÐ ĺ
ÐºÑĥÐ²Ð° Ð°ÑĤ
ÑģÐµ ÑĤÐ°
Ð²Ð¸ Ñģ
ĠÐ½ÐµÐ¾ ÑĩÐ°ÐºÐ²Ð°
ĠV ol
ĠÐ¾ÑĤÐºÑĢÐ¸ Ð²Ð°Ð½ÐµÑĤÐ¾
ĠÐºÐ½Ð¸ Ð¶Ð°
ĠÐķÐ²ÑĢÐ¾Ð¿ ÑģÐºÐ°ÑĤÐ°
)) )
ĠÑĥ Ð»Ðµ
ĠÐºÐ° Ð½Ð°Ð»Ð¸
ĠÑĤÐµÐ½Ð´ÐµÐ½ ÑĨÐ¸Ñı
ĠÐ´ÑĬÑĢÐ²Ð µÑĤÐ°
ĠÐĿÐ¾ Ð²Ð¸ÑıÑĤ
Ð µÑĦÐµ
ĠÐ¿ÑĢÐ¸ Ð²Ð°ÑĤÐ¸
ĠÐ»ÐµÑĤÐ¸ ÑīÐµ
ĠÐ¿ÑĢÐ¾Ñı Ð²ÑıÐ²Ð°
ĠL ED
m in
ĠÐ° ÑĤÐ¾
ĠÐĲ ÐŁÐ
¡Ð Ĳ
ĠÐ¾ÑĤÐ »Ð°
Ð²ÑĬÑĢÐ ¿
ĠÐ¿ÑĢÐµ Ð²ÐµÐ½
ĠÑĢÐ°Ð±Ð¾ÑĤ Ð½Ð¾ÑĤÐ¾
ĠÐºÐ¾ ÑĢÐµÐ½
ĠÐ¼ ÑĬÑĢÐ
ĠÐ·Ð°Ð¿Ð»Ð° ÑĤÐ¸ÑĤÐµ
ĠÐ·Ð° ÑĩÐµ
ĠÐĵÐµÑĢÐ¼Ð° Ð½Ð¸ÑĺÐ°
ĠÑĤÐµÐ»ÐµÐ²Ð¸Ð·Ð¸ ÑıÑĤÐ°
ÐºÑĢÐ¾ Ð²Ð¸
ĠÐ´Ð¾ ÐºÐ°Ð·Ð²Ð°
Ġ5 9
Ð¶ Ð´Ð¸
ĠÐºÑĢÐ°Ð ¸
Ð²Ð°Ñĺ ÑĨÐ°
ĠÐ¿Ð¾ Ð¿ÑĢÐµ
ĠÐĲÐ½Ð´ ÑĢÐµÐ¹
ĠÑĢÐµÐ³Ð¸ ÑģÑĤÑĢÐ°
at h
ĠY ou
ĠÑĨÐ¸ ÐºÑĬÐ»
ĠÐ½Ð¾ Ð¶
ĠB MW
ĠÐ½Ð¾ ÑģÐ°
ĠÑĪÐ¸ ÑĢÐ¾Ðº
ÑĨÐ¸Ð¾Ð½Ð° Ð»Ð½Ð¾
ĠÐ¾ÑĤÐ»Ð ¾
ĠÐĺ Ð½Ð´Ð¸
Ð»Ð¾Ð³ ÑĬÑĤ
ĠÑĥ Ð²Ð¾Ð»
ĠÑĨ ÑĢÐº
ĠÑģÐ¾Ð±ÑģÑĤÐ²Ðµ Ð½Ð¸ÑĨÐ¸ÑĤÐµ
ĠÐ¢Ð° Ð¹
ĠÐ²Ð°ÐºÑģÐ¸ Ð½Ð¸
ĠÐµÐºÑģÐºÑĥ ÑĢÐ·Ð
ĠÐ¿ÑĢÐ¸Ð½Ð°Ð´ Ð»Ðµ
ĠÑģÑĬÐ·Ð´Ð° Ð´ÐµÐ½Ð¸
ĠÑĢÐ° ÐºÐ°
ĠÐ¼Ð¸Ð½Ð¸ÑģÑĤÐµÑĢ ÑģÑĤÐ²Ð¾ÑĤÐ¾
ÐºÐ° ÐºÑĤÐ¾
Ð¼Ð ±Ðµ
ĠÐ¿ÑĢÐµÐºÑĢÐ° ÑģÐ½Ð¾
Ð´ ÑĬÐº
s s
ĠÐ¿Ð¾ÑĢÐµÐ´ Ð½Ð°
ĠÐ·Ð° ÑģÐ°
ÑħÐ²ÑĬÑĢÐ »ÑıÑĤ
ĠÐ²ÑĬ Ð¾Ð±ÑĢÐ°
ĠÐ½Ð¸ Ð²Ð°ÑĤÐ°
ÑĪ ÑĥÐ²Ð°ÑļÐµ
ĠÐºÑĥÐ»ÑĤÑĥ ÑĢÐ½Ð¸
ĠÐ´Ð¾Ð±ÑĢÐ¾ Ð²Ð¾Ð»
ĠÐ½Ð° ÑģÑĤÑĢÐ¾
ĠÐ¯ Ð¼Ð±Ð¾Ð»
ĠÐ¸Ð·Ð½ÐµÐ½Ð° Ð´Ð²Ð°
ĠÐ¾Ð¿Ð° ÑģÐ½Ð¸
Ð´Ð¾ Ðº
Ñĩ Ð½Ð¸Ðº
Ð½Ð´Ð °Ð»Ð¸
ĠÑĤÐ¾ Ð¿Ð»Ð°
ĠÐµ Ð²Ð°
ĠÑĤÐµ ÑĪÐºÐ¾
G B
ĠÐ·Ð°ÑīÐ¸ ÑĤÐ°ÑĤÐ°
Ð½Ð° ÐºÑĥ
Ð²ÑĬÑĢÐ¿ ÑĥÐ»
ĠÐºÐ¾ÑĢÑĥÐ¿ ÑĨÐ¸ÑıÑĤÐ°
ĠÑĢÑĬÐºÐ¾ Ð²Ð¾Ð´Ð¸ÑĤÐµ
ĠÐŀ ÑĩÐµ
ÑģÑĤÐ¾ Ð²ÐµÑĤÐµ
Ð ¸Ñı
Ð»Ð¸Ð·Ð° ÑĨÐ¸ÑıÑĤÐ°
ĠÐ¿ÑĢÐ¸ Ð½Ð¾Ñģ
Ð¿Ð¸ ÑģÐ¸
ķÐ ¨
ak o
ÐĽ Ñİ
ĠÐ¸ÐºÐ¾Ð½Ð¾Ð¼Ð¸ ÑĩÐµÑģÐºÐ°
ĠÑĢÐ°Ð¼ ÐºÐ¸
ĠÐºÐ¾Ð½ÐºÑĢÐµ ÑĤÐ½Ð¾
ĠÐ¾ÑĤÐ±Ðµ Ð»ÐµÐ¶Ð¸
ĠÐ³ÑĢÐ°Ð¶Ð´Ð°Ð½Ð¸ Ð½
ĠÑģÑĬ Ð´Ð¾Ð²Ðµ
ĠÐ³Ð»Ð° Ð²Ð½Ð°ÑĤÐ°
ĠÐºÐ° Ð±Ðµ
ĠÐ¿Ð¾Ð»Ñĥ ÑĦÐ¸
5 00
ĠÐ±Ð¸ Ð¶Ñĥ
Ð´Ð¸ ÑĨÐ¸ÑĤÐµ
ĠÐ¼Ð°ÑĢÐºÐµÑĤÐ¸ Ð½Ð³
Ñģ Ð¼Ð¸
ĠÐ½ÐµÐ ¸
ĠÑģÑĬÐ² Ð¿Ð°
Ð»Ð¾Ð³Ð¸ ÑĩÐ½Ð°
Ġs i
ÑĢÑĤÐ¸ ÐºÐ°
Ð½Ð¾ Ð²ÑıÐ²Ð°
Ð² ÑĬÑĤ
ÑģÑĤÐ²Ð °Ð»
ĠÐºÐ°Ð¿Ð¸ÑĤÐ° Ð»
ĠÐ²ÑĬÐ·Ð¼Ð¾ Ð¶Ð½Ð¸
ÑĢÐ¾ Ð¸Ð·
] .
ĠÐ¿ÑĢÐ¾Ð´Ð¾Ð»Ð ¶
ĠÐłÐ¾ Ð¼Ð°
ĠÑĩÑĥÐ² ÑģÑĤÐ²ÑĥÐ²Ð°
ĠÐ¿ÑĢÐµÐ´Ð¾ÑģÑĤÐ° Ð²ÑıÑĤ
ĠÐ¿Ð¾Ð´Ð´ ÑĬÑĢÐ¶Ð°ÑĤ
ÑĪÐ¸ Ð½Ð°
ÐŁÐ¾ Ð´
ĠÐŀÐ¿ ÑĪÑĤÐ¸Ð½Ð°
ĠÑģÑĤÐ¾Ð¿Ð° Ð½ÑģÑĤÐ²Ð¾
Ðº Ð²Ð¸ÑĤÐµ
ĠÐºÐ²Ð°Ð´ ÑĢÐ°ÑĤ
ŀÐ ¡
ĠÐĿÐ°Ð´ ÑıÐ²Ð°Ð¼
ĠÐ»ÑİÐ±Ð¸ Ð¼Ð¸ÑĤÐµ
ĠÐĲ ÐļÐ
ĠÐ¾ÑĤÐ¿Ðµ ÑĩÐ°
ĠÐ²Ð¸ Ð·Ð¸
ĠÐ½Ð°ÑģÐ¾ ÑĩÐµÐ½Ð¸
ĠÑİ Ð½Ð¾
ĠÐ¾Ñ Ħ
¢Ð ĺ
ĠÐ¼Ð¾ Ð·ÑĬÐº
ĠÐ²Ð¸ÑĢÑĥ ÑģÐ°
ĠÐļÐ °ÑĤ
ĠÐĴÑĬÑĢ ÑħÐ¾
ĠÐ·Ð°Ð¿Ð»Ð° ÑīÐ°Ð½Ðµ
ĠÐ¾ÑĤÐ½Ð¾ ÑģÐ¸
ĠÐ¡Ð²ÐµÑĤÐ¾ Ð²Ð½Ð°ÑĤÐ°
ĠÐµÐ´Ð¸Ð½ ÑģÑĤÐ²ÐµÐ½Ð¾ÑĤÐ¾
N o
ĠÐ²Ð¸ ÑĢÑĤÑĥ
Ð½ ÑģÐ¸
ĠÐ¿Ð¾ÑģÑĤÐ¸ Ð³Ð°Ð½Ðµ
ĠÐ¾ÑģÐ²Ðµ ÑĤÐ»ÐµÐ½Ð¸Ðµ
ĠÑģÐ²Ð¸Ð´Ðµ ÑĤÐµÐ»Ð¸
ĠÐ½ÐµÑĥ ÑĤÑĢÐ°
u al
ĠÐĳÐ ¤
¾Ð °
Ðº Ð²
ĠÐ½Ð° ÑĺÐ°
ĠÐ½ÐµÐ¹ Ð½Ð¸Ñı
ĠÐŁÐ¾ ÑĢÑĤÑĥÐ³Ð°
Ð¿ÑĢÐ¾ ÑĩÐµÐ¼
ÑĢÐ¸ ÑĺÐ°ÑĤÐ°
ĠÐľÐµÐ¶Ð´Ñĥ Ð²ÑĢÐµÐ¼ÐµÐ½Ð½Ð¾
ĠÐºÐ°Ð·Ð° ÑħÐ°
ĠÐ´ÑĬÑĢÐ¶Ð° Ð²Ð½Ð¸Ñı
ĠÐĴÐ° Ð»ÐµÑĢÐ¸
ĠÑĥÐ²Ðµ Ð´Ð¾
ĠÐ½Ð°ÑĤÐ¿ÑĢÐµÐ²Ð° ÑĢ
Ðľ Ð½Ð¾Ð³Ð¾
ĠÐ¸Ð½Ð²ÐµÑģÑĤÐ¸ ÑĤÐ¾ÑĢÐ¸
Ð¼ ÑĬÐ½
ĠG al
ĠÑģ Ð½ÑıÐ³
ĠÐ¡Ð¾Ð± ÑĢÐ°
Ð´Ðµ ÑĪÐµ
ĠÐ¿Ð¾ÑģÐ»Ðµ Ð´ÐµÐ½
ĠÐºÐ¾ÑĢÐ¸ ÑģÑĤÐ°ÑĤ
ĠÐ½ÐµÐ·Ð° Ð±Ð°Ð²Ð½Ð¾
T M
8 2
ĠÐ¼Ð»Ð°Ð´Ðµ Ð¶Ð¸
ĠÐ´Ð¾Ð±Ð° Ð²ÐºÐ¸
ĠÑĦÐ° Ð²Ð¾ÑĢÐ¸
ĠÐĶÐ ĲÐĿÐ
ĠÐ¿ÑĢÐ¾Ð´Ñĥ ÐºÑĨÐ¸Ñı
ĠÑĥÑģÐ¿ÐµÐ µ
ĠÑģÐ¸ Ð½Ð¾
ĠÐ´Ð¾ÑħÐ¾ Ð´Ð¸
ĠÐĲÐ²ÑģÑĤÑĢÐ° Ð»Ð¸Ñı
ĠÐµÐ´Ð¸ Ð½Ð¸Ñı
ÐºÐ° Ð
ĠÐ¿ÑĢÐµÐ²Ð¾ Ð·
ĠÑģÑĥ Ð¼Ð¸
ĠÐĶ Ð²Ð¸
ĠÐ¦ÑĬÑĢÐº Ð²Ð°ÑĤÐ°
ĠÑħÐ¸ Ð±ÑĢÐ¸
ĠÐĶÐ £
ĠÐĿÑı ÐºÐ¾Ð»ÐºÐ¾
ÑĪ Ð²Ð°ÑĤ
ĠÐºÐ°Ð½Ð´Ð¸Ð´Ð° ÑĤÐ¸ÑĤÐµ
ĠÐ¸Ð·ÑģÐ»ÐµÐ´ Ð²Ð°
ĠÐ¼Ð° Ñħ
ĠÑĢÐ°Ð±Ð¾ ÑĤÐµÐ½
ĠÐ¿Ð¾Ð µÑĤ
ĠÐ±Ð¸Ð·Ð½Ð¸ Ñģ
ĠÑģÐ¼Ð¸ ÑģÑĬÐ»Ð°
ĠÐĶÑĢÑĥ Ð³Ð°
ĲÐ §Ð
ĠÐ¿Ð¾Ð»Ð¸ÑĤÐ¸ ÑĩÐµÑģÐºÐ°ÑĤÐ°
ĠÐ¿ÑĢÐµÐ¶Ð¸ Ð²ÑıÐ²Ð°
Ð³ÑĢÐ° Ð´Ð¸
ĠÐ½Ð°ÑĢÐ¾ Ð´Ð¸
ĠÑģÐºÐ¾ÑĢÐ¾ ÑģÑĤÑĤÐ°
ĠÐ²Ð¾Ð· Ð´Ñĥ
ĠÑĦ ÑĢÐ¾
ĠÑĢÐµÑĨÐµÐ¿ ÑĤÐ°
ĠÑģ Ð³ÑĬ
ĠÑħÐ¾ ÑĢÐ¾
ĠÐĴÐ¾ ÐµÐ½
ĠÐ¾ÑĤÐ²Ð¾ ÑĢÐµÐ½
ĠÐļÐ ŀÐĿÐ
ĠÐ¿ÑĢÐ¸ÐºÐ°Ð· ÐºÐ¸
ĠÐ·Ð°Ñı Ð²ÑıÐ²Ð°
ĠÐ´ÑĬÐ¶ Ð´
ĠÑģÑĬÐ¾Ð± ÑīÐ°Ð²Ð°ÑĤ
ĠÐľÐµ ÑĤÐ°
ĠÐºÐ¾Ð· Ð¼Ðµ
ĠÑĤÑĢÑĬ Ð³Ð²Ð°
ĠÐ±Ð¾Ð» Ð½Ð¸ÑĨÐ¸
Ð² Ð½Ð¸ÑĨÐ¸
ĠÐ´Ð¸ÑģÑĨÐ¸Ð¿Ð»Ð¸ Ð½Ð°
ķÐ ł
ĠÐŀÐ± Ñı
Ð¼Ð¸ÐµÑĢ ÑĬÑĤ
ĠÐ¼Ð° ÑģÐ»Ð°
Ð² ÑĢÐ°
ĠÐŁÐłÐ ŀÐ
Ð´Ñĥ Ð¼
Ñİ ÑĤÐ°
" ),
ĠÐŀÑĤÐ ´Ðµ
ĠÑĥ Ð¶Ð¸
ĠÐ° ÑģÑĦÐ°Ð»
ĠÑģÑĬÐ±Ð¸ ÑĢÐ°Ð½Ðµ
Ð½Ð´ Ð¶Ð°
ĠÐ¿Ð¸ ÑĤÐ°Ð¼
ĠÐ¿ÑĢÐµ ÑħÐ²ÑĬÑĢÐ»Ñı
Ð¿Ðµ Ð½Ð¾
ĠÐ² Ð½Ð¾Ñģ
ĠÐķ Ð²Ð°
ĠÐ´Ð ¶
ĠÑĥ ÑĩÑĥ
ĠÐĹÐ° ÐµÐ´Ð½Ð¾
ĠÐ»Ðµ ÑģÐ½Ð°
ĠÐ¾ÑĤÐ´Ðµ Ð»ÐµÐ½Ð¸Ðµ
ÑĤÐ¾ ÑĪÐ°
ĠÐ²Ð°ÑĢÐ¸Ð °Ð½ÑĤÐ¸
ĠÑģÐ°Ð¼Ð¾ Ð
ĠÐ¸Ð·ÑĢÐ°Ð±Ð¾ ÑĤÐºÐ°
ĠÑģÑĤ ÑĢÐ¸
Ð¼Ð¸Ñģ Ð»ÑıÑĤ
ÑĢÐ°ÑĤÐ¸ Ð²Ð½Ð¸
ĠÑģÐ¼Ðµ Ñģ
ĠÑĦÐ¾ÑĢÐ¼Ñĥ Ð»Ð°
ĠÐ¿Ð»Ð° Ð½ÐµÑĤÐ°
ĠÐ¼Ð°ÐºÐµÐ´Ð¾ Ð½ÑģÐºÐ°ÑĤÐ°
ĠÐ·Ð°Ð¿Ð»Ð° ÑħÐ°
ĠÑĦÐ°Ð¹ Ð»Ð¾Ð²Ðµ
ÑģÑĤÑĢÐ¸ Ð±Ñĥ
ĠÐ¿ÑĬÑĤÐ¸ ÑīÐ°ÑĤÐ°
ĠÑĤÐµÐ¾ ÑĢÐ¸Ñı
ĠÐ® Ð½Ð°Ð¹ÑĤÐµÐ´
ĠÐ°Ñĥ Ð´Ð¸
Ð»Ð¸ ÑĢÐ°Ð½
ĠÑģÐ°Ð¼Ð¾ Ð»ÐµÑĤÐ¸
ĠÑĢÐµÑĨÐµÐ¿ ÑĤÐ¸
u k
ĠÐ¿ÑĢÐ¾Ð´Ð° Ð¶Ð±Ð°ÑĤÐ°
ĠÑģÐµ Ð»Ð°ÑĤÐ°
Ñģ Ð¼Ð¾
ĠÐ°Ð´Ð¼Ð¸Ð½Ð¸ÑģÑĤÑĢÐ° ÑĨÐ¸ÑıÑĤÐ°
ĠÑĦÐ¸ ÐºÑģÐ¸
Ñħ Ð»Ð°
ĠÐµ Ð½ÑĤÑĥ
ĠÐ¸Ð½ÑģÑĤÐ¸ÑĤÑĥ ÑĨÐ¸Ñı
on y
Ð·Ðµ Ð½Ð¾
ĠÐ¿ÑĢÐ¸ Ð´Ð¾
ÑĤÐ° ÑĢÐ¸
ĠÐ¿ÑĢÐ° ÑĤÐµ
ĠÐĵ ÑĢÐµ
Ñİ ÑĢÐ¸
¾Ð¿ ÑĪÑĤÐ¾
±Ð °Ð½
ķÐ Ķ
ĠÐļ ÑĬÑĢÐ´Ð¶Ð°Ð»Ð¸
ĠÐ¶Ð¸ Ð·
ĠÐ´Ðµ Ð¿Ð¾
ĠÐ¾ Ð¿ÑĢÐ°Ð²Ð¸
O T
ĠÑħÑĥÐ±Ð° Ð²Ð°
ĠÐºÐ°Ð¿ ÑģÑĥ
¡Ð¢ÐĴÐ ŀ
ĠÐŁÐ¾ ÑģÑĤÐ°
ĠÐ·Ð°Ð±ÑĢÐ° Ð½Ð°
ĠÑģÑĤÐ°Ð±Ð¸ Ð»Ð½Ð¾ÑģÑĤ
Ð¡Ð° Ð¼Ð¾
ĠÑģÑĤÐ°ÑĤÐ¸ ÑģÑĤÐ¸ÐºÐ°
ĠÐ²Ð¸Ð´ÐµÐ ¾ÑĤÐ¾
ĠÐ³ÑĢÑĬ Ð±
ĠÐ³Ð¾ ÑģÑĤÑĥÐ²Ð°
ĠÐ°Ð¼ÐµÑĢÐ¸ÐºÐ° Ð½ÑģÐºÐ¸Ñı
ĠÐ»ÑĬ Ð¶Ðµ
ÐºÐ¾ ÑĢ
ĠÐ´ÐµÐ¹ÑģÑĤÐ²Ð¸ÑĤÐµ Ð»Ð½Ð¾ÑģÑĤ
Ġ199 9
Ð´Ð¸ÑĤÐµ Ð»Ð¸
ĠÑĢÐ¾ Ð´Ð°
ĠÐĿÐ¸ ÑĤÐ¾
p a
Ðº ÑĢÑĥ
ĠÐ¤Ð¾ ÑĢÐ¼Ñĥ
ĠÐ·Ð°ÑīÐ¸ ÑĤÐ¸
ĠÑĤÐµ ÑģÑĤÐ²Ð°
ÐºÑĤÐ¸ Ð²Ð¸
ÑģÐ¾ Ð²Ð¸ÑĤÐµ
ĠÐ·Ð° Ð²Ð»Ð°
ĠÐ¾Ð¿ÑĪÑĤÐ¸ Ð½Ð°
ĠÐ¼Ð¾ Ð»Ð±Ð°
ĠÐ¸Ð·Ð³Ð¾ ÑĤÐ²Ñı
ĠÐķ Ð»Ð¸
ĠÑģÐ»Ð¾ Ð¹
le ct
ĠÐ·Ð°Ð¿Ð¸ ÑģÐ²Ð°
ĠÐ³ÑĬÑĢÐ´Ð ¸ÑĤÐµ
ÐºÑĢÐ° ÑĤÐºÐ¾
ÑĩÐ° Ð½Ðµ
Ð´Ðµ Ñģ
ĠÐ´ Ñİ
ĠÐ¿ÑĢÐµ ÐºÐ°ÑĢÐ°
ĠÐ±ÑĬÑĢÐ ·
ĠÐ¦Ð ¾
ĠÐ¡Ð¼Ð¾ Ð»ÑıÐ½
ÑĤÐ° Ð½Ð¸
ĠÐŁÑĢÐ¾Ð±Ð»ÐµÐ¼ ÑĬÑĤ
Ð»Ðµ Ð²Ð¸
ĠÑģÐ¿Ð¾ÐºÐ¾Ð¹ ÑģÑĤÐ²Ð¸Ðµ
Ð»Ð¾Ð¶Ðµ ÑĤÐµ
µÐ»Ð¸ ÐºÐ¾
ÐºÐµ ÑĢÐ¸
ĠÐ¼Ð¾ Ð»Ðµ
a j
ĠÐ¸Ð· ÐºÐ°Ð·Ð²Ð°
ĠÑĤÐ¾ Ð¿ÐºÐ°
ĠÑģÐ° Ð»Ð°ÑĤÐ°
ĠÐ¸Ð½ÑĦÐµ ÐºÑĨÐ¸Ð¸
ĠÐ·Ð°Ð²Ð¸ Ð½Ð°Ð³Ð¸
ĠÑı ÑģÐ½Ð¸
ĠÐ¿Ð° ÑģÐ¸
ĠÐĶÐµ ÑĨÐ°ÑĤÐ°
ĠÐ¿Ð° ÑĢÑĦÑİ
ĠÐ¡Ð¸ Ð»Ð¸
ĠÐ¾Ð± ÑīÑĥ
ro up
ĠÐºÐ¾ Ð»ÐµÐ´
Ġw ith
ĠÑģÑĬÐ²ÐµÑĤ Ð½Ð¸Ðº
ĠÐŁÐ ŀÐĶÐ
ĠÐ³Ñĥ Ð±Ðµ
ĠÐ½Ð° Ð±Ð°
ĠÑĢÐµÑģÑĥ ÑĢÑģ
Ð¼ÐµÐ½ÑĤ ÑĬÑĤ
ÑĢÐ°Ð·Ð»Ð¸ ÑĩÐ½Ð¸
ĠÑĤÐ¾ Ð»Ðµ
ĠÐĺÐ½ÑĤÐµÑĢÐµ ÑģÐ½Ð¾
ĠÐ¡ÑĤÐ°Ð½Ð¸ ÑĪÐµÐ²
ĠÐ¾ÑĤÐºÑĢÐ¸ ÑĤÐ°
ĠÐ¼Ð¸ Ð
ĠÐ¼ÐµÑĤÐ° Ð±Ð¾
ĠÐ¿Ð¸ Ð¿ÐµÑĢ
ĠÑĢÐ°Ð·ÑħÐ¾Ð´ ÐºÐ°
ĠÑģÐ²ÐµÑĤÐ¾ Ð²Ð½Ð¸
ĠÑĢÐ¾ Ð±
ĠÐ´Ð¾ÐºÐ°Ð·Ð° ÑĤÐµÐ»ÑģÑĤÐ²Ð¾
Ġ6 7
ĠÐ¼ÐµÐ´Ð¸ ÐºÐ°
ĠÐ¼Ðµ ÑĢÐ¾
·Ð µ
Ð¹ Ð´Ð¶
ÑģÑĤÐ¾ ÑĤÐ¾
ĠÐºÐ»Ð° Ð²Ð¸
ĠÑĢÐ¸ Ð¼
8 3
ÐºÐ»Ð¾ Ð½
ĠÐ½ÐµÐ¾Ð±ÑħÐ¾Ð´Ð¸Ð¼Ð¾ ÑģÑĤÑĤÐ°
ÑĢÐ¾ Ð²ÐµÑĤÐµ
ÑĦÐ¸ Ðº
ĠMic rosoft
ĠÑĺÑĥ Ð½Ð¸
ĠÐ¶Ð° Ð½
ĠÐ¿ÑĢÐ¾Ð²Ðµ ÑĢÑıÐ²Ð°
ĠÑģÐ¾ ÑĩÐ¸
Ð¿Ð¾ Ð¼Ð½Ñı
Ġ199 0
ĠÐĴÐ¸ ÑĤÐ°
ĠÑĥÑģÑĤÑĢÐ¾Ð¹ ÑģÑĤÐ²Ð¾ÑĤÐ¾
ĠÐ¾Ð± ÑīÐ¾ÑĤÐ¾
ĠÐ½Ð°Ð¼Ðµ ÑĢÐµÐ½Ð¸Ðµ
ÑĢÐ¸ ÑĢÐ°Ð½Ðµ
° Ð¼Ð°
ĠÑģÐ¿Ð¾ ÐºÐ¾
ĠÑĢÐ¸ Ð±Ð¾
ĠÐµÐ·Ð¸ ÑĨÐ¸
ª Ðł
ĠÐ¨Ð²ÐµÐ¹ÑĨÐ° ÑĢÐ¸Ñı
Ĥ Ð½Ð¾ÑĤÐ¾
Ñ ĤÐ½Ð¾ÑĤÐ¾
ĠÑģÐ¿Ð¾ÑģÐ¾Ð± Ð½Ð¾ÑģÑĤ
Ð¼Ðµ Ð½Ð¸ÑĤÐµ
Ð µÐ´Ð¸Ð½
ĠÐ½Ð° ÐºÐ°
ĠÐĹÐ° ÑģÐµÐ³Ð°
ou s
¢Ð ĳ
ĠÐ½Ð°ÑģÐ¾ ÐºÐ°
i um
ÑģÐºÐ° Ñ
ĠÐ¿Ðµ ÑīÐµ
ĠÐ¸Ð· ÑĤÑĢÐµ
ĠÑĤÐµ ÑĩÐµ
af e
ĴÐ Ł
ĠÐŀÐ±Ð° Ð¼Ð°
ĠÑģÑĬÐ´ ÑĬÑĤ
ĠÐ¸Ð·Ð³Ð° ÑĢÑı
ĠÑģÑĬÐ²ÐµÑĤ Ð½Ð¸ÑĨÐ¸
ĠÐ¿ÑĢÐµÐ´Ð¸Ð·Ð²Ð¸ÐºÐ° ÑĤÐµÐ»ÑģÑĤÐ²Ð¾
ÐŁ Ð»Ð¾Ð²Ð´Ð¸Ð²
ĠÐ¿ÑĥÐ±Ð»Ð¸ÐºÐ° ÑĨÐ¸Ð¸
ov e
ĠÑģÐµ Ð´
ĠÐĺÐ ľÐ
ĠÐ¿Ð»Ð° Ð½Ð°
ĠÐ´Ð¾Ð¹ Ð´Ð°ÑĤ
ĠÐ¼Ð¸ ÑģÐ¸Ñı
ĠÑģÑĤÐ¾Ð¹ Ð½Ð¾ÑģÑĤÐ¸
ÑģÐºÐ°Ñ Ĥ
ĠÑģÐ´ÐµÐ» ÐºÐ°ÑĤÐ°
ĠÐ¾Ð¿ ÑĨÐ¸Ñı
ĠÐ¿Ð µÑĤÐ¾
ĠÑģÑĦÐµ ÑĢÐ°
ĠÐ»Ð¸ ÑĩÐ½Ð¸Ñı
ĠÑģÐ²Ð° Ð»Ñı
ÑģÐºÐ° ÑĢ
ĠÐķÑģÑĤÐµ ÑģÑĤÐ²ÐµÐ½Ð¾
ĠÐ¿Ð»Ð¾ Ð´
ĠÑģÑĨÐµ Ð½Ð¸
ĠÐ¾ Ð¼Ð°
ĠÐ¾ÑĤÐºÑĢÐ¸ Ð²Ð°Ð½Ðµ
ĠÐ¿ÑĢÐ²Ð µÐ½
ĠÐ² ÑħÐ¾Ð´Ð°
ĠÐ´ÐµÑĤ ÑģÐºÐ°ÑĤÐ°
ĠÐ¡ Ð»Ð¾Ð²Ðµ
ÑīÐ° Ð½ÐµÑĤÐ¾
ĠÐ¡Ð²Ðµ ÑĤÐ¾Ð²
ĠÐ±ÐµÐ· ÑģÐ¿Ð¾
ĠÐ¼Ðµ ÐºÐ¾
ĠÐ¾Ð±ÑīÐ¸ Ð½Ð¸
ĠÑĤÑĢÐ° Ð³Ðµ
Ð´ ÑĢÐ°ÑĤÐ°
ķÐ ľ
ĠÐ¿Ð¾Ð»ÑĥÑĩÐ¸ Ð»Ð¸
ÑħÐ¾ Ð²
ĠÐ½Ð° ÑĢÐµÐ´Ð¸
ĠÐŁÑĢÐ¾ ÑĩÐµÑĤÐ¸
ÑĨÐ¸Ð¾Ð½Ð° Ð»Ð½Ð°
ĠÑĢÐ° Ð¶Ð´Ð°Ð½ÐµÑĤÐ¾
Ð¼ Ð½Ð¾ÑĤÐ¾
Ð³Ð¾Ð»ÐµÐ¼Ð¸ Ñı
ĠÐ¸Ð½Ð¸ÑĨÐ¸Ð° ÑĤÐ¸Ð²Ð°ÑĤÐ°
ĠÐ¿Ð¾ÑĩÐ¸ Ñ
ĠÐ²Ñı ÑĢÐ°ÑĤÐ°
ĠÐ¿Ð¾ÑĩÐ¸Ñ Ĥ
ĠÐ¿ÑĢÐµ Ð·ÐµÐ½
Ġ14 0
ĠÐĴÐ¡Ð ¡
ÑĤÐ¸Ð² Ð½Ð¾ÑĤÐ¾
Ð½Ð¸ ÑĩÐºÐ¸
ĠÐĺÐ· Ð¿ÑĬÐ»Ð½Ð¸ÑĤÐµ
Ĥ e
ĠÑĢÐµÑĪÐ¸ Ð»
Ġ9 00
¾ Ð½Ð¾ÑĤ
Ð´Ðµ Ð½Ð¾ÑĤÐ¾
ĠÐ¼Ðµ Ð³Ð°
ĠÑģÐµÐ» ÑģÐºÐ¾
ĠÐ¾ÑĤÐ¿ÑĢÐ° Ð²Ð¸
ĠÑĢÐµÐ·Ðµ ÑĢÐ²Ð¸
ĠÑĥÐ½Ð¸ÐºÐ° Ð»ÐµÐ½
ĠÐ³ÑĢÐ¾ Ð·
as a
Ñ Ĥe
ĠÐ¾Ð±ÑīÐ¸ Ð½Ð¸ÑĤÐµ
ĠÐ¿Ð¸ Ð»Ðµ
ĠÑĤÐµ Ð½Ð¸Ñģ
ĠÐ¾Ð´Ð³Ð¾ Ð²Ð¾
ĠÐ¸Ð·Ð¸ÑģÐº Ð²Ð°ÑĤ
ĠÐ¿ÐµÐ´Ð° Ð³Ð¾
ĠÐºÐ¾Ð½ÑģÐµ ÑĢÐ²Ð°
ĠÐ¿ÑĢÐ¸ ÑĢÐ¾Ð´
ĠÐ¿ÑĢÐµ ÑĤÐ¿
6 3
Ð½ÑĤ ÑĬÑĤ
ĠÐ¾ÑĤÐºÑĢÐ° Ð´Ð½Ð°
ĠÐ¼Ðµ ÐºÐ°
Ð·Ð¾ Ð½Ð°ÑĤÐ°
ĳÐ ĲÐĽ
ĠÐ¿Ð¾Ð»Ð¸ÑĤÐ¸ Ðº
ĠÐ¿Ð¾Ð»Ð¸ÑĤÐ¸ ÑĩÐºÐ¸
ĠÑĤÐ¸ ÑħÐ¾
ĠÐ³Ð¾Ð´Ð¸ ÑĪÐµÐ½
Ð²Ð¾ Ð»Ð½Ð¸
ĠÐ¾ÑĤÑģÐ»Ð° Ð±
Ġ13 0
ĠÐ¸Ð· Ð¼ÑĬÐº
ĠÐ±Ñı Ð³Ð°
Ð¿ ÑĬÑĢÐ²Ð°
ĠÑı ÑģÐ½Ð°
ĠÐłÐ¾ Ð´Ð¾
ĠÐ¿ÑĢÐ¸Ð½ÑĨÐ¸ Ð¿Ð¸
ĠH e
Ġ ra
ĠÐ¾Ð¿ÑĢÐµÐ´ÐµÐ»Ñı Ð½Ðµ
ĠÐ¼Ð½Ð¾Ð³Ð¾ ÐºÑĢÐ°ÑĤÐ½Ð¾
ÑģÐ¾Ð±Ðµ Ð½
Ð· Ð²Ñĥ
ÑĢÐ¸ÑĤÐµ Ð»ÐµÐ½
ĠÐ¿Ð¾Ð»Ð¸ÑĤÐ¸ ÑĩÐµÑģÐºÐ¸ÑĤÐµ
ĠÑĤÑĬÑĢÐ³Ð¾ Ð²Ð¸ÑıÑĤÐ°
ĠA c
ĠÐºÐ¸Ð»Ð¾ Ð¼ÐµÑĤÑĢÐ¸
ĠÐķ Ð²Ðµ
ĠÐ°Ð½Ð°Ð»Ð¸ Ð·Ð¸
Ð ĸ
ĠÐŁÐ¾ Ð´Ð°
Ð² ÑĥÐ²Ð°Ð°ÑĤ
le t
Ð¿Ð¾ ÑģÑĤÐ°
ĠÐ¿ÑĢÐ¾Ð²Ðµ Ð¶Ð´Ð°ÑĤ
ĠÐ¿ÑĢÑĬ ÑģÑĤ
ĠÐ¿ÑĢÐ¸Ð»Ð°Ð³Ð° Ð½Ðµ
ĠÐ¿ÑĢÐ¸ÑģÑĬ ÑģÑĤÐ²Ð¸ÐµÑĤÐ¾
ĠÐ¿ÑĢÐ²Ð ¸ÑĤÐµ
ĠÐ¾ÑģÑĤÐ° Ð²ÑıÑĤ
ĠÐĳÐ°Ð»ÐºÐ° Ð½Ð¸ÑĤÐµ
" ).
ĠÐĳÐ¸Ð· Ð½ÐµÑģ
ĠÐ½Ð° Ð¿Ð°Ð´Ð½Ð°
ÑģÑĬ Ð·Ð½Ð°
Ð»ÑıÐ²Ð° Ð¼
ÐºÑģÐ¸ ÐºÐ¾
µÑ ļÐµÑĤÐ¾
ĠÐ¼Ð¾Ð µ
ĠÐ°ÑĢÐ¼Ð¸ ÑıÑĤÐ°
Ð¿ ÑĢÐ¸ÐµÐ¼
ĠÐĶÐ¾ÐºÐ¾ Ð»ÐºÑĥ
ÑĤÐ ºÐ
ĠÐ²Ðµ ÑīÐ¸
an c
ÐºÐ° Ð»Ð°
ĠÐ²ÑĢÑĬ ÑīÐ°Ð½Ðµ
ÐºÑĤÐ¾ ÑĢÐ¸Ñı
ÑĢÐ° Ð¹ÑĤÐµ
ĠÐ²Ð·Ðµ ÑħÐ°
ĠÐ·Ð° ÐµÐ¼
ĠÐ»Ð¾Ð³Ð¸ ÐºÐ°
ĠÐ²Ð¾Ðµ Ð½ÐµÐ½
ĠR es
¡ÐļÐ ŀ
ĠÑĢÐ°Ð·Ð³Ð¾ Ð²Ð°ÑĢÑı
ĠÐ¿Ð¾Ð´ÑħÐ¾Ð´Ñı ÑīÐ¾
ĠÐ´Ð¾ÐºÐ¾ Ð»ÐºÐ¾ÑĤÐ¾
ĠÐ»Ð¾ÑĪÐ °
ĠÐ¹Ð ¾
ĠÐ²Ð½Ðµ Ð·Ð°
ĠÐ¸Ð·Ð¿ÑĬÐ»Ð½Ð¸ÑĤÐµ Ð»
ĠÐĿÐ° ÑĪÐ¸ÑĤÐµ
ĠÐľÐ £
ĠÑĢÐµÑĩÐ¸ ÑģÐ¸
ÐºÐ¾ Ð¿
ĠÑĩÐ° ÐºÐ°ÑĤ
ĠÑħÑĥ Ð¼Ð°Ð½Ð¸
Ñı Ð»Ð°ÑĤÐ°
ĠÐ·Ð°ÑĤÐ²Ð¾ ÑĢÐµÐ½Ð¸
µÑĢ ÑĨÐµ
ĠÑģÑĤÐ°Ð½ ÑĨÐ¸Ñı
ĠÐĵÐ ¾ÑĨÐµ
ĠÐ¿ÑĢÐ¸Ð²Ð»Ðµ ÑĩÐµ
ĠÐ´ÐµÐ¹ÑģÑĤÐ²Ð¸ÑĤÐµ Ð»Ð½Ð¾
ĠÐ°Ðº ÑĨÐµÐ½ÑĤ
ĠÑĥÑģÐ¿Ðµ ÑħÐ¸
ĠÐ²ÑĬÐ· Ð³Ð»Ð°
ĠÐ¡ ÑĤÑĢÐµ
ĠÐ¿Ð¾ Ð»Ð°
ĠÐ±ÑĬÐ»Ð³Ð°ÑĢÑģÐºÐ¸ ÑıÑĤ
ĠÐ¡ Ð²Ð¾Ð±Ð¾
Ð¼Ðµ ÑĨ
ĠÑģÐ¿ÐµÑĨÐ¸Ð°Ð» Ð½Ð¾ÑģÑĤ
ĠÐ·Ð°ÑĤÑĢÑĥ Ð´Ð½Ðµ
ĠÐ¼Ð°ÐºÑģÐ¸Ð¼Ð° Ð»Ð½Ð°
ĠÐ¿Ð¾Ð»Ðµ ÑĤÐ¸
ĠÑĦÐ¸Ð³Ñĥ ÑĢÐ°
ÑĩÐ¸ÑĤÐµ Ð»ÐµÐ½
ĠÐ´Ðµ Ð»ÐµÐ³Ð°
ĠÐ¸Ð½ÑģÑĤÐ° Ð»Ð¸ÑĢÐ°
ĠÐ¿Ð¾ÑĤÑĬÑĢ ÑģÐ¸
ÑĤÐ¸ ÑĺÐ°
ĠÐ¿ÑĢÐµÑĤ ÑħÐ¾Ð´Ð½Ð¾
ĠÐ¾ÐºÐ¾Ð½ÑĩÐ° ÑĤÐµÐ»Ð½Ð¾
ĠÐ²Ð·ÐµÐ¼Ðµ ÑĤÐµ
ĠÐ²ÑĬÐ½ ÑĪÐ½Ð¸ÑĤÐµ
¾ÑĤ ÑĢÐ°
ĠÐ±Ð¾ Ð»ÐºÐ°ÑĤÐ°
Ġ6 3
ĠÑĤÐµÐ½Ð´ÐµÐ½ ÑĨÐ¸Ð¸
Ð¹ ÐºÐ¾Ð²
Ð¤Ð ¸
ĠÑģÐ°Ð¼Ð¾ÑģÑĤÐ¾Ñı ÑĤÐµÐ»Ð½Ð¾
ĠÐĲ Ð»Ð°
ĠÑģÐ´ÐµÐ» ÐºÐ¸
ĠÐ¢ Ð²ÑĬÑĢÐ
ÑĢÐ¾Ð² ÑģÐºÐ¸
ĠÑģÐ¾Ð ¾
ĠÑĢÐ°Ð·Ð±ÐµÑĢÐµ Ð¼
ĠÐºÐ¾Ð´Ðµ ÐºÑģ
ÑĦÐ °ÑľÐ
ĠÐ¿ÑĢÐ¾Ðµ ÐºÑĤÐ¾ÑĤ
ĠÑĩÐ¾Ð²Ðµ ÑĪÐºÐ¸ÑĤÐµ
ĠÐ¾Ð¿Ð° ÐºÐ¾Ð²
Ñĥ ÑģÐ¿Ðµ
ĠÐ´Ð¾ Ð·Ð¸
Ðº Ð¼
ÐºÑĤÐ¾ÑĢ ÑĬÑĤ
ĠÑĦÐµ Ð¹
ĺÐ Ĵ
I A
ĠÑĤÐµ Ð¶Ð¸
ĠÐłÑĬ ÐºÐ¾
Ð²Ð° Ð¶Ð½Ð¾
ĠÐ¾ ÑĢÐºÐµ
ĠÐ¡Ð° ÑĢÐ°
ĠÐ´Ð¾ÐºÐ»Ð° Ð´Ð°
7 3
ĠE d
ĠÐ²Ð´Ð¸ Ð³Ð°
ĠÑģÑĤÐ¾Ð¼Ð° Ð½Ð°
ķÐ ¥
ĠÑģÐ°Ð¼Ð¸ Ð¾ÑĤ
ÐºÐ° Ð¼
: )
ĠÐ¾ÑĩÐ°ÐºÐ²Ð° Ð¼Ðµ
ĠÐ¿Ð ¸Ð°
ol og
ĠÑĢÐ°Ð·Ð¿Ð¾Ð»Ð°Ð³Ð° Ñ
ĠÑĢÐ°Ð·Ð¿Ð¾Ð»Ð°Ð³Ð°Ñ Ĥ
ĠÑģÑĬÐ·Ð½Ð° Ð½Ð¸Ðµ
ĠÐ£ ÑģÑĤÐ°
ĠÐ¼Ðµ Ð´Ð°Ð»
ĠÐ¸Ð·Ð¿Ð¾Ð»Ð·Ð²Ð° Ð¼Ðµ
ĠÑı Ð·Ð¾Ð²Ð¸
ĠÐ²ÑĬÑĢ ÑħÐ¾
ĠÐ¾Ð´Ð»Ñĥ ÐºÐ°
ÑĤÐ¸ ÑĨÐ¸ÑĤÐµ
ĠÐ±Ð¾Ð ¸
ÑĦ ÑĤÐ°
ĠÐ¿ÑĢÐ¸ÑĢÐ¾ Ð´Ð½Ð¸
ĠÑģÐ² ÑĢÑĬÑħ
Ð¼Ð¸ Ð½Ñĥ
ĠÑĢÐµÐ¿ÑĢÐµ Ð·ÐµÐ½ÑĤÐ°
ĠÐ¾ÑģÐ²Ð¾Ð±Ð¾ Ð´Ð¸
ĠÐľÐ¸ÑħÐ°Ð¹ Ð»Ð¾Ð²
ĠÑģÐµ Ðº
ĠÐľÐ°Ð½ÑĩÐµ ÑģÑĤÑĬÑĢ
ĠÐ¿Ð¾Ð´Ð´ÑĬÑĢÐ¶Ð° Ð½Ðµ
ĠÐ¡Ð ¾ÑĨÐ¸Ð
Ð»Ð ±
Ð´ ÑĢÐµ
´Ð° Ð²Ð½Ð°
ĠÑĩÐ¾Ð²Ðµ ÑĪÐºÐ¾ÑĤÐ¾
ĠÐ´ÐµÐºÐ»Ð° ÑĢÐ°ÑĨÐ¸Ñı
ĠÐ¿Ð°ÑĨÐ¸Ð µÐ½ÑĤ
ĠÑģÐ¾ÑĨÐ¸Ð ¾
ĠD n
ĠÐ¥Ð° ÑĢÐ°ÐºÑĤÐµ
ĠÐ¼Ð°Ð» ÐºÐ¸Ñı
ĠÐ¶Ð° Ð»Ð±Ð°
ĠÑı Ð²ÑıÐ²Ð°
ĠÐ¿Ð¾Ñı Ð²ÑıÐ²Ð°ÑĤ
ĠÐ¿Ð¾ Ð¼Ð¸Ð½Ð°
ĠÑģÐ° Ð»Ð°
Ð´ÑĢÑĥ Ð¶ÐµÐ½Ð¸ÐµÑĤÐ¾
ĠÑĩÐµÑĤÐ¸ ÑĢÐ¸ÑĤÐµ
ĠÐ´Ð¾Ð²Ð¾ Ð»Ð½Ð¸
ĠI S
ĠÑģÐ²Ðµ ÑĤÑĬÑĤ
Ð±Ð¸Ð µ
ĠÐ´Ð¾ÑħÐ¾ Ð´
ÐºÐ° Ð½Ð°
ÑģÐ¸ ÑĢÐ°Ð½Ð¸
ĠÐ¿ÑĢÐ¸Ð½Ñĥ Ð´Ð¸
ĠÑĦÐ¸Ð½Ð° Ð»
ĠÐ¿ÑĢÐµÐ²Ð¾ Ð´Ð°
ÑģÑĤÐ¾ ÑıÑĤ
ĠÑħÐ¾ Ð»
ĠÑĦÐ¾Ð½Ð´Ð¾ Ð²Ðµ
ĠÐ³Ð»Ð° Ð²Ð½Ð¸ÑıÑĤ
Ġ Ã
ĠÑģÐ»ÐµÐ´ Ð½Ð¸Ñı
ĠÐ¼ÑĥÑģÐºÑĥ Ð»Ð¸ÑĤÐµ
ĠÑģÐ¸ ÑĢÐµÐ½Ðµ
ĠIn st
ĠÑĢÐ°Ð±Ð¾ÑĤÐµ ÑīÐ¸
ÑĩÐµÑģÐºÐ¸ ÑıÑĤ
ĠÐ½Ðµ Ð¶ÐµÐ»Ð°
ÑĺÐ µÑĤÐ¾
ÐľÐ° ÐºÐµÐ´Ð¾
ĠÐĲ ÑģÐµÐ½
ĠÐ¾ÑĢÑĬÐ¶Ð¸ Ñı
ÑĢÐµ Ð´Ð¾ÑĤÐ¾
ag es
ĠÐ¸Ð·Ð¿ÑĬÐ» Ð½ÑıÐ²Ð°ÑĤ
ĠÑģÐ° Ð½Ð¸ÑĤÐ°
ĠÐ»Ð¸ ÑĩÐ¸
ĠÐ¿Ð¾ Ð½Ð°ÑĤÐ°
łÐ ķÐĶÐ
Ð¹ ÑģÐºÐ¾ÑĤÐ¾
ĠÐ³Ð¾ ÑĢÐ½Ð°ÑĤÐ°
ĠÐĳ Ð»Ð°
ĠÐ¾ÑĢÐ³Ð°Ð½Ð¸Ð·Ð° ÑĤÐ¾ÑĢÐ¸ÑĤÐµ
Ð¶Ð´Ð° Ð²Ð°ÑĤ
ĠÐ¸Ð·Ð¿ÑĢÐ° Ð²Ð¸
Ġp l
ÑĩÐ° ÑĢ
Ð½ÐµÑģ ÑĥÐ²Ð°ÑļÐµ
ÑĢÐ¶Ð µÐ½ÑĤÐ¸
ĠÐ²Ð¾Ð ¾Ð¿ÑĪÑĤÐ¾
ĠÐ·ÐµÐ¼ÑĺÐ ¾
ĠÐ´Ð¾Ð±Ð¸Ð µ
Ĥ Ð½Ð¸ÑĨÐ¸
Ñ ĤÐ½Ð¸ÑĨÐ¸
ĠÐ¸Ð½ÑĤÐµ ÑĢÐ¿
ĠÑĤÐ¸ ÑĤÐ»Ð°
ĠÐľ Ñı
¸ Ð·Ð¾
ĠÐ¿Ð¾Ð µÑĤÐ¸
ĠÐ¿ÑĢÐµ Ð²Ð·Ð
ĠÐ¿Ð¾ÑĢÐµÐ´ Ð½Ð°ÑĤÐ°
ĠÐ¿ÑĢÐ¸Ñı ÑĤÐµÐ»Ð¸ÑĤÐµ
ĠÐĶÐ¾Ð± ÑĢÐ¾
ĠÑģ Ð¼Ð¾
ĠÑĪÐ µÑģÑĤÐ¸
ĠÑĥÐ½Ð¸ Ð²ÐµÑĢÑģÐ°
ĠW i
ĠÐ¿Ð¾ÐºÐ° Ð½Ð°
ÑģÑĥ ÑĢÐ´
ĠÐ°Ð½Ð°Ð»Ð¸ Ð·Ð¸ÑĢÐ°
ĠÐķ ÑĤÐ¸
ĠÐ¶Ðµ Ð»Ñı
ĠÑĢÑı Ð·ÐºÐ¾
ÑĤÐ ´Ðµ
ĠÐ¾ÑģÑĤÐ°Ð½Ð° Ð»Ð¾
ÑĢÐ¾Ñ ĨÐµ
ĠÐĿÐµ Ð¼Ð°
ÑĢÐ¾ ÐºÐ°
ĠÐµ ÑĤÐ½Ð¾
ĠF or
ĠÐľÐ° ÑĤÐµ
ĠÐľÐµ ÑģÐ¸
ĠÐ½Ð°ÑģÑĤÐ¾Ñı ÑīÐ°ÑĤÐ°
ĠÑĺÐ°Ð²Ð½Ð¾ ÑģÑĤÐ°
Ð³Ð¾ Ð²ÐµÑĤÐµ
ĠÐ¿Ð¾Ð»Ðµ ÑĤÐ°
µ ÑīÐ¸
ĠÑĨÐ° ÑĢÐµ
ĠÑĥÑģÐµÑīÐ° Ð½ÐµÑĤÐ¾
ĠS T
ĠÐ½Ð°Ð´ Ð²Ð¾
¾ Ð»
ĠÐ° Ð¿ÑĤÐµ
ĠÐ±Ð»Ð¾ ÐºÐ¸ÑĢÐ°
Ġ al
ĠÐºÑĥÐ¿Ñĥ Ð²Ð°ÑĤ
7 4
ĠÐ¼ÐµÐ¶Ð´ÑĥÐ½Ð°ÑĢÐ¾ Ð´ÐµÐ½
Ð³Ð»Ðµ Ð¶Ð´Ð°Ð½Ðµ
ĠÑĨ Ð²ÐµÑĤÐ°
ĠÐ´Ð¾Ð¼Ð°ÐºÐ¸ Ð½Ð¸ÑĤÐµ
ÑĩÐ° Ñĺ
ĠÐ° Ð½Ð¸Ð¼Ð°
ĠÐ¿Ð¾Ð² ÑĢÑĪÐ¸
ol l
ĠÐ·Ð°Ð´ÑĬÐ»Ð¶Ðµ Ð½Ð¸ÑıÑĤÐ°
Ð¿Ðµ Ð»Ð°
ĠÐ¼ÑĬÐ¶ ÐºÐ¸
ĠÐĲÐ³ÐµÐ½ ÑĨÐ¸Ñı
ĠÐĹÐ° Ð¿Ð°Ð´Ð½Ð°
a i
ÑģÑĥ ÑĪÐ½Ð¾ÑģÑĤ
ĠÑħÐ° Ð¿
ĠÐ¼Ð¸ ÑĤÑĢÐ¾Ð¿Ð¾Ð»Ð¸
ÑģÐ¸ ÑģÑĤÐµ
ĠÐºÐ»Ð°ÑģÐ¸ ÑĢÐ°Ð½Ðµ
ĠÐºÐ¾Ð»Ðµ Ð±Ð°
Ð¿Ð¾ Ð»Ðµ
ĠÑħÑĥÐ±Ð° Ð²Ð¸
°Ð °
ĠÐ»Ð¸ Ð½Ðº
ĠÐ¿Ð¾Ð»ÑĥÑĩÐ¸ ÑħÐ°
ĠÑ ķ
ĽÐ £
ĠÑģÑĬ Ð¿ÐµÑĢ
ĠÑģÐ¼ ÑıÑħ
ĠÐ¿ÑĢÐ° Ð²Ð°ÑĤ
Ð´Ð¸ÑĪ Ð½Ð°
µÐ» ÑģÐ¸
ĠÑĤÐµ Ð»Ð¾
ĠÐ½Ð°ÑĢÐµ ÑĩÐµÐ½
ĠÑģÐ»Ð° Ð²Ð°
ĠÐļÐ° ÐºÑĬÐ²
ĠÐ¿Ð¾Ð»Ðµ ÑĤÐ¾
ĠÐ±ÑĢÐ° ÑĪÐ½Ð¾
ĠÐ¿Ð¾Ð»Ðµ Ð·Ð½Ð¾
ĠÐ¤Ð µÐ¹ÑģÐ±ÑĥÐº
ĠÐ§Ð¾Ð²Ðµ Ðº
ĠÐ´Ðµ ÑĦÐµ
7 1
ĠÐ¾ÑĤ ÑĩÐµÑĤÐµ
ĠÐłÐ¾Ð½Ð° Ð»Ð´Ð¾
ĠÐ¸ Ð½Ð¶
ĠÐ¾Ð½Ð° Ð·Ð¸
Ð²Ð¸ Ð½Ð°
ĠÐ¿ÑĢÐ¾ÑĤÐµ ÑģÑĤÐ¸ÑĤÐµ
ĠÑĢÐ¾Ð´Ð¸ ÑĤÐµÐ»
ĠÐ½Ð°Ð¿Ð¾ ÑģÐ»ÐµÐ´ÑĬÐº
ĠÐĳÑĥÐ³Ð° ÑĢÐ¸ÑĺÐ°
ĠÐ¾ÑĤÐ´Ðµ Ð»Ð½Ð¾
ĠÐŁÐ° ÑĢÐ»Ð°
ĠÐµÐ²ÑĢÐ¾Ð¿ÐµÐ¹ ÑģÐºÐ°
ĠÐ¿Ð¾Ð´Ð¾Ð± ÑĢÐ¾
ĠÑĥÑģÐ¼Ð¸ Ð²ÐºÐ°
ĠÑĤÑĢÐ¸ Ð±Ñĥ
ĠÐ¸Ð·Ð»ÑĬ ÑĩÐ²Ð°
ÑĪÐµ Ð½Ð¸ÑĤÐµ
ÑģÐ½Ð° ÑĤÐ¸
Ð¼ ÑĢÑĬ
ĠÐ½Ð¸Ð² Ð½Ð¸Ð¾ÑĤ
ĠÐĳÐµ Ð»Ð°
ĠÐºÐ¾ÑĢÑĥÐ¿ ÑĨÐ¸Ñı
ĠÐ²ÑĤÐ¾ÑĢÐ¸ ÑıÑĤ
ĠÐ¡ÑĬ ÐµÐ´Ð¸
Ġb TV
ĠC ar
ĠÑħÐ° ÑĢÐ´
ĠÐ° ÑģÐ¿ÐµÐºÑĤ
ĠÑĦÐ¸Ð½Ð°Ð½ ÑģÐ¸ÑĤÐµ
ĠÐ°ÐºÑĤÐ¾ Ð²Ðµ
Ġ ot
ĠÑĤÐµ Ð¼Ð°ÑĤÐ¸
Ð²Ð¸ Ñľ
ĠÑĢÐ°Ð· ÑģÑĬ
ĠÐµÐ²ÑĢÐ¾Ð¿ÐµÐ¹ ÑģÐºÐ°ÑĤÐ°
ĠÐ¾ÑĤÑģÑĤÑĢÐ° Ð½Ð¸
M A
ÑĪÐ¸ Ð»
ĠÑĦÑĥ Ð´Ð±Ð°Ð»
ĠÐ¿ ÑĥÐ»
ÐĲ Ð¿Ð°ÑĢÑĤÐ°Ð¼ÐµÐ½ÑĤ
ĠÐĴÑĬÐ¿ÑĢÐ¾ ÑģÑĬÑĤ
ĠÑĢÐµ Ð²
ÑĢÐ»Ð° Ð½Ð´Ð¸Ñı
ĠÐ¿ÑĢÐ¸Ð¿Ð¾ Ð¼Ð½Ñı
Ð³ Ð»Ñĥ
ÑģÑĤÐ¸ Ð½
ĠÐ¿ ÑĤÐ¸ÑĨÐ¸
ĠÐ¡ Ð²ÐµÑĤÐ°
ĠÑģÑĬÐ´Ðµ Ð±ÐµÐ½
ÐºÑĢÐ¸ Ð¼Ð¸Ð½Ð°
Ð¿Ð¾ Ð»Ð¾Ð¶ÐµÐ½Ð¸Ðµ
Ðĳ Ð»Ð°Ð³Ð¾
ĠÑĦÐ¾ÑĤÐ¾Ð³ÑĢÐ°ÑĦÐ ¸Ð¸
ĠÑħÐ °Ð»
ĠÐĳÑĢÐ°Ð·Ð¸ Ð»Ð¸Ñı
ĠÐ½ÐµÐ¸Ð· Ð±Ðµ
ĠÑĦÐ° Ð¹Ð»
ĠÐ³Ð¾ ÑĤÐ²Ð¸
Ġ are
ĠÐ²ÑĬÑĤÑĢÐµÑĪ Ð½Ð¸
ĠÐ¸Ð·Ð¼Ðµ ÑĢÐ²Ð°
ĠÑģÑĬÐ¾ÑĤÐ²ÐµÑĤ Ð½Ð¸Ñı
ÑĢÑı Ð»
6 2
ĠÐ¿Ð° ÑĤÐ¾
ÑĩÐ¸ ÑĨÐ°
ĲÐ ¦ÐĺÐ¯
ĠS P
Ġ11 0
ĠÐºÐ° Ð¼Ð¸
ĠÐ²ÑĬÐ·ÑĢÐ° ÑģÑĤÑĤÐ°
Ð²ÑĬÑĢÐ·Ð° Ð½Ð¸
ĠÑĢÐ°Ð±Ð¾ÑĤ Ñı
ĠÐ¦ÐµÐ½ÑĤÑĢÐ° Ð»Ð½Ð°
ĠÐ¼Ð° Ð¼Ð°
Ð¹ Ð»Ð¸
Ð¿Ð° Ð½Ð¸
ĠÑģÐ¸ Ð½Ð´
¡Ð ¡
ĠÑģÐµÐºÐ¾Ñĺ Ð´Ð½Ðµ
ÑĩÐ° ÑĢÐ¸
ĠÐ¼ÐµÑĢÐ¾ Ð¿ÑĢÐ¸Ñı
Ġ Ð³ÐµÐ½
ĠÑģÑĤÐ° Ð¶
ĠÐ¼Ð° Ð»Ð¸
ĠÐ± Ð»Ñĥ
ĠÐĶÐ Ĵ
ĠÑĤÐ°Ð± Ð»Ðµ
ÑĢÐ¼Ð µÐ½
ĠÐ¿Ð¸ Ð»Ð¾ÑĤ
F F
ÑĢÐµ Ð½Ð¸ÑıÑĤÐ°
ĠÐ¿Ð¾Ð´Ð³Ð¾ÑĤÐ²Ð µÐ½Ð¸
ĠÑĪÐ ¾ÑĦÐ¸
Ð´Ðµ Ð¿Ñĥ
Ð»Ð±Ð¾ Ð¿Ð¾Ð´Ð°
Ð´Ð¸ Ð¸ÑĤÐµ
ĠÐ¸Ñģ Ð»Ñı
9 1
ĠÐ¿Ð»Ð° Ð¶
ĠÑĤÐµÑĢÐ¸ÑĤÐ¾ ÑĢÐ¸Ð¸
ĠÐ¾ÑĢÐ³Ð°Ð½Ð¸Ð·Ð° ÑĨÐ¸ÑĺÐ°
ĠÐĳÐ ĲÐĿ
Ð½ ÑģÐ°
ĠÐ±Ð¾ ÑĢ
ĠÐ³Ð¾ÑĤÐ¾Ð² Ð½Ð¾ÑģÑĤ
ĠÑĩÐµ ÑĢÐ½Ð°
ĠÐ¿ÑĢÐ¸ Ð²ÑĬÑĢÐ¶Ðµ
ĠÐ¿Ð¸ÑĪÐµ ÑĤÐµ
ÑĩÐºÐ¾ ÑĤÐ¾
ĠÐºÐ¾Ð¼Ð° Ð½Ð´
ĠÑģÐ»Ñĥ ÑĩÑĥÐ²Ð°
ĠÐ²Ñı ÑĢÐ²Ð°ÑĤ
ĠÐ¾ÑĤÐ»Ð¸ ÑĩÐ°Ð²Ð°
Ð± Ð»Ð¾
ĠÐ°Ð³ÐµÐ½ ÑĨÐ¸Ð¸
ĠÑħÐ¾ Ð´Ð°
ĠÐºÐ°ÑģÐ° Ð
ĠÑģÐ° Ð½ÑĤÐ¸
Ð»Ñİ Ð±Ð¸
ĠÐ°Ð½ÑĤÐ¸Ð ¾ÐºÑģÐ¸
Ġ3 50
ĠÐ¾Ð»Ð¸ Ð³Ð°
Ġ16 0
ĠÐºÑĥÑħ Ð½ÑıÑĤÐ°
ī Ñĥ
ĠÐ°Ð¿Ð°ÑĢÑĤÐ° Ð¼ÐµÐ½ÑĤÐ°
ĠÐ±Ð¸Ð µ
ĠÐĹÐ½Ð° Ð¼
ĠÐ´ÑĬÐ»Ð±Ð¾ ÑĩÐ¸Ð½Ð°
ĠÐ¼Ð¾Ð½Ð¸ ÑĤÐ¾ÑĢÐ¸
ĠÐ¿ÑĢÐµ Ð²ÑĬÐ·
ĠÐ¶Ð¸ Ð²Ð°
ĠÑĦÐµÑģÑĤÐ¸ Ð²Ð°Ð»Ð°
ĠÐ²ÑĬÐ½ ÑĪÐ½Ð¾
ĠÑĤÑĢÐ°Ð´Ð¸ ÑĨÐ¸Ð¸
ĠÑģÑĤÐµ Ð½Ð¸ÑĤÐµ
ĠÑı ÑģÑĤÐ¸Ñı
ÑĤÐµÐ» ÐºÐ°
Ġc m
ÑģÐ° Ð½Ð¸
ĠÑĤÐµ ÑĩÐµÐ½Ð¸Ðµ
ĠÐ¸Ð· Ð½ÐµÑģÑĥÐ²Ð°
ĠÑģÐºÑĬ Ð¿Ð¸
Ðº ÑĤÐµ
ĠÐµÐºÑģ Ð¿ÐµÑĢÑĤÐ¸ÑĤÐµ
ĠC ent
ĠÐ¿Ð° Ð½ÑĤÐ°
Ð»Ð¾Ð³Ð¸ ÑĩÐµÐ½
ĠÐĻÐ¾ Ð°Ð½
Ĥ ÑĢÐµÑĪ
Ñ ĤÑĢÐµÑĪ
Ð¿Ðµ Ð»
Ð»Ð°Ð½ ÑĤÐ»Ð¸
ĠÐĲ ÑĤÐ¸Ð½Ð°
ĠÐĹÐ´ÑĢÐ° Ð²
ĠÐ¿Ð°ÑĢ ÑĩÐµÑĤÐ°
ĠÑĤÑĢÐ¸ ÑĥÐ¼
Ð´ÑĬÐ»Ð ±Ð¾
ĠÐ° ÐºÐ²Ð°
ŁÐ µ
ÑģÑĤÐ¸ Ð»
ĠÑģÐ ¾ÑĦÐ¸
ĠÐĴÐµ Ð´Ð½Ð°
ĠÐ·Ð°Ð¿Ð¾ÑĩÐ½Ð° Ð»
ĠÐºÐ¾Ð»Ð¸ ÑĩÐµÑģÑĤÐ²Ð¾ÑĤÐ¾
ĠÐĶÐ¶Ð¾ ÑĢÐ´
ĠÐ±Ðµ Ð»Ð¸ÑĤÐµ
ÑĩÐµ ÑĢÐ²Ðµ
Ðº Ð½ÐµÑĤÐµ
ĠÐ¿Ð¾ÑģÑĤÐ¸ Ð³Ð½Ð°ÑĤ
ĠÐ°ÐºÑĤ ÑĮÐ¾ÑĢ
ĠÐ´Ð²Ð¸ Ð¶ÐµÐ½Ð¸Ñı
Ð´Ñĥ Ð²Ð°ÑļÐµÑĤÐ¾
ĠÐºÑĢÐ° ÑĩÐºÐ°
ĠÑģÐ¾Ð¾Ð¿ ÑĪÑĤÐ¸
ĠÐ¸ÑģÑĤÐ¸ Ð½ÑģÐºÐ¾
Ð¿ Ñģ
Ġm i
ĠÑĪ ÐºÐ¾Ð»Ð°
ĠÐ¿ÑĢÐ° ÑĤÐ¸
ĠÐ¨ Ð²Ðµ
ĠÐ¶Ð¸Ð»Ð¸ ÑīÐµ
Ð³ÑĢÐµ ÑģÐ¸
ĠÐ¾Ñ Ĩ
ĠÐ²Ð·Ð°Ð¸Ð¼Ð¾ Ð¾ÑĤÐ½Ð¾
ÑĢÐ¿Ð ¸
ĠÑĥÐ¿ÑĢÐ°Ð² Ð»ÑıÐ²Ð°ÑĤ
ĠÐºÐ¾Ð¼Ð¿Ñİ ÑĤÑĬÑĢÐ°
ĠÑģÑĢÐµÐ´ Ð½Ð°ÑĤÐ°
ĠÑĤÐ¾ ÐºÑĥ
ĠÐºÐ° Ð¼Ð¸Ð
Ð³ Ð²Ð°Ð½Ðµ
ÑĬÑĢ Ñģ
ĠÐĴÐ¸Ðµ Ð½Ð°
ĠÐ²Ð¸Ð¶Ð´Ð° Ð»
Ġs p
ĠÑĥÑģÐ¿Ñı ÑħÐ°
ĠÑģÐ¿Ð°Ð» Ð½Ñı
Ĥ ÑģÐºÐ°
Ñ ĤÑģÐºÐ°
ĠÐ¿ÐµÑģÐµÐ½ ÑĤÐ°
ĠÐ·Ð¾ Ð½Ð°ÑĤÐ°
ĠÑħÐ¸ Ð¿Ð¾ÑĤÐµ
ĠÐ½Ð°Ð´Ð·Ð¾ ÑĢ
ĠÐ´ÐµÑģÐµ ÑĤÐ¸Ð½Ð°
ĠÐ¾Ð±ÑıÑģ Ð½ÐµÐ½Ð¸Ðµ
ĠÐłÐµ ÑĪÐµÐ½Ð¸ÐµÑĤÐ¾
ĠÐµÐ´Ð¸Ð½ ÑģÑĤÐ²ÐµÐ½
ĠÐ¿Ð¾ÑģÑĤÐ° Ð²ÐµÐ½
Ð³Ð½Ð° Ð»
ĠÐ°Ð´Ð¼Ð¸Ð½Ð¸ÑģÑĤÑĢÐ° ÑĤÐ¸Ð²ÐµÐ½
ÐļÐ¾ Ð³Ð°ÑĤÐ¾
ĠÐ¼Ð°ÑĤÐµ ÑĢÐ¸Ñı
F i
ĠÐ° ÐºÑĨÐ¸Ñı
ĠÑĥÑĩÐ¸Ð»Ð¸ ÑĪÑĤÐµ
ĠÐŀ ÑĨÐµ
ĠÐ ©
ĠÑĦÑĥ Ð´Ð±Ð°
ĠÑģÐ¿Ð¾ Ð¼ÐµÐ½
ĠÐ¡ ÑĤÐ¸Ð²
ĠÐºÐ¾Ð¼ÐµÐ½ÑĤÐ° ÑĢÐ¸ÑĤÐµ
Ð¼Ð¸ Ðº
ĠÐ³Ð»ÐµÐ´ ÐºÐ°
Ð± ÑĢÐ°ÑĤ
Ð´ ÑıÐ²Ð°
ĠÑģÐ¾Ð±ÑģÑĤÐ²Ðµ Ð½Ð¸ÑĨÐ¸
ĠÐ½Ð°Ð»Ð¸ ÑĩÐ¸Ðµ
ĠÐ° ÑģÐ¿ÐµÐºÑĤÐ¸
ĠG l
ĠÐĽÐ° Ð·Ð°
ĠÑĪÐ¸ÑĢÐ¾ ÐºÐ°
ĠÐ¿Ð¾ÑĤÑĢÐµÐ±Ð¸ÑĤÐµ Ð»Ñı
o h
8 1
ÑģÐ¸ Ð½Ð°
ĠS m
ĠÑĩÑĥÐ¶ Ð´ÐµÐ½
ĠÐ¼Ð»Ð° Ð´Ð¾
ĠÐ²Ð¸ÑĢÑĥ Ñģ
Ð °Ð¼Ð°
ĠÐºÐ¸ ÑģÐ»Ð¾
ĠÐ¸Ð· Ð½Ð°
ĠÐ´Ð¾ÑģÑĤÐ¾ Ð¹Ð½
ĠÐĴÐµÐ»Ð¸ Ðº
ic al
Ð¿ÑĢÐ¾ Ð´Ð°
ĠÐ¢ÑĢÐ¸ ÑĦÐ¾
©Ð ŀ
Ð½Ðµ Ð½ÑģÐºÐ¸
I n
ĠÐ¾Ð±ÑīÐ¸ Ñı
ÑĤÐ°ÑĤ ÑĬÑĤ
ĠÐ¿Ð¾Ð´ÑĢÐ¾ Ð±Ð½Ð¾
ĠÐĴÐ ¸Ð
ad e
ŀÐ ĸÐ
ÑĢÐ¾Ñ Ħ
ĠÑĢÐ° Ð·Ð¸
ĠÑĤÐµÐ»Ðµ ÑĦÐ¾
ĠÐ¾Ð±Ð²Ð¸ Ð½ÐµÐ½Ð¸Ñı
ÑģÐ¾ Ð²Ð°ÑĤÐ°
ĠÐĳ Ñİ
ĠÐºÐ°Ð»Ðµ Ð½Ð´Ð°ÑĢ
ĠÑĢÐµÐ³Ð¸ ÑģÑĤÑĬÑĢ
ĠÐ±Ð¾Ð»Ðµ ÑģÑĤÑĤÐ°
ĠâĨ Ĵ
ĠÐĺÑģÑĤÐ¸ Ð½Ð°ÑĤÐ°
ĠÐ·ÐµÐ¼ÐµÐ´Ðµ Ð»Ð¸ÐµÑĤÐ¾
ĠÐ³Ð¾Ð»ÐµÐ¼Ð¸ Ð½Ð°
ĠB ulgaria
ĠÐ£ Ð²Ð°
ĠÐĵÐ¾Ð»Ñı Ð¼Ð°
Ð´ ÑıÐ²Ð°Ð½Ðµ
ĠÐ°Ð¼ÐµÑĢÐ¸ÐºÐ° Ð½ÑĨÐ¸ÑĤÐµ
ĠÐ·Ð°ÑĢÐ° Ð·ÐµÐ½Ð¸
ĠÑĢÐµÑĪÐ¸ Ñħ
ĠÐ²ÑĬ ÑģÑĤÐ°
ĠÐĿÐ¾ ÑĢÐ²Ðµ
ĠÑĨÐ¸Ð³Ð° ÑĢÐ¸
ĠÐ¿ÑĢÐ¸ÑģÑĬ Ð´Ð°
ĠÑģÐ¿Ð¾ Ð½
ÐĹÐ° ÑīÐ¾
ĠÐ³Ð° Ð»ÐµÑĢÐ¸Ñı
Ð²Ñı Ð½ÐµÑĤÐ¾
ĠÐĶÐ° Ð¶Ðµ
Ð¼Ðµ Ð·
ĠÐŁÐ¾ ÑĩÑĤÐ¸
Ð´ ÑģÑĤÐ²Ð¾
t a
µÑ ľÐµ
ĠÐºÐ¾Ð¼Ð¿Ð° Ð½Ð¸ÑĺÐ°ÑĤÐ°
u a
ĠÐ¿ÑĢÐ¾ÑĦÐµ ÑģÐ¸Ñı
ĠÐŁÑĢÐµÐ´ Ð¿Ð¾Ð»Ð°Ð³Ð°
ĠÐ¿Ð¾ ÑģÐ°
ĠÑģÑĤÑĥ Ð´Ð¸Ð¾
ĠÐĵ Ð»Ð¾
an ce
ĠÑĤ ÑĢÐ³Ð¾
ĠÐŁÐ °Ð½
ĠÐŀ ÑĦÐµ
ÑĢ ÑĩÐµ
ÑĦÐ ¸ÑĤÐµ
ĠÐ³ÑĢÐ°Ð´Ð¸ Ð½Ð°ÑĤÐ°
ĠB r
ĠÐ±Ð°ÑĤÐµ ÑĢÐ¸Ñı
ĠÐ°Ð²ÑĤÐ¾Ð±Ñĥ Ñģ
p s
ĠÐļÐ ª
ĠM an
ĠÐĺÐ· Ð±Ð¾
I P
ĠÐ¸Ð·Ð²Ðµ ÑĪÑĤÐ°
ĠL a
Ð²ÐµÐ´ Ð½ÑĬÐ¶
ĠÐłÐ ¾Ð±
ĠÐ¾ÑĨÐµ Ð½ÑıÐ²Ð°
ĠÐĵ ÑĢÐ¾
ĠÐ¿Ð¾ÐºÐ°Ð·Ð° ÑĤÐµÐ»Ð¸
Ð¼Ð¸ÑģÐ»Ðµ Ð½Ð¸
ĠÐ»Ð¸ ÑĤÑĢÐ°
ĠÐ¿ÑĢÐµ Ð¼Ð¸Ð½Ðµ
Ð¼ Ñģ
ĠÐĵÑĢÐ¸ Ð³Ð¾ÑĢ
ĠÐ´Ð²Ð¸Ð³Ð° ÑĤÐµÐ»Ñı
ĠÐĵÐµ ÑĪÐµÐ²
ĠÑĤÑĢÐ°Ð½ ÑģÑĦÐµ
ĠÐļÐ°Ð¿Ð¸ÑĤÐ° Ð»
ĠÑĢÐ°Ð±Ð¾ÑĤ Ð½Ð¸ÑĨÐ¸ÑĤÐµ
ĠÐŁÐ° Ð½Ð°
ĠÐµÐ´Ð½Ð° ÐºÐ²Ð¾
ĠÐŁ ÑĬ
ĠÐºÑĢÐ¸ Ð²Ð¸
ĠÐ°ÑĤÐ° ÐºÑĥÐ²Ð°
Ð´Ð¶Ð ¸ÐµÐ²
ĽÐ ĺÐ
ĠÐĺÑĤÐ° Ð»Ð¸ÑĺÐ°
ĠÐ¿ÑĢÐ¸ÐµÐ¼Ð° Ð½ÐµÑĤÐ¾
ĠÐ¤Ð¸ Ð½Ð°Ð½
ĠÑģÐ¿Ð¸ ÑĢÐ°Ð½Ðµ
Ð½Ð¸ ÑģÐºÐ¸
I R
ĠÐ²Ð¾ÐµÐ½ Ð½Ð°
Ð³Ð¾Ð»Ñı Ð¼Ð¾ÑĤÐ¾
ĠÐĺ ÐºÐ¾Ð½Ð¾Ð¼Ð¸
ĠÐ¸ÑģÑĤÐ¸ Ð¾ÑĤ
ĠÐºÑĥ ÑĩÐµÑĤÐ¾
ÑģÐ½Ð° Ð»
ĠÑģÑĤÐ°ÑĤÐ¸ ÑĺÐ°
ĠÐ¸Ð· ÑĤÑĢÐ¸
ĠS e
ÐºÐ°ÑĤÐ¾ ÑĢ
ĠÑĦ Ð»Ð¾
ĠÐ² Ð½Ð°ÑģÑı
Ĥ ÑģÐºÐ¸
Ñ ĤÑģÐºÐ¸
Ð»Ðµ ÑģÑĤÐ¸
Ġ Ð½Ñ
ĠÐ´ÐµÐ¿Ñĥ ÑĤÐ°ÑĤÐ¸ÑĤÐµ
ĠÐ¸Ð·Ð±Ð¸ ÑĢÐ°ÑĤ
ÑĤÐµÐ» Ð½Ð¸ÑıÑĤ
ĠÐŀ Ð¿Ð¸
Ð´Ðµ Ð¶Ð´Ð°
Ð¿ Ð»ÑĬ
ĠÑģÐ¾ ÑĩÐ°ÑĤ
ĠÐ½ÐµÐ¾Ð±ÑħÐ¾Ð´Ð¸ Ð¼Ð°
Ġ6 2
¡Ð ŁÐ
ĠP ost
it ion
ĠÑĢÐ°Ð· Ð¿Ð¸
ĠÐ½Ð°Ð¼Ðµ ÑģÐ°
ĠÐ±ÑĢÐµ Ð³Ð°
ĠÐºÐ¾ÑĢÐ¸ Ð³Ð¸
ĠÐŁÑĢÐ¾Ðµ ÐºÑĤÑĬÑĤ
ĠÑģÐµ Ð»Ñı
Ð½Ð° Ðº
ĠÐŀÑĢÐ³Ð°Ð½Ð¸ Ð·Ð°
ĠÐ·Ð°Ð±Ðµ Ð»ÑıÐ·Ð²Ð°
k s
ĠÑĤÑĢÐµ ÑĤÐ¾ÑĤÐ¾
ĠÐ´Ð¸ ÑģÑĤÑĢÐ¸Ð±Ñĥ
ĠÐ¾ÑĢÐ¸ Ð³Ð¸Ð½Ð°Ð»
ÑĥÐ²Ð° ÑĤÐµ
ĠÐļÐ¾ Ð»ÐµÐ²
ĠÑģÐµ ÑĢÐ²Ð¸Ð·
, "
ĠÐ³Ð»Ð° Ð²Ð½Ð¸ÑĤÐµ
ĠÐ¸Ð· Ð²Ð»Ðµ
Ġ3 000
ĠÐºÑĢÐ°ÑģÐ¸ Ð²Ð¾
ĠÐ¿ÑĢÐ¸ ÑĦÐ°
ĠÐ¿Ð°ÑĢ ÑĨÐµ
ĠÑħÐ¾ÑĢÐ¸Ð·Ð¾ Ð½ÑĤÐ°
ul l
ĠW h
ĠÐ±Ð¾ Ð»Ð¸
ĠÐ·Ð° Ð´Ñĥ
ĠÐ°ÑĥÐ´Ð¸ ÑĤÐ¾
ĠÑģÐ¾ÑĨÐ¸Ð°Ð»Ð¸ ÑģÑĤÐ¸
ĠÐ¿Ð¾ÑģÑĤÐ¾ÑĺÐ° Ð½Ð¾
Ð½Ñı Ð¼Ð°
ĠÐ¼Ð¾Ð ¸
ĠÐµÐ¶ÐµÐ´Ð½Ðµ Ð²Ð½Ð¾
ĠÑĨÐµ Ð»Ð°ÑĤÐ°
ĠÐŁÑĢÐµÐ´Ð»Ð°Ð³Ð° Ð¼Ðµ
ĠÐ´Ñĥ Ð·
ĠÐº ÑĬÑĤ
ĠÐµÐ½ÐµÑĢÐ³Ð¸ ÑıÑĤÐ°
Ð²Ð° ÑīÐ¸ÑĤÐµ
ĠÐºÐ¾Ð½ÑģÑĤÑĢÑĥ ÐºÑĨÐ¸Ñı
ĠÐŁÐ £
ĠÐŁÐµÑĤ ÑĢÐ¾Ð²Ð°
ĠÐ¼Ð¾ Ð´Ð°
ĠÐ²Ð° ÑĪÐ¸ÑıÑĤ
ĠÑĥ ÑģÑĬÐ²ÑĬÑĢÑĪÐµÐ½
ĠÐĽÐ¸ Ð¿
¸Ð °ÑĤ
ĠÑĢÐµ ÑĦ
ĠÐ¿Ð°ÑĢÐ° Ð¼ÐµÑĤÑĢÐ¸
Ð»Ð° ÑĨÐ¸ÑĺÐ°
ĠÐ¿Ð¾Ð³Ð¾ Ð»ÐµÐ¼Ð°
Ð±ÑĬÑĢÐ ·Ð°
ĠÐ±Ð¸ Ð»ÐµÑĤ
ĠÑĤÐ¸ Ð¼Ð¾ÑĤ
ĠÐłÐ°Ð· Ð¼ÐµÑĢÐ¸
ĠÑĢÐµÑĦÐµÑĢÐµÐ½Ð´ ÑĥÐ¼
ĠÐºÑĢÐ°ÑģÐ¸ Ð²
ĠÐ±Ð¾ ÑĢÐ´Ð°
ĠÐ²Ð¾ Ð»ÐµÐ¹Ð±Ð¾
ĠÑģÑĤÐ° ÑĢÐ¸Ñı
Ð½ ÑģÑĤÐ²Ð°
ÑģÐ¸ Ð¹
ĠÑģÐ¿Ð¾ÑģÐ¾Ð± Ð½Ð¾ÑģÑĤÑĤÐ°
ĠÑģÐ¾Ð ¾Ð´Ð²ÐµÑĤ
ĠÑģÑĤÑĢÐ¾Ðµ Ð¶
¾Ñ īÐµ
ĠÑģÐ¿ÑĢÐ° Ñ
ĠÑģÐ¿ÑĢÐ°Ñ Ĥ
ĠÐ·Ð° Ð¼ÐµÐ½Ð¸
ĠÑĢÐµÐºÐ»Ð° Ð¼Ð¸
ĠÐŁÑĢÐµ Ð·Ð¸Ð´ÐµÐ½ÑĤÑĬÑĤ
ĠÐºÐ° Ð»Ð¸
ĠÐ±Ð¾Ð³Ð°ÑĤ ÑģÑĤÐ²Ð¾
ÑĤÐ¸ ÑĩÐ½Ð¸ÑĤÐµ
ÐĴ ÑģÐµ
ÑĤÐµÐ» ÐºÐ°ÑĤÐ°
ĠÐ¿Ð»Ð¾ÑīÐ° Ð´
ĠÐ¼Ð°ÐºÐµÐ´Ð¾ Ð½ÑģÐºÐ¸Ð¾ÑĤ
ĠÑĤÑĢÑı Ð±Ð²Ð°ÑĤ
ĠÐĲ ÑģÐ¾ÑĨÐ¸Ð°
ĠÑĢÐ¾ Ð´Ð¾
ĠÐ±Ð° ÑĤÐµÑĢÐ¸Ð¸
ĠÑģÐºÐ»Ð° Ð´
ĠÐ¿ ÑĢÐ²Ð°
Ð½Ðµ Ð·Ð°
ĠÐ¸Ð¼Ðµ Ð¹Ð»
ĠÐºÐ° ÑĦ
ĠÐ½Ð°Ð¼Ð° Ð»ÑıÐ²Ð°ÑĤ
ĠÐĶÐ ĿÐ
if e
ĠÐĵÐ °Ð»Ð¸
ĠÐĽÐ ¸ÑĤÐµ
ĠÑĩÑĥÐ´Ðµ ÑģÐ½Ð¾
ĠÐ¿Ð¾ Ð³Ð°
ĠÑģÐ°Ð¼Ð¾ Ð»ÐµÑĤÐ°
ĠÑĢÐµ Ð´Ñĥ
ĠÐ¼Ð° ÑĦÐ
ĠÐ¿Ð¾Ñħ Ð²Ð°Ð»Ð¸
ĠÐºÐ»ÑİÑĩÐ¾ Ð²Ð¸
ĠÐ´ÐµÐ¼Ð¾ÐºÑĢÐ° ÑĨÐ¸ÑıÑĤÐ°
ĠÑģÐ»ÐµÐ´ ÑģÑĤÐ²Ð¸Ðµ
ĠÑģÑĢÐµ ÑľÐ°
ÑĢÐµÐ´ Ð½Ð¾
ĠÐ½Ð° Ð¼Ð¸
ĠÐ±Ñİ ÑĢÐ¾
ĠÐ¿ÑĢÐµÐ´Ð¿Ð° Ð·Ð²Ð°
Ðļ ÑĢÐ°
ĠÐ¦Ð µÐ½ÑĤÐ°
ĠÐ¸ Ð´Ð¸
ĠÐĲ ÐĿÐ
ĠI V
ĠÐłÐ°Ð· Ð¼ÐµÑĢ
ĠÐ¼Ð¾ ÑıÑĤ
Ð±Ð¾ Ð³Ð°
ĠÑīÐ°ÑģÑĤÐ»Ð¸ Ð²Ð¸
ĠÑħÐ¾ Ð´ÑıÑĤ
ĠÑĤÐµÑħÐ½Ð¾Ð»Ð¾Ð³Ð¸ ÑıÑĤÐ°
ĠÐ¿Ð¾Ð´Ð ¾ÑĨÐ½Ð°
ĠÑĥ ÑĤÑĢÐ¾
ĠÐ¾Ð±Ñı Ð²ÑıÐ²Ð°
ÑĢÐ° ÑĨÐ¸ÑıÑĤÐ°
Ð¿ÑĢÐ° Ð²Ð¾
ÑģÑĮÐ¾ ÑĢ
I X
ĠÐ´Ð¾ÐºÐ° Ð¶Ðµ
ĠÐ³Ð° Ð»Ðµ
ĠÐ¿Ð¾Ð´ ÑģÐºÐ°
b o
ĠÑĥÑĩÐ° ÑģÑĤÑĬ
ĠÑģÑĬÑģÑĤÐµÐ·Ð° Ð½Ð¸ÐµÑĤÐ¾
ĠÐ²Ð¾Ð¹ Ð½Ð¸ÑĨÐ¸
Ġ199 7
ĠÐ´ÐµÑĤ ÑģÐºÐ¸ÑĤÐµ
ĠÐŀÑħÑĢÐ¸Ð´ ÑģÐºÐ¸
ĠÐºÐ°ÑĩÐµ ÑģÑĤÐ²ÐµÐ½Ð¸
ĠÐ¾ ÑģÐµ
ĠÐ¿ÑĢÐµ ÑģÐ¸
Ð²Ðµ ÑĤÐ¾ÑĤ
ĠÐ²Ð¾ Ð¹ÑģÐºÐ¸
łÐĲÐ ĶÐ
ĠÐ¸Ð· Ð¿Ð¸ÑģÐ°
ĠÐ²ÑĬÐ²Ðµ Ð¶Ð´Ð°Ð½Ðµ
ĠÐ¿Ð¾ÑĤÑĢÐµ Ð±Ð°
ĠÐ° ÑĢÑĤ
ĠÐ¿Ð¾ÑģÐ»ÐµÐ´ Ð½Ð¸ÑıÑĤ
ĠÐ²Ð¸Ð½Ð¾Ð² Ð½Ð¸
ĠC on
ĠÐ² ÑĢÐµÐ´Ð¸
Ð½Ð »Ð
ÑĢÑĤÐµ ÑĢ
ĠÐ·Ð°ÐºÐ¾Ð½Ð¾ Ð¿ÑĢÐ¾Ðµ
ĠÐ»Ðµ Ð³Ð¸
Ð¢ ÑĢÐ°
¾ÑħÐ ¸
ĠÐ½Ñİ Ð°Ð½
ĠÐ·Ðµ Ð»ÐµÐ½Ð°
ĠÑĤÑĬÑĢÐ³Ð¾Ð² ÑģÐºÐ°
ĠÑĪÐ¾ÐºÐ¾Ð»Ð° Ð´
Ð¹ ÑģÐµÑĤ
Ð½Ðµ ÑĨÐ°
ĠÐ¿Ð¾Ð²Ð¸ ÑĪÐ°Ð²Ð°
ĠÐŁÐ¾ Ð³Ð»ÐµÐ´
ĠÐ´Ðµ Ð»Ð¾Ð²Ð¸
ĠÐµÐºÑģ Ð¿Ð¾
Ð»Ðµ Ð³Ð¸
ĠÐĿÐ° Ð¼Ð°
ĠÐ±Ðµ Ñģ
ĺÐ Ł
ĠM edia
µ Ð¼Ð¸ÑĤÐµ
ĠÐ¿Ð¾ÑĩÐ¸ ÑģÑĤÐ²Ð°
ĠÐ½Ð°ÑĩÐ° Ð»Ð½Ð¸Ðº
Ð²Ð° ÑĢ
ĠÑĩÐ¾Ð²Ðµ ÑĪÐºÐ°ÑĤÐ°
ĠÐĶÐµÐ» ÑĩÐµÐ²
ÑĪÐ° Ð²Ð°Ð½ÐµÑĤÐ¾
Ġ an
Ġ am
ĠÐŀÑĤ Ð½Ð¾Ð²Ð¾
ĠÐ¿ÑĢÐ°ÐºÑĤÐ¸ ÐºÐ°ÑĤÐ°
ĠÐ¾ÑģÑĤÐ°Ð½Ð° ÑħÐ°
ŁÐ ļ
ĠÐ¿ÑĢÐ¸Ð¿Ð¾ Ð¼Ð½Ð¸
ĠÑĢÐ°Ð·Ð½Ð¾ Ð¾Ð±ÑĢÐ°Ð·Ð½Ð¸
ĠÐ¾ÑĤÐ½Ð¾ ÑĪÐµÐ½Ð¸ÐµÑĤÐ¾
ĠÑģÑĬÐ²ÑĢÐµÐ¼ÐµÐ½ Ð½Ð¸ÑĤÐµ
Ġ199 8
ĠÐŁÑĢÐ¾ Ð´Ð°
ĠÐ¡ÑĬ Ð±Ð¸
ÑħÐ¸ Ð´ÑĢÐ°
iv ers
ĠÐ´Ñĥ Ð¿ÐºÐ°
ĠÑĢÐ°Ð±Ð¾ ÑĤÐ°ÑĤ
ĠÐºÑĢÐ¸ÑĤÐµ ÑĢÐ¸Ð¸
ĠÑĢÐ°Ð·Ð¿ÑĢÐ¾ÑģÑĤÑĢÐ° Ð½ÐµÐ½Ð¸Ðµ
B C
ĠÐ¿Ð° ÑĢÐºÐ°
ĠÐĶ Ð²Ñĥ
ĠÐ¿ÑĢÐµÐ´ÑģÑĤÐ°Ð²Ð¸ÑĤÐµ Ð»Ð¸ÑĤÐµ
ÑĢÐµÐ µ
ĠÐ½Ð°Ñĺ Ð¼Ð°
ĠÐ¸Ð·Ð±ÑĢÐ° Ð½Ð¸
ĠÐ¿ÑĢÐµ ÐºÐ¸
ÑĢÐ° Ð»Ð°
ĠÐ¸Ð· ÑĺÐ°
Ð²ÑĬÑĢÐ ·
ĠÑģ ÑħÐµ
ĠÐ¿Ð¸Ñģ Ð¼Ð°
ĠÂ §
ĠÑģÑĬÑģ ÑĢÐµÐ´Ð¾ÑĤÐ¾
Ð½Ðµ ÑĤÐ¸ÑĤÐµ
ĠÐ¡Ð¿Ð¾ Ð´ÐµÐ»Ð¸
ĠÐĳÐ µÐ»
Ð ¸Ð¼Ð°
Ð¼Ð¸ Ð½Ð¸Ðµ
ĠÐ± Ð»ÑĬ
µ Ð½Ð°ÑĤÐ°
ĠÐ·Ð°Ð´ Ð²Ð¸Ð¶
Ð°Ð» Ð½Ð°ÑĤÐ°
ĠÐ¡ÐµÑĢÐ³Ð µÐ¹
ÑģÑĤ ÑıÐ²Ð°Ð½Ðµ
ĠÑĦÐ¸Ð½Ð°Ð½ÑģÐ¾ Ð²Ð¾
ĠÐ¼Ð¸ Ð»Ð¸ÑĺÐ°
ĠÑĩÑĥÐ² ÑģÑĤÐ²Ð°ÑĤ
ÑĤÐ¸ÑĢÐ° Ð½Ð°
ÑĪ ÐºÐ¾Ð²
ĠÐ½ÑıÐ¼Ð° ÑĤÐµ
ĠÐ¾ÑĤÐ¿Ð° Ð´Ð½Ð°
ÑĩÐ²Ð° Ð¼
ĠÐ¿Ñĥ ÑģÐ½Ðµ
ĠÐ¢Ð¾Ð µÑģÑĤ
ĠÐ±Ñĥ ÐºÐ²Ð¸
ĠÐ¸Ð·ÑģÐ»ÐµÐ´ Ð²Ð°Ð½ÐµÑĤÐ¾
ĠÐ¿ÑĢÐ¸ÐµÐ¼Ð° Ð½Ðµ
Ð½Ð¾ Ð
ĠÑĩÐµ ÑĢÐµ
ÑģÑĬ Ð²Ðµ
ĠÐµÐ»ÐµÐºÑĤ ÑĢÐ¾ÐµÐ½Ðµ
ĠÐĶÐ¾ Ð³Ð°Ð½
Ð§Ð °
ĠÐ¾ÑĤÑĩÐµ Ñ
ĠÐ¾ÑĤÑĩÐµÑ Ĥ
ĠÐºÐ¾Ð½ÑģÑĥÐ»ÑĤÐ° Ð½ÑĤ
ĠÐºÐ° Ñĥ
ĠÑģ Ð´Ð¾Ð±Ð¸
Ð½Ð¸ÑĤÐµ Ð»
ÑĩÐ½Ð¾ ÑģÑĤÐ¸
ĠÐ¶ Ð»Ðµ
ĠT V
6 1
ĠÐ¼Ð¾Ñ ľ
ĠÑĢÐ°Ð· Ð±Ð¾
ĠÐ²Ð»Ð¸Ñı Ð
ĠÑĤÐ²Ð¾ Ð¸ÑĤÐµ
ĠÐŁÐ¾ Ð´Ð³Ð¾
Ðĺ Ð½ÑĤÐµ
ĠÑģÑĬ ÑīÐ¸ÑıÑĤ
ĠÑİ Ð³Ð¾
Ð·Ðµ ÑĤÐµ
ĠÐ½ÐµÑĺÐ·Ð¸ Ð½Ð°ÑĤÐ°
ĠÑģÐ¿Ð¾ÑģÐ¾Ð± Ð½Ð¾ÑģÑĤÐ¸
ĠÐ±Ð° ÑģÐºÐµ
ļÐ ¡
Ð³ÑĢÐ° Ð¶Ð´Ð°
ĠÑĦÐ¸Ð·Ð¸ Ð
ĠÐĲ Ð¿ÑĢÐ¸Ð»
ĠÑĤÐ²Ð¾ ÑıÑĤÐ°
ĠÐµ Ð¹
ÑģÑĬ Ð·Ð´Ð°
Ð»Ð¸ Ð½Ð°ÑĤÐ°
ĠÐ¸ÑģÐºÑĥ ÑģÑĤÐ²Ð¾
ov er
ÑĤÐ²Ð° ÑĢÑıÑĤ
ĠÐĳÑĬÐ»Ð³Ð° ÑĢÑģÐºÐ°
ĠÐļÐ¾Ð¼ÐµÐ½ÑĤÐ° ÑĢ
ĠÑĢÐ° Ð´Ð¸Ð°
Ð½Ñı ÐºÑĬÐ´Ðµ
ĠÐ¿Ð°ÑĢÑĤÐ¸ ÑĺÐ°
ÐºÑĤÐ¸ Ð²Ð½Ð¸ÑĤÐµ
ĠÑħ ÑĢÐ¾
Ñģ Ð¼Ñĥ
ĠÐºÐ° Ð½ÑĨÐµ
ĠÐ¶ÐµÐ»Ð° Ð½Ð¸Ñı
ĠÑĺÑĥ Ð»Ð¸
ĠÑģÐ¼Ðµ ÑĤÐºÐ°ÑĤÐ°
ĠÑģÑĤÑĢÐµ Ð»Ñı
Ð² ÑĩÐµ
ĠÐ´Ð° ÑĢÐ¸
ĠÐ¿ÑĥÐ±Ð»Ð¸ÐºÐ° ÑĨÐ¸Ñı
ĠÐ±Ðµ Ð·Ð¶Ð¸
Ð´Ð¸ Ð²Ð¸
ĠÐ¿ÑĢÐ¾Ð¸Ð·Ð²Ðµ Ð¶Ð´Ð°ÑĤ
ĠÑĢÐ°Ð· Ð±ÐµÑĢÐ°
ĠÐ¿ÑĢÐµ ÐºÐ¾
ĠÑģ ÑĢÐ¸
ĠÐºÐ¾Ð¼Ð¿Ð° Ð½Ð¸ÑĺÐ°
ĠÐ¾Ð±Ð¸ ÐºÐ½Ð¾Ð²ÐµÐ½
°Ñ ļÐµÑĤÐ¾
Ð¹Ð µ
ĠÑģÑĬ Ð±ÐµÑĢÐµ
ÑģÐµ Ð±ÑĬÑĢ
il d
ĠÑħÐ¸ Ð³Ð¸Ð
ĠÐŁÑĢÐ¾ÑĦÐµ ÑģÐ¸Ð¾Ð½Ð°
ĠÐĶÐµÐ¹ Ð²Ð¸Ð´
ĠÑģÐ°Ð¼Ð¾ ÑĩÑĥÐ²
ĠÐµÐ½ÑĤÑĥ ÑģÐ¸Ð°
ĠÐ°Ðº ÑĨÐ¸Ð¸ÑĤÐµ
Ð»Ñĥ Ð
Ð± Ð³
ĠÑĦÐ¸Ð·Ð¸Ð ¾
Ð¼Ð¸ ÑĺÐ°ÑĤÐ°
ĠP C
ĠÐºÑĥÑĢ ÑģÐ¾Ð²Ðµ
ĠÑģÑİ Ð¶Ðµ
Ð¿ Ð»Ñı
ĠÐ½Ð°ÑĢÐµ ÑĩÐµÐ½Ð°
ĠÐ¿ÑĢÐµÐ´Ð¾ÑģÑĤÐ° Ð²ÑıÐ½Ðµ
ĠÐĽÐ¾ Ð²ÐµÑĩ
ĠÐ±Ð° ÑīÐ°ÑĤÐ°
ĠÐ´Ð²Ð¸ Ð¶Ð°ÑĤ
ĠÐ½Ð°ÑģÐµ Ð»ÐµÐ½Ð¸
ĠÐ¾ÑĤÐºÐ° Ð·
ĠÐ¿ÑĢÐ¾ ÑĩÐµ
ĠÑĥÐ±Ð¸Ð¹ ÑģÑĤÐ²Ð¾
ĠIn t
ĠÑĪÐ°Ð½ ÑģÐ°
ĠApart ment
ÐļÐ ¾Ð½
ex t
ĠÐ¸Ð·Ð¾Ð±ÑĢÐ° Ð¶ÐµÐ½Ð¸Ñı
ÑĩÐµ ÑļÐµ
ĠÐ¿Ð¾ ÑĤÐ¸
Ð·Ðµ Ð½Ð¸ÑĤÐµ
ĠÐ½ÑıÐ¼Ð° ÑĪ
ĠÐºÐ° Ð¼ÐµÐ½
ĠÐ´Ð° Ð´ÐµÐ½Ð¸
ĠÐ£Ð¸ Ð»ÑıÐ¼
ĠÐ½Ð°Ñĺ Ð´Ðµ
ĠÑĤÐ¾Ð¿Ð»Ð¸ Ð½Ð°
le d
Ġ Ð»ÐµÐ´
ÑĢÐµ ÑļÐµ
ĠÑĤÑĢÐ° Ð³Ð¸
ĠÑģÐ¿Ð° Ð·Ð²Ð°ÑĤ
Ð¼ ÐºÐ¸
ĠÐµÐ»ÐµÐºÑĤÑĢÐ¾ Ð½ÐµÐ½
ĠÐ·Ð½Ð°Ðµ ÑĪÐµ
ĺÐ Ĳ
ĠÐ²ÑĬÐ²Ðµ Ð¶Ð´Ð°Ð½ÐµÑĤÐ¾
ĠÐĺÐ· Ð±ÐµÑĢÐµÑĤÐµ
er v
ÑĢÐ±Ð ¸ÑĤÐµ
ĠÐŁÐ¾ Ð·Ð½Ð°
ĠÐ¿Ð¾ÐºÑĥ Ð¿ÐºÐ°
ĠÐľÐ° Ðº
ĠÐ¸Ð½Ð´Ñĥ ÑģÑĤÑĢÐ¸
e y
Ġ6 9
Ð¼Ð¸Ð½Ð¸ ÑģÑĤÑĬÑĢ
ĠÑĥÑģÐ¿Ðµ ÑĪÐµÐ½
ĠÐ½Ð°Ñĺ Ð¼Ð½Ð¾Ð³Ñĥ
ĠÐĿÐ° ÐºÑĢÐ°Ñı
ĠÐ¾ÑĤÐ² ÑĬÑĢÐ½Ð°
ĠÐ¾ÑĤ ÑĢÐ°Ð·Ð¸
Ð´Ð¾Ñħ Ð¼Ðµ
ĠÐ½Ð° ÑĢ
ĠÐ²Ð·Ð¸ Ð¼Ð°ÑĤ
ĠÐĴÐ µÐ½
ÐºÑĥ Ð
ĠÐ½Ñĥ Ð¶Ð½Ð¸
ĠÐ¿ÑĢÐ¾Ð³ÑĢÐ°Ð¼Ð¸ ÑĢÐ°Ð½Ðµ
ĠÐ³ÑĢÐ¸ Ð¿
ĠÐĳÐ ¢ÐĲ
ĠÐ´Ð¾ÑģÑĤÑĬÐ¿ Ð½Ð¸
ĠÐ¡Ð° Ð¼Ð¸ÑıÑĤ
f o
Ð²Ðµ ÑĢÐ¸
ĠÐ¿ÑĢÐ¸ Ð±Ð¸ÑĢÐ°
ar s
ĠÐ¶Ð¸Ð»Ð¸ ÑīÐ°
ĠÐ¿ÑĥÐ½Ðº ÑĤÐ°
ĠÐ¸Ð´Ð½Ð¸ Ð½Ð°
Ð ĪÐ
ĠÐ¢ Ð²Ð¾
ÑĢÐ¿Ð µ
ĠÐ±Ðµ Ð»Ð¾
ĠÐ¿ÑĢÐ¾Ð¸Ð·Ð²Ð¾Ð´Ð¸ÑĤÐµ Ð»Ð¸ÑĤÐµ
ĠÐľÐ° ÑĢ
A P
ĠÐ¸Ð·Ð±Ðµ Ð³Ð½Ðµ
ĠÐŁÑĢÐ¾Ñ Ħ
Ð²Ð¾ Ð²
3 00
Ġ ÑĬÐ³
ÑĢÐ¸Ð °Ð»Ð¸
ĠÐ¼ÑĬÐ¶ ÑĬÑĤ
t i
ĠÐ±Ð¾Ñı Ð´Ð¸
ÑĢÐ°ÑĤ ÑĬÐº
ĠÐ¿ÑĢÐ¸Ð»Ð°Ð³Ð° Ñ
ĠÐ¿ÑĢÐ¸Ð»Ð°Ð³Ð°Ñ Ĥ
ĠÑĦÐ° ÑģÐ°
ĠÐ½Ð¸ ÐºÑĬÐ´Ðµ
ĠÑĥÐµÐ± ÑģÐ°
ĠÐ·Ð¸ Ð¼Ð°
Ð²ÐµÐ µ
ÑģÑĤÐ²Ðµ Ð½Ð¸Ðº
Ð³Ðµ ÑĢ
ĠÐ´Ð¾Ð³Ð¾ Ð´Ð¸Ð½Ð°
ĠÐ¼Ð¾Ð¶Ðµ Ð¼Ðµ
ĠÐ¾ÑĤ ÑĢÐ°Ð·
Ñı ÑħÐ¼Ðµ
ĠÐ¿Ð¾ Ð³ÑĢÐ¸
ĠÐ³ÑĢÑĬÑĨ ÐºÐ¸
ĠÑģÑĢÐµ ÑīÐ°ÑĤ
p ro
ĠÐºÐ°Ð»Ðµ Ð½Ð´Ð°
Ð½Ð¾ ÑģÐ°
ĠÐ¾ÑĤÐ²Ð¾ ÑĢÐµÐ½Ð°
ĠÐ½Ð¸ ÐºÐ¾Ñĺ
ĠÐ´Ðµ Ð½Ð¾ÑĤ
ĠÐĳÐµ Ð»Ð³Ð¸Ñı
ĠÑīÐ°ÑģÑĤÐ»Ð¸ Ð²
ĠÐ¿Ð¾ÑģÐµÑĤÐ¸ÑĤÐµ Ð»Ð¸
ĠÐ´Ð°Ð´Ðµ Ð½Ð¾
ĠÐ¿ÑĢÐµÐ´Ð²Ð¸ Ð´ÐµÐ½Ð¸
ĠÐ±ÐµÐ·Ð¿Ð»Ð° ÑĤÐµÐ½
ĠÐŀ Ð³
ÑģÑĤ ÑĢÐ¾Ð²
ĠÐ¿ÑĢÐ¸ Ð²Ð°ÑĤ
ĠÐ¿ÑĢÐµÐºÑĢÐ° ÑģÐµÐ½
ĠÐ¢Ð¾ Ð½Ð¸
ĠÐ±ÑĬÑĢÐ ºÐ°
Ð·Ð¾ Ð²Ð¾
ĠÐ¥Ð° Ð¹Ð´Ðµ
ĠÐ²Ð¸Ð´Ñı Ð»
ĠÑĦÐ¸Ð½Ð°Ð½ÑģÐ¾ Ð²Ð¸ÑĤÐµ
Ġ5 000
ĠÐ³Ðµ Ð½ÐµÑĤÐ¸
ĠÐ¿Ð¾Ð´Ð° Ð²Ð°Ð½Ðµ
ĠÐ°ÑĢÑħÐ¸ÑĤÐµ ÐºÑĤÑĥÑĢÐ°
ĠÐ±Ð¸ ÑģÐºÐ²Ð¸
ĠÐ´Ñĥ ÑĪ
ĠÑĩÑĥÐ¶Ð´ÐµÑģÑĤÑĢÐ°Ð½ Ð½Ð¸
ĠÐ±Ð° Ð¹
ĠÐĴÑĬ Ð·Ð¼Ð¾
ĠÐ½Ð°Ð´ Ð²Ð¸
ĠÐ·Ð°Ð³Ñĥ Ð±Ð°ÑĤÐ°
ĠÐºÑĥ Ð¿Ð¾
ĠÐ¡ÑĬ Ð´ÑĬÑĢÐ¶Ð°
Ð¿Ð¾Ð´ ÑħÐ¾Ð´Ñı
ĠÐºÑĢÐ°Ð¹ Ð±ÑĢÐµ
ÑĢÐºÐ¾ Ð²
ĠÑĥÐ´Ð¾ Ð±ÐµÐ½
ĠÐ° ÑĤÐµÐ½
ĠÐ°ÑĢÐ° Ð±
Ð½Ð» ÑĬÐº
ÑĢÐ¸ÑģÑĤÐ¸ ÐºÐ°
Ġs h
ĠÐ¼Ð° Ð³Ð½Ð¸
ĠÐºÑĢÐ°ÑģÐ¾ ÑĤÐ°ÑĤÐ°
ĠÐ¾Ð± ÑīÐ¸ÑĤÐµ
ĠÐ²ÑĬÐ½ ÑĪÐ½Ð°
Ð´Ð° Ð¼Ð½Ð°
ĠÐ³Ð° Ð»Ð°
ĠÐºÐ° Ð±ÐµÐ»
Ð³Ð¾ Ð»
ĠÐ³Ð° ÑĢÐ´Ðµ
ĠÐĿÐ° ÑĩÐ°
ĠÐ¨Ð²Ðµ ÑĨÐ¸Ñı
ĠÐ¿Ð¾ÐºÐ° Ð¶Ð°ÑĤ
ĠÑģÐ¸ Ð½ÑĮÐ¾
ĠÐ²ÑĬ Ð·Ð¾
ĠÐºÐ¾Ð½ÑģÑĥ Ð¼Ð¸ÑĢÐ°
ĠÐ¼Ð¾Ð´Ðµ ÑĢÐµÐ½
ĠÐĲÐ³ÐµÐ½ ÑĨÐ¸ÑıÑĤÐ°
ÑģÑĤ ÑĬÐ½
ÑĬÑĢÐ ³
ĠÐ½ÐµÑĺÐ·Ð¸ Ð½Ð¸Ð¾ÑĤ
ĠÐ½Ð° Ð¿ÑĬÐ»
ĠÐĳ ÑıÑħ
ĠÑĤÑĢÐ°Ð½ÑģÑĦÐ ¾ÑĢÐ¼Ð°
° Ð·
Ð¼ Ð½ÑıÑĤ
ÑĢÐ¾ Ð¸ÑĤÐµ
Ð± ÑĢ
ĠÐ¿Ð¾ ÑģÑĤÐ¾Ð
Ġ6 1
ĠÐłÐ¾ ÑģÐµÐ½
ĠÐ¡Ð¾Ð±ÑĢÐ° Ð½Ð¸ÐµÑĤÐ¾
ĠÐĶÐ ¡
ĠÐĶÐ¶Ðµ Ð¹
ĠÐ·ÐµÐ¼ÑĺÐ¾ Ð´ÐµÐ»
¾ ÑĢÐ³Ð°Ð½Ð¸
ĠÐ¿ÑĢÐ¾Ð²Ðµ Ð¶Ð´Ð°Ð½ÐµÑĤÐ¾
ax y
ĠÐ·Ð°Ð¿Ð¾ÑĩÐ½Ð° Ð»Ð¸
az ar
ĠÑħ Ð²Ð°Ð½Ð°
ĠI P
ĠÐºÐ»Ð°ÑģÐ¸ ÑĩÐµÑģÐºÐ¸
ĠA ut
ĠÐľÐµ ÐºÑģÐ¸ÐºÐ¾
er a
ĠÐ¾ÑĩÐ°ÐºÐ²Ð° Ð½Ð¸ÑıÑĤÐ°
ĠÑĢÐµÐ¶Ð¸ÑģÑĮÐ¾ ÑĢ
ĠÐĽÐ¾ ÐºÐ¾Ð¼Ð¾ÑĤÐ¸Ð²
ÑģÑĥ Ð²Ð°ÑĤ
ill a
ĠÐļ Ð»Ñİ
ĠÐļÐ ¢Ðĳ
ĠÐ¾ÐºÐ¾ Ð»Ð½Ð¸ÑĤÐµ
Ð ¸Ð½Ð°
ĠN ew
ĠÑģÑĤÐ° ÑĢÑĤÐ°
ĠÑĢÐµÑĪÐ¸ Ð»Ð¸
al k
ĠÐ²Ð¿ÐµÑĩÐ° ÑĤÐ»Ðµ
ÐºÐ° Ðº
Ð´ Ð²Ð°Ð½ÐµÑĤÐ¾
ÑĪ ÑĤÐ°ÑĤÐ°
ĠÐ¿Ð»Ð°ÑīÐ° Ð½Ð¸Ñı
ĠÐ¾ÑĢÐ³Ð° Ð½Ð¸ÑĤÐµ
ĠÑĥÑģÐ¿Ðµ ÑĪÐ½Ð°
ĠÐ´Ð¸ ÐºÑĤÐ°
ķÐļÐ ¢Ð
Ðº ÑĢÐ°Ñĺ
ĠÐ³Ð¾ ÑĤÐ²Ð°
ĠÐĸ Ñĥ
Ð´Ðµ Ð¼Ð¾ÐºÑĢÐ°
ĠÐ½Ð°Ñĥ ÑĩÐ½Ð°
ĠÑĦÐµ Ð´ÐµÑĢÐ°ÑĨÐ¸Ñı
ĠÐµÐ¼Ð¸ ÑģÐ¸Ð¸
ĠÐ²ÐµÑĢÐ¸ Ð³Ð°
° Ð¼
ic le
ĠÑģÐ»Ñĥ ÑĪÐ°Ð»
ĠÐ¸Ð·Ð´Ð° Ð½Ð¸Ñı
ĠÐ¸ÑģÐºÐ° Ð»Ð¸
ĠÐ¶Ðµ Ð½ÑģÐºÐ¸
ĠÑģÐµ Ñ
ĠÐĿÐµÐ³Ð¾ Ð²Ð°ÑĤÐ°
Ð»ÐµÐ² Ð½Ðµ
ĠÑģÐ¿ÐµÑĨÐ¸Ð°Ð»Ð¸ ÑģÑĤÐ¸ÑĤÐµ
ĠÐŁÑĢÐ¾ ÑĤÐµ
ĠÐ±Ð¸ ÑħÑĤÐµ
ĠÐ¾ÑĩÐ¸ Ð»Ð°
ĠÑĥÐ±Ð¸Ð¹ ÑģÑĤÐ²Ð¾ÑĤÐ¾
ro l
ĠÐ¿ÑĢÐµ Ð³Ð»ÐµÐ´Ð°
ÑħÐ° Ð±Ð¸Ð»Ð¸
ÐļÐ Ĳ
ĠÐ¿ÑĢÐ¸ Ð±ÑĢÐ°
ĠÐºÐ»Ñĥ Ð±Ð¾Ð²Ðµ
G C
ĠÐ²Ð¾Ð´Ðµ Ñī
ĠÐ´Ð¶ Ñĥ
ĠÐ¿ÑĢÐ°Ð²Ð¸ ÑĤÐµÐ»
Ð¿ÑĢÐ¾ Ð²Ð¾Ð´
ĠÑĢÐµÐ¼Ð¾ Ð½ÑĤÐ¸
ĠÐĳÐ ļÐŁ
ĠÐļÐ° Ð²Ð°
ĠÐ± ÑĢÐ·Ð¾
Ð»Ð¸ ÑĨÐ°ÑĤÐ°
ĵÐ ĿÐķÐ¡
ĠÐļÐ¾ Ð²Ð°
ĠÑģÐ¿ÑĢÐ° Ð²ÑıÑĤ
ĠÐ¸Ð½Ð¾Ð²Ð° ÑĨÐ¸Ð¸
ĠÐĿÐ° Ð¿ÑĢÐ°Ð²Ð¸
Ð¿Ðµ ÑĤÐ¸
ÐĸÐ ¸
Ð»ÑıÐ· ÑĬÐ»
Ð·Ð¾ ÑĢ
ĠÐ¸Ð·Ð³ÑĢÐ° Ð¶Ð´Ð°
ĠÐĿÐ ¾Ñī
£ Ð
ĠÐĶÐ ŀ
ĠÑĤÐµÑħÐ½Ð¸ ÐºÐ¸
Ðº ÑĨÐ¸ÑĺÐ°ÑĤÐ°
ĠÐ´ÐµÐ¼Ð¾Ð½ÑģÑĤÑĢÐ¸ ÑĢÐ°
ĠÐµÐ´Ð¸ Ð½Ð¸
ĠÐ½Ð°ÑģÑĤÐ° Ð½Ð¸
ĠÐĻÐ¾ÑĢÐ´Ð° Ð½Ð¾Ð²
ĠÐ¿Ð° ÑĤÑĢÐ¾
Ð¡ ÑĤÐ¾
ĠÑĢÐ°Ð· Ñı
ĠÐ½Ð¾ÑĢÐ¼Ð° Ð»ÐµÐ½
ĠÑĢÐ°Ð· ÐºÐ°Ð·
ĠÐľÐ °ÑĤ
ÐĿÐ ŀÐĴÐ
ĠÐ¿Ð¾ÐºÐ° Ð½Ð¸
ĠÐ¾Ð´ Ð½ÐµÑģÑĥÐ²Ð°
ŁÐ ¸
ĠBl ack
H z
Ð´Ð ±Ð¸ÑĤÐµ
ĠÐ¾Ð±Ð²Ð¸ Ð½ÐµÐ½Ð¸Ðµ
y n
ĠÐºÐ° ÑĩÐ¸
ÑĩÐµ Ð½Ð¾ÑĤÐ¾
ĠÐ¿ÑĢÐ¸ÑĤÐµ Ñģ
ĠÐ¿Ð¾Ð³Ð»ÐµÐ´ Ð½Ð°
ĠÑģÑĬÐ³Ð»Ð° ÑģÐµÐ½
Ð¼Ñĥ Ð²Ð°ÑļÐµ
r es
ĠÐ±Ð°Ðº ÑĤÐµÑĢÐ¸Ð¸
ĠÐ±Ð»Ð°Ð³Ð¾ Ð¿ÑĢÐ¸ÑıÑĤ
ÑĤÐ° Ð»Ð¸
Ð½Ð° ÐºÑĢÐ°Ñı
ÑģÑĬ Ð´Ðµ
ĠÐķ Ðº
ÑĢÐ¾ Ð²Ð¸ÑĤÐµ
ĠÐĳÐ ĴÐŁ
ĠÐ¡ÑĬ Ð²
µ Ð½Ð¸ÑĤÐµ
Ġp o
ĠÑģ Ð¿Ñĥ
ĠÐĽÐ¸ Ð²ÑĬÑĢÐ¿ÑĥÐ»
ĠÐ¾Ð¿Ð° Ð·Ð²Ð°Ð½Ðµ
ĠÐ¼Ð°ÑĪÐ¸ Ð½Ð°ÑĤÐ°
ĠÐºÐ¾Ð¼Ð¿Ñİ ÑĤÑĢÐ¸
Ð²Ñı Ð»
ĠÐ´Ð¾Ð¼Ð° ÑĪÐµÐ½
ĠÐŁÐ¾ Ð¼Ð¾
ÑģÐ¸ ÑĢÐ°Ð½Ðµ
ĠÑĢÐµÐ²Ð¾Ð»Ñİ ÑĨÐ¸Ñı
ĠÑĺÐ° Ð½ÑĥÐ°ÑĢÐ¸
ĠÐºÐ¾ÑĢÐ° Ð±Ð¸
ĠÑĦÐ¾ÐºÑĥ ÑģÐ¸ÑĢÐ°
ĠÐ±Ð°Ð³Ð° Ð¶
ĠÐ¿Ð¾ÐºÐ¾ Ð»ÐµÐ½Ð¸Ñı
ĠÐļÐ ĲÐļÐ
ĠÐ¿ÑĢÐ¾ÑĤÐ¾ ÐºÐ¾Ð»
ĠÑģÐ°ÐºÐ° Ð¼
ĠÐĸÐ °Ð½
ĠÑģÑĤÑĢÐ¾Ð¸ÑĤÐµ Ð»Ð½Ð¸
ĺÐ§Ð ķÐ
ĠÐļ ÑĢÐµÐ¼
ĠÑĥÑĩÐ¸Ð»Ð¸ Ñī
ĠÑģÐµ ÑĤÐ¸
Ġ ed
al e
ÑĨÐ¸ ÑģÐºÐ¸
ĠÐĶÐ¶Ðµ Ð¹Ð¼Ñģ
Ð²Ðµ Ð½Ð¾ÑĤÐ¾
ĠÐĺÐ· ÐºÐ»ÑİÑĩÐ¸ÑĤÐµÐ»Ð½Ð¾
ĠÐ½Ð°Ð¿Ñĥ ÑģÐ½Ðµ
ĠÐ²Ð¾Ð´Ð° Ñĩ
ĠÑĢÐµ ÑĪÐ°Ð²Ð°ÑĤ
Ð½Ñĥ Ð
ÑĢÑģÐµ Ð½Ð°Ð»
ĠÐºÑĥ Ð»Ð¸Ð½Ð°
ĠÐ½Ðµ Ð»ÐµÐ³Ð°
ĠÐ½Ð°Ð¿ÑĢÐµ Ð¶ÐµÐ½Ð¸ÐµÑĤÐ¾
ĠÐĿÐ° Ð¼Ð¸ÑĢÐ°
Ð²ÑĢÐµÐ¼Ðµ Ð½Ð¾
ĠÑĤÑĢÐµÐ½Ð¸ÑĢÐ¾Ð² ÐºÐ¸
ĠÐ¿ÑĢÐ¾Ð´Ð° Ð´Ðµ
ĠÐ¾Ð±ÑĺÐµ ÐºÑĤÐ¸
ÑĨÐ¸Ð¾Ð½Ð° Ð»Ð½Ð¸
Ð±Ð¾ Ð²ÐµÑĤÐµ
ĠÐ¸ Ð½Ð¸ÑĨÐ¸ÑĺÐ°
ĠÐĴÐ¾ Ð´Ð¾
ĠÐ¿Ð¾Ð»Ð¸ÑĤÐ¸ ÑĨÐ¸ÑĤÐµ
ÑĤÐµ ÑĤÐ¾
ĠÐļ ÑĢÐµ
ĠÑģÐ»ÐµÐ´Ð²Ð° ÑīÐ¾ÑĤÐ¾
ĠÐ½ a
Ð¼Ð¾ ÑģÑĤÑĤÐ°
ÑģÑĤÐ²Ðµ Ð½Ð¾ÑģÑĤÑĤÐ°
ĠÐ¼Ð¾Ð¼ ÑĩÐµÑĤÐ¾
ĠÐ¸Ð³ÑĢÐ° ÑĩÐºÐ¸
° Ð²ÑĤÐ¾
ĠÑģÑĬ Ð¾ÑĤÐ½Ð¾
ĠÐ§Ðµ ÑĤÐ²
ÑģÑı Ð²Ð°Ð½ÐµÑĤÐ¾
ĠÑĪÐ° Ñħ
ĠÑģÐ¾ Ð¿ÑĢÑĥ
ĠE uro
ĠÐ² Ð¿Ð¸ÑģÐ°
ĠÐ¸Ð·Ð´Ð° Ð²Ð°Ð½Ðµ
ĠÐŁÑĢÐ¾ Ð´ÑĬÐ»Ð¶Ð°
ĠÑģÐ¼ÐµÐ µ
ĠÑĩÐµ ÑĢÐ½Ð¸Ñı
ĠÐ´ÐµÑĦÐ¸ÑĨÐ¸ Ñ
ĠÐ´ÐµÑĦÐ¸ÑĨÐ¸Ñ Ĥ
ÑĩÐ¸ ÑĤÐµÐ»Ð½Ð¸
ÑĤÐ» ÑĬ
ĠÐ´Ð¾Ð¿Ñĥ ÑģÑĤÐ¸
ĠÐºÐ°Ð¼Ðµ ÑĢÐ°ÑĤÐ°
ĠÑĨÐµÐ½ Ð½Ð¸
ĠÐ°Ð²ÑĤÐ¾ Ð½Ð¾
ÑĩÐµÐ½ ÑĨÐµ
Ðº ÑĢÐ¸Ðµ
ĠÐ¾Ð± ÑħÐ²Ð°ÑīÐ°
Ð»Ð°Ð³Ð° Ð½Ðµ
ĠÐłÐ° Ð¹Ð¾Ð½
ĠÐ§ Ð»ÐµÐ½
ĠÐľÐ ĿÐ
ÑģÑĦÐ ¾
ĠÐ¾ÑģÑĤÐ° Ð²ÐºÐ°ÑĤÐ°
ĠÐ¢ ÑĢÐ¾
ĠÐ»Ð°Ð³Ðµ ÑĢ
ĠÐŀ Ð¿Ð°
ĠÑģÑĤÑĢÑĥÐºÑĤÑĥ ÑĢÐ°ÑĤÐ°
ĠÐ¾ Ð·Ð°
ĠÐ² Ð»ÑıÐ·Ð°ÑĤ
ĠÑĦÐ¸Ð»Ð¾ÑģÐ ¾ÑĦ
ĠÑĢÐµÐ·Ð¾ Ð»Ñİ
ĠÐ³Ð¾ ÑĢÐ°ÑĤÐ°
ĠÑģÐ²Ð¸Ð´Ðµ ÑĤÐµÐ»
ĠÐ²Ð¸Ð¶Ð´Ð° ÑĤÐµ
ĠÐ·Ð°ÑĢÐ° Ð´Ð²Ð°
ĠÐ½Ð°Ð´ Ð²Ð¾ÑĢ
en c
S D
ĠÐ´Ð¾ Ð±Ð»Ð¸
ĠÐĳÐµ Ð»Ð¾
ĠÐºÐ°ÑĤÐµ Ð´ÑĢÐ°
ĠÐ¿ÑĢÐ¸ÑģÑĤÐ° Ð¿
ĠÐĶ ÑĢÐµ
Ð¶Ð½Ð¾ ÑģÑĤÐ¸
ĠÐ§Ðµ ÑħÐ¸Ñı
ĠÐ±Ñĥ ÑĤÐ¾Ð½
ĠÐļÐ łÐ
ĠÐ¿ÑĢÐµÐ´Ð¿ÑĢÐ¸Ñı ÑĤÐ¸Ðµ
ĠÐľÐ½Ð¾ Ð³Ñĥ
ĠÐ´Ðµ ÑĢÐ±Ð¸
ĲÐ ¥
! ",
ÐºÑĥÐ» Ð¿
Ð¿Ð¸ Ð½Ð³
m m
ĠÑĢÐµÐ°Ð» Ð½Ð°
ĠÐ¿ÑĢÐµÐ¿Ð¾ÑĢÑĬ ÑĩÐ°
ĠÐŁÐ ĽÐ
Ð»Ðµ Ð½Ð¾ÑģÑĤ
ĠÑĤÐµÐ°ÑĤ ÑĢÐ°
ĠÐ¿Ð¾ÑĩÐµÑĤÐ¾ Ðº
ĠÐ¾ÑĢÐ³Ð°Ð½Ð¸Ð·Ð¸ÑĢÐ° Ð½Ð°
ĠÐ³Ð»ÐµÐ´Ð° ÑĤÐµ
Ñ «
ĠÐķ Ð²Ð³Ð
ĠÐº ÑĢ
ÑĢÐ¾ Ð´Ð½Ð¸
II I
ÑģÐµ Ð¹
it s
Ð±Ð¾ ÑĤÐ¸
ĠÑģÐµÑ Ĥ
ÑĩÐ¾ Ð²ÐµÑĤÐµ
ĠÐ½Ð°ÑĩÐ¸Ð½ ÑĬÑĤ
ĠÐ»Ñĥ Ðº
ĠÑĤÐ²Ð¾ ÑĢÐ±Ð¸
ĠÐ±ÐµÐ·Ð±Ðµ Ð´Ð½Ð¾
ĠÐ°Ðº ÑĨÐ¸Ð¾
ĠÐ¿Ð¾ ÐºÑĥÐ¿
ĠÑĤÑĬ Ð¼Ð½Ð¸
SB N
ĠÑģÐ¾Ð±ÑģÑĤÐ²Ðµ Ð½Ð¸Ñı
ÑīÐ °Ð»
ĠÐŀ ÐĶÐ
ÑĢÐ°Ð½ ÑıÑĤ
ÑģÐ¸ ÑĨÐ°
ĠÑģÐ°ÐºÐ° ÑĤÐµ
ĠÐ°Ð¿Ð°ÑĢÑĤÐ° Ð¼ÐµÐ½ÑĤÐ¸
ÑĢÐºÐ µÑĤ
Ð²Ð¸ ÑĤÐ°
Ð²ÐµÐ½ÑĤ ÑĥÑģ
° Ð¼ÐµÑĢÐ¸ÐºÐ°
ÑĨÐ¸Ð°Ð» Ð½Ð¸
ĠÐŁÑĬÑĢÐ²Ð ¸ÑĤÐµ
ĠÐ¿ÑĢÐµÑĤ ÑħÐ¾Ð´
Ð¡Ðµ Ð³Ð°
ĠÐ¿ÑĢÐ¾ÑĤÐ¸Ð²Ð¾ÑĢÐµ ÑĩÐ¸
ĠÐ¾Ð¿Ð° ÐºÐ¾
ĠÐ¾Ð¿ ÑĨÐ¸Ð¸
ĠÐ»Ð¸Ð¿ ÑģÐ²Ð°ÑĤ
ĠÐ²ÑĬ Ð²ÐµÐ¶Ð´Ð°
ĠÐļÐ»Ð¸ Ð¼ÐµÐ½ÑĤ
ĠÐ¿Ð¾Ð· Ð½Ð°ÑĤÐ°
ĠÐ¾Ñħ ÑĢÐ°Ð½Ð°
ĠÐ±Ñĥ Ð»ÐµÐ²Ð°
ĠÐ±ÐµÐ·Ð¿Ð»Ð° ÑĤÐ½Ð¸
ĠÐ´Ð¾Ð²Ðµ ÑĢÐ¸ÐµÑĤÐ¾
ĠÐĿÐ °ÑĤÐ°
Ð· Ñı
ĠÐ¿ÑĢÐ¾ÐµÐºÑĤÐ¸ ÑĤÐµ
¾Ð ¾
ĠÑĤÐµÐ¶Ðµ ÑģÑĤ
ĠÐµ Ð²Ð¾Ð»Ñİ
Ð»ÐµÐ²Ð½Ðµ Ð»Ð¸ÐµÐ²
ĠÐ´Ð¸Ð° Ð³Ð½Ð¾
ĠÐ¿ÑĢÐ°Ð· Ð½ÑĥÐ²Ð°
ĠÐ¿Ð°ÑĢÑĤÐ½ÑĮÐ¾ÑĢ ÑģÑĤÐ²Ð¾
Ð¿Ð¾ ÑģÐ¾
ĠÐ´ÐµÐ¹ÑģÑĤÐ²Ð °ÑĤ
ĠÐ¸Ð´Ðµ Ð¸ÑĤÐµ
ĠÐ¿Ð¾ ÑĢÐ°Ð·
ĠÐĺÐ½ÑĤÐµ ÑĢ
ĠÐŁÐ ¡Ð
ĠÐ¸Ð·Ð´ÑĢÑĬ Ð¶
ĠÑģÐ»Ð° Ð´ÐºÐ¾
ĠÐ¾Ñģ Ð²Ð¾Ð¸
Ð¼Ð±Ð° ÑģÐ°
ĠÑĢÐ¾Ð´Ð½Ð¸ Ð½Ð¸
ĠÑģÑĬÑģÑĤÐµÐ·Ð° Ð½Ð¸Ñı
re e
Ð¼ÑĬ Ð½ÑĤ
ĠÑģÐ¿Ð¸ ÑĢÐ°ÑĤ
ÑĢÑĥ Ñģ
ĠÐŁ ÑĬÐº
Ð¡ Ð»Ð°
ĠÑģÐ¾ Ð±ÑĢÐ°
ĠÐŀ Ð±Ñĥ
ĠÐĴÑĤÐ¾ ÑĢÐ¾
ĠÐ Ĩ
ĠÐ²ÑĬÑĢÐ² ÑıÑĤ
ĠÐŀ Ð±Ð¾
ĠÐ´Ð¾Ð±Ð° Ð²ÐºÐ°
ĠÐ¸Ð½Ð²Ð °Ð»Ð¸
ĠÐĲ Ð¿Ð¾ÑģÑĤÐ¾
ĠÐĿÐ¸ ÐºÐ¸
ĠÐĴ ÑĤÐ¾ÑĢÐ°
ĠÑĦÐ¾ÑĢÐ¼Ð¸ ÑĢÐ°
ĠÐŀ ÑĢÐµ
ĠÐ¿Ð¾Ñģ ÐºÑĬ
ĠÐĺÐ¼Ð° ÑĤÐµ
ĠÐ° ÑĤÐµ
¸ Ñģ
ĠÐ¿ÑĢÐ¸ÑĢÐ¾ Ð´ÐµÐ½
Ð± Ð½Ð¸Ñı
ĠÑĢÐµÐ°Ð»Ð¸ Ð·Ð°ÑĨÐ¸Ñı
ÑħÐ¾ Ð´ÐµÐ½
ĠÐ¼Ð¸ Ð½Ð°ÑĤÐ°ÑĤÐ°
ĠÐ¼Ð¸ ÑģÐ»Ð°Ð¼
ĠÑĢÐ°Ð´Ð¸ ÐºÐ°
av e
Ð¼Ð ³
Ð² ÑĬÐ»
ĠÐŁÐłÐ ĲÐĴÐ
ĠÐ³ÑĬ Ð±Ð¸
Ð²Ð¸ Ð´ÐµÐ¾
ĠÐŁÑĬÑĢÐ²Ð¾Ð½Ð°ÑĩÐ° Ð»Ð½Ð¾
Ð»Ð¸Ðµ Ð²Ð°
ÑĬÑĢ ÑĬÑĤ
up er
ĠÐķ Ð»Ðµ
Ð¢Ð ķ
ĠÐľÐ¸ Ð»Ð°Ð½
ĠÑģÐ»Ð° Ð±Ð¸
ĠÐºÐ¾ ÑĪÐ°
ĠÐľÐ°Ð¹ ÐºÑĬÐ»
ĠÐ·Ð°Ð³Ð»Ð° Ð²Ð¸Ðµ
ÑģÑĤÐ° Ð²ÐºÐ°
ĠÐ°Ð¿Ðµ ÑĤÐ¸
il i
ĠÐ¿ÑĢÐµÐ¿Ð° ÑĢÐ°ÑĤÐ¸
ĿÐ ĺÐ¢Ðķ
ĠÑģÑĤÐ°ÑĤÑĥ Ñģ
ÐºÐ° ÑĤÐ¸ÑĤÐµ
ŀÐ ĺ
ÑĩÐµÑĤÐ¾ Ñħ
Ð³ÑĢÐ° Ð¼
Ð»Ð¸ ÑĢÐ°Ð½Ð°
ĠÐ³ÑĢÐ°Ð¶Ð´Ð° Ð½ÑģÐºÐ¸
ĠÐŁÐ¾ÑĤÑĢÐµ Ð±Ð¸ÑĤÐµ
ĠS E
ÑĤÐ¸ ÑĩÐ½Ð°ÑĤÐ°
Ð¼Ð¸Ð ¾
ÑĢÑĥ Ð¶
ĠÐĲÐ²ÑĤÐ¾ Ð¼Ð¾Ð±Ð¸
Ð¿ Ð²Ð°Ð½ÐµÑĤÐ¾
ĠÐ¿Ð¾Ð»Ñĥ Ð
ĠÑĩÐ¸ Ð½Ð¸
ĠÐļÐ¾ Ð²Ð¸Ð´
ķÐ¢Ð Ĳ
ĠÐĲ ÐĳÐ
ĠÐ³Ð¾ ÑģÑĤÑĥ
ĠÐ¼Ð»Ð° Ð´Ð°
ĠÐ²ÑģÑıÐºÐ° ÐºÑĬÐ²
ĠÐºÐ¾Ð½ÑĦÐ¸ Ð³Ñĥ
¾ÑĦÐ °
ĠÑģÑĬÐ±ÑĢÐ° Ð½Ð¸
ĠÐŁÐ ¾ÑĤ
ĠÑĢÐµÐ¶Ð¸ Ð¼Ð°
ÑĦÐ¾ Ð²Ðµ
ĠÐ²ÐµÑĢÐ¾ÑıÑĤ Ð½Ð¾ÑģÑĤ
ĠÐ¿Ð¾Ð»Ð¾Ð¶Ð¸ÑĤÐµ Ð»Ð½Ð¸
ĠÐ¼Ð¾ Ð½ÑĤÐ¸ÑĢÐ°
ĠÑĥ ÑħÐ°
ĠÐ¡Ð ļÐ
ĠÐ²Ð»Ð¸ÑıÐ µ
ĠÐ½Ð° ÑĺÐ°Ð²Ð¸
ĠÑĤ ÑĬÐºÐ¼Ð¾
Ð¼Ð°Ð» ÐºÐ¸ÑĤÐµ
Ð½Ðµ Ð½Ð¾ÑĤÐ¾
ÑĤÐ»Ð µÑĢ
ÑĢ Ð½Ð¸Ð¾ÑĤ
ĠÑģÐ²ÐµÑĤÐ¾ Ð²Ð½Ð¸ÑĤÐµ
ĠÐ²ÑĢÐµÐ´ Ð½Ð¸
ĠÐ½Ð° ÑĢÑıÐ·Ð°
Ð·Ð¾ Ð¿Ð°
Ð¹ ÑĤÐ°
ÐºÑģ ÑĬÑĤ
Ð²Ð° Ð»Ðµ
ĠÐ£Ð °
ĠÐ¼Ð° Ð½Ð´Ð°ÑĤÐ°
ĠÐ½Ð° Ð²Ð¾Ð´
ĠÐĴÐ¸ Ð´ÐµÐ¾
ÐºÐ¾ Ð¼Ð¿Ð°
ĠÐ·Ð° Ð¿ÑĬÐ»
ÑĢÐ´Ð ¸ÑĤÐµ
ĠAl l
y st
ĠO n
ĠP re
ÑĨ ÑĬÑĤ
ĠÐ² Ð¿Ð¾ÑģÐ»ÐµÐ´ÑģÑĤÐ²Ð¸Ðµ
ĠÑģÐ¾Ð± ÑģÑĤÐ²ÐµÐ½Ð¾
Ð´Ð¸ Ð½Ð¾Ð²
ĠÐ´Ð¸ ÑģÐº
ĠÐ±ÐµÐ· ÑĢÐ°Ð±Ð¾ÑĤÐ¸
ĠÑĢÐ°Ð´Ð²Ð° Ð¼
ĠÐºÐ»Ð¸ Ð¿
ĠÐ¿Ð¾Ð»Ðµ Ð·Ð½Ð°
ĠÐ´Ð²Ð¾ Ð¹ÐºÐ°
ĠÐ¿Ñĥ ÑģÑĤÐ¸
ĠÐ¶ÐµÑĢ ÑĤÐ²Ð¸ÑĤÐµ
ĠÐıÐ µ
Ñģ Ð¼Ð°Ð½
ĠÐµ Ñ
ĠÐ´Ð¸Ð° Ð±ÐµÑĤ
ĠÐ²Ð·Ð µÐ»
ĠÑģÑĢÐµ Ð´Ð¸Ð½Ð°
ĠÐķÐ ļÐ
ĠÐĺÐ· Ð´Ð°
ĠÐ¿Ð¾Ð´Ð°ÑĢÑĬ ÑĨÐ¸
ĠÐŁÑĬÑĢÐ²Ð ¾ÑĤÐ¾
±Ð¾ ÑĢ
Ð¼Ðµ Ð
ĠÐ¸Ð½ÑĨÐ¸ Ð´ÐµÐ½ÑĤÐ°
ĠÐ¼Ð°ÑĤÐµÐ¼Ð°ÑĤÐ¸ ÐºÐ°
ĠÐ±Ð¾ ÑĢÑıÑĤ
Ñĥ Ð½Ð°
ÑģÑĬ Ð¼
ĠÑĦÐ¸Ð³Ñĥ ÑĢÐ¸
z a
ĠÐĺÐ½ÑĦÐ¾ÑĢÐ¼Ð° ÑĨÐ¸Ñı
Ð½ÐµÑģ ÑĥÐ²Ð°Ð°ÑĤ
ĠÐ·Ð°Ð±Ð¾ Ð»ÑıÐ²Ð°Ð½ÐµÑĤÐ¾
ĠÐºÐ¾ÑĢÐµ ÑģÐ¿Ð¾
ĠÐ¾Ñģ Ð»Ð¾Ð±Ð¾
ĠÑĢÐµÐ´Ð° ÐºÑĤÐ¾ÑĢ
ĠÑĢÐµÐ³Ñĥ Ð»Ð¸ÑĢÐ°Ð½Ðµ
ĠÐĳÐ° Ð¹
ĺÐ łÐĲÐ
ĠÐ²Ð¾Ð·Ð¸ Ð»Ð°
ĠÑīÐ° ÑĤÐ¸
ĠÐºÐ¾Ð½ÑģÑĥÐ»ÑĤÐ° ÑĨÐ¸Ð¸
ĠÐĿÐ ŀÐĴÐ
ĠÐ»ÑĬ Ð¶Ð°
ÑĤÑĥÐ ¸
ĠÐ¾Ð¿ÐµÑĢÐ° ÑĤÐ¾ÑĢ
ÐºÐ¾ ÑĢÐµ
ĠÐĹÐ°Ð¿Ð¾ ÑĩÐ½Ð°
Ðŀ Ð¿Ð¸ÑģÐ°Ð½Ð¸Ðµ
ĠÐ´Ð¸Ð° Ð»Ð¾Ð³
ĠÐ¼Ð° ÑĤÑĢÐ°
ĠÑģÐ¸Ð³Ñĥ ÑĢÐ½Ð°
ĠÐ´Ð° Ð¼Ð¸
ĠÐ¡ÑĬ ÑīÐ¾ÑĤÐ¾
Ð¿Ðµ ÑĢÐ¸
ĠÐĻÐ µ
ĠÐ¿ÑĢÐµÐºÑĢÐ° ÑģÐ½Ð°
ĠÐ´ÐµÐ½Ð¾Ð½Ð¾ ÑīÐ
Ð±Ð¸ Ð½
ĠÑħÑĥÐ±Ð° Ð²
ĠÐ·Ð° Ð´Ð¾Ð»Ð
ĠÐµÐ¶ÐµÐ´Ð½Ðµ Ð²Ð¸ÐµÑĤÐ¾
ĠÐºÑĢÐ¸ÑĤÐ¸ ÐºÑĥÐ²Ð°
ĠÐ°ÐºÑĤÐ¸ Ð²ÐµÐ½
ÑĬ Ð»Ð°
ĠÐĶ Ð²Ð¾
Ð´Ð¾ Ð²Ð¸ÑĤÐµ
Ġ7 7
ĠÐ¾ÑĤÐºÐ¾ Ð»ÐºÑĥ
ĠÐ²Ðµ ÑĩÐ½Ð¾
ĠÐ¾ÑģÑĬÑīÐµ ÑģÑĤÐ²Ð¸
ĠÐĺÐ½ÑĤÐµ ÑĢÐµÑģ
ĠÐºÐ¾Ð½ÑģÑĤÐ° ÑĤÐ¸ÑĢÐ°
ĠÐ¼Ð°Ð» ÐºÐ°ÑĤÐ°
ĠÐ±Ð° ÑĢÐµÐ¼
ÑĢÐ° Ð¶
Ð¼Ð¾Ñ Ī
ou se
Ð¼Ð¸ÑģÐ»Ðµ ÑĤÐµ
ĠÐ²Ðµ Ð´Ð¾Ð¼
ĠÑģÑĥ ÑħÐ°
ĠÐ²Ðµ ÑĢÑĤÐ¸ÐºÐ°
ĠÐ¡Ð° Ð¼
ĠÑīÐµ ÑĤÐ¸
ĠÑĦÐ¸Ð½Ð°Ð½ÑģÐ¾ Ð²Ð°ÑĤÐ°
ÑĨÐ¸ Ð¹
ĠÑĢÐµ ÑĪÐµÐ½Ð¸ÑıÑĤÐ°
ĠÐ³Ð»Ð° Ð´
¶Ð¸ Ð½Ð°
ĠÑĤÐ° Ð·
Ðĵ ÑĢÐ°
ĠÐ¶Ð° Ð»Ð±Ð¾Ð¿Ð¾Ð´Ð°
ĠÐĹÐ ĶÐ
ĠÑģÐµ Ð´Ð¸
ĠÐ´Ð½Ðµ Ð²ÐµÐ½
ĠÐµÐ½ÐµÑĢÐ³ÐµÑĤÐ¸ ÐºÐ°ÑĤÐ°
ĠA M
ĠÑģÑĢÐµÐ´ Ð½Ð¾Ð²Ðµ
ĠÐ²ÑĬÐ·ÑĢÐ° ÑģÑĤÐ½Ð¸ÑĤÐµ
ĠÐµÑ Ĥ
ĠÐ·Ð° Ð¼Ð¸ÑģÐ»Ð¸
ÑĢÑĥÐ²Ð° Ð°ÑĤ
Ð¹ÑĤÐµ ÑĢÑģ
ĠÑģÐ½Ð¾ ÑīÐ¸
ĠÑģ Ð³Ð»Ð¾
Ð±Ð° Ð½
ĠÐ¿ÑĢÐµ ÑĢÐ°Ð·
ĠÐº ÑĢÐ²
Ð¼ÐµÐ½ÑĤÐ¸ ÑĢÐ°ÑĤ
Ñģ ÐºÑĥÐ²Ð°
ĠÑĢÐ°Ð· Ð¿ÑĢÐ°
ĠÐ¸Ð·ÑĢÐ°Ð±Ð¾ ÑĤÐµÐ½
ĠÐ¾ÑĩÐ°ÐºÐ²Ð° Ð½Ð¸Ñı
ĠÑģÑĬÑī Ð½Ð¾ÑģÑĤ
Ñĥ Ð½Ð´
ĠÐ¸Ð´ÐµÐ½ÑĤÐ¸ ÑĦÐ¸ÑĨÐ¸
ĠÐºÐ¾Ð½ÐºÑĥÑĢÐµÐ½ ÑĨÐ¸Ñı
ud i
ĠÑģÑĤÐ° Ð²
ĠÐ¾ Ð¿Ñĥ
ĠÑĩÐ°ÑģÐ¾Ð² Ð½Ð¸Ðº
ĠÐ¿ÑĢÐµÐ´Ð¸Ð·Ð²Ð¸ÐºÐ° ÑĤÐµÐ»ÑģÑĤÐ²Ð°
Ð´Ð½Ð¸ ÑĨÐ°
ĠÐ¿Ð° Ð¿Ð°
ķÐ ŁÐ
ĠÐĴÐ° ÑĢ
ĠÐ¾ Ð³Ð½Ðµ
ĠÑģÑĬÐ²ÑĢÐµÐ¼ÐµÐ½ Ð½Ð¸
ÐĿÐ ŀ
Ð¼Ñĥ Ð½Ð¸ÐºÐ°
ĠÐ¸Ð·ÑĢÐ° ÐµÐ»
ĠÐ½ÐµÑĥ Ð´Ð¾Ð±
ÑĤÐµ Ð³Ð»Ð¸
ĠÑĥÑĩÐ°ÑģÑĤ Ð½Ð¸Ðº
ĠÐ¸Ð· Ð²Ð¾ÑĢ
ĠÐ½ÐµÐ·Ð° Ð²Ð¸
ĠÑĢÑĬ ÑĩÐ½Ð¾
ĠÑĥÐ²ÐµÐ»Ð¸ ÑĩÐ°Ð²Ð°ÑĤ
ĠÐ±Ð° ÑĪ
ĠÐºÐ¸ Ð½Ðµ
ĠÑģÑĤÐ° Ð²Ð¸
ĲÐĿÐ ĺ
ÑĢÐµ Ð½Ð¾ÑĤÐ¾
ĠÐ´Ðµ Ð±Ð¸
ĠÐ½Ð°Ð¼Ðµ ÑģÑĤÐ¾
ĠÐ¿Ð°Ð·Ð° ÑĢÑĥ
ĠÑģÑĤÐµ Ð¿ÐµÐ½Ð¸
ĠÐĴÐ¡Ð ĺÐ§Ð
ĠGal axy
ÐºÐ° ÑĩÐ°
ĠÐ¿ÑĢÐ¸ Ð´Ð°Ð²Ð°
ĠÑĦÑĥÑĤÐ±Ð¾ Ð»Ð°
R E
ĠÐ½Ð¾ ÑĢÐ¼Ð¸
er g
ĠÑģÐ¿ÐµÑĨÐ¸ÑĦÐ¸ ÑĩÐ½Ð¸
ÑĢÐµ Ð²Ð¾
ĠÐ¾Ð±ÑģÑĬ Ð¶Ð´Ð°Ð½Ðµ
ĠÐ½Ð° ÑģÑĤÐ°Ð²
Ġ199 6
ĠÐ´Ð½Ðµ ÑĪÐ½Ð¸Ñı
ĠX X
ĠÐ¿Ðµ Ð¹
ĠÑĢÐ°Ð· Ð¿Ð»Ð°
ĠÑģÐ¼Ð°ÑĢÑĤ ÑĦÐ¾Ð½
ĠÐ¾Ð±Ð¾ ÑĢÐ¾
ĠÐ´ÑĢÑĥÐ³Ð¸ ÑıÑĤ
ĠÐ¢ÑĢÐ¸ÑĦÐ¾ Ð½Ð¾Ð²
ĠÐ¤ÑĢÐ° Ð½Ðº
ÑĨÐ¸Ð¾Ð½Ð° Ð»ÐµÐ½
ĠÑĤÐ°Ð»Ð° Ð½ÑĤ
ĠÐºÐ¾ Ð¿Ð¸Ðµ
ĠÑħÐ¾ Ð»Ðµ
Ð·Ð¸ Ð°ÑĤ
ĠÐ¼Ð¸ Ð»Ð¾
Ð¢Ð¾ Ð¹
ĠÐºÑĢÐ° Ð´
ĠÐ·Ð°Ð¿Ð° Ð»Ð¸
ĠÐ´Ð²Ð¾ Ð¹ÐºÐ¸
ÑīÐµ Ð¼
ĠÑģÐ²Ð¾Ð±Ð¾ Ð´Ð½Ð°
ĠÐ¸Ð·Ð²ÑĬÑĢ ÑĪÐµÐ½Ð¸
ĠÑĢÐ° Ð¶Ð´Ð°Ð½Ðµ
ĠÐºÑĢÐ¸ Ð·Ð¸
ĠÑı ÐºÐ¾
ĠÐ»Ð¸ Ð¼Ð¾
Ġm g
Ð¼Ð° Ð»ÐºÐ°
ĠÐ¸Ð´Ðµ Ð°Ð»Ð½Ð¾
ĠÑĢÐ° ÑĨÐµ
ĠÐ²Ð°Ð»Ñĥ ÑĤÐ°
in o
ĠÐ²Ð¾ Ð·Ð°
ĠÑģÑĢÐµÐ´ Ð½Ð¸
ĠÐºÐ²Ð°Ð»Ð¸ÑĦÐ¸ÐºÐ° ÑĨÐ¸Ñı
ĠÐ¿ÑĢÐ¾ ÑģÑĤ
Ð¼Ð° Ð»ÐºÐ¾ÑĤÐ¾
ĠÐ¸ÑĤÐ°Ð»Ð¸Ð° Ð½ÑģÐºÐ¸
ĠÑĥÑģÐ¿Ñı Ð»
ĠÐłÐ ĹÐ
ĠÐļÐ° ÑĢÐ»Ð¾
l o
ĠÐĵÐ ŀ
ĠÐµÐ´Ð½Ð° ÐºÐ²Ð¸
ĠÑģÑĤÑĬ Ð¿Ð°
ĠÐ¸Ð½ÑĤÐµ ÑĢÑĦÐµ
ĠÑģÑ Ĳ
ĠÐ¡Ð¾ Ð»Ñĥ
ĠÐ¿ÑĢÐµÐ´ÑģÑĤÐ° Ð²ÐµÐ½
ĠÐĿÐ°ÑĨÐ¸Ð¾Ð½Ð° Ð»ÐµÐ½
ĠÐ¿Ð ¾ÑħÐ¾
ĠÑģÑĬ Ð²Ð¼ÐµÑģÑĤÐ¸
ĠÐ¾ÑĤÑģÑĤÑĬÐ¿ ÐºÐ°
Ð¿Ð¸ ÑĤÐ½Ð¾
ĠÐ²Ð»Ð° Ð´Ð°
ĠÑĥÑĩÐµ Ð±Ð½Ð¸
ĠÑĥ Ð²Ð¸
R A
Ñı Ð·Ð²Ð¸
ĠÐ·Ð²ÐµÐ· Ð´Ð¸ÑĤÐµ
ĠÑĢÐ°Ð·Ð¿ÑĢÐ¾ÑģÑĤÑĢÐ° Ð½ÐµÐ½Ð¸ÐµÑĤÐ¾
ĠÐ¿Ð¾Ð¶Ð° ÑĢ
ĠÐ¿Ð»Ð¾ÑīÐ° Ð´ÐºÐ°
ĠÐĴÐ °Ð»
ĠÐµÐ·Ðµ ÑĢÐ¾
ÑģÑĬÐ´Ð¸ ÐµÑĤÐ¾
ĠÐ¾ÑĦÐ¾ÑĢÐ¼ Ñı
ÑĪÐµ Ð½Ð°ÑĤÐ°
ĠÐºÐ¾Ðµ ÑĦÐ¸ÑĨÐ¸Ð
ĠÐŀÑĤ Ð½Ð¾ÑģÐ½Ð¾
Ġ le
ĠÐĴÑĬ Ð·ÑĢÐ°
Ð´ ÑĥÐ²Ð°Ð°ÑĤ
ĠÐ¿ÐµÐ½ ÑģÐ¸Ñı
ĠÐ¿ÑĢÐµÐ¿Ð¾Ð´Ð°Ð²Ð° ÑĤÐµÐ»
ĠÐ²Ð° ÑĥÑĩÐµ
ĠÐ½Ð°Ð¿Ð¸ ÑĪÐµ
ĠÑĤÐ¾ÑĤÐ° Ð»Ð½Ð¾
y s
ĠÐ¿ÑĢÐ¾ ÑĩÐ¸
ĠÑĺÐ° ÑģÐ½Ð¾
ĠÐ¼ÐµÐ´Ð¸ ÑĥÐ¼Ð¸ÑĤÐµ
ĠÐ¿Ð¾ÑģÐ²ÐµÑĤÐµ Ð½Ð°
ĠÐ½Ðµ ÑģÐ¸Ð³Ñĥ
Ñı Ð½Ð¸Ðµ
ÑĢÐ¼Ð° Ð½
ÑĨÐ¾ Ð²
ÑĤÐ¼Ð °Ð½
ĠÐ½Ñĥ Ð´Ð¸
an i
ĠÐļÐ»Ñĥ Ð±
ĠÑģ Ð²Ð¾Ñĺ
Ð¾Ð±ÑĢÐ°Ð· Ð½Ð¾
ĠÐ¿ÑĢÐ¸ Ð±Ð°
ĠÐ¿ÑĢÐ¾Ð·Ð¾ ÑĢÐµÑĨ
Ð¿ Ð½Ð¸ÑĨÐ°
ĠÐĿÐ ĺÐļÐ
ĠÑħÐ° ÑĢÐ¼Ð¾
ĠÐ¨ Ñĥ
ĠÑĢÐ°Ð·Ð¼Ð¸ ÑģÐ»Ñĥ
ĠÐ´Ð¸ÑģÐ¿Ð»Ðµ Ð¹
ĠÐ¸ÑģÑĤÑĢÐ° Ð¶Ñĥ
ĠÐ¿Ð¾ÑģÑĤÐ¸ Ð¶ÐµÐ½Ð¸Ñı
ĠÐľÐ¾ Ð´Ðµ
ĠÐ¿ÑĥÑģÐ½Ð° Ñ
ĠÐ¿ÑĥÑģÐ½Ð°Ñ Ĥ
ĠÐ¸ ÑģÑĤÐ°ÑĤÐ°
c on
ĠÐ¸Ð·Ð¿Ð¾Ð»Ð·Ð²Ð° Ð¼
ĠÑħÑĢÐ° Ð¼Ð°
ĠÐºÐ»Ð°ÑģÐ° ÑĨÐ¸ÑıÑĤÐ°
ak e
ĠÑĢÐ¸ Ð·Ð¸
ĠÐµÑģÑĤÐµ ÑģÑĤÐ²ÐµÐ½Ð°
ĠÐ¾ÑĤÐ´Ðµ Ð»Ð¸
ĠÑĦÐ¸ Ð½Ð¸
ĠÑīÐ ¸
ĠÑı ÑģÐµÐ½
ĠÑģÐµ ÑīÐ°
Ð¼Ð¸Ð ¸
ĠÑĥÑĩÐµ ÑģÑĤÐ²ÑĥÐ²Ð°
ĠÐ½Ð°ÑĢÐºÐ¾ ÑĤÐ¸ÑĨÐ¸
ĠÐ¸Ð·Ð¼Ðµ Ð½ÐµÐ½Ð¸Ðµ
ĠÑģÐ° ÑĤÐµÐ»Ð¸
Ð·Ðµ Ð¼Ð½Ð¾
ĠÐ¿Ð° Ð»
ĠÐ¿Ð¾Ñĩ Ð½Ðµ
Ð½Ð°ÑĢÐ¾ Ð´ÐµÐ½
ĠÐ·Ð° Ð½Ð°
ĠÑħÐ°ÑĢÐµÑģ Ð²Ð°ÑĤ
ĠÐ¿ÑĢÐ¾ÑĩÐµÑĤÐµ ÑĤÐµ
Ð½ ÑħÐµÐ½
ĠÐ¿ÑĢÐ°Ð²Ð¾ Ð¼Ð¾ÑīÐ
O P
ĠÑģÑĢÐ¾ ÐºÐ°
Ð¼Ðµ Ð´
ĠÐľÐ °Ñĺ
¡Ð ĺ
ĠÑģÑĤ ÑĢÐ¾Ð¸
ĠÐ¾ÑĢÐ³Ð°Ð½Ð¸ Ð·Ð¸ÑĢÐ°ÑĤ
Ġ199 1
ĠÐ²ÑĬÐ½ ÑĪÐ½Ð¸Ñı
ĠÑĢÐ° ÐºÐµÑĤÐ¸
ĠÐ»ÐµÑĤÐ¸ ÑīÐµÑĤÐ¾
ĠÐłÑĥ ÑģÐºÐ°ÑĤÐ°
ĠÐ´ÐµÐ¹ÑģÑĤÐ²Ð ¸ÐµÑĤÐ¾
ĠÐ¿Ð¾ Ð·Ð¾Ð²Ð°
ĠÐ»Ðµ Ð³Ð»Ð°
ĠÐ½ÐµÐ´Ð¾ Ð²Ð¾Ð»
ĠÐºÐ¸ÑģÐµ Ð»Ð¸Ð½Ð¸
ĠÐ¿ ÑģÐµÐ²
ĠÐ¿ÑĢÐ¸Ð·Ð½Ð° Ð½Ð¸Ðµ
ĠÑĤÐµÐ»ÐµÐ²Ð¸Ð·Ð¾ ÑĢ
ĺÐ¯ Ð¢ÐĲ
ĠÑģÐ¿Ð¾ ÑĢÑĤÐ¾Ð²Ðµ
ĠÐŁÑĢÐ¸ Ð»ÐµÐ¿
ÑĥÐ °Ð»ÐµÐ½
ĠÑĩÐ¾Ð²ÐµÑĪÐºÐ¸ Ñı
ĠÑħÑĢÐ° Ð½Ð¾Ñģ
ĠÐ¿Ð¾ÑģÐ»ÐµÐ´ Ð½Ð°
ĠÐ¸Ð· Ð²ÐµÐ´Ðµ
ĠÐ½Ð¾ÑĢÐ¼Ð°Ð» Ð½Ð°
ĠÐ¾ÑĤÐ¾ Ð¿Ð»ÐµÐ½Ð¸Ðµ
ĠÑĦÐ¸Ð» ÑĤÑĢÐ¸
ĠÐĥÐ ¾
ĠÐ°Ð´ ÑĢÐµÑģÐ°
Â ¬
ĠÐĺÐ· ÑģÐ»ÐµÐ´
ĠÐ¾Ð± ÑħÐ²Ð°
ĠÐ²ÑĬÑĤÑĢÐµÑĪ Ð½Ð°
ĠÐ³ÑĬÑĢÐ »Ð
ĠÐ¿ÑĢÐ¸ Ð´Ð²Ð¸Ð¶
ĠÐºÐ½Ð¸ Ð¶ÐºÐ°
ĠÐµÐ´Ð½Ð° ÑĪ
ĠÐķ ÐºÐ¾
ĠÑģÑĬ Ð´Ð¸Ð¸
ĠÑģÑĬÑīÐµ ÑģÑĤÐ²Ð°
ĠÐ°Ð½ÑĤÐ¸Ð¾ÐºÑģÐ¸ Ð´Ð°
ĠÐ¿ÑĢÐ¾Ð·Ð¾ ÑĢÐµÑĨÐ°
ĠÐĿÐ ¡
ĠÐ¿Ð¾Ð³Ð¾ Ð»ÐµÐ¼
Ð½Ð´ Ð¶Ðµ
ĠÑģÑĤÐ¾ ÑĤÐ¸
ĠÐļÐ°Ð»Ð¸ ÑĦÐ¾
ÑģÐ¸ ÑħÐ¾
ĠÐ¿ÑĢÐ¸Ð µÑĤ
ĠÐļÑĥ Ð¼Ð°
ĠÑĩÑĥÐ²Ð° Ð»
ÑĤÐ»Ð °Ð½ÑĤÐ¸
ĠM ac
ÑģÐµ Ð½Ðµ
ĠÐ±Ñĥ ÑŁÐ
Ð£ Ð
M S
ĠÐ°ÑĢÐµ ÑģÑĤÐ°
ĠÐ¸Ð· Ð¿Ð°
Ġ7 6
Ĥ ÑĢÐ¸ÑĤÐµ
ĠÑģ Ð½Ð¸
ĠÐ·ÑĢÐ¸ÑĤÐµ Ð»Ð¸ÑĤÐµ
ÐĲ Ð»Ðµ
ĠÐ±ÐµÐ· Ñģ
ĠÐ¿Ð¾ÑģÐµ Ð±Ð½Ð¾
ĠÐ´Ð½Ðµ Ð²Ð½Ð°
ĠÐ»Ðµ ÑģÐ½Ð¸
ĠÐļÐ¾ Ð½Ð³
ĠÐ¿ÑĢÐ¸ÑĤÐµ Ð¶Ð°Ð²Ð°ÑĤ
Ð¿ÑĢÐ° Ð²ÐµÐ´
ĠÐ²Ð»Ð° ÑģÑĤÐ°
ĠÐŁÐ¾Ð»Ð¸ ÑĤÐ¸
ĲÐ ¨
ĠÑĢÐ° Ð¼Ðµ
ĠÑĤÑĬÑĢÐ¿Ð µÐ½Ð¸Ðµ
ĠÐ»ÐµÐ½ ÑĤÐ¸
Ð»Ð¸Ð·Ð° ÑĨÐ¸ÑĺÐ°
ĠÐ¸Ð½Ð²ÐµÑģÑĤÐ¸ ÑĢÐ°
ÑĢÐ¼Ð ¾Ð½Ð¸
ĠÐ´Ð¸ÑĢÐµÐºÑĤÐ¾ÑĢ ÑĬÑĤ
d a
ĠÐľÐ° ÑĢÑģ
ÑģÑĤÑĢÐ° Ð½Ð¸
ĠÐ½Ð° Ð±Ð¾ÑĢ
ĠÐ²Ð»Ð¸Ñı Ð½Ð¸ÐµÑĤÐ¾
ĠÐ¿ÑĢÐµÐ´Ð½Ð°Ð·Ð½Ð° ÑĩÐµÐ½Ð¸
ĠÑħÑĢÐ¸ÑģÑĤÐ¸ ÑıÐ½
Ð¹ Ð½Ð¸ÑıÑĤ
Ð² Ð»Ð¸
ĠÐ·Ð°Ð±Ð° Ð²Ð»ÑıÐ²Ð°
Ġi z
ĠÐļÐ¾ ÐµÑĤÐ¾
ĠÐĳÐ°Ð»ÐºÐ° Ð½
ĠÑĢÐ°Ð· Ð¼Ð¸Ð½Ð°
ĠÑģÐ ¾ÑĦÐ¸Ñı
ÑĢÐ ¶Ð°ÑĤ
ĠÐĺÐ· Ð³Ð»ÐµÐ¶Ð´Ð°
Ñ ĤÑĢÐ¸ÑĤÐµ
ĠÐ°ÐºÑĤÐ¸ Ð²Ð½Ð°
ĠÐĲÐ½Ð´ ÑĢÐµ
ĠÐºÐ¾ÑĢÐ° Ð±Ð°
en i
ĠÐ¿ Ð»Ð¸
ÐĳÐµ Ð·
ĠI SBN
ĠÐ´Ð¸ Ð·Ðµ
Ð½Ð¸ Ð¹
ĠÑħÑĢÐ°Ð½Ð¾Ñģ Ð¼Ð¸Ð»Ð°
ĠÐ¼Ð° Ð³Ð½Ðµ
Ñģ ÑĤÐºÐ°
ĠÐ·Ð° ÑĢÐ°Ð·
ĠÐ¾ Ð´Ð¾Ð±ÑĢÐµ
ĠÐ¿Ð°ÑĢÑĤÐ¸ Ð¸ÑĤÐµ
ÑģÑĤÐ² ÑĥÐ²Ð°Ð°ÑĤ
ÐĿÐ¾ Ð²Ð°
ĠÐºÐ°Ð»Ð¾ ÑĢÐ¸Ð¸
ĠÐ¸Ð½Ð¸ÑĨÐ¸Ð° ÑĤÐ¸Ð²Ð¸
Ð±Ðµ Ð»Ð¸ÑĤÐµ
ĠÐ¾Ð±ÑīÐµ ÑģÑĤÐ²ÐµÐ½Ð¸ÑĤÐµ
ow n
ĠÐ¿ÑĢÐ¾ ÑĩÑĥ
ÑģÑı Ð²Ð°ÑĤ
ĠÐ¿Ð¾Ñ īÐ°
Ð³Ð° Ð»
ĠÐ¾ÑĢÐ¸Ð µÐ½ÑĤÐ¸ÑĢÐ°
ĠÐ¿ÑĢÐ¾ÑģÑĤÑĢÐ°Ð½ ÑģÑĤÐ²Ð°
Ð¿ Ð½Ðµ
ĠÐ·Ð°Ð½Ð¸Ð¼Ð° Ð²Ð°ÑĤ
ĠÐ·Ð°Ð±ÑĢÐ° Ð½Ð¸
ĠÑĢÐ¾ Ð´Ð½Ð¸Ñı
ĠÐļÐ° Ð»Ð¾
ĠÑĥÐ» ÑĤÑĢÐ°
ĠÐ¿ÑĢÐ¾ ÑģÐ»Ðµ
ĠÐ¾ÑĢÐ³Ð°Ð½Ð¸ Ð·Ð¸ÑĢÐ°Ð½
ĠP ar
ĠÐºÐ¾Ð½ÑģÑĥÐ¼Ð° ÑĨÐ¸Ñı
ĲÐĿÐ Ĳ
Ġ ________________
ĠÑĥÐ½Ð¸ÐºÐ° Ð»Ð½Ð°
ĠÑģ Ð±Ð¾
ĠÐ»Ðµ Ð³Ð°
ĠÐ´Ð¾ÑĪ ÑĬÐ»
ĠÐ´ÐµÐ·Ð¸ Ð½ÑĦÐµ
ĠÑĦÐ¸Ð·Ð¸ ÑĩÐµÑģÐºÐ¾
Ñ ĵÐ°
ĠÐŀ Ð£
ÐļÐ° ÑĤÐ¾
ĠÐ§Ð µÑģÑĤÐ¸
ĠÐĶ Ñİ
ĠÐ¾ÑĤÐ² ÑĬÐ½
ed es
ĠÑĥÑĩÐ¸ ÑĤÐµÐ»Ð¸ÑĤÐµ
ĠÐķ Ð¼Ð°
Ð´Ñĥ Ð
ĠÐ´Ðµ Ð»Ð°ÑĤÐ°
ĠÐ¸Ð·Ð³ÑĢÐ° Ð´ÐµÐ½Ð°
ĠÐĿÐµÑĥ ÑĤÑĢÐ°
¾ ÑĤÐ²ÐµÑĤ
ŁÐ Ł
Ġ15 00
ĠÐ¿Ð¾Ð²ÑĤÐ¾ ÑĢÐ¸
ĠÑĤÐµ ÑĩÐ½Ð¾ÑģÑĤ
ĠÐ¾ ÑģÐ¸
ĠÐ²Ð¾Ð´Ðµ ÑīÐ¸ÑĤÐµ
ĠÑģÐ²Ð¸ Ðº
ĠÑĨÐ²ÐµÑĤÐ¾ Ð²ÐµÑĤÐµ
Ð ¾ÑĤÐ²ÐµÑĤ
ĠÐĶÐ¸ Ð·Ð°
ĺÐ ł
ÑģÐµÑĤ Ð½Ðµ
ĠÑĤÐ° Ð¹Ð½Ð¸
ĠÐ´Ðµ Ð±Ð°
ĠÐ½Ð°Ð¸ Ð¼ÐµÐ½Ð¾Ð²Ð°
ĠÐ¼ÑĬ Ð´ÑĢÐ¾
ĠÑģÐ° Ð»Ð¾Ð½
ĠÑģÐ»Ð¸ ÐºÐ°
ĠÐ´Ð ¶Ðµ
ĠÑĢÑĥ ÑģÐºÐ°
ĠÐ¾ÑĤÐ ´
ĠÑģÑĬÑģÑĤÐ¾Ñı Ð½Ð¸Ñı
ĠÐ¿ÑĢÐµ ÑĢÐ°Ð±Ð¾
ĠÑĤÐµÐ¾ ÑĢÐµ
ĠÐ¼Ð¾ Ð³Ð»Ð¾
ĠÐ¾ÑģÑĤÑĢÐ¾ Ð²Ð¸
ĠÐ·Ð° ÐºÐ»Ñĥ
ĠÑħÐ¾ Ð¼Ð¾
ĠÑģÑĤÐ°Ð½Ð¾Ð²Ð¸ ÑīÐµ
ĠÐ¾ Ð´Ð¾Ð±ÑĢÐ¸
ÐĽÐ µÐ²ÑģÐºÐ¸
ĠÐĲ Ñĥ
Ġ7 3
ĠÐ²ÑĤÐ¾ ÑĢÐ¸Ð¾ÑĤ
Ñ ĻÑĥ
ĠÑĤÐ° Ð½ÑĨÐ¸
ÑĢÑı Ð»Ð°
of ia
ĠÐ¸Ð·Ð¿Ð¾Ð»Ð·Ð²Ð° Ð½
ĠÐĶÐ¶Ð¾ÑĢÐ´ Ð¶
ĠÑĥÐ±Ðµ Ð´ÐµÐ½
y l
ĠÐ¾ Ð½Ð¾
ĠÐĿÐ° ÑĪÐ°ÑĤÐ°
ĠÐŁ Ð»ÐµÐ²Ð½ÐµÐ»Ð¸ÐµÐ²
ĠÐµÐ´Ð¸ Ð½Ð¸ÑĨÐ¸
ĠÐļÐ°Ð·Ð° Ð½Ð»ÑĬÐº
ĠÑĢÐ¾Ð´Ð¸ Ð½Ð°ÑĤÐ°
ÑĢÐ²Ð° Ð½ÐµÑĤÐ¾
ĠÐ·Ð»Ð° ÑĤÐ½Ð¸
ĠÐ¸Ð»ÑĺÐ° Ð´Ð¸
Ð¼Ð¾ ÑĢÐ¸
ĠÐ±Ð° Ð½Ð¸
ĠÐĴÐµ Ð½Ðµ
Ġ7 8
ĠÐ½Ð°Ð ¾ÐºÐ¾Ð»Ð¾
ĠÐ¿Ð°Ð¼ÐµÑĤ Ð½Ð¸Ðº
ĠÐļÑĢÑĬ ÑģÑĤÐµ
ĠÐ½ÑıÐ¼Ð° Ð»Ð¾
ĠÐĲ ÐºÑĤ
ĠÐ²Ð·Ð°Ð¸ Ð¼Ð½Ð¾
ĠÐ¾ Ð¶Ð¸
ĠÐĶ Ð²ÐµÑĤÐµ
v est
ĠÐ½Ð° Ð¿ÑĢÐ¾ÑĤÐ¸Ð²
Ð¼ ÐºÐ°
ĠÐ¿Ð¾ÑģÑĤÐ° Ð²ÑıÐ½Ðµ
ĠÐµÐ»ÐµÐºÑĤÑĢÐ¾ Ð½Ð½Ð°
ĠÐ¸Ð½ÑĤÐµ ÑĢÐ²ÐµÐ½
ĠÑĥÑģÐ¿Ñı Ð²Ð°ÑĤ
ĠÐ¿Ð¾ÑģÐµÑĤÐ¸ÑĤÐµ Ð»Ð¸ÑĤÐµ
ĠÑģÑĤÐ¸ Ð³Ð½Ð°ÑĤ
ĠÐ¿ÑĢÐµ Ð½ÐµÑģÐµ
ĠÑİ Ð±Ð¸
ĠÐ±ÑĥÑĤÐ¾ Ð½Ð°
ĠÐ¦Ð °ÑĢÐ¸
ĠO r
ĠÐ±Ð°ÑĤÐµ ÑĢÐ¸ÑıÑĤÐ°
ĠÐĳÐ¾Ð¶ ÐºÐ¾Ð²
ĶÐ ļ
ÑĢÑĥ ÑģÐ°
ĠÐŁÑĢÐ¾ÑĩÐµÑĤÐµ ÑĤÐµ
ĠÐ³ÑĢÐ¸ Ð¼
ĠÐ±Ð»Ð°Ð³Ð¾ ÑĤÐ²Ð¾ÑĢÐ¸
ĠÐĿÐ°ÑĨÐ¸Ð¾Ð½Ð° Ð»Ð½Ð°
ĠÐ¼Ð½Ð¾Ð³Ð¾ ÑĤÐ¾
ĠÑĢÐ¾ Ð¶Ð´ÐµÐ½
ĺÐ Ķ
ĠÐ²Ð»Ð¸Ð·Ð° Ð½Ðµ
ĠÐ²ÐºÐ»Ñİ ÑĩÐ²Ð°Ð½Ðµ
ĠÐ°ÑĢÑħÐ¸ÑĤÐµ ÐºÑĤÑĥ
ĠÐ¸Ð·ÑĢÐ°Ð±Ð¾ ÑĤÐµÐ½Ð°
łÐ£ ÐĵÐ
ĠÐŀ ÑĤÐ»Ð¸
Ð»Ð¾Ð³Ð¸ ÑĺÐ°
ĠÐĺÐ½ ÑģÑĤÐ°
ĠÐºÐ¸ÑĤÐ° Ð¹ÑģÐºÐ¸
Ð³ÑĢÐ°ÑĦÐ¸ ÑıÑĤÐ°
Ð¼Ð°Ð» ÑĬÐº
ĠÐ·Ð°Ð´ÑĬÐ»Ð¶Ðµ Ð½Ð¸Ðµ
ĠÐŁ ÑĢÐ°Ð·
ĠÐĵÐ° Ð±
ĠÐ´Ð¾Ð¼Ð° ÑĪÐ½Ð¾
ÑĬÑĢÐ ±
ĠÐ¸Ð·Ð´Ð° Ð½Ð¸ÐµÑĤÐ¾
ĠÐ¼Ð° Ð¹ÐºÐ¸
ĠG r
ĠÑĥÑģÑĤÐ°Ð½Ð¾ Ð²ÑıÐ²Ð°
ĠÐ±ÑĬÐ´Ðµ ÑīÐ¸ÑĤÐµ
ĠÑĢÐ°Ð·Ð²Ð¸ Ð
Ð·Ð¸ÑĢÐ° Ð½Ð¸ÑĤÐµ
ĠÐŁÐ¸ ÑĢÐ¸Ð½
£ ÐĿÐ
ĠÑĪÐ¾Ñĥ ÑĤÐ¾
ĠÐķ Ð½Ðµ
ĠÑĢÐµ ÑĪÐ°ÑĤ
ĠÑģÐµ ÑģÐ¸Ñı
ĠÐ¼Ð¾Ð´Ðµ ÑĢÐ½Ð°
ĠÐĴÐµÐ´Ð½Ð° Ð³Ð°
ĠG roup
ĠÐ·Ð°ÑĤÐ²Ð¾ ÑĢÐµÐ½
ĠÐ£ Ð¡Ð
4 00
ĠÐ¿Ð»Ð° Ð½Ð¾Ð²ÐµÑĤÐµ
ĠÑĢÐ¸ ÑģÑĥÐ²Ð°
ĠÐ¾ÑĤÐ³Ð¾Ð²Ð¾ ÑĢÐ½Ð¾
ĠÑģÐ²ÐµÑĤ ÑģÐºÐ¸
ht ml
en e
ĠÐĳÐ ¢Ð
ĠÑĪÐ°Ð¼Ð¿Ð¸Ð ¾
ĠC ol
ĠÐ¾ÑģÑĤÐ° Ð²ÐµÑĤÐµ
ĠN et
ÑĤÐ¸Ð² Ð½Ð¾ÑģÑĤ
ÑĨÐ¸Ð¾Ð½ Ð½Ð¸ÑıÑĤ
ĠÑĥ Ð¿Ð»Ð°
ĠÐŀ ÑĢÐ¸
ĠÐ¿ÑĢÐ¸Ð½ÑĨÐ¸ Ð¿Ð°
ÑĤÑĢÑĥ Ð´Ð½Ð¾
ĠÐº Ð½Ñı
¾ Ð²Ðµ
ĠÐ¿ÑĢÐµÐºÑĢÐ° ÑģÐ½Ð¸
ĠÑĦÐ° ÑĪÐ¸
ĠÐ¿ÑĢÐ¾ÑĨÐµ ÑģÐ¸ÑĤÐµ
ĠÐ¸Ð½ÑĦÐµ ÐºÑĨÐ¸Ñı
ĠÑĩÐµÑĤÐ²ÑĬÑĢ ÑĤÐ¸
Ġ ad
ĺÐ ¢
ĠÐµÐºÐ ·Ð¾
ĠM on
ĠÐĲ ÑħÐ¼Ðµ
ĠÐ¾ÑĤÐ³Ð»Ðµ Ð¶Ð´Ð°
ĠÐĴÐ ŀ
ĠÐĴ Ð½Ð¸Ð¼Ð°
ĠÐ¿Ð¾ Ð²Ð»Ðµ
ĠÐ°ÑĤÐ¼Ð¾ÑģÑĦÐµ ÑĢÐ°ÑĤÐ°
ÐĲ Ð»
ĠÐĶÐ¾ ÐºÐ»Ð°
ĺÐ ¨
ĠÐŀ Ð¿Ð¸ÑĤÐ°
ĠÐ¸ÑģÐ¿Ð¾ Ð»
ĠÑĤ ÑĢÐ³
ĠÑĥ Ð¼Ð¸ÑĪ
ĠÐ¿ÑĢÐ°Ð²Ð¾ ÑģÑĬÐ´Ð¸ÐµÑĤÐ¾
ĠÑĥ Ð´ÑĬÐ»Ð¶Ð°
ĠÑĤÐµ Ð¿ÑĬÑĢÐ²Ð°
b a
ĠÑĤÑĢÐ° ÑĦÐ¸Ðº
is e
ĠÐĵ Ñİ
ĠÐ¿ÑĢÐµ Ð¼Ð°
ĠÐ¿Ð¾Ð»Ðµ Ð·ÐµÐ½
ĠÑĨ ÑĬÑĦ
ĠÐ´Ð¸ ÑĢÐ¸
Ñħ Ð²Ð°Ð½Ðµ
er t
ĠÐ¿ÑĢÐ¾Ð¼Ðµ Ð½Ð»Ð¸
ĠÐ¡Ð»Ðµ Ð´Ð¾Ð²Ð°ÑĤÐµÐ»Ð½Ð¾
ĠÐ¿ÑĥÐ±Ð»Ð¸ ÑĩÐ½Ð¸
ĠÐ¿ÑĢÐµÐ´Ð¸Ð¼ ÑģÑĤÐ²Ð°
ĠÐ¿Ð¾Ð²ÑĢÐµ Ð´Ð¸
ĠÐ¾Ð´Ð ±Ðµ
ĠÑīÐ° Ð±
ĠÐºÐ»Ðµ ÑĤÐºÐ¸ÑĤÐµ
ĠÑģÐ»Ð¾ Ð²Ð¾
ÑħÐ° Ð½
ĠÐ¢Ð¾ Ð¼
ĠÐ¾Ð±Ð° Ð´Ð¸
ĠÐ¸Ð·Ð¾ Ð±ÑĢÐµ
ĠÐ± ÑĢÐ°Ð·Ð¸
ĠÐ±Ð»Ð¸Ð· ÑĬÐº
ĠÐ¼Ð° ÑĢÐ¸
ĠÐ¾Ð³ÑĢÐ°Ð½Ð¸ ÑĩÐ°Ð²Ð°
ĠÐ²ÑĢÐµÐ´ Ð½Ð¾ÑģÑĤ
ĠÐ¿Ð¾ÑĢÐµÐ´Ð¸ ÑĨÐ°ÑĤÐ°
ĠÐ´Ð¾ÑħÐ¾ Ð´Ð¸ÑĤÐµ
ĠÑħ ÑĬÐ»
ĠÐºÑĥ Ð±
ĠÐ¾ÑĤÐ¸ Ð´Ð°ÑĤ
ÑģÐ¸ÑĤÐµ Ð»Ð¸
ĠÐ¼Ð¾ Ð½Ð°
ÑĤÐµÑĢÐ¸Ð ¸ÑĤÐµ
ĠÐ·Ð°Ð±ÐµÐ»Ðµ Ð¶Ð°
ĠÐºÐ¾Ð¾ ÑĢÐ´Ð¸
ĠÑģÐµÐºÑĥ Ð½Ð´Ð°
ĠÐ´Ð¾ Ð»Ð½Ð°ÑĤÐ°
Ð½Ð ±Ð¾
ĠÑĤÑĬÑĢÑģÐ¸ Ð¼
ĠÐĿÐµ ÑģÐµÐ±ÑĬÑĢ
ĠÐ³ Ð»Ð¸
ĠÐº ÑĢÐ°ÑĤÑĬÐº
ĠÐ¼Ð¾ Ð´Ð¸
ĠÐ¶Ð¸Ð²Ð¾ÑĤ Ð½Ð¾
ÐĴÑģÐ¸ ÑĩÐºÐ¸
ĠÐĲÐ»ÐµÐºÑģÐ° Ð½Ð´Ð°ÑĢ
ĠÐ¨ Ð¿Ð°
ĠÑĢÐ° Ð¼Ð¾
ĠÑĢÑĬÐºÐ¾ Ð²Ð¾Ð´Ð¸
Ð²Ðµ Ð½Ð¸Ñı
ĠÐºÐ¾ Ð½Ñı
ĠÐĿÑıÐ¼Ð° Ð¼
ĠÐ²Ð´ÑĬÑħ Ð½Ð¾Ð²Ðµ
ĠÑģÑĬ ÑģÐ¸
ĠÐ°Ð³ÐµÐ½ ÑĨÐ¸ÑıÑĤÐ°
ĠÐ¿ÑĢÐµÐ² ÑĢÑĬÑīÐ°ÑĤ
ĠÐŀÑģ Ð²Ð¾Ð±Ð¾
ĠÐºÐ¾ Ð»Ð¸ÑĤÐµ
ĠÐ·Ð´ÑĢÐ°Ð² ÑĺÐµ
ĠÐ¿ÑĢÐ¸Ð»Ð°Ð³Ð° Ð½ÐµÑĤÐ¾
ĠÑģÑĤÑĢÐ°ÑħÐ¾ÑĤ Ð½Ð¾
ĠÐķÐ ĲÐĶ
ĠÐ¿ÑĬÐ»Ð½Ð¾ ÑĨÐµÐ½
ÑģÐ¸ ÑĢÐ°Ð½
ĠÑģÐµÐ»ÑģÐºÐ¾ ÑģÑĤÐ¾Ð¿Ð°
ĠInter n
ĠÐ¿Ð°ÑĤÑĢÐ¸Ð¾ ÑĤÐ¸
ĠÐ½Ð° Ð´Ð¸
ĠÑĢÐ°Ð· Ð´ÐµÐ»
ĠÐ¿ÑĢÐ¾ Ñģ
ĠÐ²Ð¾ÐµÐ½ Ð½Ð¸ÑĤÐµ
ĠÐĵÐ¾ Ð²Ð¾ÑĢÐ¸
Ġ199 2
! ".
ĠÑĤÐ¾ ÑĢÐ¼Ð¾
ĠÐĲÐ½ ÑĤÐ¾Ð½
ĠS c
ĠÐ¼Ð¸ ÑģÑĤÐµ
Ðľ Ð»Ð°
ĠÐ²Ðµ ÑĢÑĥ
ĠÐºÐ° Ð¶Ð¸
ĠÐ²Ð¸ Ð±ÑĢÐ°
ĠÐĿÐ¾ Ð²Ð¸ÑĤÐµ
Ġk e
ĠÑĥÑĩÐ¸Ð»Ð¸ ÑīÐ°ÑĤÐ°
ĠÑĤÐµÑħÐ½Ð¾Ð»Ð¾Ð³Ð¸ Ð¸ÑĤÐµ
ĠÐºÐ¾Ð½ÐºÑĥÑĢÐµÐ½ ÑĨÐ¸ÑıÑĤÐ°
ĠÐ¿ÑĢÐµ Ð·ÐµÐ½ÑĤÐ°
ĠÐ±Ð»Ð°Ð³Ð¾Ð´Ð° ÑĢÐ½Ð¾ÑģÑĤ
ĠÐ¸Ð·ÑĩÐ¸ Ñģ
ĠÑģ ÐºÑĥÐ»Ð¿
Ð¥ ÑĢÐ¸ÑģÑĤÐ¾
Ġ9 78
ĠÐ¸ÑģÐºÐ° Ñħ
ĠÑĤÑĢÐ° Ð½Ð·Ð¸
£ ÐļÐ
ĠÐ¼ÐµÐ½ ÑĤÐ°
ĠÑģÐ»Ð° Ð±
ĠÑĢÐµÐ³Ð¸ÑģÑĤÑĢÐ¸ ÑĢÐ°
ĠÑĤÐµÐ¶ ÑĬÐº
ĠÐ·ÐµÐ¼ÐµÐ´ÐµÐ» ÑģÐºÐ¸
ĠÑĤÐµ Ð¼Ð¿Ð¾
ĠÐ¾ÑģÑĤÐ° ÑĤÑĬ
ĠÐ´ ÐºÐ°
Ð½ Ð½Ð¸Ñı
Ġ8 8
ĠÐ¸Ð·Ð¸ ÑģÐºÐ°
ÑĢÐ²Ð ¸ÑĤÐµ
ĠÐ¿Ð¾ÑģÑĤÐ¾ÑĺÐ° Ñ
Ð¼ ÑģÐºÐ°
ĠÐ¿Ð¾ÑģÑĤÐ¾ÑĺÐ°Ñ Ĥ
ĠÑģÐ¾Ð»Ð¸ Ð´Ð°
Ð¿ Ð»ÑĬÑĤ
ÑĢÐ¸ ÑĩÐµÑģÐºÐ¸
ĠÐ²ÑĢÑĬ ÑīÐ°ÑĤ
Ð½Ð³Ð µÐ½
ĠÑĤÑĢÐ° ÐºÐ¸
ĠÐ¾Ð´Ð¸ Ð³ÑĢÐ°
ĠÐ·Ð°ÑģÐµ Ð³Ð½Ð°
ĠÐŀ Ð
ÑħÑĥ Ð±Ð°
ĠÐ¾ÐºÐ° Ð·Ð²Ð°ÑĤ
ĠÐ´Ð²Ð¸Ð³Ð° ÑĤÐµÐ»Ð¸
ĠÐĸÐµ Ð»Ð°
ĠÐ¿Ð¾ÑģÐ²ÐµÑĤÐµ Ð½
ĠÐ¼Ð°Ñĺ ÐºÐ°
ĠÐ´Ð¾Ð± ÑĢÐ°ÑĤÐ°
ĠÐ²ÐµÐ»Ð¸ Ðº
ĠÑģÑĤÑĢÐ° ÑħÐ¾ÑĤÐµÐ½
ĠÐ°Ð½Ð³Ð°Ð¶Ð¸ ÑĢÐ°
ĠÐ»Ð¸ Ð½Ðµ
ĠÐ¿ÑĢÐµÑģÐºÐ¾Ð½ÑĦÐµÑĢÐµÐ½ ÑĨÐ¸Ñı
ĠÐ¥ ÑĢÐ²Ð°ÑĤ
ĠÐ¾Ð± ÑĢÑĬ
ÑģÐ¿Ð¾ ÑģÐ¾
ĠÐ²Ð¾Ð»Ñı ÑĤÐ°
ĲÐ ĲÐ
ÑĤÐ° Ð
ĠÐ¢Ð ŀÐĴÐĲ
ĠÐ¡ÑĬÑİ Ð·Ð°
ĠÐ¾Ð¼ÑĢÐ° Ð·Ð°
ĠÐ¿ÑĢÐµ Ð¿Ð¸
ĠÑĤÐµ Ð»Ð¾ÑĤÐ¾
ĠÐºÐ°ÑĩÐµ ÑģÑĤÐ²ÐµÐ½Ð¾
ĠÐ´Ð¾Ð¿ÑĬÐ»Ð½Ð¸ÑĤÐµ Ð»ÐµÐ½
ĠÐºÐ° Ñ
od e
ĠÐ¾ÑĤÐ³Ð¾Ð²Ð¾ÑĢ Ð½Ð¾ÑģÑĤÑĤÐ°
ĠÐ īÑĥ
ĠSport al
Ð½Ñĥ Ð²Ð°ÑļÐµÑĤÐ¾
ĠÐ¾ÑĤÐ»Ð¸ ÑĩÐµÐ½
ĠÐ¿ÑĢÐµÐ²Ð¾ Ð·Ð½Ð¸
ĠÐ¿ÑĢÐ°Ð²Ð¸ Ð»Ð½Ð¾ÑĤÐ¾
ĠÐľÐ°Ð½Ð¾ Ð»Ð¾Ð²Ð°
Ġ199 4
ÐľÐ¾ Ð¶Ðµ
Ð»Ñı Ð·Ð²Ð°ÑĤ
d iv
ĠÐłÐ°Ð· Ð¿Ð¾Ð»Ð°Ð³Ð°
ĠÐ¿ÑĢÐ¾ÑĤÐµÐ ¸Ð½Ð¸
ĠÐ²Ð¸Ð· ÑĥÐ°Ð»
Ð»ÐµÐ½ ÑģÐºÐ¸
Ð¿Ð¸ ÑıÑĤÐ°
ĠÐ¢ÑĢÑĥ Ð´
ÑĨÐ µÐ½ÑĤÐ¸
ĠÐ¿ÑĢÐµÐ´ÑģÑĤÐ° Ð²ÐµÐ½Ð°
ĠÑģÑĤÑĢÐ¾ Ð³Ð¾
Ġ199 5
ÑĦÐ °ÑĤÐ°
ĠÑģÐ¾Ð¾Ð±ÑĢÐ°ÑľÐ °Ñĺ
ĠÑĤÐ° Ð»Ð°Ð½ÑĤÐ»Ð¸
ĠÐ´Ð° Ð²Ð°Ð¼
ĠÐ§Ð ķ
ĠÑĢÐ°Ð·Ð¿ÑĢÐµÐ´Ðµ Ð»ÐµÐ½Ð¸Ðµ
ĠÐ¿ÑĥÐ±Ð»Ð¸ÐºÑĥÐ²Ð° Ð½Ð¸
ĠÐ½Ð°Ð´ Ð¿Ð¸Ñģ
ĠÐ¾Ð±ÐµÐ· Ð±ÐµÐ´Ð¸
ĠÐ´Ð¾ ÑģÐ°
ĠÐĲ ÑģÐ°
ĠÐ´Ð¸Ñģ ÐºÑĢÐ¸Ð¼Ð¸Ð½Ð°
ĠÐºÐ¾Ð½ÑĤÐµÐº ÑģÑĤ
erc edes
ĠÐ¿Ð¾ÑģÑĤÐ° Ð²ÐµÐ½Ð°
ĠÐ½ÐµÐ¿Ð¾ Ð´
ĠÐ¾ÑĤÐ² ÑĬÐ´
ÐºÑĢÐµ Ð´Ð¸
Ð·Ð¸ Ñģ
ĠÑĥ Ð´ÑĬÐ»Ð
Ð³ ÑĮÐ¾
ĠÐ´Ð¾ Ð´Ð°Ð²Ð°
ĠÑĢÐ°Ð· ÑģÑĤÑĢÐ¾Ð¹
ĠÐ½Ð¾ÑĢÐ¼Ð°Ð» Ð½Ð¸
ĠÑħÐ¸ Ð´ÑĢÐ¾
ĠÐĲÐ»Ðµ ÐºÑģÐ¸
Ð½Ðµ Ð½Ð°ÑĤÐ°
ĠÑĢÐ°Ð· Ð±Ðµ
ĠÐ³Ð»Ð° ÑģÐ¸
ĠÐķ ÑĦÐµ
ÑģÑĤÐµ Ð½ÑĤ
ĠÐ´ Ð½ÐµÐ²
ĠÐ¸ ÑģÑĤÐµ
ĠÐĴÑĢÐµÐ¼Ðµ ÑĤÐ¾
£ Ð§Ð
Ð¸Ð½ÑĤÐµ ÑĢÐµ
Ð¶Ð¾ Ð²Ðµ
ÑĥÐ²Ð° Ð»
ĠÑĥÑģÐ¿Ðµ ÑĪÐ½Ð¸
ĠÑģÑĢÐµ Ð´ÐµÐ½
ĠÐ¸Ð·Ð¿Ð¾Ð»Ð·Ð²Ð° Ð¹ÑĤÐµ
ĠÐ¢ÐµÑħ Ð½Ð¾Ð»Ð¾Ð³Ð¸
ĠÐ¦ Ð²Ðµ
ĠÐ¿ÑĢÐ¸ÑģÑĤÐ¸ Ð³Ð°
ĠÑĩÐ¸ Ð½Ð¾Ð²
ĠÐ²ÐºÐ»Ñİ ÑĩÐ°ÑĤ
ĠÐ¿Ð¾ ÑĢÑĤÐ¾
ĠÐĲ ÐłÐ
ĠÐºÐ¾ ÑĢÐ¾
ĠÑģÑĬÐ´Ðµ Ð±Ð½Ð¾
ĠÑĤÑĢÑĬ Ð±Ð¸
Ð¿Ð° Ð½Ð°
ĠÐ¿ÑĢÐµÐ´Ð¿Ð¾ ÑĩÐ¸ÑĤÐ°ÑĤ
ĠR E
ĠÐ·Ð°Ð¿Ð¸ ÑĤÐ²Ð°Ð½Ðµ
ĠÑģÐºÐ° Ð½Ð´Ð°
·Ð° Ð´
ÐĹ Ð»Ð°
ĠÐ¿ÑĢÐµÐ´Ð¸ ÑĪÐ½Ð¸ÑĤÐµ
ik e
Ġ1 01
ĠÐ¾ÑĤÐºÐ° ÐºÑĤÐ¾
Ð¡ Ð²ÐµÑĤÐ¸
al i
ĠÐ¾Ð´ÑĢÐµ Ð´ÐµÐ½Ð¸
ĠÐ¸Ð½Ð¶Ðµ Ð½ÐµÑĢ
ĠÑģÑĢÐµ Ð´Ð±Ð°
ĠÐ¿ÑĢÐ¸ Ð½ÑĨ
ĠÑģÑĬÑĢÐ´Ðµ ÑĩÐ½Ð¾
ĠÐ¡Ð¿Ð° ÑģÐ¾Ð²
ĠÑģÐºÑĬ Ð¿Ð¾
ĠÐ¸Ð·Ð¿ÑĬÐ»Ð½Ð¸ÑĤÐµ Ð»Ð¸
ĠÐ·Ð°Ð±ÑĢÐ°Ð²Ñı Ð¹ÑĤÐµ
ĠÐ¿Ð¾Ð»Ð ·Ð¸
ÑĩÐµ Ð½Ð¾ÑģÑĤ
ĠÑĩÐ°ÑģÑĤ Ð½Ð°
ĠV i
ĠÐ·Ð´ÑĢÐ° Ð²Ð½Ð°
ÐºÐ¸ ÑģÐµ
ĠÐ²ÑĢÐ° ÑĤÐ¸ÑĤÐµ
ĠÐ²Ð»Ð° Ð´Ð¸
Ð³Ð¾Ð»ÐµÐ¼Ð¸ Ð¾ÑĤ
ĠÑĤÐ¾ ÐºÐ°
ĠÑģÑĤÐ° Ð½Ð°Ð»Ð¸
ĠÑĥÑĩÐ°ÑģÑĤ ÑĬÐº
ĠÑģÐµ ÑĢÐ¸Ð°Ð»
ĠÐ´Ð ¸Ð¾
ĠÐºÐ¾Ð¼Ð¿Ð»Ðµ ÐºÑģÐ¸
ÑĪÐµ Ð»
ĠÐ½Ð°Ð¿ÑĢÐ°Ð²Ð¸ Ñħ
ĠÐ´ÑĢÐµ Ð±Ð½Ð¸
ĠÐ·Ð½Ð° Ñı
ĠÐµÐ¿Ð ¾ÑħÐ°
ĠÐ¿Ð¾ÐºÐ°Ð·Ð° ÑħÐ°
ĠÐ±ÐµÐ¶Ð° Ð½ÑĨÐ¸
Ð¿Ñĥ ÑģÑĤÐ¸
ĠÑĢÐ°Ð·ÑģÐ»ÐµÐ´ Ð²Ð°Ð½ÐµÑĤÐ¾
ri st
ÐºÐ¾ ÑĢÐ¸
ÐĶ ÑĢÑĥ
ŀÐ ¯
ĠÐļÐ¾ Ð´
ÑĦÐµ ÑĢ
ĠÐĲÐ»Ðµ ÐºÑģ
ĠÐŁÐ Ł
ÑģÐ ¾ÑħÐ°
¸ Ð´
Ð¹ ÑĦ
ĠÐ´Ð²ÑĥÐ±Ð¾ Ñı
¸ Ð´Ð¸
ĠÑĦÐ°ÑĢÐ¼Ð° ÑĨÐµÐ²
ar a
!!!! !!!!
ĠÐ·Ð°ÑĢÐµ Ð¶Ð´Ð°
ĠÐ´ÐµÐ¹ Ð½Ð¾ÑģÑĤÐ¸ÑĤÐµ
ĠÐ¾ÑĤÐ³Ð¾ Ð²Ð¾ÑĢÐ°
Ð½Ð¸ ÐºÐ°ÑĤÐ°
ĠÐ·Ðµ Ð¼Ð°
ĠÐ¿ÑĢÐ¸Ð±Ð»Ð¸ Ð·Ð¸ÑĤÐµÐ»Ð½Ð¾
ĠÐľÐ°ÑĢÐ¸ Ð½Ð¾Ð²
ĠÐĿÐ¸ÐºÐ¾ Ð»Ð¾Ð²Ð°
ĠÑĩÑĥ Ð´Ð½Ð¾
ĠÑĦÐ° ÐºÑĤÑĬÑĤ
ÑĢÐµ ÑĤÐ¾
ĠÐ¼Ð°Ð³Ð°Ð·Ð¸ Ð½Ð¸ÑĤÐµ
e u
ĠÐ¿ÑĢÐ¾Ð¿Ð°Ð³Ð° Ð½Ð´Ð°
Ð½ÐºÐ µÑĢ
ĠÐ¼Ðµ ÑĤÐµÐ¾
ĠÐ¿ÑĢÐ¾ÑĤÐµ ÑģÑĤÐ°
ĠÐ¾Ð±ÑīÐµ ÑģÑĤÐ²ÐµÐ½
ĠÐ¾ÑģÑĤÐ°Ð½Ð° ÑĤÐ¸ÑĤÐµ
ĠÐĴÐµÑģÐµ Ð»Ð¸Ð½
ÑģÐ¸ Ð¼
ĠÐ¼Ð¸Ð½Ð° Ð²Ð°ÑĤ
ÐºÐ¸Ð ¾
ŀÐłÐ Ĳ
t on
ĠÐ·Ð´ÑĢÐ° Ð²Ð½Ð¸
Ð²Ð»Ðµ ÐºÐ°
ĠÐ¡Ð¾ÑĦÐ¸ Ð¹ÑģÐºÐ¸Ñı
ĠÐ·Ð°Ð±Ð¾ ÑĢÐ°
ÐºÐ»Ñĥ Ð·Ð¸
ab le
- )
Ð¼ Ð½Ðµ
f l
ĠÐļÐ¸ Ð¼
ĿÐ ĲÐ¢ÐĲ
ĠÐ±Ðµ Ð»ÑĮÐ¾
ĠÑģÐ¸Ð½ Ñħ
ĠÐĿÐ ĲÐłÐ
ĠÐ¿ÑĢÐ¸ Ð½ÑĨÐµ
ĠÐ¿Ð¸ ÑģÑĤÐ¾
ĠÐ¤ ÑĢÐµ
ÐŁ ÑĢÐµÐ·
ĠÑĢÐµ ÑħÐ°Ð±Ð¸Ð»Ð¸
ĠÑĤÐ° Ñĺ
Ð· ÐºÐ¸Ñı
ĠÑĥ Ð½Ð³Ð°
ĠÐºÐ¸Ð»Ð¾Ð³ÑĢÐ° Ð¼Ð¸
ÑĬÐ» ÑĬ
ĠÑģÑĬÐ¼ Ð½ÐµÐ½Ð¸Ñı
ĠÐ°Ð² ÑģÑĤÑĢÐ¸
ĠÐ¼Ð° ÑģÐ»Ð¾ÑĤÐ¾
ĠÐļ ÑĢÐ°Ð»
ĠÐ°Ð²ÑĤÐ¾Ð¼Ð¾Ð±Ð¸ Ð»Ð¸ÑĤÐµ
ĠÐ¾ÑģÐ½Ð¾ Ð²Ð½Ð¾ÑĤÐ¾
ĠÐ±ÐµÐ· Ð²ÑĬÐ·
ĠÐ´Ð¾ÑģÑĤÐ° Ð²Ñı
ĠÐŀÑĩÐµ Ð²Ð¸Ð´Ð½Ð¾
ĠÐ¸Ð· Ð½Ð°ÑģÑı
Ð±Ð¾ Ð²Ð¸
ĠÐľÐµÑĤÐ¾Ð´Ð¸ Ð¹
Ð±Ð° Ðº
ĠÑĤÑĢÐµÐ±Ð° Ð»Ð¾
Ðķ Ð´Ð¸Ð½
ĠÐ»Ð¸ Ð½Ð¸ÑıÑĤÐ°
ÐºÑĢÐ¾ Ð½
ĠÐ½ÐµÐ¼Ð° Ð°ÑĤ
ĠÐ°Ð´Ð¼Ð¸Ð½Ð¸ÑģÑĤÑĢÐ° ÑĤÐ¸Ð²Ð½Ð¸
ĠÐ´Ðµ Ð»Ð¸
ĠÐĶÐ ĴÐ
Ð½Ð±Ðµ ÑĢÐ³
ĠÐ§Ð µÐ»ÑģÐ¸
ĠÐ´Ð¸Ð° Ð¼ÐµÑĤÑĬÑĢ
ĠÐ¾ÑĢÐ¸Ð µÐ½ÑĤÐ°
p o
ĠÑĢÐ¾ Ð´ÐµÐ½Ð¸
ĠÐ¤Ð µÐ²
Ð¶Ð¸ Ð
ĠÐ¸Ð· Ð²Ð¾ÑĢÐ¸
ĠÐµÐ´Ð¸ Ð½Ð¸ÑıÑĤ
ĠÑģÐ»Ñĥ ÑĩÐ²Ð°ÑĤ
ĠÐ¿ÑĢÐ¸Ð µÑĤÐ¸
ÑĢÑ Ĩ
ĠÐ¶ ÑĢ
ÑģÑĤÐ¾ Ð²Ð°
ĠÐºÑĥ ÑľÐ°
ĠÑİ Ð³
t y
ĠÑģÑĬ Ð²ÐµÑĤÐ°
ĠÐ¿ÑĢÐ¾ ÑģÐµ
ĠÐ¥ Ñİ
Ġ9 8
Ð½Ð´Ð ¾ÑĤ
ÑģÐ¿Ð¾ÑģÐ¾Ð± Ð½Ð¾ÑģÑĤ
ĲÐĽÐ ĺ
ra g
ot a
Ġ7 4
ĠÑĢÐµÐ³Ð¸Ð ¾Ð½Ð¸
ĠÐŁÐ¾Ð´Ð¾Ð± Ð½Ð¸
ĠÐ¸Ð½Ð´ÑĥÑģÑĤ ÑĢÐ¸ÑıÑĤÐ°
ĠÐ§ÐµÑĤÐ¸ ÑĢÐ¸
ĠÑĥÐ½Ð¸ÐºÐ° Ð»Ð½Ð¸
ĠÐ® Ð»Ð¸
ber g
ĠÐłÐ°Ð±Ð¾ ÑĤÐ¸
Ð½Ð´Ð° Ð½ÑģÐºÐ¸
ĠÑģÑĬÑīÐµÑģÑĤÐ²Ñĥ Ð²Ð°Ð½ÐµÑĤÐ¾
ĠÐ¿Ð¾Ð´Ð ·ÐµÐ¼
Ð²Ñı Ð´Ð°
ĠÐ°Ð½ÑĤÐ¸ Ð±Ð¸Ð¾
ĠÐµ Ð³Ð¾
ĠÐ¸Ð· ÑģÐ»Ñĥ
ĠÐ¿Ð¾ÑģÐ»Ð° Ð½Ð¸Ðº
ĺÐ¯ Ð¢
ĠÐ² ÑģÐ»ÐµÐ´ÑģÑĤÐ²Ð¸Ðµ
ÑĢÐ¸Ð µÐ½
ĠÐ¼Ð¸ ÑĤÐ½Ð¸
ĠÐ´Ðµ Ð»Ð¸ÐºÐ°
n er
ĠÐ½Ð° Ð´Ð¾
ĠÐĵÑĢÐ° Ð¶Ð´Ð°
ĠÐ¿Ð¾ÑģÑĤÐ¾Ñı Ð½ÐµÐ½
Ð¢ Ñĥ
ĠÐºÐ¾Ð¼Ð¿Ð»Ðµ ÐºÑģÐ°
ĠÐ³Ð¾ Ð²Ð¾ÑĢÐ¸ÑĤÐµ
ĠÐŁÑĢÐ¾ ÐºÑĥ
ÐĳÐ ĵ
ĠÐ½Ð°Ð¿Ð¸ÑģÐ° Ð»
ĠÐļÐ¾Ð µ
ÑģÐºÐ° Ð¼
ĠÑģÐ¸ÑĤÑĥÐ° ÑĨÐ¸ÑĺÐ°
ĠÐŁÐ¾Ð·Ð´ÑĢÐ° Ð²Ð¸
ĠÐ²ÐµÑĢ ÑģÐ¸Ð¸
at er
µÐ µÐ
ĠÐ¿Ð¸Ñģ Ð¼Ð¾ÑĤÐ¾
ĠÐµÑģÑĤÐµ ÑģÑĤÐ²ÐµÐ½Ð¸
Ð·Ð¸ÑĢÐ° Ð½Ð°ÑĤÐ°
ĠE l
ÑģÑĤÐµ Ð½Ð¾
Ñģ Ð¼Ð°
Ð½ÑĤ Ð½Ð¾
Ð´Ðµ ÑĢÐ¾Ð²
ĠÐ¶ÐµÐ»Ñı Ð·Ð¾
ĠÐµÐ²ÑĢÐ¾ Ð·Ð¾Ð½Ð°ÑĤÐ°
ĠÐŁÐ¾ ÐºÑĢÐ°Ñĺ
ĠÐ¤ÑĢÐ°Ð½ ÑĨÐ¸ÑĺÐ°
ĠÑĤÑĢÐ¸ Ð¼Ð°ÑĤÐ°
ĠÐ¿ÑĢÐ¸ Ð·Ð¸
ĠÐ¿ÑĢÐ¸ÑıÑĤÐµÐ» ÐºÐ°
ĠÐ·ÑĬ Ð±Ð¸ÑĤÐµ
ĠÐŁÑĬÑĢÐ²Ð° Ð½Ð¾Ð²
ĠÐ·Ð°Ð±ÑĢÐ°Ð²Ñı Ð¼Ðµ
ĠÑĪÐ¾ÑĦ ÑĮÐ¾ÑĢ
ĠÐľÑĥ Ð·Ðµ
ĠG re
e e
ĠÐļÐ° Ð½Ð´Ð¸
ĠÐµÐ´ Ð½Ð¾ÑĤÐ¾
ĠÑģÑĬÐ·Ð´Ð° Ð´Ð°ÑĤ
ĠÐ¿Ð¾ÑģÐ»ÐµÐ´ Ð½Ð¸
ĠÐ¸Ð· Ð»ÑıÐ·Ð°ÑĤ
ĠÑģÐµ ÐºÐ°ÐºÐ¾
ĠÐ¿Ð¾Ð·Ð½Ð° Ð²Ð°Ð¼
ĠÑĦÑĥÐ½Ðº ÑĨÐ¸ÑıÑĤÐ°
ĠÐ½Ðµ Ð¿ÑĢÐµÐ´
ĠÐ¸Ð·Ð²ÑĬÑĢ ÑĪÐµÐ½Ð¾
Ð² ÑģÐµ
ĠÐľÐ°ÐºÑģÐ¸ Ð¼Ð°
ĠÑģÐ° Ð¿Ñĥ
ĠÐ¥Ð °Ð½
ÐłÐ ¸
ĠÐ²ÑĬÐ· Ð¼Ñĥ
ĠÐ²ÑĬÐ·ÑģÑĤÐ°Ð½Ð¾ Ð²ÑıÐ²Ð°
ĠÐ¸Ð· Ð»Ð¾Ð¶Ð±Ð°ÑĤÐ°
ĠÐ¿Ð¾Ð´ Ð½Ð¾
ĠÑĨÐ¸ ÑĤÐ¸ÑĢÐ°Ð½
ĠÐ¼Ð¸ÑģÐ»Ð¸ Ð¼
ĠÐ±Ð ¾ÑĺÐ°
ĠÐ¾Ð±ÑĢÐ°Ð±Ð¾ ÑĤÐ²Ð°
Ð»Ñı ÑĤÐ°
ĠÐŀÐ±ÑīÐ¸ Ð½Ð°ÑĤÐ°
ĠÑĥÑĩÐµ Ð½Ð¸Ðº
ÑĤÐ²Ð µÐ½Ð¸
ĽÐ ĺ
ĠÐĴÑģÑı ÐºÐ¾
ĠÑĥ ÑĢÐ±Ð°
ĺÐ ŁÐ
ĠÑĤÑĥÑĢÐ¸ ÑģÑĤÐ¸ÑĤÐµ
ĠÐľÐ¸Ð½Ð° Ð»Ð°ÑĤÐ°
Ġe x
ĠÐºÐ°Ñ Ĥ
Ð¼Ð¸ ÑĨÐ°
ĠÑģÐ»ÐµÐ´ Ð²Ð°ÑĤ
ĠÐ¿Ð¾ÑģÐ»Ð° Ð½Ð¸Ðµ
ĠÐ²ÑĬÑĤÑĢÐµÑĪ Ð½Ð°ÑĤÐ°
µ Ð²Ð¾
ÑĤÐ¾ ÑĨÐ¸ÑĤÐµ
ĠÐ¿ÑĢÐ° Ð²Ð½Ð¸
ĠÐ¼Ð¸ÑĤÑĢÐ¾Ð¿Ð¾Ð»Ð¸ Ñ
ĠÐ¼Ð¸ÑĤÑĢÐ¾Ð¿Ð¾Ð»Ð¸Ñ Ĥ
ĠÑĢÐ° ÑģÑĤ
Ð¼Ð± ÑĬÐ»
ĠÐ±Ñĥ ÑĢÐ³Ð°
ĠÐºÐµ ÑĢÐ°Ð¼Ð¸
ĠÑĢÐµÐ³Ð¸Ð ¾Ð½Ð¾ÑĤ
ĠÐ¾Ð³ÑĬ Ð½Ñı
ĠÐ¿Ð¾ÑģÑĤÐ° Ð¿ÐºÐ°
Ð¤Ð °
ĠÐ¼ÐµÑĤÐ° Ð»Ð½Ð¸
ĠÐ¾Ð±Ð»Ð° ÑģÑĤÐ°
ĠÐ»Ðµ ÑĤÐ°
ĠÐ¿Ð¾Ñĩ Ð²Ð°ÑĤÐ°
ĠÐ±Ð¸Ð² ÑĪÐ°ÑĤÐ°
ĠÑĥ ÐºÐ°
ÑĥÐ µÑĢ
Ð µÐ¼Ð¸ÑĤÐµ
Ð¶Ð¸ Ð¼
ĠÐ´Ð° Ð´Ð¾ÑħÐ°
ĠÐŁÑĢÐµÐ´ ÑģÑĤÐ°Ð²Ñı
ĠÑģÐ¿Ð¾ Ð¼Ð°Ð³Ð°
ĠÐ¼Ð° Ð»Ð°
ĠÐ¼Ð¸ Ð·Ðµ
ĠÐŁÐ° Ð»Ð°
ÑģÑĤÐ°Ð² ÐºÐ¸
ro w
ĠG old
ĠÐ½Ðµ Ð²
ĠÑģÑĢÐµÑī Ð½Ð°
ot e
ĠÐľÐ¾ Ð³Ð°
ĠÐĶÐ¾ ÐºÑĥ
ĠÐ¿Ð¾Ð²ÑĢÐ·Ð° Ð½Ð¸
ĠÐŀ ÐºÑĢÑĬ
ĠÐºÑĥ ÑĢÑģÐ°
ĠÑģÐ¾ÑĨÐ¸Ð °Ð»ÐµÐ½
ĠÑĩÐµ ÑĤÐ°ÑĤ
ĠÐ¿ÑĢÐ¸ÑĩÐ¸ Ð½ÑıÐ²Ð°
ĠÑģÑĤÐ° ÑĢÑĪÐ¸
ĠÐľÐ° ÑĢÑĤ
ĠÐ¸Ð½Ð²ÐµÑģÑĤÐ¸ ÑĤÐ¾ÑĢÐ¸ÑĤÐµ
Ð¢Ð ŀ
ĠÐ³ÑĢÐ° Ð´Ð¾Ð²ÐµÑĤÐµ
ĠÐ¸Ð½Ð´Ð¸Ð²Ð¸Ð´Ñĥ Ð°Ð»Ð½Ð¸
ĠÐ°ÑĤÐ° ÐºÐ¸
ÐŁÐ¾ ÑģÐ»ÐµÐ´
ĠÑģÑĤÐ°Ð½Ð° Ð»Ð°
ĠÑģÑħÐµ Ð¼Ð°ÑĤÐ°
ÑĤÐ¸ Ñģ
ĠÐ½Ð°Ð¼Ðµ ÑĢÑı
ĠÐ¾ÑģÑĤÐ° Ð½ÑĥÐ²Ð°
ĠÐ¿ÑĢÐ¾ Ð¶Ðµ
Ð» ÑĬÑĢ
ĠÐºÑĥÑĢÐ¾ ÑĢÑĤ
ĠÑĢÐµ ÑĤÑĢÐ¾
ĠÐ±Ð¾ ÐºÑģ
ĠÑĢÐµÐ°Ð» Ð½Ð¾ÑģÑĤÑĤÐ°
ĠÐ¾Ð´Ð³Ð¾ Ð²Ð¾ÑĢÐ¸
Ð½Ð´Ð¸ ÑĢÐ°
ÑĢÐ²Ð° Ð¼
; /
ĠÐ¾ÑĤ ÑĢÐ¸ÑĩÐ°
Ð»Ð¾ Ð²Ð°ÑĤÐ°
ĠÐ±Ð° Ð½Ðº
ĠI T
ĠÐ¿ÐµÑĢÐ¸Ð¾ Ð´Ð¾ÑĤ
ĠÐ¡Ð»Ð° Ð²
ĠÐ½Ð°Ñĥ ÑĩÐ¸ÑĤÐµ
Ð²Ð° Ð»Ñı
ĠÐ¾ÑĩÐ° ÑĢÐ¾Ð²Ð°
ĠÑĤ ÑĢÐ¾ÑĦÐµ
ĠÑĨÐ²ÐµÑĤ Ð½Ð¸
ĠÑģÐµ ÐºÑĨÐ¸Ñı
ĠÐ¿ÑĢÐµÐ´ ÑĪÐµ
ĠÐ¸ Ð½ÑĤ
ĠÐ´Ð²Ð¾ Ð¹Ð½Ð°
ĠÑĦÐ °ÑĤÐ°
ĠÐĳÐ¸Ð² ÑĪÐ¸ÑıÑĤ
ĠÐ¿ÑĬÑĢÐ²ÐµÐ½ ÑģÑĤÐ²Ð¾ÑĤÐ¾
ĠÐĴÐ° Ð·Ð¾Ð²
ĠÐ½Ð° Ð²ÐµÐ´Ðµ
. ",
ÑĢÐ¸ ÑħÐ°
ĠÐ¸Ð½Ð²ÐµÑģÑĤÐ¸ ÑĨÐ¸Ñı
ķÐĴÐ Ĳ
ĠÑħÐ¸ Ñ
ĠÐ° Ð½ÐºÐ
ĠÑģÑĤÑĢÐ°Ð½Ð¸ ÑĩÐ½Ð¸
ĠÐ²ÐºÐ»Ñİ ÑĩÐµÐ½
¼Ð °
ĠÑģÑĦÐµ ÑĢÐ¸
% )
ĠÑı Ð´Ð¾
ĠÐľÐ° ÑĢÐ³Ð°
ĠÑĢÐ°Ð²Ð½Ð¸ ÑīÐµ
µÑĤÐ¾ Ñ
µÑĤÐ¾Ñ Ĥ
Ð»Ðµ ÑıÑĤ
¾ Ð²
ĠÐ·Ð°ÑģÐµÐ´Ð° Ð½Ð¸ÐµÑĤÐ¾
ĠÐ¸Ð· Ð»Ð¾Ð¶ÐµÐ½Ð¸Ðµ
ĠÐĵÐ° ÑĢÐ°Ð½
µ ÑĢÐ¾Ð´
ÑģÐ¸ Ð»Ð¸
ĠÑģÐ²ÐµÑĤÐ¾Ð² Ð½Ð¾ÑĤÐ¾
ĠÐ¼Ð¾Ð¼ ÑĩÐµÑĤÐ°ÑĤÐ°
ĠÐĽÐµ Ð
ĠÐ·Ð°Ðµ Ð¼Ð¸
ĠPl ay
ĠÑģÑĤÐ¸ÑħÐ¾ ÑĤÐ²Ð¾
ĠÑģÐµÑĢÑĤÐ¸ÑĦÐ¸ÐºÐ° Ñ
ĠÑģÐµÑĢÑĤÐ¸ÑĦÐ¸ÐºÐ°Ñ Ĥ
ĠÐ¼Ð¾ ÑĢÐ°Ð»
Ð» Ñ
ĠÐ´Ð¾ Ð¼Ð°ÑĤÐ¸
ĲÐ ¦ÐĺÐ
ĠÑĤÑĬÑĢÐ³Ð¾Ð² ÑĨÐ¸
ĠÐ·Ð° ÐºÐ»ÑİÑĩÐ¸
ĠÑĢÐ°Ð·Ð¿ÑĢÐ¾ÑģÑĤÑĢÐ° Ð½ÑıÐ²Ð°
ĠÐ´Ð»Ð° Ð±Ð¾
Ñĥ Ð²Ð°ÑĤ
Ð ¸Ð·Ð¾
ÑģÑĤÐ²Ð° ÑīÐ¸
Ð½Ðº ÑĢÐµ
Ð»Ð° ÑĢÐ¸
Ġ19 44
ĠÑģÑĬ Ð´ÐµÐ¹ÑģÑĤÐ²Ð¸Ðµ
ĠÐ»Ð¾Ð³Ð¸ ÑĩÐ½Ð¾
ĠÐ¼Ð¸Ð³ÑĢÐ° Ð½ÑĤÐ¸
ĠÐ´Ð°Ð´Ðµ Ð¼
Ġst o
ĠÑĥÐ¼ ÑĢÐµ
L E
Ð¼Ð¸Ñģ Ð»ÐµÐ½
ĠÑĤÑıÑħ Ð½Ð°
ĠÐ¿Ð¾ÑĤÐ² ÑĢÐ´Ð¸
ĠÑĩÐ°ÑģÑĤÐ¸ ÑĩÐ½Ð¾
ÑĤÐµÑħ Ð½Ð¾Ð»Ð¾Ð³Ð¸
ĠÐ¿ÐµÐ½ÑģÐ¸Ð ¾Ð½
Ð¶Ðµ Ð½Ð¸ÑĤÐµ
ĠÑĢÐ° ÑģÐ¸
ĠÐĹÐ°Ð¿Ð¾ ÑĩÐ²Ð°
ĠÐĿÐµÑĥÑĤÑĢÐ° Ð»Ð½Ð¾
ĠÐ°ÑĢÑĤÐ¸ ÑģÑĤÐ¸
ĠÑģÑĬ Ð±Ð¾
Ðº Ñİ
ĠÐ¾Ð±ÑīÐ¸ Ð½ÑģÐºÐ¸ÑĤÐµ
ĠÐ¿ÑĢÐ¾ÑĦÐµÑģÐ¸Ð¾Ð½Ð° Ð»Ð¸ÑģÑĤÐ¸
ĠÑĥÑģÐ¿Ðµ Ð»Ð¸
ÐĵÐ µÐ¾
ĠÐ¾ Ð´Ðµ
ĠÑĦÐµ ÑĢÐ¼Ðµ
ĠÐĴÐ¸Ð ļ
ĠÐ¾ÑĤÐ·Ð¸ Ð²Ð¸
ĺÐ¦Ð ĺ
Ð¼ ÑĬÐ»
ÑģÐ ¾ÑĦÐ¸
ĠÐ¡ÑĤÐ¸ Ð³Ð°
Ð´ ÑĢÐ¸ÑĤÐµ
ĠÐ¿Ð° Ð»Ð°ÑĤÐ°
Ġs am
ĠÑĤÑĬÑĢ ÑģÑı
ĠÐ½ÑĥÐ¶Ð´Ð° ÑıÑĤ
ĠÐłÐ¾ Ð±Ðµ
ĠÐ³Ð¾Ð´Ð¸Ð½Ð° Ð²Ð°
in s
ĠÐ´ÐµÐ¼Ð¾Ð½ ÑģÑĤÑĢÐ°
ĠÐ¿ÑĢÐ° ÑħÐ¾
ÑĢÐ¸Ð µÑĢ
ĠÐĵÐ ŀÐĶÐ
ĠÐ¼ÐµÑĤÐ° Ð»
Ð¶ Ð½Ð¸ÑıÑĤ
ĠÐºÐ¾ Ð¿ÑĢÐ¸
ĠÐ¾ÑĦÐ¸ÑĨÐ¸Ð°Ð» Ð½Ð¸
ĠÐ¼Ðµ Ð´Ð°
ĠÐ¿Ð¾ÑĺÐ° Ð²Ð¸
ÑģÑĤ Ð½Ð¾ÑģÑĤ
ĠÐ® Ð½Ð¸
ÐºÑĤÐ¸ Ð²
Ð²ÑĬÑĢ ÑĪÐ²Ð°
Ñĥ Ð»Ð¸
ĠÐºÐ¸ Ð½Ð¾ÑĤÐ¾
µ Ð²Ðµ
ĠÐ¤Ð¾ÑĢÐ¼Ñĥ Ð»Ð°
ĠÐ·Ð°Ñı Ð²ÐºÐ°
ĠÐĴÐ¸ ÑĤÐ¾ÑĪÐ°
ĠÐ¾ÑĤ ÑħÐ²ÑĬÑĢÐ»Ð¸
ĠÐ¾ÑĤÐ´Ðµ Ð»ÐµÐ½
ĠÐ°Ð± ÑģÑĥÑĢÐ´
ĠÐ½ÐµÑĤ ÑĬÑĢÐ¿Ð
ĠÐ¸Ð· Ð»ÐµÐ·
ĠÐ¼Ð¾Ð±Ð¸ Ð»ÐµÐ½
ĠÐ»Ð¸Ð´Ðµ ÑĢÐ¸ÑĤÐµ
ĠÐºÐ»Ð¸ Ð¼Ð°ÑĤ
ĠÐ¿Ð»Ð° ÑĤÐµÐ½Ð¸
ĠÑģÐ¿Ðµ ÑģÑĤÑıÐ²Ð°
ĠÑģÐ¸Ð½Ð´ ÑĢÐ¾Ð¼
ĠÐ·Ð½Ð° Ð°ÑĤ
ĠÑģÐ¿Ð¾ ÑĢÑĤÐµÐ½
ĠÑĥÐ´Ð¾Ð± Ð½Ð°
ĠÐµÑĦÐµÐºÑĤÐ¸ Ð²Ð½Ð¾ÑģÑĤÑĤÐ°
Ð³ÑĢÐ° Ð¼Ð¾ÑĤ
ÑģÐµ Ð½Ð¸ÐµÑĤÐ¾
ĠÑĤÑĢÑĥÐ´Ð½Ð¾ ÑģÑĤÐ¸
Ð¿ ÑĤÐ¾Ð¿
ĠÐ¿Ð¾Ð´Ð¸ Ð³ÑĢÐ°
ĠÐ¼Ð¾Ð´Ðµ Ð»Ð¸ÑĤÐµ
ĠÐºÐ¾Ð¼Ð¸ ÑģÐ¸ÑĺÐ°
ĠÑĢÑı Ð·Ð°
ÑĪ ÑĬ
Ð²Ñı ÑĢÐ½Ð¾
ĠÐķÑĤÐ¸ ÐºÐµÑĤÐ¸
ĠÐ°ÑĢÐ¾ Ð¼Ð°
ĠÐ½Ð° Ð²Ðµ
ĠÐºÑĢÐ¸ ÑĤÐ¸ÐºÐ°
Ġd o
ĲÐłÐ Ĳ
ĠÐ´Ð¶Ð¾ Ð±Ð°
ĠÑĢÐ°ÑģÑĤÐµ Ð¶Ð°
ĠÐĺÐ· ÑĢÐ°Ð±Ð¾
ĠÐ´Ð¾Ð¼Ð° ÑľÐ¸
ĠÐ¼ÐµÑģÑĤ Ð½Ð¸Ñı
ĠÐĳÐ ĵÐĿÐķÐ¡
ĠÐ¿Ð¾Ð·Ð½Ð° Ð½Ð¸Ñı
ĠÐĴÐ łÐ
ĠÐŁÐ° ÑĢÐº
ĠÐ¼ÐµÑħÐ°Ð½Ð¸ Ð·Ð¼Ð¸
ĠÐ±Ð¸ ÑħÐ¼Ðµ
ĠÐļÐ¾ ÑĢÐ½Ðµ
ĠÐ¿Ð¾ÐºÐ° Ð¶ÑĥÐ²Ð°
ĠÐ¿Ð¾Ð»Ð¾Ð¶Ð¸ÑĤÐµ Ð»Ð½Ð¾
ĠÐºÐ»Ð°ÑģÐ¸ÑĢÐ° Ð½ÐµÑĤÐ¾
ĺÐ ¥
ĠÐ¶Ð° Ð»Ð±Ð°ÑĤÐ°
ĠÐ¾ÑĤ ÑĤÐµÐ³
Ð½Ñı Ð½
ĠÐ¯ Ð½Ð°
er m
ĠÐ¿ÑĢÐ¾ÑĦÐµ ÑģÐ¾
Ġ2 20
ĠÐ±Ð° ÑĢÐ¸Ðµ
ĠÐ²ÑĬÑĢ Ð½ÐµÐ¼
ĠÐ¢Ð ¾ÑĪÐ
ĠÐ¼Ð° Ð½Ðµ
ĠÐ¾Ð±ÑīÐµ ÑģÑĤÐ²ÐµÐ½Ð¸Ñı
ĠÑĢÐ¸ÑģÐºÐ¾ Ð²Ðµ
ĠÐ¾ÑģÐ½Ð¾ Ð²Ð½Ð¸Ñı
ĠÑģÐµ ÐºÑĤÐ¾ÑĢÐ¸
ĠÐ°Ð²Ð¸Ð °
Ð± ÑĬ
ĠÐĹÐ° Ð³Ð»Ð°
at o
ĠÐ¿ÐµÐ½ÑģÐ¸Ð ¾Ð½Ð¸
Ð¿Ð¾Ð¼Ð½Ñı Ð¼Ðµ
ĠÐºÐ° Ð·
ĠÐ¼ÐµÐ¶Ð´ÑĥÐ½Ð°ÑĢÐ¾Ð´ Ð½Ð¸ÑĤÐµ
ĠÑĩÐ»Ðµ Ð½Ð¾Ð²Ð¸
ĠÐºÐ¾ ÑĢÐµÐ½Ð¸
ĠÐĹÐ° Ð´
ĠÐ±Ð»Ñı ÑģÑĬÐº
ĠÐºÐ° Ð¿ÐºÐ¸
O D
ĠÐ¸Ð½ÑĤÐµÐ»Ð¸ Ð³ÐµÐ½
ĠÐ°ÐºÑĤÑĢÐ¸ ÑģÐ°
ĠÐºÐ¾Ð¼ Ð¿ÑĢÐµ
ĠÑĥÑģ Ð»Ð¾
ĠÐ² ÑģÑĥÑĪÐ½Ð¾ÑģÑĤ
ĠÑģÐ¿ÑĢÐ° Ð²ÐºÐ°
ÑĨ ÐºÐ°
Ð»Ð ±Ð¸ÑĤÐµ
ĠÐĲÐ½Ð´ Ð¶Ðµ
ĠÑģÑĬÑīÐµ ÑģÑĤÐ²ÐµÐ½Ð¾
ĠÐºÐ°ÑĢÑĤÐ¸ Ð½Ð¸
ĠÑĢÐ°Ð·Ð¿Ð¾ Ð»Ð¾Ð¶ÐµÐ½Ð°
ĠÐ´Ð¸Ð¿Ð»Ð¾ Ð¼Ð°
ĠÐ¸Ð½ÑĦÐ¾ÑĢÐ¼Ð° ÑĨÐ¸Ð¾Ð½Ð½Ð¸
ĠÐºÐ¾Ð¾ Ð¿ÐµÑĢÐ°
ĠÐ¡ÐĲÐ ľÐŀ
Ð·Ð¾ Ð¿Ð¾Ð»
ĠÐ½Ðµ Ð´ÐµÐ»Ð¸
ĠÐ¿Ð¾Ð»Ñĥ ÑĩÐ°
Ð´Ð° Ð²Ð°Ð½ÐµÑĤÐ¾
ĠÐ¡Ð»ÐµÐ´ Ð²Ð°ÑīÐ°
ÑĦÐ¸ Ð»
ĠÑĢÐ° Ð½Ð¸
ĠÐķÐ»ÐµÐºÑĤ ÑĢÐ¾
ĠÐ¿ÑĢÐµ Ð´Ðµ
ĠÐ¼Ðµ ÑģÑĤÐµÐ½
ĠÑĤÑĬ ÐºÐ°Ð½
ĠÐ¾Ð±Ñı Ð²ÐµÐ½
ĠÑĤÐ²Ð¾ ÐµÑĤÐ¾
ĠÐ¼Ð¾Ð¶Ðµ Ð»
ĠÐ¿ÑĥÐ±Ð»Ð¸ÐºÐ° ÑĨÐ¸ÑıÑĤÐ°
ĠÐŀ Ð²
ĠÑģÐ¸Ð¼Ð¿ÑĤÐ¾ Ð¼Ð¸ÑĤÐµ
ÑĤÐ° Ð½Ðµ
ÐŁ Ð»Ð°
ÑĢÐ° ÑĤÐ¾ÑĢ
ĠÐ¿Ð° Ð½ÐµÐ»
ĲÐĿÐ ĶÐ
ĠÐ¿Ð¾ÑĢÑĬ ÑĩÐºÐ°ÑĤÐ°
ĠÐ´ Ð½Ð¸ÑĤÐµ
ĠÑģÐµ Ð
ĠÐ¼Ð¸Ð½Ð¸ÑģÑĤÐµ ÑĢÐ¾ÑĤ
Ð½ ÑĩÐ¾
ĠÐŁÐ¾Ð´ ÑħÐ¾Ð´Ñı
ĠÐ¸Ð·Ñı Ð²Ð»ÐµÐ½Ð¸Ðµ
ĠÐĹÐ°Ð¿Ð¾ Ð²ÐµÐ´
ĠÐ¾Ð±ÑīÐµ ÑģÑĤÐ²ÐµÐ½Ð¾ÑĤÐ¾
or a
Ð´Ð²Ð° Ð¼
ÑĩÐ¸ Ð»Ð°
ĠÐ¼ÐµÐ¶Ð´ÑĥÐ½Ð°ÑĢÐ¾ Ð´Ð½Ð°
ĠÐĲÐ»Ð ±Ðµ
¡Ð ŀ
ĠÐ½Ð°Ñĥ ÑĩÐ°ÑĤ
Ð¿Ð¾ Ð½Ðµ
ĠÐ¢ÑĢÐ° Ð¼Ð¿
ĠÐ°ÑĢÐ³Ñĥ Ð¼ÐµÐ½ÑĤÐ¸
ĠÐºÐ¾Ð½ÑĨÐµ ÑĢÑĤÐ¸
ĠÐļÐ° ÑĢÐ»
Ð½ÑĦÐ ¾
ĠÐ¿Ðµ Ð²Ð¸ÑĨÐ°ÑĤÐ°
ĠÐłÐµ Ð´Ð°
ĠÑģÑĤÐ°ÑĤÑĥ Ñ
Ð´Ð¾ ÑĢÐ¸
ĠÑģÑĤÐ°ÑĤÑĥÑ Ĥ
ĠÐ·Ðµ Ð»ÐµÐ½Ð¾
ĠÐ´Ðµ Ð±Ð°ÑĤ
ĠÐ°Ð»Ñĥ Ð¼Ð¸Ð½Ð¸Ðµ
ÑģÐ¸ Ð»ÐµÐ½
ĠÑģÑĨÐµÐ½Ð° ÑĢÐ¸Ð¹
ĠÑģÑĤÐ¾ ÐºÐ°
ĠÐŀ ÐĶ
ĠÐ³Ð»Ð° Ð²Ð¾Ð±Ð¾
ĠÐ¸Ð½ÑģÑĤÐ° Ð»Ð°ÑĨÐ¸Ñı
ĠÐºÑĢÑĬ ÑģÑĤÐ¾
ÑģÐ½Ð° Ð±
ĠÐĲ ÑĢÑģÐµÐ½Ð°Ð»
ĠÐ²Ð·ÐµÐ¼Ðµ Ð¼
ĠÐļÐ¾ Ð¼
ĠÐ¾Ð±Ðµ ÑīÐ°Ð²Ð°
ĠÐ½Ð°ÑĤÐ¾Ð²Ð° ÑĢÐ²Ð°Ð½Ðµ
Ð³Ð¾ Ð½
Ð¿Ð¸ Ð»
ÑģÑĤ Ð½Ð¸ÑĨÐ¸
ĠÐ·Ð°ÐºÑĥÐ¿Ñĥ Ð²Ð°Ð½Ðµ
ĠÐ¾ Ð½Ñı
200 5
ĠÑģÐ±Ð»ÑĬ ÑģÑĬÐº
ĠÐ±Ð° Ð½Ð°
ĠÐľÑĥ Ð·Ð¸ÐºÐ°
ĠÐĶ ÑĢÐ¶Ð°
ĲÐ ¡Ð¢Ð
ĠÑģÐ¼Ðµ ÑĤÐºÐ¸ÑĤÐµ
ĠÐ²Ð¸ÑģÐ¾ ÐºÐ°ÑĤÐ°
ĠÐ·Ð°Ð¿Ð¾Ñĩ Ð½ÐµÐ¼
ĠÐ¼Ð¾Ð¶Ð° Ð¼
Ġ8 9
ĠÐŀ ÑģÐ¸Ð³Ñĥ
ĠÐ·Ð²ÐµÐ·Ð´Ð° ÑĤÐ°
ĠÐĸ Ð°Ð»
ĠÐ¿Ð¾Ð»Ð¸ÑĤÐ¸ ÑĩÐµÑģÐºÐ¾
ĠÑĤÑĢÐ°Ð½ÑģÐ¿Ð¾ ÑĢÑĤÐ°
ĠÐ¾Ñħ ÑĢÐ°
ĠÑĤÐ° ÐºÐ²Ð¸
ĠÑģÐµÐ¼ÐµÑĺ ÑģÑĤÐ²Ð¾
ĠÐļÑĥ Ð¿Ð°ÑĤÐ°
¡Ð ļ
ĠQ u
µÐ»Ð¸ÐºÐ¾ Ð¿ÑĤÐµ
ĲÐ ļ
ĠÐ¿ÑĢÐµÐ¼Ð°Ñħ Ð²Ð°Ð½Ðµ
ĠÑĩÐµÑĤÐ¸ÑĢÐ¸ Ð¼Ð°
ĠÑģÐ²ÐµÑĤÐ¾Ð² Ð½Ð¸Ñı
ĠÑĤÑĥÑĢ ÑĨÐ¸ÑĤÐµ
ĠÐĳÐ¸ Ñħ
ĠÐ½Ð°Ð»Ð¸ ÑĩÐ½Ð¸
Ð²ÐµÐ· Ð´Ð¸
ĠÐĲ ÐĴÐ
ĠÐ¿Ð¾Ñģ ÑĢÐµÑīÐ°
ĠÐ¾Ð±Ð¸ÐºÐ¾ Ð»ÐºÐ°
ĠÐ¿ÑĢÐ¾ÑĪÐ ¸
ĠÑģ ÑĥÐ»
ŁÐ ŀ
Ð·Ðµ ÑĨ
ĠÐļÐ½Ð¸ Ð³Ð°ÑĤÐ°
ĠÑĩÐ¸ÑĤÐ° ÑĤÐµÐ»Ð¸
ĠÑĢÐ°Ð±Ð¾ÑĤÐ¸ Ð»
ĠÐ¸Ð·ÑĩÐ¸ ÑģÐ»Ðµ
ĠÑģ Ð¿ÑĥÑģÐºÐ°
ĠÐķ Ð»Ð¸Ð·Ð°
ĠÐĶÐ° Ð½Ð¸
Ð² Ð»Ð¸ÑĩÐ°
ĠÐ´Ð¾Ð±Ð° ÑĢ
ĠÐ¸Ð·Ñĥ ÑĩÐ°Ð²Ð°
ĠS ch
ĠÐĲ Ð½Ð°Ð»Ð¸
ĠÑģÐºÐ¾ Ð¿
ĠÐĺÑģÑĤÐ¾ ÑĢÐ¸ÑıÑĤÐ°
Ð»Ðµ Ð»Ð¸
ÐºÐ»Ñİ ÑĩÐ²Ð°
ÑģÐ° Ð»
ĠÐĽÑĥ Ð½Ð°ÑĤÐ°
ĠÐ¾ÑĦÐ µÑĢ
S T
ĠÐ¼ÐµÑģÐµ ÑĩÐ½Ð¾
ĠÐ¿ÑĢÐµÐ ¸
ĠÐ·Ð°ÑıÐ²Ð¸ ÑħÐ°
ĠÐ¿ÑĢÐ¸ÑģÑĬ ÑģÑĤÐ²Ð°ÑĤ
ÑģÐ½Ð° Ð»Ð¸
ĠÐ¸Ð·Ð¿ÑĬÐ» Ð½ÐµÐ½Ð¸
ĠÑĨÐµÐ½ÑĤÑĢÐ° Ð»Ð½Ð°
Ñģ ÑĬÑĢ
ĠÑĢÐµÑģÑĤÐ¾ÑĢÐ°Ð½ ÑĤÐ¸
Ð¿Ð¸ ÑĺÐ°
ĠÐ¾ Ðº
ĠÐ´Ñĥ Ð
ĠÐĳÐĿÐ ĳ
ĠÐºÐ¾Ð½ÑĨÐµÐ¿ ÑĨÐ¸Ñı
ÑĨÐ¸Ð°Ð» Ð½Ð°
ĠÐ·Ð° ÐºÑĢÐµ
ĠÑĩÑĥÐ²ÑģÑĤÐ²Ð° Ð¼
ĠÐŀ ÐºÑĤÐ¾Ð¼Ð²ÑĢÐ¸
Ð¾Ð±ÑĢÐ° Ð·Ð½Ð°
ĠÐ§Ð µÑĢ
ĠÐĿÐ¯ ÐľÐĲ
ĠÑĪ ÐºÐ¾
ĠÑĩÐµÑģÑĤÐ¾ ÑĤÐ°
Ñı Ð½Ð°ÑĤÐ°
ĠÐ±ÑĢÐ¸ÑĤÐ° Ð½ÑģÐºÐ¸
i ja
le x
ÐºÐ¾ ÑıÑĤÐ¾
ĠÐºÐ¾Ð· Ð¼ÐµÑĤÐ¸
ĠÐºÐ¾Ð½ÑĤÐµ Ð¹
ĠÐ½Ð° ÑģÐ°
ĠÐºÑĢÑĬ ÑģÑĤÐ°
ĠÐľÐ° ÑĢÐ°
ĠÑĢÐ°Ð±Ð¾ÑĤ Ð½Ð°ÑĤÐ°
ĠÑĢÑĥ Ð¼ÑĬ
ĠÐ±Ð¾Ð½ ÑĥÑģ
ĠÐ´Ð¾ Ð¼Ð¾Ð²ÐµÑĤÐµ
ĠÐ½ÐµÐ·Ð°ÐºÐ¾Ð½ Ð½Ð¾
ion s
ĠÑĤÑĢÐ°Ð½ÑģÐ¿Ð¾ ÑĢÑĤÐ¸
ĠÐĵÐ¾ Ð´Ð¸Ð½Ð°
ÑĤÐ¸ Ð½Ð°ÑĤÐ°
ĿÐĺÐľÐ ļÐĺ
ĠÐ¸Ð¼Ð¸ Ð³ÑĢÐ°
Ġb l
ĠÐ·Ðµ Ñħ
ÑĢÐ°ÑĤ Ð½Ð¾
ĠÐ¿ÑĢÐ¸ÑıÑĤ Ð½Ð°
ĠÑģÐµ Ð´ÑĥÐ¼
ÑĤÐ ¿Ð¾
Ð´Ðµ ÑĤÐ¾
ÐºÐ ·Ð¸
ÑģÐµ Ð½Ð¸Ñı
Ġ .....
ÐŁÐ µÑĤ
ĠÑģÑĤÐ°Ð´Ð¸Ð ¾Ð½Ð°
ĠÑĢÐµÐ»Ð¸ Ð³Ð¸
ĠÐ¿ÑĢÐµÐ´ Ð»Ð¾Ð³
£ ÐĶÐ
ÑĤÑĬ ÑĩÐ½Ð¾
ĠH y
ĠÐ¿ÑĢÐ¾ Ð½Ð°Ñĺ
ĠÑĩÐ°ÑģÑĤÐ¸ ÑĨÐ¸
Ð· Ð³Ð°
ĠÐ¿ÑĢÐ¸Ð²Ð»Ðµ ÐºÐ°
ĠÐļ Ð¼ÐµÑĤÑĬÑĤ
ĠÐ´ÑĢÐµ Ð±Ð½Ð¾
ĠÐ¿Ð¾ ÐºÐ¾Ð¹
ĠÐ¿ÑĢÐ¾ Ð²Ð°Ð»Ð¸
ĠÐ¾ Ð¿Ð¾Ð²Ðµ
ĠÐ±Ð¾ Ð»Ð½Ð¸ÑĤÐµ
ĠÐĺÐ· ÑĤÐ¾Ðº
Ġk m
ĠÐ¿ÑĢÐµÐºÑĢÐ°ÑĤ ÑıÐ²Ð°Ð½Ðµ
ĠÐ´Ð¸ÑģÐºÑĥ ÑģÐ¸Ñı
ĠÐ·Ð°Ð´Ð°ÑĩÐ° ÑĤÐ°
ĠÐ¿ÑĢÐ¾Ð·Ð¾ ÑĢÑĨÐ¸
ĠÐ¾ÑĤÐºÑĬÐ´Ðµ ÑĤÐ¾
ĠÐĴÑı ÑĢÐ½Ð¾
ĠÐ²ÑĬÑĢ ÑĤÐ¸
ĠÑĩÐ° ÑģÑĤÐµÐ½
ĠÐ¾ÑĦÐ¸ ÑĨÐ¸Ð°Ð»ÐµÐ½
ĠÐ¼Ð°ÐºÐµÐ´Ð¾ Ð½ÑģÐºÐ¸ÑĤÐµ
Ġ9 6
ĠÐļ ÑĢÐ¸Ð¼
ĠÐ¾Ð±Ð²Ð¸ Ð½Ð¸
ĠÐºÐ°ÑĤÐ°ÑģÑĤ ÑĢÐ¾ÑĦÐ¸
Ð· ÐºÐ°ÑĤÐ°
ÑģÑĤÑĢÐ° Ð´Ð°
ĠÐ¾ÑĤÐ¿Ð° Ð´Ð°
ĠÐ´Ð¾ Ð¼Ð¸Ð½Ð¸ÑĢÐ°
ĠÐ·Ð° Ð±Ð¸
ĠÐºÐ»Ð¸ Ð¼Ð°ÑĤÐ°
ĠÐ·Ð° Ð¼Ð°
ĠÐĴÐ¸ÑģÐ¾ ÐºÐ¾
ĠÐ»Ð° Ð¿ÑĤÐ¾
ĠÐłÐµÐ·ÑĥÐ» ÑĤÐ°ÑĤÐ¸ÑĤÐµ
ĠÐĵÐ¾ÑģÐ¿Ð¾ Ð´Ð°
ĠÑĥ ÑĪÐ¸ÑĤÐµ
ÑĤÐ¸ ÑģÑĤÐ¸
ĠÐ¸Ð½ÑĤÐµ Ð»ÐµÐºÑĤ
ĠÑĦÐ¸Ð·Ð¸ ÑĩÐµÑģÐºÐ°
ĠÐ±Ð¾ÐºÐ»Ñĥ Ðº
ĠÐ±Ðµ ÑĤÐ¾Ð½
ÐºÐ¾ Ð²Ð°ÑĤÐ°
ĠÑģÐ¿Ð° Ð·Ð²Ð°Ð½Ðµ
ĠÐ´ÑĢÑĥÐ³Ð° Ð´Ðµ
Ġw h
ĠÑģÑĬ Ð½Ñı
ĠÐ³Ð¾Ð»Ñı Ð¼Ð¾ÑĤÐ¾
ub l
ĠÐŀÐ±ÑīÐ¸ Ð½ÑģÐºÐ¸
ĠÑĥÑģÑĤÐ¾Ð¹ÑĩÐ¸ Ð²Ð¾
ĠÐ·Ð°Ð½Ð¸Ð¼Ð° Ð½Ð¸Ñı
ĠÐ»ÑİÐ±Ð¸ Ð¼Ð¸Ñı
ĠÑĢÐµÐ·ÑĥÐ»ÑĤÐ°ÑĤ ÑĬÑĤ
ÑĩÐ° Ð¹
ĠT witter
Ð¿ÑĢÐµÐ´ÑģÐµÐ´Ð°ÑĤÐµÐ» ÑıÑĤ
Ð½Ðµ ÑĢÐ¾ÑĤ
ÑģÑĤ ÑĥÐ²Ð°ÑļÐµ
Ð¿Ð° ÑĢÑĤÐ¸
ĺÐ ĪÐĲ
ĠO ne
Ð¢Ð° ÐºÐ°
ĠÐ¼ÐµÐ¶Ð´ÑĥÐ½Ð°ÑĢÐ¾ Ð´Ð½Ð¾
ĠÐ´Ð¾ÑģÑĤÑĬ Ð¿Ð°
ĠÐ²ÑĬÐ½ ÑĪÐ½Ð°ÑĤÐ°
ĠÐ¿ÑĢÐ¾ Ð¼ÐµÐ½Ð°
ĠÐµÐ·Ðµ ÑĢÐ¾ÑĤÐ¾
ĠÐŁÐ¾Ð½Ðµ Ð¶Ðµ
Ð¼Ð¾ ÑĤÐ¸
ĠÑģÐ¾Ð±ÑģÑĤÐ²Ðµ Ð½Ð¸ÐºÐ°
ĠÐ£ Ð²Ðµ
ĠÐ¿Ð»Ð° ÑĤÐµ
Ð¹Ð½Ðµ Ð¹Ð´Ð¶
ĠÐºÐ°ÑģÐ°Ð µ
ĠÐ¿Ð»Ð¾ ÑĩÐºÐ¸
Ġ; )
ĠÑħÑĥÐ´Ð¾Ð¶ Ð½Ð¸Ðº
ĠÑģÐ»Ñĥ Ð¶
Ð½Ð¸ ÑĢÐ°Ð½
ĠÐ¾ÑĤÐ±Ð¾ ÑĢÑĬÑĤ
ĠÐºÑĢÐ° ÑĤÐºÐ¸
ĠÐ½Ð°Ð±Ð»Ñİ Ð´Ð°
ĠÐ½ÐµÐ¿Ð¾ÑģÑĢÐµÐ´ ÑģÑĤÐ²ÐµÐ½Ð¾
ĠÐ¿ÑĢÐ¾ÑĨÐµ ÑģÐ¾ÑĤ
Ġs l
ĠÐŁÑĢÐ¾ Ð³ÑĢÐ°Ð¼Ð°
ĠÐ±Ð¸ Ð²Ð°ÑĤ
ĠÐ·Ð½Ð° Ð¼Ðµ
ĠÐ½Ð°ÑĢÐ¾ Ð´Ð½Ð°
ĠÐ° Ð½ÐºÐµ
Ð½Ð´ÑĬ ÐºÐ¾Ð²Ð°
ĠÐ·Ð°Ð¿Ð¾ÑĩÐ½Ð° Ð»Ð°
ĠÐ¾Ð±ÑĺÐ° Ñģ
ĠÐĳ ÑĥÐ»
ĠÑĢÐµ ÑĨÐµ
at or
ÑĤÐµÐ» Ð½Ð¾ÑģÑĤÑĤÐ°
Ð»Ð¸ Ð½Ð´
ĠÑĦÐ°ÐºÑĤÐ¸ ÑĤÐµ
Ðĵ Ð»Ð°
ĠÑĥÑĤÐ²ÑĬÑĢÐ ¶
Ð¼Ð±Ñĥ ÑĢÐ³
Ð °Ð·
Ñī Ð½Ð¸
ĠÑģÐ»ÐµÐ´Ð¾ Ð±ÐµÐ´
ĠÐ¿Ð¾Ð¿Ð¸ÑĤÐ° Ð¼
ĠÐºÐ° Ð·Ð¸
ÑĢÐ¸Ð ¾Ð½
Ġ ÑĤÐ²Ð°
ĠÐ·Ð° Ð´Ð¾Ð²Ð¾Ð»
ĠÐ²ÑĬÐ· ÑħÐ¸
ĠÑģ ÑĢÐ¿
ĠÐĶ Ð¶
ĠÐºÐ° ÑĪ
ĠÐ´Ð²ÑĥÐ±Ð¾ Ð¹
ª ÐĶÐ
ĠÐ±ÑĬÐ´Ðµ ÑīÐ¸
ĠÐ¸Ð·Ð´Ð° Ð´Ðµ
Ġ7 9
ĠÐ»Ð¸Ð´Ðµ ÑĢÑĬÑĤ
ĠÐ³Ð¾ ÑĤÐ²Ð
Ð¥Ð ¸
ĠÐ¿ÑĢÐµÑĨÐµ Ð½Ð¸
Ð»Ð¸Ð·Ð¸ÑĢÐ° Ð½Ð¸
ĠÐ¸Ð· ÑħÐ²ÑĬÑĢÐ»Ñı
ĠÐ²Ð»Ð¾ÑĪÐ °
ĠÑģÑĤÐµ Ð¿Ðµ
ĠÐºÐ¾Ð½ÑĨÐµ ÑĢÑĤÐ°
ÑĢÐ¸Ð° Ð½Ð°
ĠÐ¾Ð±ÑīÐ¸ Ð½ÑģÐºÐ°
ĠB azar
ĠÐ¿ÑĢÐµÑĤÐµÐ½ ÑĨÐ¸Ð¸
ĠÐ¿ÑĢÐµ ÑģÑĤÐ¾Ð¹
ĠÐ´ÑĢÐ¶Ð° Ð²Ð¸
ĠÐ½Ð°ÐºÐ°Ð·Ð° ÑĤÐµÐ»Ð½Ð¾ÑĤÐ¾
ĠÐºÐ¾Ð½Ð³ ÑĢÐµÑģ
ĠÑħÑĥÐ¼Ð°Ð½Ð¸ ÑĤÐ°
i er
Ð»Ðµ ÑĤÐ¸ÑĤÐµ
ĠÐ¸ÑģÑĤÐ¾ÑĢÐ¸ ÑĺÐ°ÑĤÐ°
ĠÐ¸Ð·ÑĢÐ¸ ÑĩÐ½Ð¾
ĠM us
µ Ð»Ðµ
ĠÐ¿Ð¾ÑģÐ¾ ÑĩÐ²Ð°ÑĤ
ĠÑħÐ¾Ð»Ðµ ÑģÑĤÐµ
Ð¢ ÑĬÑĢ
ĠÐ±Ð¸Ð´Ðµ ÑĤÐµ
Ð°Ð» Ð½Ð¸Ñı
ĠÑĦÐ¾ÐºÑĥ Ñģ
ĠÐ¡Ð»ÑĬÐ½ ÑĨÐµÑĤÐ¾
ĠÐµÐ¼Ð¸ Ð³ÑĢÐ°
Ð¡ ÑĤÑĢÐ°
ĠÐ¾Ð´Ð¾Ð± ÑĢÐµÐ½Ð¸Ðµ
Ġ8 6
ĠÐ´Ð¾ ÐºÐ°ÑĢÐ°
ĠÑĥÑģÑĤÐ°Ð½Ð¾ Ð²ÑıÐ²Ð°Ð½Ðµ
ĠÑĩÑĥ Ð¶Ð´Ð°
ĠÐ¿Ð¾ÑģÐ¾ ÑĩÐµÐ½Ð¸
ĠÐ¸Ð·Ð¾ Ð»Ð°ÑĨÐ¸Ñı
Ð³Ð°Ð½Ð¸ ÑģÑĤÐ°Ð½
Ð´Ð¾ Ð·
ĠÑĤÐ° ÑĢÐ¸
t ex
ĠÐĳÐµÐ· Ð¿Ð»Ð°
ĠÐ§Ñĥ Ð²
ĠÐ¾Ð± Ð½Ð¾
ĠÐ´Ð¾ÑģÑĤÐ° Ð²ÐºÐ¸
ĠÐļÐ¸ Ð½Ð°
ĠÐ¿ÑĢÐ°ÐºÑĤÐ¸ ÐºÑĥÐ²Ð°
ĠÑĤÑĢÑĥ Ð¿Ð°
ĠÑĥÐ¶Ð° ÑģÐ½Ð¾
ph p
ĠÐ¿ÑĢÐ¾Ð³Ð½Ð¾ Ð·Ð°
ĠÑĤÐµ ÑģÑĤÐ¸
ÑĢÐµ Ðº
ĠÐ¿Ð°ÑĢÐ»Ð°Ð¼ÐµÐ½ÑĤÐ° ÑĢÐ½Ð¸
ĠÑĨÐ °ÑĢÐ¸
ĠÐ»ÑĬ ÑĩÐ¸
ĠÐ½Ð°ÑģÑĤÐ¾Ñı Ð²Ð°
Ð²Ð¸ ÑīÐµ
ĠÐ·Ð½Ð°Ðµ Ñħ
ĠÐ¿Ð¾ Ð³Ð»ÐµÐ´Ð°
ĠÐ´Ðµ ÑģÐ½Ð¸
ĠÐ²ÑĬÐ·ÑģÑĤÐ°Ð½Ð¾ Ð²ÑıÐ²Ð°Ð½ÐµÑĤÐ¾
ĠÐ¿Ð° ÑĤÐ¾ÑĤ
ĠÐ£ ÑĤÑĢÐµ
Ð»Ð¸ÑĤÐµ Ñ
Ð»Ð¸ÑĤÐµÑ Ĥ
ĠÐ²ÑĬÑĤÑĢÐµÑĪ Ð½Ð¸Ñı
ĠÑĢÐµÐ»Ð¸ Ð³Ð¸Ñı
ĠÐĳÐ¾ÑĢÐ¸ ÑģÐ»Ð°Ð²
oun d
ĠÐ· Ð»Ð°ÑĤ
ĠÐ¸Ð¼Ð° ÑħÐ¼Ðµ
¸Ð µÐ½
ĠÐŀÐĳÐ ©Ð
ag ram
ĠÐĺ ÑģÐº
ÑģÑĤÐ²Ðµ Ð½Ð¸ÑĨÐ¸
ĠÐ±ÑĢÐµÐ¼ÐµÐ½ Ð½Ð¾ÑģÑĤ
ĠÐĶÐµÑģÐ¸ ÑģÐ»Ð°Ð²Ð°
ĠÑĥ Ð»Ð¾Ð³Ð°
Ġk o
ĠÐĽÐ¸ Ð³Ð°ÑĤÐ°
we i
ĠÑĤÐµÐ»ÐµÐ²Ð¸Ð·Ð¸ Ð
ĠÑģÑĢÐ¾ ÐºÐ¾Ð²Ðµ
ĠÑģÑĬ ÑīÐ°
ĠÐ¿Ð¾ÑģÐµ ÑīÐ°Ð²Ð°
Ð½Ð¸Ð °
ĠÐ¾Ð´ Ð½Ð¾ÑģÐ¸
ĠÐĺ Ð½Ð²ÐµÑģÑĤÐ¸
ĠÐ±Ð° ÑĢÐ°Ð°ÑĤ
ÑĢÐ¸ Ñĩ
ĠÐ½Ð° Ð²Ð»Ðµ
ĠÑģÐµÐ¼Ðµ Ð½Ð°
Ð½Ð° ÑĩÐ°Ð»Ð¾
Ñĺ Ñ
ĠÐºÑĥÐ»ÑĤÑĥ ÑĢÐµÐ½
ĠÐ¸Ð¼Ñĥ Ð½Ð½Ð°ÑĤÐ°
ĠÐĺÐ ¢
ĠÐ¿Ð°ÑĢÑĤ Ð½ÐµÑĢ
ĠÑģÐ¾Ð±ÑģÑĤÐ²Ðµ Ð½Ð¾ÑĤÐ¾
ĠÐ± ÑĢÐµÐ¼Ðµ
ĠÐºÐ¾ÑĢÐ¸ÑģÑĤÐµ ÑļÐµ
ĠÐ£ ÑģÐ»Ñĥ
ĠÐ¿Ð»Ð° ÑĩÐµ
ĠÐ¿Ð¾Ð»ÑĥÑĩÐ°Ð²Ð° ÑĤÐµ
ĠÐ¸Ð¼ Ð¿ÑĥÐ»
ĠÐ¿ ÑĢÑĥ
ĠÐ¼ÐµÐ½Ñİ ÑĤÐ¾
ÑģÐ¸Ð» Ð²Ð°Ð½Ðµ
ĠÐ¢ÑĥÑĢ ÑĨÐ¸ÑĺÐ°
ĠÑħÐ¸Ñ Ĥ
ĠÐ·Ð°Ð¿Ð¾ÑĩÐ½Ð° Ñħ
ĠÐ»Ðµ Ð¶Ð¸
ĠÐŁÑĢÐ¾ Ñĥ
A B
ĠÐ¸ Ð³ÑĢÐ¸ÑĤÐµ
m er
ĠÐ¿Ð¾Ð´Ð¿Ð¾ Ð¼Ð¾
ĠÐłÐ°Ð±Ð¾ ÑĤÐ°ÑĤÐ°
ĠÑģÑħÐ µÐ¼Ð¸
ĠÑĢÐ¾ Ð¼
ĠÑģÐ¼Ðµ Ð»Ð¾
ĠÐ¿Ð¾ÑĤÐ²ÑĬÑĢÐ ´Ðµ
ÑģÑĤÐ°Ð½ ÑĨÐ¸Ð¸
ĠÐ»ÑİÐ±Ð¸ Ð¼Ð°ÑĤÐ°
ĠÐ° Ð¿Ð¾ÑģÑĤÐ¾
ÑģÑĤÐ° ÑĢ
ĠÐ¿Ð°ÑĨÐ¸Ð µÐ½ÑĤÐ°
ĠÑĥÑĩÐµ Ð±Ð½Ð°ÑĤÐ°
ĠÐ¿Ð¾ÑĤ ÑĢÐ¾ÑĪ
ĠÐ¿Ð¾ÐµÐ¼Ð° Ñ
ĠÐ¿Ð¾ÐµÐ¼Ð°Ñ Ĥ
ĠÐ·Ð°Ð´ Ð½Ð°ÑĤÐ°
ĠÑģÐµ Ð¿
ĠÑĺÐ° Ð·Ð¸
ĠÐ¿ÑĢÐ°Ð²Ð¾ ÑģÑĬ
ĠÐ°Ð± ÑģÐ¾
ĠÐ· Ð³Ð¾Ð»ÐµÐ¼Ð¸
ĠÐ¾Ð±ÑĬÑĢ Ð½Ðµ
f t
ĠÐľÐ¾ Ð»
Ñĥ ÑģÐ°
ĠÐ¡Ñĥ Ð¿ÐµÑĢ
ĠÐºÐ¾ÑĢÐ¿ ÑĥÑģ
Ðº Ð½Ð°ÑĤ
ĠÐ²Ð°ÑĢÐ¸Ð °Ð½ÑĤÐ°
ÐºÑģÐ¸ ÐºÐ°
ĠÐĲ Ð¢Ð
ĠÐ¿Ð¾Ð¼Ð¾Ñ īÐ¸
ĠÐ¿Ð¾Ð»ÑĥÐ ¾
ĠÐĳ ÑĢÐ¾
ĠÐ²ÑĬ Ð·ÐµÐ»
ĠÐ¿ÑĢÐ¾Ð²Ð¸Ð½ ÑĨÐ¸Ñı
ĺÐ¦Ð Ĳ
ÑĤÐµÑĢÐ° Ð¿Ð¸Ñı
Ġ12 5
ĠÐ²Ðµ ÑĢÐ¾ÑĺÐ°ÑĤÐ½Ð¾
ĠÑģÐ»Ð¾ Ð²Ð¾ÑĤÐ¾
ÐŁ ÑĢÐµÐ´Ð¸
ĠÐ¿ÐµÑĩÐµ Ð»ÑıÑĤ
Ġ8 2
ĠÐ¾ÑĤÐºÑĢÐ¸ Ð²Ð°ÑĤ
ĠÐ¸Ð·Ð»Ð¸Ð·Ð° Ð½Ðµ
ĠÐ»Ñĥ ÐºÑģ
ĠÐĺ Ð¼ÐµÑĤÐ¾
ĠÑħ Ð²Ð°Ð½Ðµ
ĠÐ»Ð¸ ÑĩÐ½Ð¾ÑģÑĤÑĤÐ°
ĠÐ´ÑĢÐµ ÑħÐ¸ÑĤÐµ
Ð¶Ð¸Ð µ
ĠÐ¿Ð° Ð·ÑıÑĤ
Ðŀ ÑīÐµ
ĠÐ¾ÑĤÐ²Ð¾ ÑĢÐµÐ½Ð¾
ĠÑĢÐ¸Ð±Ð¾ Ð»Ð¾Ð²
ĠÐµÐ´Ð¸ Ð½Ð¸ÑĨÐ°
ĠÐºÐ¾Ð½ÐºÑĢÐµ ÑĤÐµÐ½
ĠÐ¼ÑĥÐ·Ð¸ÐºÐ° Ð»Ð½Ð¸
ÑĤÐµ Ð½Ðµ
ĠÐ³ÑĢÐ°Ð´ ÑģÐºÐ°
ĠÐ¿Ð¾Ð¿Ñĥ Ð»Ð°
âĢĵâĢĵ âĢĵâĢĵ
ĠÐ²ÑĬ Ð¶Ðµ
ĠÑģÐ²Ð¸ ÑĢÐ¸
ĠÐµÐ´Ð½Ð¾ÑģÑĤÐ° Ð²Ð½Ð¾
ĠÐ¾ÑģÑĤÐ° Ð½Ð°Ð»
ĠÑģÐ¸Ð¼ Ð²Ð¾
ĠÐ³Ð¾ÑĢÐ´Ð¾ ÑģÑĤ
ĠÐ¡ÑĤÑĢÐ¾ Ð¸ÑĤÐµ
ĠÑĪÐµ ÑĦÐ°
ĠÑģÐµ ÑĤÐ¾
ĠÐ¼Ð° Ð½Ð°
.... ...
ĠÑĪ Ð²ÐµÐ´
ÑĥÐ²Ð° ÑĪÐµ
ĠM y
ÐºÐ¾ Ð¿Ð°
ĠÐĶÑĥ Ð¿Ð½Ð¸ÑĨÐ°
ĠÐºÑĢÑĬ ÑģÑĤ
ĠP R
ĠÐ¡Ð° Ð½Ð´Ð°Ð½ÑģÐºÐ¸
ĠÐ¿ÑĢÐµ Ð±Ð¸Ð²Ð°
ĠÐ¸Ð½Ð²ÐµÑģÑĤÐ¸ ÑĨÐ¸Ð¸ÑĤÐµ
ĠÐŁÐ¾ Ð²
ĠÐ·Ð°ÐµÐ¼Ð° Ñ
ĠÐ·Ð°ÐµÐ¼Ð°Ñ Ĥ
ĠÐ¾ÑĤÑģÑĤÑĢÐ° Ð½ÑıÐ²Ð°Ð½Ðµ
ĠÐ´Ð¾ ÐºÑĤÐ¾
ĠÐ´Ð¾Ð¿ÑĢÐ¸ Ð½Ð°ÑģÑı
ĠÑĩÐ¾ ÑĢÐ°
ĠÐµÐºÐ¸ Ð¿ÑĬÑĤ
Ġ8 4
Ð² Ñ£
ĠÐ¿Ð¾Ð¿ÑĥÐ»Ñı ÑĢÐ½Ð¾ÑģÑĤ
ÑĦÐ µÑĤÐ¾
ĠÑĥÐ´Ð¾Ð± Ð½Ð¸
ĠÐ³Ñĥ Ð±ÑıÑĤ
en z
ĠÐĶÐĲÐĿÐ ¡
ĠÐĳÑĬÐ»Ð³Ð° ÑĢÑģÐºÐ¸ÑıÑĤ
Ñĥ Ð½Ð¸
ĠÐ¿ÑĢÐ¸ Ð²ÐµÑĤ
ic t
ĠÐ¿Ð»Ð¾ ÑĩÐ°
ĠÐ²ÑĬÐ·Ð¿Ð¾Ð»Ð· Ð²Ð°ÑĤ
ĠÑĦÑĥÐ½Ðº ÑĨÐ¸Ð¸ÑĤÐµ
ĠÐ¢ÑĢÑĥ Ð´Ð½Ð¾
ĠÐºÐ°ÑĢÑĤÐ¾ Ð½
¾ Ð½ÐµÐ½
ĠÑĤÑĢÐµ Ð²Ð°
ĠÐ¥Ð¸ ÑĤÐ»ÐµÑĢ
ĠÐłÐ¾Ð± ÑĬÑĢÑĤ
Ñĥ Ñĥ
ĠÐ¶ÐµÑģÑĤÐ¾ ÐºÐ¾
ĠÐ±Ð¸Ð² ÑĪÐ¸
ĠX V
ĠÐĲ ÐºÑĤÑĥ
ĠÑĢÐ°Ð±Ð¾ÑĤ Ð½Ð¸ÑĤÐµ
ĠÑĦÐ¾Ð½Ð´Ð° ÑĨÐ¸Ñı
Ð³ ÑĢÑĥ
ĠÑĢÐ° ÑģÑĤÐ°ÑĤ
ĠÐ¿ÑĬÑĤÑĥ Ð²Ð°Ð½ÐµÑĤÐ¾
ĠÐ¿ÑĢÐµÐ²Ð¾ Ð·Ð²Ð°
ĠÑĤÐ° ÐºÑĤÐ¸
ĠÑĥÐ±Ð¸Ð µ
ĠÐĹÐ° ÑīÐ¸
ĠÐ¸Ð·ÑĤÑĢÐµ Ð±Ð¸ÑĤÐµ
ĠÐ¸ÑģÑĤÐ¸ Ð½ÑģÐºÐ°ÑĤÐ°
ĠÐµÐ²ÑĢÐ¾ Ð´ÐµÐ¿Ñĥ
ĠÐŀ Ð²Ð¸Ðµ
ĠÐĿÐ°ÑĢÐµ Ð´Ð±Ð°
ÑĥÐ °Ð»Ð¸
Ð´Ð¾ Ð±Ð°ÑĢ
ÑĢ ÑģÐ¸ÑĤÐµ
ĠÑĦÑĥ Ð½Ð´Ð°
ĠÐ¿Ð¸ÑĪÐµ ÑĪ
ĠÑĢÑĬÐºÐ¾ Ð²Ð¾
ĠÐŀ ÑĤÐ¸
Ñī Ð½Ð¾
ĠÐ½ÐµÐ¿ÑĢÐ°Ð²Ð¸ ÑĤÐµÐ»
ĠÐ´Ð¸Ð·Ð° Ð¹Ð½Ð°
ĠÐ¸Ð¼Ñĥ ÑīÐµÑģÑĤÐ²Ð¾
ĠÑĤÐµ Ð¼
ĠBl u
ĠÐĴÐ¾ Ð´Ð°
ĠÐµÐ½ÐµÑĢÐ³Ð¸ Ð¹Ð½Ð°
ĠÐ½Ð°Ð´Ð¿ÑĢÐµÐ²Ð° ÑĢÐ°ÑĤÐ°
ÑģÑĬ ÑīÐµ
ĠÐ´Ðµ ÑĨÐµ
ĠÐ´Ð¾Ð±Ð° Ð²ÑıÑĤ
ĠÐ¶Ð¸Ð²Ðµ Ñı
ĠÐŁÑĢÐµÐ´ Ð²Ð¸
ĠÐĲ ÑĢÑĤ
ĠÐ¿ÑģÐµÐ² Ð´Ð¾
ĠÐ¿Ð¾Ð¼Ð¾ Ð»Ð¸
ĠÐ¿ÑĢÑĬ ÑģÑĤÐ¸ÑĤÐµ
ĠÐ²Ð¾ Ð»Ð°
ĺÐ ķÐ¢Ðŀ
ĠÐ¿Ð¾ÑģÐ¾ ÑĩÐµÐ½Ð¸ÑĤÐµ
ĠÐ·Ð° Ð¼Ð¸
ÑĤÐ¾ Ð²Ð¸ÑĤÐµ
an e
ĠÐ³Ð»Ð° Ð²Ð¸ÑĤÐµ
ĠÐ·Ð°Ð´ ÑĢÑĬ
ÐŁÐ¾ Ð»Ð¸
ĠG T
ĠÐ¾ÑģÐ¸Ð³Ñĥ ÑĢÑıÑĤ
ĠÐ·Ð°ÑģÑĤÑĢÐ°ÑħÐ¾ Ð²ÐºÐ°
Ñĥ Ð¼Ð¾ÑĤ
ĠÐ¼Ð¸Ð½ÐµÑĢÐ° Ð»Ð¸
ĠÐĶÐµ Ð¼Ð¾ÐºÑĢÐ°
Ñģ ÑĤÐºÐ¸
ĠÐ¸Ð· ÑıÐ²Ð¸
ĠÐ³ÐµÑĢÐ¼Ð° Ð½ÑģÐºÐ¸
ĠÐºÑĢÑĬ Ð³Ð°
ĠÑĦÐ¸Ð»Ð¾ÑģÐ ¾ÑĦÐ¸Ñı
ĠÐĿÐ° ÑģÐºÐ¾ÑĢÐ¾
ĠÐ¿ÑĢÐµÑĤ ÑĬÑĢÐ¿
ĠÐ¿ÐµÑĢÑģÐ¿ÐµÐºÑĤÐ¸ Ð²Ð°
ĠÑģÑĤÑĢÐ° ÑģÑĤ
ÑīÐ° Ð¹Ð½
Ð»Ñ Ĥ
ĠÐ¿ÐµÑĢÑĦÐµ ÐºÑĤ
ĠÐ¿Ð¾ Ð¿Ð»Ð°
ĠÐļÐ ŀÐĽÐ
ĠÑģÐ¿Ðµ ÐºÑĤ
ĠÐ£Ð½Ð¸ Ð²ÐµÑĢÐ·Ð¸ÑĤÐµ
Ð½Ð¸ ÑģÑĤÐ¸
ĠÑĩÐµ ÑģÑĤÐ½Ð¾
ĠÑģÐ»Ñĥ Ð¶Ð°ÑĤ
ĠÐ° Ð¼Ð¾
ĠÐ½Ð°Ð¿ÑĢÐ° Ð²ÐµÑĤÐµ
ĠÐ·Ð°ÐºÑĬ Ñģ
ĠÐºÐ¾Ð»Ðµ Ð»Ð°
ĠÑĩÐ»ÐµÐ½ ÑģÑĤÐ²Ð¾
Ġm e
b e
ĠÐ¡ÑĬ Ð´ÑĬÑĤ
ĠÐĴÐ¸ ÐºÑĤÐ¾ÑĢÐ¸Ñı
ĠÑĢÐµÐºÐ¾ Ð»
ĠÐ²Ð¾ Ð´Ð½Ð¸
ov o
ĠÐ ª
ĠÐĵÑĢÐ¸ Ð³Ð¾
ĠÐ¿Ð¾Ð´ Ð¼Ðµ
ĠÐĹÐ½Ð° ÐµÑĤÐµ
ĠÐ¼Ð¸Ð»Ð¸ÑĺÐ° ÑĢÐ´Ð¸
ĠÐļÐ¾Ð½ÑģÑĤÐ¸ÑĤÑĥ ÑĨÐ¸ÑıÑĤÐ°
ĺÐ ŀÐĿÐ
ua wei
ĠÐ¸ÑģÐºÐ° Ð½ÐµÑĤÐ¾
ĠÐ¸Ð· ÑĩÐ°ÐºÐ°
ĠÐ¾ ÑģÐ¾
ĠÐ¸ Ð½ÑĤÑĢÐ¸
ĠÐ±ÑĥÑĤÐ¸ Ð»ÐºÐ°
Ð³ ÑĢÐµÑģ
¶Ð µÐ½
ĠÐ½Ðµ Ð½Ñĥ
ĠÑĦÐµÐ¹ ÑģÐ±ÑĥÐº
ĠÐ¿ÑĢÐ°Ð²Ð¸ Ð»
ĠÑģÐ¾ Ñģ
Ð³Ð¾Ð´Ð¸ÑĪ Ð½Ð¾ÑĤÐ¾
ŁÐ ĽÐ
Ñħ Ð½Ðµ
ĠÐĽÐ ¾ÑĪÐ
ĠÑĤÑĢÐ°Ð´Ð¸ ÑĨÐ¸Ð¾Ð½Ð½Ð¸ÑĤÐµ
ĠÐŁÑĢÐ¾Ð¸Ð· Ð²Ð¾Ð´Ð¸ÑĤÐµÐ»
ĠÐ¿ÑĢÐµ Ð³Ð»ÐµÐ´Ð¸
ĠG u
Ð´Ð¸ Ð»Ð¸
ĠÑģÑĤÐ¸ Ð»Ð°
Ð¼Ð¾ Ð´Ðµ
ĠÐŁÐ¾ÑĢÑĤÑĥÐ³Ð° Ð»Ð¸Ñı
Ð»Ð¾ÑĪÐ ¾
ĠÐ²Ðµ ÑģÑĤÐ¸
ĠÐľÐ°ÑĢÐºÐ¾ Ð²
ÑĢÐµ Ð²Ð°ÑĢÐ¸
ĠÐ²Ðµ Ð±
ĠÐ²ÐµÑĢÐ¸ Ð³Ð¸
ak a
ĠÐ²Ð¾Ñĺ Ð½Ð°
ĠÑĢÐ°Ð· Ð´ÑĢÐ°
Ð¼Ð¸ ÑĺÐ°
Ð¾Ð±ÑĢÐ° Ð·ÐµÐ½
ĠÑĤÐ° Ð½
Ð½Ð¾Ð² ÑıÑĤ
ĠÐ³ÑĢÐ°Ð´ ÑģÐºÐ¸Ñı
ĠÐ¶ÐµÐ»Ðµ Ð·Ð¾
ÑĢÐ±Ð °Ð½
ĠÐ³Ð¾ ÑĢÐ¸ÑĤÐµ
ĲÐ ¡
ĠÑģÐ¿ÐµÑĨÐ¸Ð°Ð»Ð¸ Ð·Ð¸ÑĢÐ°Ð½Ð¸
ĠÐ¿Ð° Ð´Ð°ÑĤ
ĠÑħÐ° Ð·Ð°
ĠÐ¤Ðµ Ð´Ðµ
ŀÐłÐ ľÐ
ĠÐ¸Ð¼Ñĥ ÑīÐµ
ĠÐ»ÑİÐ±Ð¸ Ð¼Ð¸
ĠÐ½ÐµÐ¾Ð±ÑħÐ¾Ð´Ð¸ Ð¼Ð°ÑĤÐ°
ĠÐ·Ð°Ð³Ð»Ð° Ð²Ð¸ÐµÑĤÐ¾
ÑĢÐ°Ñ Ħ
ĠÐĳÐ ĶÐ
ĠÐĴÐ° ÑĪÐ¸ÑıÑĤ
Ġ Î
ĠÐ¿ÑĢÐµ ÑģÑĤÐ¾
ĠÑĦÑĢÐ¾ Ð½ÑĤ
ĠÑħÐ¸ Ð¿Ðµ
ĠÐ½Ð°Ð±Ð»Ñİ Ð´Ð°Ð²Ð°ÑĤ
£ ÐľÐ
ĠÐ±Ð¸ ÑıÑĤ
Ð³Ð¾Ð´Ð¸ÑĪ Ð½Ð¸ÑĤÐµ
ĠÐĶ Ð½Ðµ
ĠÐ½Ðµ Ð±Ð¾
ĠÑģÑĤ ÑĢÑĬ
ĠÐ±ÐµÐ·Ð¿Ð»Ð° ÑĤÐ½Ð°
ĠÐ·Ð° ÑĤÐ¾Ð¿
ĠÐ¿ÑĢÐµÐ´ Ð½Ð°ÑĤÐ°
ĠÐ¡Ñĥ Ð¿Ðµ
ĠÐ¼ÐµÐ¶Ð´ÑĥÐ½Ð°ÑĢÐ¾Ð´ Ð½Ð°ÑĤÐ°
ĠÐ¿Ñĥ ÑĪÐµ
ĠÐ²Ð¾Ð´Ðµ ÑīÐ°
ĠÐºÐ¾Ð½ÑĦÐ»Ð¸ ÐºÑĤÐ¸
ĠÐ¼Ð¾Ð¼Ð¸ ÑĩÐµÑĤÐ¾
ĠÐ½Ð° ÑģÑĤÐ°Ð½
a ir
ĠÐĺÐ½ÑģÑĤÐ¸ÑĤÑĥ ÑĤÐ°
ĠÐŁ ÑĢÐ¸ÐµÐ¼Ð°
Ð¼ÐµÑĤ ÑĢÐµ
ĠÐ¡Ð¸ Ð´ÐµÑĢÐ¾Ð²
ĠÐ²Ð¸Ñģ ÑĪÐµ
ĠÐĳÐ¾ Ñı
S A
ĠÑģÐ¾ÑĨÐ¸ÑĺÐ° Ð»Ð½Ð¸ÑĤÐµ
ĠÐ´Ð¸ÑĢÐµ ÐºÑĤÐ¾ÑĢÐ°
Ð±Ðµ Ð½Ð¾
ĠÑģÑĬ Ð»Ð·Ð¸
ĠÐ±Ð»Ð°Ð³Ð¾Ð´Ð° ÑĢÐ¸
ĠÐºÐ»Ñİ Ñĩ
ĠÑĥÑģÑĤÐ¾Ð¹ÑĩÐ¸ Ð²Ð¾ÑģÑĤ
ĠÐ³Ðµ Ð¹Ð¼
ĠÐ¿ÐµÑĢÑģÐ¾ Ð½Ð°Ð»Ð°
ĠÐ¼Ðµ ÐºÐ¸
ÑĩÐ»Ðµ Ð½ÐºÐ¸
ĠÑħÐ¾ Ð»Ð°Ð½Ð´
ĠÐ¼Ð¾ Ð³Ð»Ð°
Ĥ a
ĠÐ²Ð¸ Ð½Ð°ÑĤÐ°
Ð»Ðµ Ð¼Ð°ÑĤÐ¸
ĠÐ¸Ð·Ð²ÑĬÑĢ ÑĪÐ¸ÑĤÐµ
ÑĩÐ¸ Ð½Ð¸ÑĤÐµ
ĠÐ¿Ð¾ÑģÑĤÑĢÐ° Ð´Ð°Ð»Ð¸
ĠÐ³Ð¾Ð²Ð¾ÑĢÐ¸ ÑĪ
ĠÐ¡ÑĤÐ¾Ð»Ð¸ ÑĩÐ½Ð°
ĠÐ´Ð° Ð¹
ĠÐ¿ÑĬÑĤ Ð½Ð¸ÑĨÐ¸
ĠÐľÐµ Ð¹
ĠÐºÐ°Ð¿Ð° Ðº
ÑģÑĤ ÑĬÑĢÐ
ĠÐ± ÑĢÐ·Ð¸
ĠÐ¸Ð·ÐºÑĥ ÑģÑĤÐ²Ð°
ĠÐ¿ÑĢÐ° Ð²Ð½Ð°
ĠÐºÐ¸ÑģÐ»Ð¾ ÑĢÐ¾Ð´
ĠÑĥÐ¿Ð¾ÑĤÑĢÐµ Ð±ÑıÐ²Ð°
ĠÐ¿ÑĢÐµÐ¿Ð¾Ð´Ð°Ð²Ð° ÑĤÐµÐ»Ð¸
ĠÑģ Ð»Ð¸Ð·Ð°
ĠÑĤÑĢÐ°Ð¿Ðµ Ð·Ð°
ĠÑĢÐ¾Ð¼Ð° Ð½Ð°
ev nik
ĠÐ¿Ð¾Ð·Ð¸ ÑĨÐ¸ÑĺÐ°
ĠÐ¼Ð½Ð¾Ð·Ð¸ Ð½ÑģÑĤÐ²Ð¾ÑĤÐ¾
ĠG e
ĠÐ´ÑĥÑħÐ¾ Ð²Ð½Ð¾
ĠÐ¸Ð· ÐºÑĢÐ¸
ĠÑģÑĬ Ð¿ÑĬÑĤ
ĠÐ½Ð°ÑĤÐ¿ ÑĢÐµÐ²Ð°ÑĢÐ¸
ĠÐ¿ÑĢÐ¾Ð¸Ð·Ð²ÐµÐ´Ðµ Ð½Ð¸
ĠÐ· Ð»Ð¾ÑĤÐ¾
p r
ĠÐ½Ð° ÑĨÐ¸Ñı
Ð¹ Ð¿
ĠÐĸÐ¸Ð² ÐºÐ¾Ð²
ÑĢÐ¾ Ð´Ð¸ÑĨÐ°
ĠI N
° Ð½Ð¾
ÑĪÐ° Ð½
ĠÐ½ÐµÐ·Ð° Ð±ÑĢÐ°Ð²Ð¸
Ð»Ð° Ð¼
ĠÐ¡Ð¾ Ð²ÐµÑĤÐ¾ÑĤ
ÑģÑĤÐµ ÑĤÐµ
ÑĩÐ° Ð
ĠÑĥÐ¸ ÐºÐµÐ½Ð´
ĠÐ¿ÑĢÐ²ÐµÐ½ ÑģÑĤÐ²Ð¾
ĠÐļÐ° Ð¹
¾ Ð»Ñĥ
ĠÑĪ Ð²ÐµÐ¹ÑĨÐ°
Ñģ ÑĬÐ»
ĠÐ¸Ð·Ð³ÑĢÐ° Ð´ÐµÐ½Ð¸
ĠÐ²ÑĬ Ð»Ð½Ð¸
Ð³Ð¸Ð ¸
?! ?
ĠÐ°Ð²ÑĤÐ¾ ÑĢÑĬÑĤ
ĠÐ¸Ð½ÑĤÐµÑĢÐµ ÑģÐ°
ĠÑĩÑĥÐ´Ðµ ÑģÐµÐ½
ĠÑģÐ¾ ÑģÑĤÐ°
ĠÑĢÐ° Ð´Ð²Ð°ÑĤ
ĠÐ¸Ð·Ð¾ Ð±Ð¸
ĠÐĽÑİÐ±Ð¾ Ð¼Ð¸ÑĢ
ĠÐ²ÐºÑĥ Ð¿Ð½Ð¾
ĠÑĢÐµ ÑĪÐ°Ð²Ð°Ð½Ðµ
ĠÐ¾Ð´ ÑĢÐ¶Ð¸
Ð½ÑĤ ÑĬ
Ġt e
ĠÑģÐ¼Ð°ÑĢÑĤ ÑĦÐ¾Ð½Ð¸
Ð½Ð¾Ð²Ð¸ Ñı
ĠÐ¾ÑĤÐ»Ð¸ ÑĩÐ½Ð°
ĠÐĶÐµÑĤ ÑģÐºÐ¸
ĠÐ½Ñĥ Ð»Ð°
ĠÐĳÑĬ Ð´ÐµÑĤÐµ
Ð¿Ð¸ ÑĢÐ°
p ool
er r
ĠÐ³Ð¾ ÑĢÑĩÐ¸
ĠÑħÑĥ Ð¼Ð¾ÑĢ
ÑĢÐ¸Ð µÐ»
ÐĿÐ ĺ
ĠÐ»Ð¸ ÑĩÐ½Ð°ÑĤÐ°
ÑĤÐ° ÑĨÐ¸ÑıÑĤÐ°
ĠÐ¿ÑĢÐµÐ¶Ð¸ Ð²ÑıÐ²Ð°Ð½Ðµ
Ð½Ñĥ Ñģ
ol a
ĠÐ½Ð°ÑģÐ¾ ÑĩÐ²Ð°
ĠÑĤÐ²Ð¾ÑĢ ÑĩÐµÑģÑĤÐ²Ð¾
ĠÐ»Ð¾ Ð±Ð¸
Ġ199 3
ĠÐĲ Ð¼
ĠÐĺÑģÑĤÐ¾ ÑĢÐ¸Ñı
ĠÐ¾ÑĤÐ ·Ð°Ð´
ĠÐŁÐ¾ Ð
ĠÐ¼Ð¾Ð´Ñĥ Ð»
Ð»Ð¸ ÑĢÑĥ
ĠÐ£Ð ķÐ
ĠÐ¿Ð»Ð°ÑĤ ÑĦÐ¾ÑĢÐ¼Ð¸
ĠÐ¿Ð¾Ð´ ÑħÑĢÐ°Ð½Ð²Ð°
ĠÐ½Ð¾Ð²Ð¸ Ð½Ð°ÑĤÐ°
ĠÐºÐ°Ð½Ð´Ð¸Ð´Ð°ÑĤ ÑģÑĤÐ²Ð°
ĠÐĹÐ° Ð±ÐµÐ»Ðµ
ĠÑĩÐ¸ÑĤÐ° ÑĤÐµÐ»Ð¸ÑĤÐµ
ĠÐ·Ð°ÐºÐ¾Ð½Ð¾ Ñ
ĠÐ·Ð°ÐºÐ¾Ð½Ð¾Ñ Ĥ
ĠÑĥÐ´Ð¾Ð± ÑģÑĤÐ²Ð¾
ĠM ercedes
ĠÐ¿ÑĢÐ²Ð ¾ÑĤÐ¾
ĠÑĢÐ° ÐºÐµ
ĠÑĦÐ¸Ð» ÑĤÑĬÑĢ
ĠÑģÑĬÐ²ÑĢÐµÐ¼ÐµÐ½ Ð½Ð°ÑĤÐ°
ĠÐ´Ð¸ÑģÑĤÐ°Ð½ ÑĨÐ¸Ð¾Ð½Ð½Ð¾
ĠÐ¾Ð³ÑĢÐ°Ð½Ð¸ ÑĩÐ¸
ĠÐ°ÐºÐ° Ñĥ
ÑĤÐ° Ð»
ĠÐ½Ð¾ Ñľ
ĠÐ¸Ð·Ð³Ð»ÐµÐ¶Ð´Ð° ÑĪÐµ
ĠÑĦÑĥ ÑĢÐ½Ð°
ĠÐ¾ÑĢÐ¸Ð µÐ½ÑĤÐ¸
ĠÐ²Ð·Ð µÑĤÐ¸
Ðĺ Ð²Ð°Ð½
ÐĶ Ñĥ
ĠÐ±Ñĥ Ð³Ð°
ĠÐ¡ÑĤÐµÑĦÐ° Ð½Ð¾Ð²
ÑīÐ¾ Ð²
ĠÐºÐ° ÑĥÐ·Ð°
ĠÐļÐ¸ ÑĢÐ¸
ÑĩÐ¸ ÐµÐ²
ĠÑĩÐ° ÑĪÐ¸
ĠÑģÑĬÑīÐµÑģÑĤÐ²Ñĥ Ð²Ð°Ð½Ðµ
ÑĦÐ°ÑľÐ °
I G
Ġ3 60
ĠÐ²Ð·Ð µÐ»Ð¸
ĲÐĳÐ ŀÐ¢Ð
d u
Ġ7 1
ĠÐ±Ð¾Ð»Ðµ Ð·
Ð µÑĢ
Ðº Ð½ÑĥÐ²Ð°
Ġ" ...
ĠÐ·Ð° Ð¿Ñĥ
ĠÐ¾Ð´ Ð´Ðµ
ĠÑģÑĬÐ´Ð¸ Ð¸ÑĤÐµ
ªÐłÐ ĸÐ
ĠÐ¥ÑĢÐ¸ÑģÑĤÐ¾ Ð²Ð°
ĠÑģÐ¿ÑĢÐ¾ Ð²Ðµ
ÑĥÐ¼ Ð½Ð¸
ĠÐ¼Ð°ÑģÐ° Ð¶
ĠÐºÐ°Ð½ÑĨÐµ Ð»Ð°
ĠÐ½Ð° ÑģÑĤÐ¾
ĠW e
ĠÑģÐ¿Ð¾ÑĢÑĤ Ð½Ð°
ĠÐ·Ð° Ð»Ð¾
ĠÐ¿ÑĢÐ¾ Ð³Ð»Ð°
ĠÐ·Ð°ÑĤÑĢÑĥ Ð´
ĠÑĥ Ð±Ð°Ð²Ð¸
ĠÐĴÐµÐ»Ð¸ ÐºÐ¸
ĠÐ²ÐµÑĩÐµ ÑĢÐ¸
ĠÐ¡ÑĬÐ³Ð»Ð° ÑģÐ½Ð¾
ÑĢÐ²Ð °Ð»
ĠÐ·Ð´ÑĢÐ°Ð²ÐµÐ¾Ð¿Ð° Ð·Ð²Ð°Ð½Ðµ
ĠÐ½Ð°ÑģÐ¾ ÑĩÐ¸
ĠÐľÐ° ÐºÑĢÐ¾Ð½
ŀÐłÐ ĺ
ÑĩÐµÐ½ ÑĨÐ°
ĠÐ¡Ð»ÑĬÐ½ ÑĩÐµÐ²
Ð¡ Ñĥ
ĠÑĥÑģÐ¿Ð¾ÐºÐ¾ ÑıÐ²Ð°
ĠÑĥÑĤÐ²ÑĬÑĢÐ ´Ðµ
ĠÐĲ Ð½Ð¸
ĠÐ±Ð¾ Ð»ÐµÐ½
ĠÐ·ÑĢÐ¸ÑĤÐµ Ð»Ð¸
ĠÐĲ ÐĽÐ
ĠÑĥ ÑĢÐ¾ÑĨÐ¸
ĠÑģÑĤÑĥ Ð´ÐµÐ½Ð°
ĠÐĲ Ð²Ð³ÑĥÑģÑĤ
ÐĴÐ° ÑĢÐ½Ð°
ĠÐ·Ð±Ð¾ ÑĢÐ¾Ð²Ð¸
ĠÑīÐ °ÑĤÐ°
Ĥ Ð½
ĠÐ¥ÑĢÐ²Ð°ÑĤ ÑģÐºÐ°
ur g
ĠÐ¸Ð·ÐºÐ»Ñİ ÑĩÐ²Ð°
ĠÐ·Ð´ÑĢÐ°Ð²Ð¾ÑģÐ»Ð¾ Ð²Ð½Ð¸
ĠÑģÐ¾ÑģÐµ Ð¼Ð°
ĠÐ¼Ð¾Ð»Ð¸ ÑĤÐ²Ð°
Ð±ÑĢÐ¸ ÐºÐ°
ĠÐ¿ÑĢÐµÐ´ ÑģÑĢÐ¾
ÑĢÑĥ Ð¼Ð¿Ð¸
ĠÐ²Ð½ÐµÐ·Ð° Ð¿Ð½Ð¾
Ñ ĤÐ½
Ñ Ĥa
ĠÐĴÑĬÐ¿ÑĢÐ¾ Ñģ
Ð²Ð¼Ð °
ĠÐķ Ð¿Ð¸
ĠÑĢÐ°Ð·Ñĥ Ð·Ð½Ð°
ĠÐ´Ñı ÑģÐ½Ð¾
ĠÑĦÐ¸ ÑģÐºÐ°
ĠÐ² Ð¿Ð¸ÑģÐ²Ð°
er n
a e
ĠÐ¿ÑĢÐ¸ Ð¼Ð°
ĠÐ½Ð°Ð»Ð¸ ÑĩÐ½Ð¾ÑģÑĤ
Ð µÐ½Ðµ
ĠÐĿÐĲÐ ŁÐ
ÑĦÐ¾ ÑĢÐ¼Ð¸ÑĤÐµ
ĠÐ´Ð¾ÑģÑĤÐ¸ Ð³Ð°ÑĤ
ĠÐ½Ðµ Ð±Ð»Ð°Ð³Ð¾
ÑĪÐ° ÑĢÑģÐºÐ¸
ĠÐ¼Ð¾ ÑĤÐ¾ÑĢÐ¸
Ġp re
ĠÐ½Ð°Ð¿ÑĢÐ°Ð²Ð¸ Ð»Ð°
ÐµÐ¼Ð¾ ÑģÑĤÑĤÐ°
Ġ us
ĠÐºÐ°ÑĤÐµÐ³Ð¾ ÑĢÐ¸ÑıÑĤÐ°
u z
ĠÐ¸Ð·Ð³ÑĢÐ° Ð´ÐµÐ½
ĠÐ¿ÑĢÐµÐ¿Ð¾ÑĢÑĬ ÐºÐ¸
ÐºÑģÐ¾ Ð·Ð½Ð°
ĠÑģÑĬÐ´Ðµ Ð±Ð½Ð°
ĠÐ²ÑĬÐ· Ð»Ð¸Ð·Ð°
ĠÑģ Ð»
ĠÐ¾ÐºÐ¾ ÑĤÐ¾
ĠÐ¾ÑĢÐ³Ð°Ð½Ð¸Ð·Ð¸ÑĢÐ° Ð½Ð¸
ĠÐ¿Ð¾ Ð¼Ð½Ñı
ĠÐ²Ð½Ðµ Ð´
ĠÑĢÐµÑĦ Ð»Ðµ
ĠÐŁÐ¾ ÑģÐ¾
ĠÑĢÐ°ÑģÑĤÐµ Ð½Ð¸Ðµ
ĠÐ¡Ð° ÑĥÐ´Ð¸
ĠÑī ÑıÑħ
ĠÐ¿ÑĢÐ¸Ð³Ð¾ÑĤÐ²Ñı Ð½Ðµ
ÑģÑĤÐ¾Ñı Ð½Ð¸Ðµ
ĠÑģÐ»Ð° Ð´Ð¾
ĠÐ¸ ÑģÑĤÐ¸ÑĤÐµ
ĠÐ¿Ð¾ÑĤÐµÐ½ ÑĨÐ¸ÑĺÐ°
ĠÐ¡Ð²Ðµ ÑĤÐ»Ð°
Ð· Ð½Ð¾ÑĤÐ¾
ĠÐ¢Ð£ Ðļ
ĠÐ³Ð»ÐµÐ´Ð° ÑĪ
Ġ8 7
ĠÐ´ÑĬÑĢÐ²Ð µÐ½Ð¸
Ĥ o
ĠÐ¿ÑĢÐµÐ¿ÑĢÐ° ÑĤÐºÐ¸
2 000
R e
ĠÐ¾ÑĢÐ° Ð½Ð¶Ðµ
ĠÐ¸Ð·Ð¼Ð° Ð¼Ð°
Ð¿Ð¸Ñģ Ð²Ð°Ð½Ðµ
er y
ÑĢÐ¾Ñı ÑĤÐµÐ½
ĠÐºÐ°ÑĢÑĤÐ¾ ÑĦÐ¸
ĠÐ½Ð°ÑĢÑĥ ÑĪÐ°Ð²Ð°
ik a
U N
ĠÑģÑĤÐ¸ Ð¿Ðµ
ĠÐ½ÐµÐ´Ð¾ÑģÑĤÐ¸ Ð³
ÑĢÐ³Ð µ
ĠÐ¾Ð´Ð»Ñĥ ÑĩÐ¸
ĠÐ¿Ð¾Ð»Ð¾Ð¶Ð¸ÑĤÐµ Ð»ÐµÐ½
ĠÑĩÑĥÐ² ÑģÑĤÐ²Ð°ÑĤÐ°
ĠÐ²Ð»Ð¸Ð·Ð° Ð½ÐµÑĤÐ¾
p ress
ĠÐ¡ Ð»Ð¾Ð²Ð°
ĠÐ°Ð³ÐµÐ½ ÑĤÐ¸
Ð±Ðµ Ð»ÑıÐ·Ð°
ÑĦÐ¸ÐºÐ° ÑĨÐ¸Ð¸
Ð½Ð´ Ð¶
Ð´ Ð½Ð¸ÑıÑĤ
ĠÐ±ÑĢÐ¸ Ð³Ð°
ĠÐ¾ÑĨÐµ Ð½Ð¸
ĠI m
ĠÐ½Ð° Ð¿Ð°Ð´
Ð °Ð¼ÐµÑĢÐ¸ÐºÐ°
Ð·Ð¸ÑĢÐ° Ð½ÐµÑĤÐ¾
ĠÐ¿ÑĢÐµ Ð¼Ð½Ð¾Ð³Ñĥ
Ð²Ð¸Ð ¾
ĠÐ¾Ð±ÐµÐ· Ð¿Ðµ
ĠÐŁ ÑĢÐ¸Ñı
ĠÐ´Ð¾Ð³Ð¾Ð²Ð¾ ÑĢÐ¾ÑĤ
ĠÐ¾Ð±Ð»Ðµ ÐºÐ»Ð¾
ĠÐ²ÑĬÐ» ÑĪÐµ
ĠÐ¦ÐµÐ½ÑĤ ÑĬÑĢÐ°
ĠÐ¿ÑĢÐ¾Ð²Ð¾ ÐºÐ¸ÑĢÐ°
ĠÐºÐ¾Ð»Ð¸ ÑĩÐºÐ°
Ð»Ð¾Ð³Ð¸ ÑĩÐ½Ð¸ÑĤÐµ
Ð¿ÑĢÐ° Ð²Ð°
ĠÑģÑĤÑĢÐ°ÑħÐ¾ÑĤ Ð½Ð°
ĠÐ¸Ð¼Ð¿ÐµÑĢÐ° ÑĤÐ¾ÑĢ
ĠÐ¿ÑĢÐµ Ð²Ð¸
Ñĥ ÑģÐ¸
ĠÐ° Ð½Ð¾Ð½Ð¸Ð¼ÐµÐ½
ÐºÑĤÐ¸ Ð²Ð°
ĠÐ¢Ð ¸Ñı
ĠÐºÐ¾ Ð²Ð¸Ð´
ĠÐ¢ÑĢÐ° ÐºÐ¸Ñı
Ð¶Ð° Ð²Ð°Ð½ÐµÑĤÐ¾
ĠÐ¿Ð¾Ð¿ÑĥÐ»Ñı ÑĢÐ½Ð¸
C H
ÑĢÐ°Ñĺ ÑĤÐµ
ĠÐ´Ð¾Ð²Ðµ Ð´Ð°ÑĤ
ĠÐŁÐłÐ ŀÐĶÐ
qu e
Ð·Ð½Ð° Ð
ĠÐ¿Ð¾ ÐºÐ»Ð¾
ĠÐ±Ð¸Ð·Ð½ÐµÑģ Ð¼ÐµÐ½
ĠÐ»Ð¸ÑĨÐµ Ð½Ð·Ð¸
Ð¿Ð¾ ÑĩÐ¸ÑĤÐ°
ĠÐ¸Ð·Ð²ÑĬÑĢ ÑĪÐµÐ½Ð°
ĠÐ¾Ð¿Ð¾Ð·Ð¸ ÑĨÐ¸Ñı
ĠÐ¿Ð¾Ð»Ð¸ÑĨÐµ Ð¹ÑģÐºÐ¸
ĠÑĩÐ° Ð½ÑĤÐ°
ÑĤÐµÐ» ÑģÐºÐ°
ĠÐ¿ÑĢÐ¸ÐºÐ° Ð·Ð½Ð°
ĠÐºÐ¾Ð¼ÑĥÐ½Ð¸ Ð·Ð¼Ð°
ĠÐ³Ðµ Ð»
Ñ Ĥo
ÑĨ Ð²ÐµÑĤ
ĠÐ½Ð¾Ð²Ð¸ Ð½Ð¸ÑĤÐµ
Ð¿Ð° ÑĢ
ĠÑģÐ¸ Ð½Ð¸
ĠÐ½Ð¸ Ð²Ð½Ð¾ÑĤÐ¾
Ñĩ Ð½Ð¸ÑĨÐ¸ÑĤÐµ
Ð»Ñı Ð»
ĲÐ¢Ð ķÐĽÐ
ĠÐµÐ´Ð¸Ð½ ÑģÑĤÐ²ÐµÐ½Ð°
ĠÐ´Ðµ Ðº
** *
ĠÐ¾ ÐºÑĤ
ĠÐ²ÐµÑīÐµ ÑģÑĤÐ²Ð¾
ĠÐĹÐ½Ð° Ð
ĠÐºÐ°ÑĤÐ¾ Ð»Ð¸
ĠÐ´Ð¾Ð±ÑĢÐ¾ Ð²Ð¾Ð»Ð½Ð¾
ĠÑģÐµÐ´Ð¼Ð¸ ÑĩÐ½Ð¾
ĠÐ¿ÑĢÐ¾Ð²Ðµ ÑĢÐºÐ°ÑĤÐ°
ÑģÑĤ Ð½Ð¸ÑĨÐ¸ÑĤÐµ
Ð½Ñĥ Ð²Ð°ÑĤ
ĠÑģ ÐºÐ»ÑİÑĩÐ¸
ĠÐ¿ÑĢÐ¾ÑĤÐ¸ Ð²ÐµÐ½
ĠÐ¼Ð¾ ÑĤÐ¾ÑĨÐ¸
Ñ ĻÐ
ĠÑĩÑĥÐ²ÑģÑĤÐ²Ð° ÑĤÐµ
ĠÐºÑĢÐ° Ð»ÑģÑĤÐ²Ð¾
ÑĤÐ¼Ð ¸
ĠÑħÐ µÐ»Ð¸ÐºÐ¾Ð¿ÑĤÐµ
ing s
ĠÐļÐ°Ð·Ð° Ñħ
ĠÐ±Ð¾ Ð³Ð°ÑĤÐ¾
ĠÐ¸Ð½ÑĤÐµÐ³ÑĢÐ° ÑĨÐ¸Ñı
ĠÐºÐ¾Ð¼Ð¸ ÑģÐ¸Ð¸
ĠÐ°ÑĦ ÑĢÐ¸ÐºÐ°
ĠÐ¾ Ð»Ð¸Ð¾
ĠÐºÐ¾Ð¼Ð¿ ÑĺÑĥ
ĠC ont
el i
Ð´Ð½Ðµ Ð²ÐµÐ½
ĠÐ¾ Ð¼ÑĬ
ĠÐ¿ÑĢÐ¾ÑĤÐµ Ð¸Ð½
ĠÑģÑĬ ÐºÑĢÐ¾Ð²Ð¸
ĠÐºÐ¾Ð½ ÑģÐ¾
ĠÐµÑĦÐµÐºÑĤÐ¸ Ð²Ð½Ð¸
ÑĢÐ¸Ð µÐ²
µÑĤÐ¾ Ð²Ð¾
ÑĺÑ Ĥ
ĠÐ²Ð° ÐºÐ²Ð¸
ĠÐ·Ðµ Ð»Ðµ
ĠÐ¸Ð´ÐµÐ °Ð»ÐµÐ½
ĠÐ¿Ð¾Ð±ÐµÐ´Ð¸ ÑĤÐµÐ»
ĠÐ¢Ð¸ Ð¿
ĠÐŁÑĢÐ°Ð²Ð¸ ÑĤÐµÐ»ÑģÑĤÐ²Ð¾ÑĤÐ¾
ĠÐµÐ´Ð¸ Ð½Ð¾
C D
ĠÐ¡Ð¾ Ð·Ð¾Ð¿Ð¾Ð»
ÑĢÐ¸Ð° Ð»Ð°
ĠÐ¾ÑģÑĤÑĢÐ¾ Ð²Ð°
ĠÐ¸ÐºÐ¾Ð½Ð¾Ð¼Ð¸ ÑĩÐµÑģÐºÐ°ÑĤÐ°
¸ Ð·Ð½Ð°
ĠÐ¥ ÑĢÐ¸ÑģÑĤÐ°
ĠÐĲÐ»ÐµÐºÑģÐ°Ð½Ð´ ÑĢÐ¾Ð²
ĠÐĲÐ½ Ð½Ð°
ĠUn ivers
ĠÐ½Ð° ÑĨÐ¸
ĠÐ¸Ð· Ð²Ð¾Ð´
ĠÐ¥Ð° Ð¹
ĠÐºÑĥ Ð¿Ðµ
ĠÐ¿ÑĢÐ°ÑĪÐ°Ñ ļÐµÑĤÐ¾
ĠÐĽÐ¸ Ð´Ðµ
ĠÐļÐŀÐľÐ ķÐĿÐ¢Ð
ÐĴÐ° ÑģÐ¸Ð»
Ñĩ Ð½Ð¸ÑĨÐ¸
ĠÐ° Ð²Ð°Ð½
ĠÐ´ÐµÐ¿ÑĢÐµ ÑģÐ¸Ñı
ĠÐ¿ÑĢÐ¸Ð·Ð½Ð° ÑĨÐ¸
ĠÐ£ ÑĩÐ¸
ÑľÐ °ÑĤÐ°
ĠÐ¾ ÑĢÐ±Ð¸
ĠÐ¾ÑĤ ÑĢÐ¾
s on
ĠÐ¾ÑĤÐº ÑĬÐ¼
ĠÐ¿ÑĬÑĤ Ð½Ð¸
ĠÐ¸Ð½Ð´Ð¸Ð²Ð¸Ð´Ñĥ Ð°Ð»Ð½Ð¾
ĠÑĦÐ¾ÑĤÐ¾ Ð³ÑĢÐ°ÑĦ
Ð± ÑĬÑĢÐº
ĠÐ¤Ð µÑģÑĤÐ¸
Ð¿Ð°ÑĢÑĤÐ° Ðº
ĠÐ¿Ð¾Ð´Ð¾ Ð·
¾Ñ İ
ĠÐ¦ ÑıÐ»Ð°ÑĤÐ°
ÑĤÐ´Ðµ ÑģÐµÑĤ
ĠÐ¤Ð° Ð½Ð´ÑĬÐºÐ¾Ð²Ð°
ĠÐ¡Ð ŀ
g l
ĠÐ¿ÑĢÐµÐ´Ð¸ ÑĪÐ½Ð¸Ñı
Ñħ Ð»Ð¸
ĠÐ·Ð°ÐºÐ»Ñİ ÑĩÐµÐ½Ð¸Ðµ
ĠÐ·Ð°Ð¿Ð° Ð´Ð½Ð¸ÑĤÐµ
ĠÐ¾ÑĢÐ¸ Ð·
ĠÐ¦Ð ĺÐļ
ÑĢÑĤ Ð½Ð¸
ĠÐ³Ðµ ÑĢÐ¾Ð¸ÑĤÐµ
ĠÐ¦Ð° ÑĨÐ°ÑĢÐ¾Ð²
ĠÐ¾Ð±Ð²Ð¸ Ð½Ñı
ĠÐłÐ°Ð·Ð¿Ð¾ Ð»Ð¾Ð¶ÐµÐ½
Ð½ÐµÑĨ ÑĥÐ
ĠÐ·Ð°ÐºÑĥ ÑģÐºÐ¸
ĠÑĥÐ¶Ð° Ñģ
ĠÐ¾Ð²Ð¾Ð·Ð¼Ð¾ Ð¶ÑĥÐ²Ð°
ĠÑĢÐ°ÑģÑĤÐµ Ð½Ð¸ÑıÑĤÐ°
ĠÑģÐ»Ðµ Ð´Ð¸ÑĤÐµ
ĠÐºÐ°ÑĢÐ°Ð½ ÑĤÐ¸Ð½Ð°
Ġ4 50
ÐŁÐ łÐ
ĠÑĤÑĢÐ°Ð²Ð¼Ð °
Ñģ ÑĤÐ
ĠÐ»Ðµ ÑĤÐ¾
ĠÐĴÑĤÐ¾ÑĢÐ¸ ÑıÑĤ
ĠÐ¯ ÑģÐ½Ð¾
Ð³Ð¾ Ð´Ð½Ð¾
ĠÑĨÐ¸ ÑĢÐºÑĥ
ĠÐ²Ð½Ð¾ ÑģÐºÐ¸
ĠÐĶÑĢÑĥ Ð³Ð¸ÑĤÐµ
Ð¶Ð´Ð° Ð¼
ĠÐ¼ÐµÑģÑĤ Ð½Ð¾ÑģÑĤÑĤÐ°
ĠÑĤÑĬ Ð¿Ð¾
ĠÐ¼Ð¾Ñ īÐµÐ½
ÑĦÐ¸ÑĨÐ¸ ÑĢÐ°Ð½
ĠÑĢÐ°Ð·ÑĢÐµ ÑĪÐ¸ÑĤÐµ
Ð½Ð° Ð¼Ðµ
ĠÐ¾Ð±ÐµÐ·ÑīÐµÑĤÐµ Ð½Ð¸Ðµ
ĠÐ¿Ð¾Ð´ ÑĨÐµ
ŀÐĴÐ ķ
ĠÐ¼Ð°ÐºÑģÐ¸ Ð¼ÑĥÐ¼
ĠÐ¾ÑģÐ½Ð¾ Ð²Ð½Ð¸ÑıÑĤ
oun t
out ube
ĠÑĢÐ°Ð· Ð³Ð»ÐµÐ¶Ð´Ð°Ð½Ðµ
ĠÑĥÑģÑĤÐ° Ð½Ð¾Ð²ÐµÐ½Ð¾
Ð³Ð»ÐµÐ´ Ð½Ð¾
ĠÐµÐ½ÐµÑĢÐ³Ð¸ Ð¹Ð½Ð¸
ĠÐºÐ¾Ð»Ðµ Ð³Ð°ÑĤÐ°
ĠÐ±ÐµÐ·Ð¾Ð¿Ð° ÑģÐ½Ð¾ÑģÑĤÑĤÐ°
ĠÐļÐ»Ð° ÑģÐ¸
ĠÐľÐ° Ð½
Ð²Ñĥ Ð²Ð°ÑļÐµÑĤÐ¾
b le
ĠÐºÐ°Ð·Ð²Ð° ÑĪÐµ
ÑĦÐ¾ ÑĢÐ´
ĠÐ·Ð° Ð¿Ðµ
ĠÑģÐµÐ³Ð° ÑĪÐ½Ð¸ÑĤÐµ
ĠÑģÑĤÑĢÐ° Ð´Ð°ÑĤ
ĠÐ½Ð° Ð²ÐµÑĩÐµ
ĠÐ¾ÑģÑĤÐ°Ð½Ð° Ð»Ð°ÑĤÐ°
ĠÐ¼ÐµÑģÑĤÐ¾ ÑĤÐ¾
ĠÐ° Ñģ
ĠÐ·Ð°Ð³Ð»Ð° Ð²Ð¸Ñı
ĠÐ¿Ð»Ð° ÑĤÐ°
ĠÐŁÐ¾ Ð±Ðµ
for m
ĠÐĲÑĦ Ð³Ð°Ð½Ð¸ÑģÑĤÐ°Ð½
Ñĥ ÐºÐ°
ĠÑĢÐµ Ð¿Ð»Ð¸ÐºÐ°
ĠÐ±Ð»Ð¸Ð· ÐºÐ¾
ĠÐ¿ÑĢÐµÐºÐ° ÑĢÐ²Ð°
ĠÐ£ Ð½Ð¸ÐºÐ°
ĠÑģÐ»Ðµ Ð´Ð¾Ð²Ð°ÑĤÐµÐ»Ð½Ð¾
ĠÐļÐ ĲÐ¢Ðŀ
ĠÐĿÐ ĶÐļ
ĠÐŁÐ°Ð² Ð»Ð¾Ð²
ĠÐ¡Ð²Ðµ ÑĤÐ»Ð¸
ĠÐ±Ð° Ð½ÑıÑĤÐ°
ĠÐ°ÑĢÐ¾ Ð¼Ð°ÑĤÐ¸
ĠÑĤÐµ Ð³Ð»Ð¾ÑĤÐ¾
ĠÐĺ Ð·Ð¸
ĠÐŁÐ¾ÑģÐ»ÐµÐ´ Ð½Ð¸ÑĤÐµ
ĠÐ¾Ð± Ð¼ÐµÐ½
Ð½Ð¸Ð °Ð»
ĠÐ¿ÑĢÐµÐ¾Ð± Ð»Ð°
ĠÐĴÐ °Ð½
ĠÐ¿ÑĢÐµ Ð·Ð°
Ð·Ð½Ð° ÑĩÐ¸
ĠÐ²Ð¸ Ð½Ð¾ÑĤÐ¾
ĠÐ²Ðµ ÑĤÐµÑĢÐ¸Ð½Ð°
ĠÐºÐ¸ÑģÐµ Ð»Ð¾
ĠÐĴÐµÐ»Ð¸Ðº Ð´ÐµÐ½
ĠÑģÑĤÐ°Ð½ ÑĨÐ¸Ð¸
ĠÑģÑĤÑĥ Ð´ÐµÐ½Ð¾
ĠÐ¸Ð·Ð½ÐµÐ½Ð° Ð´Ð¸
ĠÐ¿Ð¾Ð³Ð»ÐµÐ´ Ð½ÐµÑĤÐµ
ĠÐ¿ÑĥÑģÐºÐ° Ñ
ĠÐ¸Ð· Ð»Ð¾Ð¶ÐµÐ½Ð¸
ĠÐ¿ÑĥÑģÐºÐ°Ñ Ĥ
Ð¼ÐµÐ½ ÑĤÐ¾Ð²
ĠÐ¿Ð¾ Ð»Ð¾Ð¶Ð¸
a w
ĠÑĪÐºÐ° ÑĦ
ÑģÑĤÐ²Ðµ Ð½Ð¸Ð¾ÑĤ
ĠÑĦÐ°Ð»ÑĪÐ¸ Ð²Ð¸
ĠÐ²Ð¾Ð·ÑĢÐ° ÑģÑĤ
ĠÐ»ÐµÐºÐ¾ ÑĤÐ°
ĠÐ¼Ðµ ÑģÑĤÐ½Ð¾
ĠÑĤÑĬÐ» ÐºÑĥÐ²Ð°
Ñī Ð½Ð°
ĠÑģÑĢÐ°Ð² Ð½ÑıÐ²Ð°
ĠÐ¸Ð½ ÑĤÐ¸
¢Ð ķÐłÐ
ĠÐĽÐµ ÐºÐ°
ĠÐ¡ Ð½Ðµ
ĠÑģÐ¾Ð³Ð»Ð° ÑģÐ½Ð¾
ĠÐ¸Ð·Ð¼Ðµ Ð½ÐµÐ½Ð¸Ñı
Ð¼ Ð½Ð¸Ð¼
ĠÐ½Ð°Ñħ Ð»Ñĥ
ĠÐµÑĦÐµÐºÑĤÐ¸ Ð²Ð½Ð°
ĠÐļÐ¸ Ð¿ÑĬÑĢ
ĠÐ´Ðµ Ð¶Ñĥ
ĠÑĤÐ° Ð¹
ĠÐ°Ð´Ð¼Ð¸Ð½Ð¸ÑģÑĤÑĢÐ° ÑĤÐ¸Ð²Ð½Ð¾
ĠÐ¼Ð° ÑģÑĤÐ¸
ĠÑĩÑĥ Ð´Ð¾Ð²Ð¸
ĠÐŀÑģÑĤÐ° Ð½Ð°Ð»Ð¸ÑĤÐµ
ĠÐ±ÐµÐ±Ðµ ÑĤÐ°
ĠÐ¸Ð·Ð²ÑĬÐ½ÑĢÐµÐ´ Ð½Ð¾
ĠÐ¡Ð¸Ð»Ð¸ ÑģÑĤÑĢÐ°
ĠÐ½Ð°Ð´ÐµÐ¶Ð´Ð° ÑĤÐ°
ĠÐĺ ÑĢÐ»Ð°Ð½Ð´Ð¸Ñı
ĠÐ¾ÑĢÐ³Ð°Ð½Ð¸ Ð·ÑĬÐ¼
ĠÐ½Ð°Ð³ÑĢÐ° Ð´Ð¸ÑĤÐµ
ĠÐ¢Ð¾ Ñı
ĠÐ¸Ð·Ð¿Ð¸ Ñ
ĠÐ¸Ð·Ð¿Ð¸Ñ Ĥ
ÑĢÐµ Ð·Ð°
ĠÐŁÐ¾ ÑĤÐ¾Ð°
ĠÑı ÑĢÐºÐ¾
ĠÐľÐ° ÑĢÐ¸Ð½
ĠÐĶÑĢÑĥ Ð³Ð¾
ĠÐ¡Ð °Ð»
ĠÐŀ ÑĤÐ±Ð¾
ÐŁÑĥ Ð±Ð»Ð¸
ÑĢÐ¸ Ð½Ð¸
ĠÐ³ ÑĢÐ¾Ð±
ĠÑĤÑĥ ÑĢÑģÐºÐ°ÑĤÐ°
ÑĩÐ¾ Ð²Ð¸
ĠÐĽÐ¾ Ñģ
ĠÐ´Ðµ Ð²Ð¾
ĠÑĢÐµ Ð·
ĠÐ·Ð°ÑģÐµ Ð³Ð½Ð°ÑĤÐ¸
ĠÐ½Ð°ÑĨÐ¸Ð¾Ð½Ð° Ð»
ĠÑģÐ¿Ð¾Ð¼ÐµÐ½Ð° Ð²Ð°
ÑĬÑĢÐ²Ð ¾
ĠÑĤÑĢÐ° Ð¹Ð½Ð¾
ĠÐ³Ð° ÑĢÐ½Ð¸
¦Ð ĺ
ĠÑĢÐµÐ·Ð¾Ð»Ñİ ÑĨÐ¸Ñı
ÑĢÐ¾ Ð´Ð½Ð°
Ð½Ð¾Ð² ÑģÐºÐ°
ĠÐºÐ¾Ð·Ð¼Ðµ ÑĤÐ¸ÐºÐ°
ĠÑĢÐµÐ³Ð¸ÑģÑĤÑĢÐ¸ ÑĢÐ°Ð½
Ð»Ð¸ Ð·Ð¸ÑĢÐ°Ð½Ðµ
ĠÑģÑĬÐ´Ðµ Ð±Ð½Ð¸
ĠÐŀ ÐºÐ°Ð·Ð²Ð°
ĠÐ¿Ð¾Ð½Ð°ÑĤÐ° Ð¼Ñĥ
ĠÐ¿ÑĢÐ¾ÑĤÐ¸ ÑĩÐ°
ÑĢÐ¾ Ð³
Ñģ Ð²Ð¸
ĠÑģ ÑĢÑĨÐµ
ĠÐ·Ð° ÑĪÑĤÐ¾
Ð¼Ð° Ð½Ð¸ÑĤÐµ
ĠÐ¿ÑĬÑĤÐµ ÐºÐ°
ĠÐ¸Ð´ÐµÐ½ÑĤÐ¸ ÑĦÐ¸
ĠÐ´Ñĥ ÑĪÐµ
ĠÑĨÐµ Ð»Ðµ
ĠÐķÐ´Ð¸Ð½ ÑģÑĤÐ²ÐµÐ½Ð¾ÑĤÐ¾
ĠÐ½Ð°Ð¿ÑĢÐ° Ð²Ð»ÐµÐ½Ð¸Ðµ
ĠÑģÑĤÐ¾Ð¼Ð° ÑħÐ°
ĠÑĢÐ°Ð·Ð¸ Ð³ÑĢÐ°
ĲÐłÐ ĺ
ĠÐ¼ÑĥÑģÐºÑĥ Ð»Ð¸
ĽÐ ķÐĶÐ
ĠÐĳÐ° Ð¹ÐµÑĢ
ĠÐĶÐ¸ Ð¼Ð¾Ð²
ĠÐ¿ÑĢÐµÐºÑĢÐ° ÑĤÐ¸
ĠÐ¸Ð½Ð¶Ðµ Ð½ÐµÑĢÐ¸
Ġ9 7
ĠÐ½Ð°Ð³Ð»Ð° ÑģÐ¸
ĠÐ¸Ð½ÑģÑĤÑĢÑĥ Ð¼ÐµÐ½ÑĤÐ°
[...]
